<unk>	0
<s>	0
</s>	0
▁t	-0
▁a	-1
he	-2
in	-3
re	-4
▁the	-5
on	-6
er	-7
▁s	-8
▁w	-9
at	-10
▁o	-11
en	-12
▁c	-13
it	-14
is	-15
an	-16
or	-17
▁b	-18
es	-19
ed	-20
▁f	-21
ing	-22
▁p	-23
ou	-24
▁an	-25
▁to	-26
al	-27
ar	-28
▁m	-29
▁in	-30
▁of	-31
▁h	-32
▁d	-33
as	-34
ic	-35
▁and	-36
▁th	-37
le	-38
om	-39
ion	-40
ll	-41
ent	-42
▁T	-43
▁n	-44
▁l	-45
▁re	-46
st	-47
ve	-48
ly	-49
▁e	-50
ro	-51
▁be	-52
▁g	-53
id	-54
▁I	-55
ut	-56
ac	-57
▁S	-58
ot	-59
▁A	-60
▁that	-61
▁on	-62
ay	-63
▁is	-64
et	-65
im	-66
am	-67
ad	-68
ow	-69
ig	-70
se	-71
▁for	-72
▁C	-73
ver	-74
ur	-75
ld	-76
ct	-77
▁u	-78
▁st	-79
▁y	-80
▁M	-81
▁it	-82
▁he	-83
ir	-84
ation	-85
ith	-86
▁B	-87
▁wh	-88
ce	-89
▁The	-90
ter	-91
ol	-92
▁we	-93
il	-94
▁with	-95
▁as	-96
▁P	-97
ch	-98
ill	-99
▁W	-100
nd	-101
▁was	-102
ers	-103
▁you	-104
ke	-105
▁H	-106
▁con	-107
▁de	-108
▁r	-109
her	-110
▁D	-111
if	-112
ate	-113
▁at	-114
ag	-115
▁R	-116
▁ha	-117
▁se	-118
▁F	-119
ore	-120
▁pro	-121
ul	-122
pp	-123
ment	-124
▁1	-125
ri	-126
▁are	-127
est	-128
▁com	-129
us	-130
ist	-131
and	-132
op	-133
ain	-134
▁2	-135
▁N	-136
igh	-137
rom	-138
▁(	-139
ort	-140
od	-141
▁ne	-142
▁“	-143
um	-144
▁ex	-145
un	-146
▁G	-147
res	-148
ab	-149
▁not	-150
▁v	-151
▁L	-152
▁have	-153
ess	-154
ity	-155
ould	-156
▁or	-157
em	-158
▁by	-159
th	-160
os	-161
ant	-162
ive	-163
▁from	-164
▁al	-165
el	-166
▁E	-167
▁su	-168
oc	-169
art	-170
▁sh	-171
▁this	-172
nt	-173
▁O	-174
qu	-175
ight	-176
pe	-177
ust	-178
▁le	-179
▁"	-180
ies	-181
▁J	-182
▁sa	-183
end	-184
▁ch	-185
out	-186
▁ab	-187
all	-188
ie	-189
ack	-190
red	-191
▁has	-192
ally	-193
▁pl	-194
00	-195
▁go	-196
ard	-197
iv	-198
▁his	-199
ome	-200
ost	-201
ear	-202
gh	-203
ap	-204
our	-205
▁tr	-206
ast	-207
▁j	-208
ak	-209
▁U	-210
ud	-211
▁do	-212
▁they	-213
▁but	-214
▁wor	-215
▁said	-216
rou	-217
▁will	-218
▁can	-219
ge	-220
▁whe	-221
ich	-222
▁k	-223
ok	-224
▁all	-225
▁who	-226
ide	-227
▁int	-228
ame	-229
ans	-230
ther	-231
ial	-232
▁out	-233
▁their	-234
▁Th	-235
ff	-236
ong	-237
▁In	-238
ice	-239
pl	-240
ect	-241
ure	-242
pt	-243
▁more	-244
one	-245
age	-246
ike	-247
ions	-248
act	-249
▁up	-250
▁me	-251
ous	-252
▁ad	-253
ine	-254
▁K	-255
▁about	-256
ated	-257
ber	-258
ra	-259
▁one	-260
▁were	-261
▁so	-262
▁us	-263
og	-264
ime	-265
▁St	-266
ep	-267
▁had	-268
ia	-269
are	-270
ub	-271
▁20	-272
cc	-273
▁would	-274
▁cl	-275
▁im	-276
▁which	-277
ind	-278
ake	-279
ue	-280
▁cont	-281
▁ag	-282
very	-283
iz	-284
▁te	-285
▁off	-286
▁comp	-287
▁been	-288
▁un	-289
so	-290
▁en	-291
ign	-292
per	-293
au	-294
▁year	-295
ary	-296
ace	-297
ip	-298
ew	-299
▁like	-300
ere	-301
ven	-302
ook	-303
▁inc	-304
▁It	-305
ays	-306
▁man	-307
▁pe	-308
ry	-309
ose	-310
▁per	-311
▁res	-312
..	-313
ite	-314
able	-315
ord	-316
▁sp	-317
ass	-318
▁other	-319
mer	-320
ire	-321
▁Y	-322
ile	-323
▁some	-324
▁201	-325
ople	-326
ence	-327
ib	-328
ks	-329
▁over	-330
ations	-331
▁there	-332
ical	-333
▁dis	-334
▁new	-335
ress	-336
▁Ch	-337
▁also	-338
ult	-339
▁than	-340
int	-341
own	-342
▁ar	-343
▁bec	-344
▁them	-345
ount	-346
ough	-347
ance	-348
ru	-349
▁app	-350
port	-351
▁your	-352
▁part	-353
▁when	-354
ail	-355
▁what	-356
ree	-357
▁V	-358
▁sc	-359
▁people	-360
fter	-361
ond	-362
orm	-363
▁qu	-364
av	-365
ase	-366
▁just	-367
▁any	-368
▁its	-369
▁3	-370
ach	-371
▁time	-372
▁kn	-373
▁her	-374
▁rec	-375
lic	-376
.”	-377
▁He	-378
ens	-379
▁my	-380
▁get	-381
reat	-382
▁if	-383
▁work	-384
ian	-385
▁into	-386
▁tw	-387
irst	-388
ound	-389
vel	-390
du	-391
▁no	-392
ction	-393
ings	-394
ory	-395
▁our	-396
ident	-397
ick	-398
ors	-399
ition	-400
▁-	-401
ob	-402
▁pre	-403
ove	-404
▁play	-405
ang	-406
ink	-407
ause	-408
wn	-409
ade	-410
itt	-411
hing	-412
ates	-413
ark	-414
▁pol	-415
▁ro	-416
amp	-417
▁she	-418
,”	-419
vers	-420
▁co	-421
▁after	-422
▁first	-423
▁how	-424
▁19	-425
ne	-426
▁could	-427
▁acc	-428
ious	-429
nder	-430
▁him	-431
aw	-432
ons	-433
ild	-434
▁po	-435
▁We	-436
▁fe	-437
▁att	-438
▁only	-439
ict	-440
▁But	-441
hed	-442
▁pr	-443
▁two	-444
ov	-445
ish	-446
▁comm	-447
▁spe	-448
form	-449
▁ser	-450
▁act	-451
we	-452
▁Wh	-453
▁bl	-454
▁This	-455
ft	-456
▁bet	-457
▁dec	-458
."	-459
ning	-460
▁–	-461
▁back	-462
ces	-463
▁most	-464
te	-465
▁And	-466
ood	-467
▁4	-468
ck	-469
▁am	-470
oy	-471
▁did	-472
rough	-473
▁—	-474
iff	-475
round	-476
ater	-477
▁again	-478
day	-479
▁want	-480
ise	-481
ual	-482
▁des	-483
▁under	-484
▁cons	-485
▁$	-486
▁because	-487
sel	-488
rit	-489
ull	-490
▁now	-491
lud	-492
▁years	-493
ents	-494
ublic	-495
▁need	-496
man	-497
▁even	-498
tern	-499
iss	-500
▁inv	-501
ec	-502
▁As	-503
▁Un	-504
▁know	-505
▁add	-506
▁see	-507
ments	-508
ced	-509
old	-510
▁ind	-511
▁5	-512
▁sec	-513
,"	-514
▁every	-515
fore	-516
uch	-517
urn	-518
▁supp	-519
▁make	-520
pect	-521
▁em	-522
▁Tr	-523
▁these	-524
ock	-525
oll	-526
▁where	-527
ject	-528
vern	-529
ational	-530
xt	-531
▁look	-532
▁bu	-533
▁don	-534
ump	-535
oss	-536
▁way	-537
▁[	-538
ating	-539
▁being	-540
▁ev	-541
▁rem	-542
▁right	-543
ily	-544
row	-545
ng	-546
ason	-547
▁many	-548
▁may	-549
▁then	-550
lect	-551
▁def	-552
iew	-553
▁diff	-554
▁call	-555
▁includ	-556
▁rel	-557
ased	-558
▁think	-559
aking	-560
ont	-561
ied	-562
meric	-563
▁reg	-564
les	-565
▁imp	-566
▁through	-567
rib	-568
ited	-569
▁last	-570
▁say	-571
ath	-572
▁pres	-573
▁fl	-574
▁should	-575
▁sy	-576
▁those	-577
uring	-578
ower	-579
The	-580
).	-581
▁very	-582
other	-583
▁much	-584
▁state	-585
ities	-586
▁show	-587
ific	-588
▁br	-589
ative	-590
▁New	-591
▁Re	-592
arg	-593
hen	-594
ty	-595
oth	-596
▁count	-597
▁well	-598
▁ph	-599
ved	-600
ting	-601
und	-602
als	-603
ics	-604
ell	-605
▁does	-606
arly	-607
▁Americ	-608
▁own	-609
▁bel	-610
▁down	-611
▁end	-612
▁200	-613
▁use	-614
▁ass	-615
ange	-616
ters	-617
ince	-618
▁long	-619
▁before	-620
▁govern	-621
gr	-622
ward	-623
▁mon	-624
omet	-625
▁report	-626
▁start	-627
ible	-628
ues	-629
▁ke	-630
up	-631
▁team	-632
ts	-633
▁fin	-634
▁made	-635
ble	-636
ife	-637
olog	-638
▁Al	-639
ren	-640
▁such	-641
oun	-642
ener	-643
▁going	-644
ek	-645
ix	-646
erson	-647
▁hel	-648
▁sm	-649
▁world	-650
▁You	-651
ful	-652
),	-653
ism	-654
▁stud	-655
ility	-656
ists	-657
ually	-658
▁good	-659
▁ac	-660
▁6	-661
tain	-662
com	-663
▁against	-664
▁sur	-665
▁sub	-666
▁eff	-667
▁game	-668
▁set	-669
...	-670
ork	-671
▁gu	-672
▁point	-673
its	-674
gan	-675
▁ent	-676
▁If	-677
ys	-678
ars	-679
▁still	-680
illion	-681
▁help	-682
▁while	-683
ier	-684
roup	-685
▁lead	-686
stem	-687
000	-688
▁min	-689
▁says	-690
ween	-691
ving	-692
imes	-693
▁produ	-694
ax	-695
alk	-696
ank	-697
▁gr	-698
ms	-699
cy	-700
▁ob	-701
▁inst	-702
cess	-703
▁conf	-704
▁sim	-705
▁str	-706
▁inter	-707
▁col	-708
▁take	-709
▁For	-710
io	-711
self	-712
▁offic	-713
ures	-714
▁though	-715
▁between	-716
▁same	-717
▁cr	-718
▁ed	-719
▁differe	-720
ollow	-721
arch	-722
▁Ar	-723
▁disc	-724
land	-725
ool	-726
▁prov	-727
uss	-728
ever	-729
▁op	-730
▁law	-731
ution	-732
▁high	-733
▁government	-734
▁num	-735
way	-736
▁sign	-737
read	-738
hes	-739
ah	-740
air	-741
▁De	-742
▁An	-743
ner	-744
gg	-745
any	-746
▁They	-747
hip	-748
cent	-749
ros	-750
ames	-751
led	-752
atch	-753
--	-754
▁Le	-755
▁ter	-756
▁Com	-757
velop	-758
▁somet	-759
▁Sh	-760
▁ref	-761
▁ins	-762
▁trans	-763
▁run	-764
▁Is	-765
▁10	-766
▁three	-767
▁med	-768
▁mem	-769
▁around	-770
ives	-771
▁found	-772
ather	-773
▁here	-774
▁Trump	-775
ave	-776
ouse	-777
▁real	-778
oot	-779
▁Se	-780
▁7	-781
▁used	-782
az	-783
▁exp	-784
ves	-785
▁really	-786
cept	-787
▁system	-788
▁group	-789
▁cour	-790
▁support	-791
cer	-792
▁That	-793
▁mod	-794
ci	-795
con	-796
ets	-797
▁public	-798
▁Cl	-799
ins	-800
▁ret	-801
▁hand	-802
ale	-803
,000	-804
▁There	-805
▁spec	-806
.[	-807
ying	-808
▁great	-809
ph	-810
▁sl	-811
▁fam	-812
ense	-813
pr	-814
▁cur	-815
▁car	-816
▁ext	-817
▁wom	-818
irect	-819
alth	-820
ton	-821
▁happ	-822
▁exper	-823
▁cap	-824
▁fr	-825
▁fact	-826
▁both	-827
▁day	-828
▁find	-829
▁read	-830
ines	-831
ices	-832
▁rep	-833
ular	-834
▁det	-835
uth	-836
ered	-837
oh	-838
▁during	-839
▁8	-840
▁big	-841
▁cre	-842
ivers	-843
▁month	-844
▁told	-845
min	-846
▁develop	-847
▁'	-848
▁since	-849
ision	-850
▁iss	-851
▁On	-852
▁So	-853
akes	-854
▁follow	-855
▁person	-856
▁week	-857
ared	-858
ically	-859
ording	-860
med	-861
▁polit	-862
▁war	-863
▁few	-864
ages	-865
▁cent	-866
▁leg	-867
att	-868
orth	-869
▁Ad	-870
aj	-871
get	-872
▁9	-873
ef	-874
ash	-875
▁expl	-876
▁Fr	-877
▁lot	-878
▁belie	-879
▁contin	-880
▁too	-881
▁gener	-882
▁fil	-883
▁opp	-884
ric	-885
rent	-886
der	-887
anc	-888
▁prot	-889
▁At	-890
bers	-891
▁requ	-892
▁put	-893
iet	-894
▁‘	-895
▁cle	-896
ention	-897
▁resp	-898
ata	-899
▁How	-900
▁another	-901
chool	-902
ized	-903
ex	-904
▁Pro	-905
ness	-906
▁different	-907
▁loc	-908
▁something	-909
▁invest	-910
▁inf	-911
▁soc	-912
▁cor	-913
▁power	-914
ute	-915
▁commun	-916
▁art	-917
▁plan	-918
uc	-919
▁pass	-920
▁rele	-921
▁head	-922
ience	-923
arl	-924
▁life	-925
ned	-926
▁vot	-927
▁camp	-928
▁far	-929
the	-930
▁things	-931
thing	-932
ross	-933
ody	-934
▁Rep	-935
ik	-936
▁poss	-937
erest	-938
▁bo	-939
▁che	-940
▁met	-941
ants	-942
▁might	-943
iness	-944
arge	-945
view	-946
▁ask	-947
ret	-948
▁each	-949
▁dep	-950
▁next	-951
▁adv	-952
▁never	-953
▁child	-954
ient	-955
ize	-956
▁bus	-957
▁come	-958
▁quest	-959
▁second	-960
▁mark	-961
▁dem	-962
▁0	-963
ield	-964
▁US	-965
▁got	-966
▁best	-967
▁open	-968
▁Bl	-969
▁allow	-970
▁percent	-971
ital	-972
ittle	-973
▁post	-974
ee	-975
son	-976
▁seem	-977
▁.	-978
▁feel	-979
▁pri	-980
gram	-981
▁home	-982
ple	-983
▁direct	-984
rat	-985
ired	-986
ten	-987
▁wr	-988
▁incre	-989
cl	-990
ug	-991
▁dist	-992
erv	-993
osed	-994
▁contro	-995
orn	-996
▁hard	-997
▁million	-998
▁care	-999
▁result	-1000
▁including	-1001
▁import	-1002
ately	-1003
▁comple	-1004
conom	-1005
less	-1006
▁place	-1007
▁inform	-1008
▁top	-1009
chn	-1010
▁Ind	-1011
▁without	-1012
▁av	-1013
▁She	-1014
▁proble	-1015
▁hum	-1016
▁country	-1017
ama	-1018
▁ide	-1019
▁number	-1020
aim	-1021
▁build	-1022
gy	-1023
oney	-1024
riend	-1025
▁gl	-1026
▁four	-1027
▁recent	-1028
▁season	-1029
ably	-1030
ished	-1031
▁stand	-1032
20	-1033
▁better	-1034
co	-1035
▁Z	-1036
ral	-1037
▁When	-1038
▁mov	-1039
▁el	-1040
▁let	-1041
ways	-1042
▁partic	-1043
ration	-1044
▁tri	-1045
▁interest	-1046
We	-1047
▁little	-1048
▁less	-1049
▁mil	-1050
▁bro	-1051
▁turn	-1052
▁appro	-1053
▁Q	-1054
▁beh	-1055
ised	-1056
▁called	-1057
line	-1058
▁Be	-1059
▁case	-1060
ract	-1061
▁dr	-1062
▁attack	-1063
app	-1064
▁rest	-1065
▁Ph	-1066
▁ann	-1067
▁pop	-1068
▁left	-1069
ency	-1070
ling	-1071
leg	-1072
▁move	-1073
ina	-1074
▁keep	-1075
▁didn	-1076
ering	-1077
▁full	-1078
▁serv	-1079
ajor	-1080
▁What	-1081
▁main	-1082
▁prev	-1083
▁program	-1084
uro	-1085
▁fun	-1086
ode	-1087
ted	-1088
inal	-1089
▁pay	-1090
▁test	-1091
▁police	-1092
me	-1093
ature	-1094
▁effect	-1095
▁news	-1096
▁American	-1097
▁using	-1098
▁econom	-1099
▁val	-1100
be	-1101
▁pos	-1102
▁form	-1103
▁win	-1104
▁Ob	-1105
▁data	-1106
iving	-1107
ready	-1108
ains	-1109
__	-1110
▁school	-1111
ined	-1112
▁small	-1113
ploy	-1114
▁list	-1115
▁char	-1116
▁Go	-1117
ology	-1118
▁level	-1119
▁women	-1120
uck	-1121
ger	-1122
to	-1123
ided	-1124
▁change	-1125
▁process	-1126
▁Can	-1127
▁eas	-1128
▁company	-1129
ird	-1130
▁rece	-1131
▁prom	-1132
▁president	-1133
▁hist	-1134
▁United	-1135
▁current	-1136
reen	-1137
ians	-1138
nce	-1139
used	-1140
▁dri	-1141
▁already	-1142
iver	-1143
▁why	-1144
ohn	-1145
▁Chr	-1146
▁ty	-1147
▁official	-1148
▁All	-1149
ruct	-1150
▁bre	-1151
▁unt	-1152
▁expect	-1153
▁business	-1154
▁later	-1155
▁techn	-1156
rap	-1157
▁sol	-1158
▁project	-1159
▁job	-1160
▁organ	-1161
▁Sp	-1162
▁money	-1163
▁always	-1164
iversity	-1165
▁mat	-1166
▁--	-1167
▁claim	-1168
wit	-1169
aign	-1170
stand	-1171
▁prof	-1172
▁book	-1173
▁thing	-1174
▁talk	-1175
▁information	-1176
▁class	-1177
▁design	-1178
It	-1179
▁major	-1180
▁story	-1181
ases	-1182
ards	-1183
lection	-1184
aff	-1185
▁chang	-1186
▁able	-1187
▁health	-1188
▁past	-1189
urs	-1190
▁rese	-1191
▁vis	-1192
iven	-1193
▁free	-1194
▁One	-1195
▁Mr	-1196
ertain	-1197
ead	-1198
10	-1199
outh	-1200
▁away	-1201
▁city	-1202
▁oper	-1203
▁Pres	-1204
▁Sc	-1205
▁Pl	-1206
▁18	-1207
ior	-1208
ption	-1209
here	-1210
▁edit	-1211
▁must	-1212
▁happen	-1213
urity	-1214
▁To	-1215
▁John	-1216
ending	-1217
▁important	-1218
ural	-1219
▁doesn	-1220
ample	-1221
▁grow	-1222
uthor	-1223
▁least	-1224
ury	-1225
ission	-1226
ured	-1227
acy	-1228
▁Mar	-1229
▁old	-1230
▁12	-1231
▁kill	-1232
▁sk	-1233
ney	-1234
▁cost	-1235
▁est	-1236
▁tell	-1237
▁hop	-1238
▁pat	-1239
▁campaign	-1240
ained	-1241
▁Br	-1242
ott	-1243
▁Con	-1244
▁var	-1245
▁men	-1246
ides	-1247
els	-1248
▁came	-1249
▁days	-1250
▁stre	-1251
▁const	-1252
▁Republic	-1253
ox	-1254
▁making	-1255
ider	-1256
▁aff	-1257
▁Or	-1258
▁kind	-1259
▁record	-1260
▁enough	-1261
ccess	-1262
▁family	-1263
▁friend	-1264
▁tax	-1265
▁polic	-1266
▁view	-1267
▁elect	-1268
side	-1269
▁Comm	-1270
▁mar	-1271
▁15	-1272
eral	-1273
sc	-1274
▁large	-1275
ern	-1276
ley	-1277
oad	-1278
▁political	-1279
ising	-1280
▁vide	-1281
▁sit	-1282
ional	-1283
ush	-1284
pped	-1285
▁Mc	-1286
▁until	-1287
▁No	-1288
ued	-1289
▁deal	-1290
▁deb	-1291
ived	-1292
ality	-1293
ror	-1294
ified	-1295
▁working	-1296
ries	-1297
ator	-1298
augh	-1299
▁ve	-1300
alf	-1301
▁Dem	-1302
▁took	-1303
arent	-1304
tt	-1305
▁line	-1306
▁del	-1307
ister	-1308
▁fore	-1309
aps	-1310
▁air	-1311
▁May	-1312
bs	-1313
▁es	-1314
ocrat	-1315
▁intern	-1316
▁become	-1317
▁Russ	-1318
iol	-1319
aining	-1320
ony	-1321
▁actually	-1322
▁fund	-1323
▁Euro	-1324
▁President	-1325
▁former	-1326
▁Sy	-1327
ane	-1328
ember	-1329
▁mean	-1330
▁according	-1331
year	-1332
ware	-1333
work	-1334
▁won	-1335
▁often	-1336
▁With	-1337
▁ever	-1338
▁give	-1339
▁games	-1340
most	-1341
oint	-1342
eng	-1343
-1	-1344
aring	-1345
ison	-1346
▁bas	-1347
ann	-1348
▁return	-1349
by	-1350
▁word	-1351
ization	-1352
▁human	-1353
▁times	-1354
▁order	-1355
▁Am	-1356
gin	-1357
▁dev	-1358
▁sever	-1359
wh	-1360
iber	-1361
▁bit	-1362
▁name	-1363
uture	-1364
▁=	-1365
ither	-1366
▁Col	-1367
icle	-1368
▁market	-1369
ron	-1370
▁perform	-1371
▁fac	-1372
raft	-1373
▁11	-1374
▁night	-1375
▁ra	-1376
▁After	-1377
▁players	-1378
▁doing	-1379
▁appear	-1380
▁charac	-1381
▁sing	-1382
▁seen	-1383
▁media	-1384
▁lear	-1385
iam	-1386
▁today	-1387
iqu	-1388
▁199	-1389
ched	-1390
idd	-1391
aken	-1392
▁social	-1393
for	-1394
▁la	-1395
▁having	-1396
▁early	-1397
rop	-1398
▁crit	-1399
▁whether	-1400
▁event	-1401
▁meet	-1402
▁several	-1403
▁milit	-1404
artment	-1405
▁five	-1406
▁children	-1407
▁pot	-1408
▁young	-1409
▁Obama	-1410
Th	-1411
▁Im	-1412
▁went	-1413
▁Te	-1414
▁press	-1415
▁control	-1416
mber	-1417
▁sure	-1418
▁prop	-1419
ium	-1420
une	-1421
▁likely	-1422
iously	-1423
ories	-1424
idence	-1425
▁Europe	-1426
▁members	-1427
▁question	-1428
let	-1429
▁equ	-1430
▁York	-1431
sh	-1432
ene	-1433
▁eng	-1434
▁water	-1435
▁occ	-1436
ands	-1437
▁done	-1438
▁example	-1439
br	-1440
▁certain	-1441
vert	-1442
ots	-1443
▁arg	-1444
▁vers	-1445
ball	-1446
▁Not	-1447
enn	-1448
▁along	-1449
▁side	-1450
ended	-1451
▁success	-1452
▁invol	-1453
▁States	-1454
▁short	-1455
▁ant	-1456
▁months	-1457
ially	-1458
ubl	-1459
empt	-1460
ER	-1461
ague	-1462
ential	-1463
▁Ex	-1464
▁course	-1465
▁hour	-1466
▁,	-1467
▁among	-1468
▁desc	-1469
ats	-1470
▁within	-1471
▁]	-1472
▁sex	-1473
▁fight	-1474
▁investig	-1475
▁Co	-1476
50	-1477
ster	-1478
▁State	-1479
▁future	-1480
iting	-1481
rew	-1482
imate	-1483
▁activ	-1484
uff	-1485
▁concer	-1486
urch	-1487
▁possible	-1488
▁once	-1489
▁priv	-1490
▁understand	-1491
ortun	-1492
ones	-1493
▁cho	-1494
lf	-1495
▁problem	-1496
ulation	-1497
▁Pol	-1498
▁means	-1499
▁product	-1500
nect	-1501
▁viol	-1502
ggest	-1503
▁thought	-1504
▁author	-1505
▁known	-1506
ourn	-1507
▁avail	-1508
▁across	-1509
▁community	-1510
▁protect	-1511
▁However	-1512
ivid	-1513
gress	-1514
▁fail	-1515
itive	-1516
▁writ	-1517
▁hold	-1518
▁local	-1519
▁2016	-1520
▁non	-1521
verage	-1522
▁House	-1523
▁yet	-1524
oci	-1525
ald	-1526
▁#	-1527
▁orig	-1528
book	-1529
▁suggest	-1530
▁i	-1531
ler	-1532
▁reason	-1533
▁Christ	-1534
▁makes	-1535
ederal	-1536
por	-1537
back	-1538
▁$1	-1539
▁reported	-1540
▁video	-1541
ensive	-1542
aged	-1543
inc	-1544
▁asked	-1545
▁others	-1546
▁Sen	-1547
orld	-1548
▁getting	-1549
▁mus	-1550
//	-1551
▁While	-1552
▁believe	-1553
▁given	-1554
arm	-1555
▁ben	-1556
▁strong	-1557
▁Fl	-1558
▁&	-1559
▁announ	-1560
▁University	-1561
▁prob	-1562
not	-1563
ances	-1564
▁Democrat	-1565
▁X	-1566
▁Min	-1567
▁light	-1568
▁30	-1569
▁cut	-1570
▁Pr	-1571
▁ident	-1572
ober	-1573
▁sent	-1574
iron	-1575
itions	-1576
ored	-1577
iety	-1578
▁ca	-1579
▁sour	-1580
▁cond	-1581
urther	-1582
▁Don	-1583
▁lim	-1584
my	-1585
▁creat	-1586
ashing	-1587
▁saf	-1588
----	-1589
▁net	-1590
lement	-1591
▁national	-1592
▁Cent	-1593
rest	-1594
▁started	-1595
▁2015	-1596
▁indust	-1597
▁account	-1598
▁close	-1599
▁love	-1600
▁issue	-1601
▁(1	-1602
▁available	-1603
▁land	-1604
▁America	-1605
▁history	-1606
▁employ	-1607
▁hig	-1608
▁based	-1609
▁death	-1610
▁low	-1611
▁mom	-1612
▁party	-1613
▁following	-1614
▁series	-1615
▁comes	-1616
▁ago	-1617
orts	-1618
selves	-1619
aster	-1620
uly	-1621
▁trying	-1622
▁access	-1623
▁almost	-1624
use	-1625
.5	-1626
▁Sec	-1627
ability	-1628
utes	-1629
▁par	-1630
.,	-1631
▁toget	-1632
hers	-1633
▁together	-1634
▁idea	-1635
ief	-1636
ument	-1637
▁Canad	-1638
▁foc	-1639
▁film	-1640
▁isn	-1641
reed	-1642
ilar	-1643
ination	-1644
ails	-1645
▁added	-1646
▁2014	-1647
itional	-1648
▁impro	-1649
▁clear	-1650
resent	-1651
▁trad	-1652
▁16	-1653
of	-1654
▁pract	-1655
▁rul	-1656
▁Ne	-1657
ged	-1658
▁six	-1659
erence	-1660
▁experience	-1661
▁live	-1662
though	-1663
▁Gr	-1664
ream	-1665
ustom	-1666
▁half	-1667
witter	-1668
▁looking	-1669
pro	-1670
▁Bro	-1671
unch	-1672
minist	-1673
ien	-1674
rict	-1675
ograp	-1676
▁fav	-1677
▁anything	-1678
▁Ger	-1679
af	-1680
▁Man	-1681
▁area	-1682
ividual	-1683
▁...	-1684
▁Eng	-1685
inton	-1686
▁bill	-1687
▁anal	-1688
▁complete	-1689
rael	-1690
▁miss	-1691
nes	-1692
arr	-1693
30	-1694
▁ris	-1695
▁saying	-1696
.1	-1697
▁court	-1698
uge	-1699
▁vict	-1700
cially	-1701
▁North	-1702
▁present	-1703
rug	-1704
▁Su	-1705
▁phot	-1706
▁bad	-1707
aid	-1708
▁taken	-1709
ators	-1710
▁compet	-1711
▁Now	-1712
eb	-1713
ows	-1714
▁military	-1715
▁mor	-1716
ai	-1717
▁14	-1718
▁try	-1719
▁Af	-1720
▁security	-1721
▁tre	-1722
AT	-1723
▁aut	-1724
▁entire	-1725
▁behind	-1726
▁War	-1727
▁mult	-1728
raw	-1729
▁Just	-1730
.0	-1731
wards	-1732
ert	-1733
▁Dep	-1734
▁face	-1735
▁discuss	-1736
▁Brit	-1737
osp	-1738
▁Ab	-1739
▁proper	-1740
▁near	-1741
play	-1742
▁publ	-1743
▁er	-1744
▁threat	-1745
▁z	-1746
▁rather	-1747
▁Cal	-1748
▁policy	-1749
▁individual	-1750
▁quick	-1751
sy	-1752
▁tot	-1753
▁single	-1754
▁mind	-1755
▁wanted	-1756
▁study	-1757
▁App	-1758
aper	-1759
▁National	-1760
▁Clinton	-1761
lling	-1762
ales	-1763
▁fall	-1764
▁Inst	-1765
▁Res	-1766
irc	-1767
▁cult	-1768
▁mess	-1769
▁food	-1770
▁special	-1771
▁Ed	-1772
▁His	-1773
▁By	-1774
ids	-1775
▁Aust	-1776
▁black	-1777
▁Israel	-1778
▁bring	-1779
▁someone	-1780
▁17	-1781
▁key	-1782
▁compan	-1783
▁attempt	-1784
▁sum	-1785
▁Some	-1786
▁player	-1787
▁These	-1788
▁redu	-1789
off	-1790
▁13	-1791
▁foot	-1792
atic	-1793
▁My	-1794
▁World	-1795
▁Dav	-1796
▁City	-1797
ply	-1798
arter	-1799
par	-1800
▁pret	-1801
▁Bar	-1802
▁comb	-1803
▁taking	-1804
ify	-1805
viron	-1806
▁Ge	-1807
elt	-1808
▁Me	-1809
ashington	-1810
▁cou	-1811
▁jo	-1812
▁coming	-1813
▁front	-1814
olution	-1815
ming	-1816
▁else	-1817
rote	-1818
▁space	-1819
▁probably	-1820
▁nothing	-1821
▁Part	-1822
▁body	-1823
▁research	-1824
amed	-1825
icult	-1826
▁sw	-1827
▁points	-1828
ches	-1829
▁benef	-1830
.)	-1831
go	-1832
▁describ	-1833
▁connect	-1834
cing	-1835
▁however	-1836
▁Gu	-1837
▁similar	-1838
reme	-1839
2,	-1840
1,	-1841
▁decision	-1842
▁Washington	-1843
▁feat	-1844
aces	-1845
▁coun	-1846
▁sus	-1847
ps	-1848
▁targ	-1849
▁Jan	-1850
▁either	-1851
▁/	-1852
▁ear	-1853
▁exist	-1854
▁imm	-1855
▁2013	-1856
ully	-1857
▁mass	-1858
▁Do	-1859
▁doc	-1860
▁signific	-1861
▁rights	-1862
irl	-1863
▁service	-1864
▁house	-1865
ault	-1866
▁conv	-1867
▁create	-1868
▁further	-1869
▁enc	-1870
IN	-1871
▁South	-1872
▁wa	-1873
hy	-1874
▁chall	-1875
▁Acc	-1876
▁fig	-1877
asing	-1878
▁wrote	-1879
▁ban	-1880
▁compl	-1881
▁repl	-1882
▁hit	-1883
▁third	-1884
▁fire	-1885
▁federal	-1886
over	-1887
▁stop	-1888
▁pick	-1889
ung	-1890
ively	-1891
ana	-1892
▁issues	-1893
yn	-1894
mb	-1895
▁step	-1896
▁Med	-1897
ON	-1898
▁field	-1899
▁whole	-1900
▁begin	-1901
now	-1902
▁exec	-1903
pite	-1904
pping	-1905
▁companies	-1906
▁cand	-1907
pecially	-1908
▁seems	-1909
ently	-1910
▁relations	-1911
▁leaders	-1912
▁Ass	-1913
ring	-1914
ried	-1915
▁released	-1916
sw	-1917
▁everything	-1918
▁officials	-1919
iday	-1920
▁watch	-1921
attle	-1922
▁lab	-1923
▁super	-1924
▁states	-1925
▁tra	-1926
▁meas	-1927
ilt	-1928
▁students	-1929
itted	-1930
▁due	-1931
▁custom	-1932
ivil	-1933
▁China	-1934
uation	-1935
▁Intern	-1936
ape	-1937
▁role	-1938
▁2017	-1939
aul	-1940
head	-1941
▁stri	-1942
amer	-1943
▁statement	-1944
▁infl	-1945
▁ey	-1946
://	-1947
▁Dr	-1948
obal	-1949
▁sound	-1950
▁room	-1951
oon	-1952
▁:	-1953
ibility	-1954
▁dam	-1955
▁final	-1956
▁position	-1957
rodu	-1958
▁began	-1959
▁ener	-1960
▁Ir	-1961
ery	-1962
vironment	-1963
▁self	-1964
▁dou	-1965
ender	-1966
▁opt	-1967
IS	-1968
▁matter	-1969
arlier	-1970
ades	-1971
▁provide	-1972
▁development	-1973
▁character	-1974
.2	-1975
▁outside	-1976
▁gun	-1977
▁init	-1978
▁himself	-1979
▁break	-1980
▁German	-1981
▁office	-1982
▁continue	-1983
sec	-1984
▁amount	-1985
▁treat	-1986
▁larg	-1987
▁themselves	-1988
▁stat	-1989
▁itself	-1990
▁action	-1991
▁represent	-1992
▁hours	-1993
▁countries	-1994
like	-1995
▁Will	-1996
▁above	-1997
acebook	-1998
ww	-1999
▁198	-2000
aced	-2001
lim	-2002
▁25	-2003
▁specific	-2004
▁general	-2005
▁100	-2006
▁became	-2007
▁News	-2008
▁address	-2009
iod	-2010
▁simply	-2011
▁neg	-2012
▁wasn	-2013
▁administ	-2014
lish	-2015
▁profess	-2016
▁running	-2017
▁Twitter	-2018
umb	-2019
▁Car	-2020
ogle	-2021
ask	-2022
▁interview	-2023
reg	-2024
▁true	-2025
▁ground	-2026
▁significant	-2027
▁version	-2028
ili	-2029
▁appe	-2030
▁groups	-2031
▁difficult	-2032
ogn	-2033
▁red	-2034
▁woman	-2035
BC	-2036
eks	-2037
oid	-2038
▁En	-2039
AN	-2040
▁inj	-2041
▁cop	-2042
▁lat	-2043
▁everyone	-2044
▁evidence	-2045
▁rad	-2046
▁needs	-2047
▁agree	-2048
▁typ	-2049
iddle	-2050
▁shows	-2051
▁building	-2052
▁drug	-2053
▁below	-2054
▁ball	-2055
▁music	-2056
▁respons	-2057
▁needed	-2058
angu	-2059
▁Ke	-2060
▁release	-2061
▁dom	-2062
▁common	-2063
▁West	-2064
▁Mus	-2065
ournal	-2066
▁tem	-2067
▁Pe	-2068
▁include	-2069
▁dest	-2070
lam	-2071
▁pretty	-2072
▁saw	-2073
▁industry	-2074
right	-2075
▁White	-2076
▁exc	-2077
**	-2078
▁Facebook	-2079
ribut	-2080
▁50	-2081
▁Ste	-2082
11	-2083
▁candid	-2084
▁friends	-2085
isc	-2086
ift	-2087
▁played	-2088
▁Per	-2089
▁ap	-2090
▁playing	-2091
▁energy	-2092
▁charg	-2093
▁mot	-2094
▁legal	-2095
▁deep	-2096
atur	-2097
▁quite	-2098
▁late	-2099
AR	-2100
▁mag	-2101
▁alleg	-2102
ser	-2103
▁billion	-2104
▁white	-2105
ote	-2106
body	-2107
ival	-2108
▁sense	-2109
▁Oct	-2110
▁lost	-2111
▁phys	-2112
▁Cong	-2113
▁especially	-2114
osing	-2115
▁host	-2116
▁Mich	-2117
yle	-2118
▁gen	-2119
▁instead	-2120
▁election	-2121
lev	-2122
▁recently	-2123
▁track	-2124
▁anim	-2125
ager	-2126
▁vote	-2127
▁weeks	-2128
oring	-2129
▁forward	-2130
▁abs	-2131
▁ple	-2132
▁Sm	-2133
▁value	-2134
▁hom	-2135
▁)	-2136
where	-2137
bo	-2138
istic	-2139
▁Sept	-2140
▁suff	-2141
▁changes	-2142
irt	-2143
▁pain	-2144
epend	-2145
▁opportun	-2146
▁jud	-2147
OR	-2148
▁Google	-2149
▁deter	-2150
▁ep	-2151
medi	-2152
▁economic	-2153
▁March	-2154
▁longer	-2155
time	-2156
▁lo	-2157
▁object	-2158
▁More	-2159
▁Republican	-2160
▁period	-2161
ij	-2162
▁bar	-2163
▁According	-2164
▁Har	-2165
▁shoot	-2166
▁hope	-2167
▁moment	-2168
▁Department	-2169
ript	-2170
▁site	-2171
▁Here	-2172
▁accept	-2173
▁soon	-2174
▁decl	-2175
ached	-2176
▁consum	-2177
itting	-2178
2.	-2179
oke	-2180
irm	-2181
▁|	-2182
▁tit	-2183
▁Syri	-2184
▁pie	-2185
▁wrong	-2186
▁block	-2187
duct	-2188
▁check	-2189
▁share	-2190
▁June	-2191
lege	-2192
▁Em	-2193
ights	-2194
▁htt	-2195
▁online	-2196
▁educ	-2197
▁relig	-2198
▁webs	-2199
▁held	-2200
▁El	-2201
ancial	-2202
alt	-2203
▁24	-2204
▁led	-2205
hod	-2206
▁Aug	-2207
den	-2208
▁focus	-2209
▁higher	-2210
▁cred	-2211
overed	-2212
▁potential	-2213
oe	-2214
▁circ	-2215
ners	-2216
▁reve	-2217
cial	-2218
iding	-2219
▁works	-2220
key	-2221
hel	-2222
ularly	-2223
ament	-2224
▁contract	-2225
ique	-2226
onse	-2227
▁consider	-2228
arc	-2229
ns	-2230
▁stay	-2231
AS	-2232
▁Off	-2233
▁Red	-2234
ES	-2235
▁walk	-2236
____	-2237
▁words	-2238
▁pred	-2239
▁article	-2240
▁stru	-2241
▁laws	-2242
▁parent	-2243
fer	-2244
val	-2245
▁Act	-2246
lt	-2247
▁aud	-2248
fect	-2249
▁di	-2250
▁review	-2251
▁services	-2252
▁ce	-2253
▁rev	-2254
▁July	-2255
cil	-2256
▁applic	-2257
▁wind	-2258
▁Apr	-2259
uary	-2260
asons	-2261
▁results	-2262
lear	-2263
▁Mond	-2264
▁sold	-2265
▁risk	-2266
▁personal	-2267
ients	-2268
▁code	-2269
▁favor	-2270
▁anyone	-2271
▁ste	-2272
ees	-2273
▁minutes	-2274
▁function	-2275
▁total	-2276
▁target	-2277
▁age	-2278
▁upd	-2279
aut	-2280
▁popular	-2281
ilities	-2282
ham	-2283
▁prim	-2284
▁technology	-2285
▁rate	-2286
▁Congress	-2287
anger	-2288
itution	-2289
omm	-2290
▁earlier	-2291
apan	-2292
▁Austral	-2293
▁den	-2294
isl	-2295
▁Des	-2296
▁goal	-2297
haps	-2298
▁environment	-2299
ule	-2300
▁answ	-2301
▁surpr	-2302
▁necess	-2303
▁Hill	-2304
▁comput	-2305
▁comment	-2306
▁created	-2307
▁dead	-2308
uel	-2309
ateg	-2310
▁private	-2311
ude	-2312
▁expected	-2313
reet	-2314
aging	-2315
▁respect	-2316
▁received	-2317
▁increase	-2318
▁ways	-2319
▁Friday	-2320
▁hy	-2321
▁express	-2322
▁problems	-2323
ole	-2324
▁questions	-2325
▁scient	-2326
▁easy	-2327
▁anti	-2328
▁announced	-2329
ends	-2330
▁God	-2331
▁pack	-2332
▁port	-2333
iter	-2334
▁shot	-2335
rel	-2336
iple	-2337
▁base	-2338
▁force	-2339
99	-2340
▁impact	-2341
▁@	-2342
put	-2343
na	-2344
atives	-2345
▁Monday	-2346
▁{	-2347
aving	-2348
▁April	-2349
▁vol	-2350
eter	-2351
▁Cont	-2352
▁Tues	-2353
ittee	-2354
ples	-2355
▁Cour	-2356
▁Ag	-2357
▁involved	-2358
▁langu	-2359
▁pur	-2360
aterial	-2361
hern	-2362
▁nearly	-2363
action	-2364
▁div	-2365
▁model	-2366
▁execut	-2367
okes	-2368
▁cannot	-2369
▁+	-2370
itiz	-2371
itten	-2372
▁197	-2373
▁exact	-2374
▁speak	-2375
▁sen	-2376
▁staff	-2377
▁civil	-2378
hood	-2379
60	-2380
▁Tuesday	-2381
▁content	-2382
lex	-2383
▁terror	-2384
▁Even	-2385
▁Her	-2386
.3	-2387
▁type	-2388
▁fans	-2389
ires	-2390
▁Count	-2391
▁Russia	-2392
St	-2393
▁capt	-2394
▁original	-2395
▁David	-2396
▁arrest	-2397
de	-2398
▁Japan	-2399
▁Pal	-2400
▁inside	-2401
▁ur	-2402
▁relationship	-2403
▁leave	-2404
icro	-2405
▁cases	-2406
8,	-2407
▁average	-2408
cast	-2409
▁Wed	-2410
▁Americans	-2411
bor	-2412
▁club	-2413
▁response	-2414
rem	-2415
▁broad	-2416
ises	-2417
ams	-2418
▁international	-2419
▁coll	-2420
▁reports	-2421
▁nation	-2422
▁2010	-2423
▁Geor	-2424
lled	-2425
ites	-2426
In	-2427
▁killed	-2428
ips	-2429
This	-2430
▁Gl	-2431
▁*	-2432
▁worth	-2433
▁worked	-2434
▁Cor	-2435
▁Qu	-2436
▁users	-2437
▁becom	-2438
▁living	-2439
▁adm	-2440
▁source	-2441
omb	-2442
▁global	-2443
▁immedi	-2444
▁respond	-2445
che	-2446
▁heart	-2447
▁San	-2448
▁Paul	-2449
ky	-2450
▁First	-2451
joy	-2452
▁chance	-2453
▁Sund	-2454
ellig	-2455
▁soft	-2456
bit	-2457
▁estab	-2458
▁Calif	-2459
eed	-2460
▁director	-2461
ging	-2462
▁published	-2463
▁et	-2464
atural	-2465
▁workers	-2466
ops	-2467
ael	-2468
▁takes	-2469
▁price	-2470
rought	-2471
-2	-2472
oto	-2473
▁oil	-2474
izing	-2475
ctor	-2476
▁road	-2477
▁request	-2478
▁cal	-2479
ray	-2480
onst	-2481
▁financial	-2482
.4	-2483
▁ability	-2484
ze	-2485
▁decided	-2486
▁subject	-2487
▁collect	-2488
▁mid	-2489
▁terms	-2490
▁weap	-2491
▁tou	-2492
▁squ	-2493
▁Post	-2494
▁defin	-2495
▁40	-2496
▁store	-2497
EN	-2498
▁Spe	-2499
▁emer	-2500
▁January	-2501
▁buy	-2502
▁log	-2503
vertise	-2504
unt	-2505
▁gave	-2506
▁associ	-2507
ological	-2508
▁Sch	-2509
▁phone	-2510
▁happened	-2511
▁mother	-2512
▁cell	-2513
▁Feb	-2514
ovember	-2515
▁<	-2516
▁whose	-2517
osition	-2518
clus	-2519
▁foreign	-2520
▁influ	-2521
▁girl	-2522
▁Thurs	-2523
▁currently	-2524
".	-2525
▁capital	-2526
▁lack	-2527
▁offer	-2528
▁Wednes	-2529
aled	-2530
▁September	-2531
▁lives	-2532
▁situation	-2533
▁require	-2534
▁member	-2535
▁fem	-2536
▁teams	-2537
based	-2538
▁goes	-2539
▁meeting	-2540
▁TV	-2541
▁Ang	-2542
▁Tw	-2543
▁plans	-2544
▁material	-2545
▁tal	-2546
rain	-2547
▁network	-2548
▁Islam	-2549
▁Wednesday	-2550
▁pict	-2551
▁bur	-2552
mon	-2553
ought	-2554
▁Thursday	-2555
He	-2556
▁arri	-2557
oved	-2558
▁ill	-2559
▁events	-2560
▁recogn	-2561
▁areas	-2562
ese	-2563
▁bank	-2564
▁November	-2565
▁affect	-2566
▁turned	-2567
▁huge	-2568
ruction	-2569
▁Afric	-2570
ino	-2571
▁particip	-2572
▁introdu	-2573
icated	-2574
▁email	-2575
▁tool	-2576
order	-2577
▁method	-2578
fully	-2579
▁simple	-2580
▁page	-2581
▁career	-2582
▁couple	-2583
9,	-2584
▁administration	-2585
▁regard	-2586
▁Court	-2587
▁approach	-2588
▁cy	-2589
▁21	-2590
▁European	-2591
ctions	-2592
▁Canada	-2593
▁Sunday	-2594
▁norm	-2595
ety	-2596
▁via	-2597
▁text	-2598
▁numbers	-2599
▁felt	-2600
▁race	-2601
▁performance	-2602
▁August	-2603
▁quickly	-2604
▁October	-2605
aur	-2606
aily	-2607
▁improve	-2608
▁mis	-2609
....	-2610
3,	-2611
ills	-2612
▁Californ	-2613
▁round	-2614
oor	-2615
▁Of	-2616
oud	-2617
▁victim	-2618
▁hon	-2619
▁built	-2620
rown	-2621
▁British	-2622
istan	-2623
▁loss	-2624
load	-2625
▁engine	-2626
▁website	-2627
”.	-2628
▁legisl	-2629
ett	-2630
ructure	-2631
▁secret	-2632
chie	-2633
▁boy	-2634
▁father	-2635
▁heard	-2636
▁economy	-2637
▁dig	-2638
oo	-2639
▁enjoy	-2640
▁pull	-2641
▁wants	-2642
▁poll	-2643
▁fre	-2644
▁spent	-2645
▁Then	-2646
ume	-2647
▁pers	-2648
▁repe	-2649
▁thous	-2650
avy	-2651
▁Black	-2652
▁hands	-2653
orters	-2654
▁cover	-2655
▁production	-2656
▁allowed	-2657
▁neigh	-2658
You	-2659
fl	-2660
7,	-2661
▁match	-2662
▁included	-2663
▁wide	-2664
bl	-2665
down	-2666
▁lower	-2667
▁travel	-2668
▁board	-2669
▁Pat	-2670
▁Sw	-2671
atory	-2672
iment	-2673
▁IS	-2674
6,	-2675
cember	-2676
▁trade	-2677
face	-2678
▁knew	-2679
▁Russian	-2680
gest	-2681
.[1	-2682
▁ord	-2683
▁California	-2684
iction	-2685
▁perfect	-2686
▁town	-2687
▁UK	-2688
▁behav	-2689
ech	-2690
▁forces	-2691
ences	-2692
▁visit	-2693
▁movement	-2694
▁gets	-2695
ened	-2696
agement	-2697
▁tried	-2698
▁separ	-2699
apt	-2700
estern	-2701
anks	-2702
Wh	-2703
ession	-2704
uses	-2705
▁Kore	-2706
ishing	-2707
?”	-2708
▁Mark	-2709
idents	-2710
▁bud	-2711
▁attention	-2712
▁bi	-2713
▁ens	-2714
vil	-2715
▁growth	-2716
force	-2717
][	-2718
rect	-2719
▁looks	-2720
▁Int	-2721
▁particular	-2722
▁From	-2723
hic	-2724
▁brought	-2725
▁December	-2726
aker	-2727
▁various	-2728
ceed	-2729
▁cause	-2730
▁morning	-2731
▁fear	-2732
▁vo	-2733
▁Fin	-2734
▁Senate	-2735
urd	-2736
▁previous	-2737
▁reach	-2738
ening	-2739
vent	-2740
▁Park	-2741
oph	-2742
40	-2743
▁population	-2744
ibly	-2745
arily	-2746
lin	-2747
field	-2748
alled	-2749
",	-2750
▁fell	-2751
▁Che	-2752
▁image	-2753
▁link	-2754
▁progress	-2755
▁mention	-2756
▁sett	-2757
▁fair	-2758
▁India	-2759
idered	-2760
▁rac	-2761
sequ	-2762
▁Street	-2763
▁demand	-2764
▁training	-2765
▁leader	-2766
▁rules	-2767
cle	-2768
▁coach	-2769
▁}	-2770
▁hot	-2771
undred	-2772
hold	-2773
▁Par	-2774
▁ess	-2775
▁latest	-2776
▁hor	-2777
raz	-2778
▁citiz	-2779
▁contact	-2780
ED	-2781
.7	-2782
yond	-2783
▁King	-2784
cies	-2785
▁Tex	-2786
uk	-2787
▁search	-2788
25	-2789
▁prep	-2790
▁Cons	-2791
▁fast	-2792
▁1,	-2793
▁size	-2794
▁liber	-2795
uments	-2796
▁Satur	-2797
ecause	-2798
▁Times	-2799
▁independ	-2800
ny	-2801
come	-2802
iers	-2803
ground	-2804
▁strugg	-2805
▁features	-2806
ondon	-2807
.6	-2808
▁Party	-2809
▁Rom	-2810
▁Police	-2811
ledge	-2812
ma	-2813
▁reb	-2814
▁song	-2815
▁Donald	-2816
▁talking	-2817
ges	-2818
ification	-2819
inks	-2820
het	-2821
▁Iran	-2822
▁Center	-2823
▁addition	-2824
▁investigation	-2825
▁upon	-2826
▁wond	-2827
▁speed	-2828
▁medical	-2829
▁sn	-2830
▁und	-2831
iant	-2832
arth	-2833
▁considered	-2834
raq	-2835
▁critic	-2836
▁Up	-2837
▁exam	-2838
▁McC	-2839
aries	-2840
▁Sand	-2841
▁County	-2842
unk	-2843
elligence	-2844
▁conduct	-2845
▁slow	-2846
▁box	-2847
▁Jew	-2848
imately	-2849
▁achie	-2850
▁Saturday	-2851
▁spokes	-2852
▁safe	-2853
▁card	-2854
▁levels	-2855
▁language	-2856
▁prior	-2857
▁Tur	-2858
bed	-2859
▁TH	-2860
igr	-2861
▁paper	-2862
▁jobs	-2863
▁mach	-2864
atform	-2865
sych	-2866
▁sort	-2867
▁Muslim	-2868
ani	-2869
▁conserv	-2870
201	-2871
▁pen	-2872
▁document	-2873
▁prevent	-2874
▁sexual	-2875
ication	-2876
▁Lab	-2877
▁written	-2878
imin	-2879
▁doll	-2880
▁systems	-2881
.8	-2882
AC	-2883
▁Iraq	-2884
pir	-2885
==	-2886
▁Let	-2887
▁2011	-2888
);	-2889
ope	-2890
asc	-2891
▁parents	-2892
▁seven	-2893
▁serious	-2894
▁London	-2895
AL	-2896
▁increasing	-2897
▁Net	-2898
▁effort	-2899
ysis	-2900
▁learn	-2901
▁hear	-2902
▁seek	-2903
▁Read	-2904
idge	-2905
uf	-2906
▁Cr	-2907
▁screen	-2908
uit	-2909
▁eight	-2910
OS	-2911
ruary	-2912
▁regul	-2913
▁extreme	-2914
▁inn	-2915
rast	-2916
room	-2917
▁violence	-2918
If	-2919
rench	-2920
vertisement	-2921
▁despite	-2922
▁sens	-2923
▁Other	-2924
▁son	-2925
ining	-2926
▁Michael	-2927
▁surve	-2928
▁conc	-2929
▁draw	-2930
▁Sim	-2931
▁Soc	-2932
▁resour	-2933
▁completely	-2934
▁Mor	-2935
▁claims	-2936
▁bott	-2937
▁East	-2938
itch	-2939
▁protest	-2940
reedom	-2941
▁opportunity	-2942
▁Most	-2943
▁(2	-2944
▁biggest	-2945
▁attacks	-2946
▁journal	-2947
▁2012	-2948
▁doub	-2949
▁obv	-2950
▁Gener	-2951
5,	-2952
▁majority	-2953
▁particularly	-2954
anced	-2955
▁interesting	-2956
▁exactly	-2957
eff	-2958
▁Republicans	-2959
atter	-2960
▁Play	-2961
▁aren	-2962
▁guy	-2963
▁society	-2964
▁James	-2965
▁climate	-2966
4,	-2967
▁message	-2968
▁experien	-2969
▁carry	-2970
▁range	-2971
ico	-2972
▁extra	-2973
entially	-2974
▁Bill	-2975
▁Ser	-2976
▁movie	-2977
▁science	-2978
inese	-2979
▁answer	-2980
▁officers	-2981
▁February	-2982
▁paid	-2983
▁quarter	-2984
set	-2985
There	-2986
aming	-2987
ibr	-2988
OP	-2989
IT	-2990
▁practice	-2991
▁products	-2992
▁defense	-2993
▁cross	-2994
light	-2995
isions	-2996
uclear	-2997
ux	-2998
▁required	-2999
▁stories	-3000
▁remain	-3001
▁modern	-3002
▁certainly	-3003
▁Why	-3004
▁prison	-3005
▁hundred	-3006
▁finally	-3007
▁looked	-3008
▁sometimes	-3009
▁Since	-3010
▁middle	-3011
▁natural	-3012
▁except	-3013
▁starting	-3014
▁dro	-3015
utions	-3016
akers	-3017
▁imag	-3018
ension	-3019
▁histor	-3020
ospital	-3021
oses	-3022
▁user	-3023
lying	-3024
▁surv	-3025
pper	-3026
▁convers	-3027
▁gas	-3028
▁rout	-3029
▁leading	-3030
ously	-3031
▁Coun	-3032
nces	-3033
▁details	-3034
▁term	-3035
▁lay	-3036
▁described	-3037
aves	-3038
▁changed	-3039
▁aw	-3040
▁costs	-3041
▁Democratic	-3042
tr	-3043
▁summer	-3044
▁pan	-3045
▁comments	-3046
illed	-3047
▁named	-3048
▁quality	-3049
▁chief	-3050
▁star	-3051
icks	-3052
▁ones	-3053
▁Rec	-3054
▁giving	-3055
▁showed	-3056
ha	-3057
▁table	-3058
▁stuff	-3059
▁remains	-3060
IC	-3061
uing	-3062
aught	-3063
80	-3064
▁ult	-3065
anch	-3066
▁Jack	-3067
▁Many	-3068
▁education	-3069
ari	-3070
coin	-3071
▁region	-3072
▁occur	-3073
▁danger	-3074
▁Texas	-3075
▁growing	-3076
▁multiple	-3077
hib	-3078
▁continued	-3079
▁Every	-3080
▁blood	-3081
▁Dis	-3082
▁provided	-3083
▁Chinese	-3084
eth	-3085
▁Apple	-3086
▁Last	-3087
▁Mon	-3088
▁writing	-3089
ida	-3090
enge	-3091
erc	-3092
▁mob	-3093
▁thinking	-3094
▁demonst	-3095
▁died	-3096
▁poor	-3097
▁League	-3098
▁wouldn	-3099
▁culture	-3100
mp	-3101
▁path	-3102
▁assist	-3103
▁parts	-3104
▁ment	-3105
mit	-3106
urt	-3107
▁fix	-3108
fort	-3109
▁ready	-3110
▁purch	-3111
▁maintain	-3112
inary	-3113
▁voters	-3114
▁camer	-3115
▁calls	-3116
ban	-3117
--------	-3118
▁purp	-3119
▁football	-3120
▁efforts	-3121
US	-3122
▁mill	-3123
▁Green	-3124
▁(@	-3125
▁Rich	-3126
.9	-3127
▁implement	-3128
▁platform	-3129
▁reading	-3130
▁write	-3131
▁spot	-3132
▁cele	-3133
▁file	-3134
▁William	-3135
oper	-3136
▁usually	-3137
▁increased	-3138
iminal	-3139
▁Get	-3140
aly	-3141
▁Bo	-3142
▁perhaps	-3143
▁kids	-3144
▁towards	-3145
▁Over	-3146
oul	-3147
▁directly	-3148
▁Indian	-3149
ago	-3150
FL	-3151
▁hous	-3152
▁damage	-3153
▁avoid	-3154
arian	-3155
▁although	-3156
ications	-3157
▁select	-3158
-0	-3159
▁Bel	-3160
zz	-3161
▁http	-3162
ables	-3163
▁couldn	-3164
▁speech	-3165
▁reality	-3166
▁guys	-3167
▁student	-3168
▁standard	-3169
using	-3170
▁alone	-3171
▁epis	-3172
omp	-3173
▁immediately	-3174
▁center	-3175
▁consist	-3176
▁Democrats	-3177
▁includes	-3178
▁Mart	-3179
▁Rober	-3180
▁scene	-3181
▁tro	-3182
▁Comp	-3183
▁beyond	-3184
▁challeng	-3185
rowd	-3186
▁throughout	-3187
▁item	-3188
▁additional	-3189
▁Ben	-3190
ara	-3191
▁debate	-3192
▁complex	-3193
▁clos	-3194
▁il	-3195
ford	-3196
itute	-3197
▁unf	-3198
▁effects	-3199
▁Super	-3200
▁Minister	-3201
▁corpor	-3202
▁safety	-3203
▁rob	-3204
▁designed	-3205
▁Our	-3206
▁subst	-3207
▁choice	-3208
▁wife	-3209
▁researc	-3210
▁Well	-3211
iles	-3212
egr	-3213
▁concept	-3214
▁agency	-3215
▁ahead	-3216
▁officer	-3217
ilies	-3218
▁recomm	-3219
▁gone	-3220
itor	-3221
▁remember	-3222
▁Associ	-3223
/1	-3224
hest	-3225
▁receive	-3226
▁ten	-3227
▁Add	-3228
▁piece	-3229
▁ver	-3230
▁opin	-3231
▁blog	-3232
▁23	-3233
▁figure	-3234
▁sell	-3235
▁software	-3236
▁cast	-3237
▁French	-3238
▁Day	-3239
ampions	-3240
▁toward	-3241
▁brain	-3242
▁sle	-3243
aches	-3244
▁letter	-3245
▁thousands	-3246
▁twe	-3247
▁swe	-3248
▁passed	-3249
icient	-3250
rupt	-3251
atever	-3252
astic	-3253
▁pressure	-3254
isis	-3255
wise	-3256
2]	-3257
▁organization	-3258
omen	-3259
▁counter	-3260
▁relative	-3261
bur	-3262
▁helped	-3263
▁II	-3264
▁sil	-3265
▁Like	-3266
▁option	-3267
▁moved	-3268
▁Tor	-3269
Ph	-3270
▁Val	-3271
▁launch	-3272
ston	-3273
▁appears	-3274
ports	-3275
▁disapp	-3276
BI	-3277
airs	-3278
imum	-3279
▁budget	-3280
sp	-3281
▁ut	-3282
irth	-3283
▁stage	-3284
▁dog	-3285
adem	-3286
▁clean	-3287
▁alleged	-3288
▁tour	-3289
rief	-3290
▁device	-3291
aph	-3292
▁property	-3293
▁prec	-3294
▁suspect	-3295
▁Wind	-3296
▁Although	-3297
▁failed	-3298
ression	-3299
agon	-3300
▁moving	-3301
olute	-3302
▁touch	-3303
▁reasons	-3304
roy	-3305
▁park	-3306
itation	-3307
▁rock	-3308
▁happy	-3309
▁$2	-3310
▁22	-3311
itness	-3312
iny	-3313
▁drive	-3314
▁aim	-3315
▁deg	-3316
▁English	-3317
berg	-3318
just	-3319
▁conditions	-3320
▁Sci	-3321
urning	-3322
▁ign	-3323
▁encour	-3324
▁Advertisement	-3325
▁60	-3326
ocked	-3327
▁meaning	-3328
▁nuclear	-3329
▁date	-3330
▁difference	-3331
▁league	-3332
▁nom	-3333
▁dark	-3334
▁Star	-3335
▁maybe	-3336
▁score	-3337
▁Ham	-3338
▁title	-3339
wood	-3340
▁copy	-3341
▁college	-3342
▁nature	-3343
▁fan	-3344
▁characters	-3345
▁Serv	-3346
▁Air	-3347
yan	-3348
men	-3349
aughter	-3350
▁computer	-3351
▁battle	-3352
lease	-3353
new	-3354
▁beginning	-3355
ivity	-3356
▁sat	-3357
▁Syria	-3358
▁century	-3359
▁Govern	-3360
▁myself	-3361
▁Because	-3362
▁sche	-3363
▁command	-3364
chan	-3365
▁powerful	-3366
▁largest	-3367
▁contribut	-3368
▁spending	-3369
more	-3370
▁Tom	-3371
▁La	-3372
▁stra	-3373
▁positive	-3374
▁yes	-3375
▁candidate	-3376
?"	-3377
add	-3378
▁High	-3379
▁estim	-3380
▁refer	-3381
▁forced	-3382
igration	-3383
▁shown	-3384
▁compared	-3385
aling	-3386
▁Cap	-3387
▁citizens	-3388
▁presidential	-3389
▁bal	-3390
▁conference	-3391
▁necessary	-3392
▁band	-3393
▁sal	-3394
▁aware	-3395
▁schools	-3396
aint	-3397
▁books	-3398
▁x	-3399
▁wall	-3400
▁limited	-3401
▁arch	-3402
▁disp	-3403
▁executive	-3404
3]	-3405
▁families	-3406
erve	-3407
ufact	-3408
▁Def	-3409
▁illeg	-3410
▁confir	-3411
▁Australia	-3412
iable	-3413
They	-3414
▁feature	-3415
orks	-3416
venue	-3417
▁religious	-3418
▁firm	-3419
▁draft	-3420
▁throw	-3421
▁mix	-3422
▁trust	-3423
▁Tod	-3424
▁Reg	-3425
▁analysis	-3426
ext	-3427
▁eyes	-3428
▁followed	-3429
▁Mex	-3430
▁Ber	-3431
▁note	-3432
orney	-3433
▁cat	-3434
ares	-3435
▁crowd	-3436
▁International	-3437
▁People	-3438
enty	-3439
▁grad	-3440
▁origin	-3441
▁pus	-3442
▁Smith	-3443
▁autom	-3444
AM	-3445
▁meant	-3446
▁196	-3447
▁George	-3448
▁yourself	-3449
▁Image	-3450
▁Jer	-3451
▁allows	-3452
▁feed	-3453
▁politics	-3454
▁eventually	-3455
▁gives	-3456
▁During	-3457
▁Bre	-3458
▁Ant	-3459
▁streng	-3460
band	-3461
EC	-3462
▁overall	-3463
▁esc	-3464
▁physical	-3465
▁cool	-3466
OT	-3467
▁senior	-3468
▁susp	-3469
▁Rob	-3470
▁actions	-3471
▁easily	-3472
bum	-3473
▁Germany	-3474
ken	-3475
▁appeared	-3476
etro	-3477
▁detail	-3478
▁smart	-3479
▁EU	-3480
rated	-3481
ube	-3482
▁School	-3483
ero	-3484
▁£	-3485
▁promot	-3486
iring	-3487
▁decades	-3488
ressed	-3489
▁analy	-3490
board	-3491
▁Angel	-3492
▁weapons	-3493
▁har	-3494
▁benefits	-3495
▁uses	-3496
▁signed	-3497
cul	-3498
▁ang	-3499
▁crime	-3500
▁lif	-3501
▁income	-3502
▁central	-3503
-3	-3504
▁continues	-3505
▁treatment	-3506
▁ideas	-3507
▁Brown	-3508
▁display	-3509
▁conflic	-3510
urance	-3511
ev	-3512
encies	-3513
▁Oh	-3514
▁goals	-3515
▁credit	-3516
▁Flor	-3517
craft	-3518
ville	-3519
uty	-3520
▁General	-3521
▁sales	-3522
▁noted	-3523
▁nice	-3524
▁crisis	-3525
▁Bu	-3526
▁Union	-3527
▁Christian	-3528
▁frequ	-3529
▁Trans	-3530
9.	-3531
resh	-3532
iance	-3533
▁Earth	-3534
▁Gold	-3535
▁customers	-3536
▁unique	-3537
▁emb	-3538
▁Mac	-3539
▁projects	-3540
lements	-3541
riage	-3542
▁developed	-3543
▁Art	-3544
▁27	-3545
itely	-3546
▁Arab	-3547
▁altern	-3548
▁•	-3549
▁door	-3550
▁dise	-3551
▁beaut	-3552
box	-3553
▁Two	-3554
▁mist	-3555
onents	-3556
▁Franc	-3557
▁drop	-3558
4]	-3559
▁manager	-3560
▁challenge	-3561
▁individuals	-3562
▁predict	-3563
▁related	-3564
change	-3565
▁charge	-3566
▁Alex	-3567
▁psych	-3568
▁Council	-3569
▁previously	-3570
▁lic	-3571
oes	-3572
▁rule	-3573
▁successful	-3574
▁truth	-3575
aud	-3576
oti	-3577
▁>	-3578
▁rates	-3579
▁Scott	-3580
AP	-3581
▁peace	-3582
▁apparent	-3583
▁larger	-3584
▁Another	-3585
▁rap	-3586
dd	-3587
▁Also	-3588
part	-3589
▁lines	-3590
▁intelligence	-3591
▁Follow	-3592
▁straight	-3593
▁2008	-3594
nown	-3595
EL	-3596
▁sto	-3597
▁Internet	-3598
▁expand	-3599
▁clearly	-3600
▁reform	-3601
▁brother	-3602
▁incident	-3603
▁advant	-3604
▁fully	-3605
▁highly	-3606
▁minor	-3607
As	-3608
▁primary	-3609
orter	-3610
▁attract	-3611
▁Law	-3612
pre	-3613
▁web	-3614
ET	-3615
mar	-3616
▁Yes	-3617
amb	-3618
ounds	-3619
▁measure	-3620
▁reached	-3621
▁programs	-3622
vin	-3623
ID	-3624
while	-3625
▁resources	-3626
▁save	-3627
▁favorite	-3628
▁correct	-3629
secut	-3630
▁criminal	-3631
▁traff	-3632
ategy	-3633
▁greater	-3634
yl	-3635
owers	-3636
▁seemed	-3637
▁spread	-3638
▁Mo	-3639
antly	-3640
▁indic	-3641
▁prem	-3642
ki	-3643
▁Mag	-3644
sey	-3645
olic	-3646
▁Your	-3647
▁rare	-3648
IA	-3649
▁places	-3650
levision	-3651
▁Stud	-3652
▁sources	-3653
▁laun	-3654
wide	-3655
▁knowledge	-3656
ota	-3657
▁Matt	-3658
▁color	-3659
iders	-3660
▁knows	-3661
▁kept	-3662
OM	-3663
▁shooting	-3664
net	-3665
▁England	-3666
▁regular	-3667
▁emot	-3668
▁owners	-3669
▁claimed	-3670
osh	-3671
▁prices	-3672
▁manufact	-3673
▁spir	-3674
iced	-3675
▁rise	-3676
bon	-3677
dom	-3678
▁feet	-3679
▁organiz	-3680
▁send	-3681
term	-3682
▁spend	-3683
▁Hillary	-3684
icit	-3685
▁studies	-3686
▁uns	-3687
▁activity	-3688
▁26	-3689
▁liter	-3690
▁caused	-3691
EO	-3692
▁Phil	-3693
▁AP	-3694
▁fighting	-3695
▁cities	-3696
▁ended	-3697
aith	-3698
▁voice	-3699
▁fine	-3700
▁arm	-3701
▁Florida	-3702
▁Mod	-3703
▁calling	-3704
▁status	-3705
▁options	-3706
▁Op	-3707
▁pun	-3708
▁28	-3709
▁policies	-3710
lick	-3711
▁integr	-3712
▁print	-3713
”,	-3714
ingly	-3715
▁haven	-3716
▁adding	-3717
ifying	-3718
onent	-3719
usion	-3720
iled	-3721
ocks	-3722
▁normal	-3723
▁researchers	-3724
ado	-3725
▁album	-3726
):	-3727
▁employees	-3728
15	-3729
▁virt	-3730
▁supposed	-3731
iverse	-3732
roll	-3733
▁concerns	-3734
▁charges	-3735
▁Chic	-3736
▁Sam	-3737
▁enem	-3738
que	-3739
▁names	-3740
▁raised	-3741
▁Bay	-3742
▁happens	-3743
▁hospital	-3744
▁reflect	-3745
▁Pre	-3746
▁France	-3747
▁minister	-3748
▁shut	-3749
▁female	-3750
▁acqu	-3751
▁Sun	-3752
▁funding	-3753
▁pros	-3754
▁Mike	-3755
▁trou	-3756
▁authorities	-3757
▁basic	-3758
▁grand	-3759
▁creating	-3760
▁lik	-3761
▁Port	-3762
▁traditional	-3763
▁beat	-3764
▁jump	-3765
▁commer	-3766
ength	-3767
▁leaving	-3768
▁scen	-3769
roid	-3770
▁green	-3771
▁plant	-3772
▁posted	-3773
▁slight	-3774
oles	-3775
uana	-3776
vere	-3777
rs	-3778
inger	-3779
rol	-3780
▁patients	-3781
ona	-3782
▁Sl	-3783
▁freedom	-3784
.’	-3785
▁seeing	-3786
ribution	-3787
6]	-3788
▁Bit	-3789
ocr	-3790
▁cry	-3791
▁offered	-3792
▁wait	-3793
▁absolute	-3794
▁Health	-3795
▁Att	-3796
▁Wall	-3797
▁revealed	-3798
▁beg	-3799
▁style	-3800
▁rank	-3801
▁Secret	-3802
▁Micro	-3803
ica	-3804
▁$3	-3805
uman	-3806
▁impl	-3807
▁Lou	-3808
▁eye	-3809
▁weight	-3810
▁behavior	-3811
▁station	-3812
▁weekend	-3813
▁ir	-3814
▁Chicago	-3815
70	-3816
▁eth	-3817
▁ensure	-3818
▁agreement	-3819
▁Mil	-3820
▁mer	-3821
see	-3822
▁mechan	-3823
arliam	-3824
acing	-3825
▁propos	-3826
▁application	-3827
▁push	-3828
▁adop	-3829
▁willing	-3830
▁Once	-3831
ipp	-3832
mark	-3833
▁Instead	-3834
▁actual	-3835
▁birth	-3836
ipped	-3837
▁Mal	-3838
▁appl	-3839
▁brief	-3840
▁lawy	-3841
▁mostly	-3842
▁install	-3843
▁Step	-3844
ijuana	-3845
▁picture	-3846
▁Sub	-3847
ya	-3848
▁vac	-3849
▁perm	-3850
itude	-3851
▁obser	-3852
rian	-3853
▁Del	-3854
gen	-3855
▁adult	-3856
▁establ	-3857
.'	-3858
▁Rel	-3859
▁arrested	-3860
▁records	-3861
soft	-3862
▁strategy	-3863
▁learned	-3864
SA	-3865
▁Are	-3866
▁Press	-3867
▁Bush	-3868
▁gold	-3869
▁cars	-3870
▁determin	-3871
▁enforce	-3872
▁whatever	-3873
istry	-3874
earch	-3875
▁massive	-3876
▁Liber	-3877
arliament	-3878
▁mount	-3879
▁believed	-3880
▁qual	-3881
▁wonder	-3882
▁assault	-3883
ING	-3884
▁values	-3885
▁Johnson	-3886
▁wild	-3887
▁choose	-3888
▁residents	-3889
▁confirmed	-3890
ront	-3891
▁street	-3892
▁Under	-3893
▁lose	-3894
cher	-3895
▁border	-3896
▁Big	-3897
▁operations	-3898
alse	-3899
▁devices	-3900
org	-3901
500	-3902
▁parties	-3903
▁dire	-3904
▁Commission	-3905
igned	-3906
ram	-3907
pri	-3908
▁Justice	-3909
aby	-3910
▁produce	-3911
inated	-3912
▁debt	-3913
▁asking	-3914
▁negoti	-3915
▁mission	-3916
▁influence	-3917
▁feeling	-3918
▁judge	-3919
7]	-3920
orial	-3921
▁images	-3922
But	-3923
▁wat	-3924
Ch	-3925
▁celebr	-3926
▁Inc	-3927
▁commit	-3928
ste	-3929
▁drink	-3930
▁Ter	-3931
▁provides	-3932
▁critical	-3933
▁district	-3934
ection	-3935
▁whom	-3936
▁produced	-3937
▁cru	-3938
▁teac	-3939
▁dream	-3940
ented	-3941
ugg	-3942
▁Photo	-3943
▁tend	-3944
▁enter	-3945
▁Pri	-3946
inn	-3947
▁temper	-3948
▁opposition	-3949
12	-3950
▁fat	-3951
▁showing	-3952
45	-3953
point	-3954
▁Western	-3955
▁advoc	-3956
aked	-3957
estic	-3958
▁defend	-3959
▁Security	-3960
▁runs	-3961
▁Korea	-3962
RE	-3963
▁etc	-3964
▁Us	-3965
▁Francis	-3966
icial	-3967
▁Sanders	-3968
▁vill	-3969
▁Great	-3970
▁Committee	-3971
▁brand	-3972
vest	-3973
▁independent	-3974
abor	-3975
▁Palest	-3976
▁digital	-3977
▁Found	-3978
▁worse	-3979
ags	-3980
AD	-3981
▁benefit	-3982
▁interested	-3983
ae	-3984
▁tick	-3985
▁hero	-3986
▁effective	-3987
▁Windows	-3988
▁offers	-3989
▁Mad	-3990
www	-3991
▁unc	-3992
▁core	-3993
no	-3994
▁solution	-3995
▁Those	-3996
▁responsible	-3997
cell	-3998
▁Any	-3999
▁2,	-4000
▁opening	-4001
icians	-4002
▁agreed	-4003
▁replace	-4004
ords	-4005
ograph	-4006
mine	-4007
▁NFL	-4008
▁Game	-4009
gency	-4010
ription	-4011
▁highest	-4012
▁Cup	-4013
▁television	-4014
ties	-4015
ipe	-4016
▁Ty	-4017
▁restrict	-4018
8]	-4019
▁occas	-4020
▁Office	-4021
▁chair	-4022
▁daily	-4023
▁dollars	-4024
▁explained	-4025
What	-4026
▁pattern	-4027
▁chem	-4028
▁Chris	-4029
▁Commun	-4030
▁learning	-4031
▁millions	-4032
▁proposed	-4033
▁memory	-4034
uries	-4035
▁See	-4036
▁train	-4037
▁condition	-4038
▁section	-4039
▁investment	-4040
▁Dist	-4041
▁join	-4042
▁trial	-4043
▁types	-4044
hicle	-4045
▁kick	-4046
rial	-4047
▁Fox	-4048
▁fit	-4049
▁Uk	-4050
▁mur	-4051
▁defe	-4052
▁marriage	-4053
illing	-4054
▁onto	-4055
That	-4056
coming	-4057
IL	-4058
▁opinion	-4059
▁basis	-4060
▁miles	-4061
▁80	-4062
▁photo	-4063
▁Canadian	-4064
▁legislation	-4065
▁Both	-4066
▁heavy	-4067
▁Vir	-4068
▁partners	-4069
▁Wil	-4070
▁opened	-4071
90	-4072
▁accused	-4073
rav	-4074
▁management	-4075
azing	-4076
iation	-4077
▁generally	-4078
▁hundreds	-4079
▁becomes	-4080
OU	-4081
▁theory	-4082
icip	-4083
▁Today	-4084
▁surround	-4085
▁reject	-4086
▁announce	-4087
▁controvers	-4088
▁coal	-4089
CC	-4090
outhern	-4091
▁der	-4092
▁advantage	-4093
▁achieve	-4094
aks	-4095
▁frame	-4096
▁Direct	-4097
▁Jud	-4098
eline	-4099
▁obtain	-4100
▁Robert	-4101
rate	-4102
▁Cle	-4103
▁illegal	-4104
▁documents	-4105
▁Despite	-4106
oly	-4107
ris	-4108
▁Tre	-4109
▁neighbor	-4110
▁professional	-4111
▁male	-4112
ander	-4113
▁Islamic	-4114
▁camera	-4115
▁scientists	-4116
BA	-4117
▁location	-4118
▁becoming	-4119
▁assum	-4120
And	-4121
▁map	-4122
oom	-4123
▁easier	-4124
well	-4125
▁load	-4126
________	-4127
▁double	-4128
▁understanding	-4129
▁destroy	-4130
▁nine	-4131
▁Please	-4132
/2	-4133
▁served	-4134
known	-4135
▁born	-4136
ference	-4137
▁serve	-4138
▁limit	-4139
▁Hall	-4140
▁shared	-4141
▁associated	-4142
BS	-4143
orthern	-4144
▁incred	-4145
▁species	-4146
▁harm	-4147
▁Out	-4148
olf	-4149
▁ship	-4150
▁THE	-4151
▁electric	-4152
▁spl	-4153
▁Thom	-4154
▁initial	-4155
▁Prof	-4156
▁ice	-4157
▁sleep	-4158
▁bottom	-4159
▁leadership	-4160
▁reduce	-4161
▁audience	-4162
▁Britain	-4163
▁strik	-4164
▁department	-4165
▁Ac	-4166
▁unlike	-4167
▁Jim	-4168
▁victory	-4169
▁wealth	-4170
ortunately	-4171
▁returned	-4172
▁active	-4173
witch	-4174
▁bed	-4175
▁Bank	-4176
1.	-4177
▁internet	-4178
▁thus	-4179
▁rat	-4180
▁solid	-4181
lant	-4182
atically	-4183
▁Mer	-4184
lands	-4185
▁notice	-4186
bert	-4187
4.	-4188
▁episode	-4189
▁bomb	-4190
▁Carol	-4191
▁issued	-4192
▁Jones	-4193
▁vs	-4194
▁winning	-4195
iful	-4196
za	-4197
▁resist	-4198
ears	-4199
▁90	-4200
▁victims	-4201
▁watching	-4202
9]	-4203
▁belief	-4204
▁coverage	-4205
▁existing	-4206
▁die	-4207
▁church	-4208
▁Los	-4209
▁communities	-4210
▁ge	-4211
▁extremely	-4212
odes	-4213
▁purpose	-4214
▁faith	-4215
▁UN	-4216
▁FBI	-4217
orrow	-4218
GB	-4219
FC	-4220
house	-4221
▁Que	-4222
▁amb	-4223
▁explain	-4224
▁machine	-4225
▁conservative	-4226
▁launched	-4227
▁Ver	-4228
▁comfort	-4229
▁negative	-4230
▁Their	-4231
▁purs	-4232
▁Microsoft	-4233
▁instance	-4234
▁putting	-4235
scrib	-4236
▁Leg	-4237
▁mobile	-4238
▁marijuana	-4239
▁AM	-4240
▁Yet	-4241
ghan	-4242
▁fresh	-4243
▁ran	-4244
▁committee	-4245
▁Sil	-4246
▁doubt	-4247
▁argument	-4248
▁Jeff	-4249
▁definitely	-4250
miss	-4251
▁supporters	-4252
asy	-4253
▁Ken	-4254
met	-4255
▁separate	-4256
▁1.	-4257
▁hearing	-4258
▁notes	-4259
▁teach	-4260
ios	-4261
ih	-4262
▁Tim	-4263
iller	-4264
ario	-4265
▁competition	-4266
▁views	-4267
▁trend	-4268
▁background	-4269
istics	-4270
▁Institute	-4271
▁Miss	-4272
▁Church	-4273
ography	-4274
going	-4275
▁Frank	-4276
▁Israeli	-4277
▁floor	-4278
▁dangerous	-4279
equ	-4280
acity	-4281
works	-4282
zen	-4283
▁restaur	-4284
▁suggested	-4285
▁commercial	-4286
5.	-4287
▁labor	-4288
how	-4289
ampionship	-4290
▁repeated	-4291
▁decade	-4292
▁Bur	-4293
▁Inter	-4294
▁radio	-4295
cont	-4296
▁novel	-4297
1]	-4298
▁traffic	-4299
▁contain	-4300
resp	-4301
gers	-4302
▁vehicle	-4303
▁Back	-4304
▁charged	-4305
▁Who	-4306
▁drugs	-4307
▁structure	-4308
▁spoke	-4309
▁Fore	-4310
▁worst	-4311
iliar	-4312
▁hack	-4313
▁Ukrain	-4314
▁closed	-4315
▁Good	-4316
▁tools	-4317
▁direction	-4318
▁hus	-4319
inct	-4320
anted	-4321
▁Ryan	-4322
PA	-4323
▁refere	-4324
icy	-4325
▁telling	-4326
▁Sur	-4327
▁cards	-4328
▁react	-4329
▁sites	-4330
▁gay	-4331
rad	-4332
▁discovered	-4333
▁north	-4334
▁Gree	-4335
▁driving	-4336
bing	-4337
▁transfer	-4338
▁stated	-4339
▁Char	-4340
semb	-4341
which	-4342
PS	-4343
vention	-4344
▁Cur	-4345
▁smaller	-4346
ctors	-4347
▁finding	-4348
▁ded	-4349
do	-4350
▁nor	-4351
ribute	-4352
▁cash	-4353
▁concerned	-4354
la	-4355
ga	-4356
▁wel	-4357
▁daughter	-4358
▁supported	-4359
▁Pak	-4360
▁Sup	-4361
▁insurance	-4362
▁Met	-4363
▁animals	-4364
7.	-4365
6.	-4366
▁entirely	-4367
▁candidates	-4368
▁task	-4369
▁Const	-4370
▁disease	-4371
▁businesses	-4372
▁max	-4373
azon	-4374
andon	-4375
▁Ev	-4376
▁transport	-4377
ulated	-4378
▁annual	-4379
overy	-4380
▁items	-4381
▁plays	-4382
iest	-4383
gu	-4384
kins	-4385
▁caught	-4386
!”	-4387
annel	-4388
iling	-4389
phone	-4390
▁surface	-4391
▁experiment	-4392
andom	-4393
▁sun	-4394
▁driver	-4395
▁largely	-4396
▁70	-4397
▁false	-4398
▁aspect	-4399
▁fuel	-4400
▁testing	-4401
▁older	-4402
hem	-4403
▁allowing	-4404
▁raise	-4405
NN	-4406
▁generation	-4407
ius	-4408
▁Nor	-4409
rey	-4410
arant	-4411
▁requires	-4412
▁exerc	-4413
▁believes	-4414
▁please	-4415
oyal	-4416
▁categ	-4417
oman	-4418
ulf	-4419
▁Jo	-4420
▁GOP	-4421
3.	-4422
▁consequ	-4423
▁strateg	-4424
igrants	-4425
▁African	-4426
▁farm	-4427
ource	-4428
▁PC	-4429
▁Afghan	-4430
▁construction	-4431
▁afford	-4432
▁justice	-4433
▁compar	-4434
▁Association	-4435
night	-4436
▁activities	-4437
tered	-4438
▁truly	-4439
▁strength	-4440
▁concern	-4441
ancy	-4442
▁Richard	-4443
izes	-4444
▁2009	-4445
▁holding	-4446
▁murder	-4447
gl	-4448
itable	-4449
▁Africa	-4450
▁planning	-4451
ibrary	-4452
▁Sal	-4453
ici	-4454
▁spokesman	-4455
▁Holl	-4456
▁witness	-4457
▁context	-4458
▁stock	-4459
anging	-4460
▁Rock	-4461
▁decisions	-4462
▁refuge	-4463
▁blue	-4464
ception	-4465
▁Rem	-4466
▁Group	-4467
▁phil	-4468
ossible	-4469
▁conflict	-4470
▁Dec	-4471
▁deliver	-4472
ait	-4473
▁Kh	-4474
▁accur	-4475
bre	-4476
▁Louis	-4477
▁Virgin	-4478
▁attend	-4479
ava	-4480
win	-4481
▁Android	-4482
▁catch	-4483
▁san	-4484
▁Joe	-4485
▁presence	-4486
▁establish	-4487
cript	-4488
▁tells	-4489
▁Jewish	-4490
pective	-4491
▁rough	-4492
▁;	-4493
▁CEO	-4494
▁Japanese	-4495
but	-4496
▁hasn	-4497
▁Fe	-4498
ada	-4499
▁29	-4500
cknow	-4501
▁placed	-4502
▁kid	-4503
osure	-4504
8.	-4505
▁guess	-4506
▁Angeles	-4507
▁joined	-4508
▁initi	-4509
▁waiting	-4510
udd	-4511
▁Martin	-4512
▁tim	-4513
▁Pakistan	-4514
bour	-4515
▁offensive	-4516
▁introduced	-4517
OL	-4518
▁Government	-4519
rick	-4520
ocracy	-4521
▁enforcement	-4522
▁unit	-4523
isation	-4524
!!	-4525
azine	-4526
▁Palestin	-4527
▁missing	-4528
▁interests	-4529
▁Jon	-4530
▁established	-4531
▁injury	-4532
nel	-4533
▁update	-4534
▁conversation	-4535
▁providing	-4536
▁Mont	-4537
▁mentioned	-4538
▁banks	-4539
season	-4540
▁download	-4541
▁length	-4542
▁Pet	-4543
▁fourth	-4544
cient	-4545
▁scale	-4546
ady	-4547
▁fant	-4548
▁eat	-4549
▁35	-4550
NA	-4551
ula	-4552
▁sports	-4553
▁veter	-4554
onym	-4555
onto	-4556
▁cook	-4557
▁abuse	-4558
▁sequ	-4559
▁Fire	-4560
▁Jose	-4561
vant	-4562
▁newsp	-4563
▁2.	-4564
▁removed	-4565
▁homes	-4566
▁models	-4567
serv	-4568
▁obvious	-4569
▁Mexico	-4570
▁cancer	-4571
▁useful	-4572
▁discussion	-4573
▁south	-4574
▁recommend	-4575
▁Thomas	-4576
icon	-4577
▁transl	-4578
▁bul	-4579
itz	-4580
▁figures	-4581
ests	-4582
5]	-4583
oted	-4584
cks	-4585
▁exclus	-4586
▁housing	-4587
▁occup	-4588
▁Army	-4589
▁identified	-4590
▁files	-4591
▁girls	-4592
▁measures	-4593
▁managed	-4594
inter	-4595
▁assess	-4596
▁Supreme	-4597
▁stopped	-4598
icles	-4599
-4	-4600
oms	-4601
igan	-4602
▁stick	-4603
▁focused	-4604
16	-4605
▁arrived	-4606
▁funds	-4607
▁tough	-4608
▁Web	-4609
▁click	-4610
owl	-4611
formation	-4612
▁exchange	-4613
▁Peter	-4614
EM	-4615
▁operation	-4616
▁partner	-4617
▁setting	-4618
▁feels	-4619
▁finished	-4620
real	-4621
▁committed	-4622
▁keeping	-4623
▁skills	-4624
▁cells	-4625
▁MP	-4626
what	-4627
▁conclud	-4628
▁identity	-4629
ulate	-4630
ups	-4631
▁tweet	-4632
rim	-4633
ading	-4634
▁appropri	-4635
outs	-4636
▁Research	-4637
▁ST	-4638
AA	-4639
▁Time	-4640
▁Mary	-4641
kin	-4642
▁prefer	-4643
Don	-4644
▁acknow	-4645
▁Bern	-4646
▁Team	-4647
spe	-4648
anda	-4649
▁Put	-4650
▁husband	-4651
ano	-4652
▁owner	-4653
apped	-4654
▁steps	-4655
lig	-4656
▁relatively	-4657
▁photos	-4658
▁survey	-4659
▁trip	-4660
enses	-4661
▁hair	-4662
umn	-4663
▁defensive	-4664
place	-4665
itutional	-4666
▁therefore	-4667
verse	-4668
hi	-4669
▁slightly	-4670
▁connection	-4671
makers	-4672
▁Den	-4673
▁spirit	-4674
▁earth	-4675
wing	-4676
prof	-4677
▁commission	-4678
▁gender	-4679
Re	-4680
▁2000	-4681
▁otherwise	-4682
gar	-4683
hedul	-4684
ania	-4685
▁circum	-4686
▁collection	-4687
agn	-4688
▁strike	-4689
▁Secretary	-4690
ka	-4691
ocal	-4692
iser	-4693
▁bigger	-4694
▁Public	-4695
dden	-4696
▁32	-4697
▁detect	-4698
▁College	-4699
ronic	-4700
▁corner	-4701
.[2	-4702
rency	-4703
▁https	-4704
▁elements	-4705
▁Prime	-4706
▁aggress	-4707
▁protection	-4708
▁sides	-4709
icide	-4710
isf	-4711
SP	-4712
▁beer	-4713
▁taxes	-4714
▁remind	-4715
▁Atlant	-4716
▁sust	-4717
uate	-4718
uct	-4719
▁organizations	-4720
mas	-4721
▁killing	-4722
▁Bitcoin	-4723
stream	-4724
ighter	-4725
ancing	-4726
▁Media	-4727
▁planned	-4728
▁amazing	-4729
▁fle	-4730
idering	-4731
▁failure	-4732
▁immigration	-4733
▁Er	-4734
▁pet	-4735
▁none	-4736
adium	-4737
▁(3	-4738
▁mere	-4739
▁appoint	-4740
▁suggests	-4741
▁roll	-4742
▁talks	-4743
▁starts	-4744
ucky	-4745
▁Syrian	-4746
▁spect	-4747
▁weak	-4748
▁speaking	-4749
▁depend	-4750
▁struct	-4751
upp	-4752
▁regist	-4753
▁gain	-4754
▁happening	-4755
▁wish	-4756
rees	-4757
hens	-4758
rig	-4759
▁Lu	-4760
▁dat	-4761
▁supply	-4762
▁Amazon	-4763
▁micro	-4764
▁helping	-4765
▁thanks	-4766
▁army	-4767
▁guard	-4768
▁award	-4769
eah	-4770
oston	-4771
▁planet	-4772
▁decide	-4773
iot	-4774
uters	-4775
▁sudden	-4776
▁Sol	-4777
TC	-4778
▁environmental	-4779
▁Prot	-4780
▁accounts	-4781
▁Toronto	-4782
▁(19	-4783
▁Mos	-4784
lor	-4785
▁Mean	-4786
▁filed	-4787
▁hate	-4788
▁union	-4789
▁standing	-4790
▁familiar	-4791
DA	-4792
▁revolution	-4793
13	-4794
▁Ari	-4795
▁window	-4796
When	-4797
▁script	-4798
eless	-4799
▁batter	-4800
▁Plan	-4801
▁mental	-4802
odies	-4803
19	-4804
agues	-4805
gypt	-4806
▁multi	-4807
HL	-4808
——	-4809
▁Camp	-4810
▁standards	-4811
▁Mars	-4812
▁operating	-4813
▁neighborhood	-4814
ST	-4815
ynam	-4816
▁professor	-4817
▁markets	-4818
▁tack	-4819
▁domestic	-4820
amm	-4821
▁vul	-4822
▁scientific	-4823
arks	-4824
range	-4825
▁territ	-4826
▁carried	-4827
ocol	-4828
▁Bob	-4829
▁dropped	-4830
▁worry	-4831
▁variety	-4832
▁Social	-4833
▁Mur	-4834
▁crew	-4835
▁degree	-4836
▁sch	-4837
▁votes	-4838
▁balance	-4839
erous	-4840
▁turns	-4841
▁Dan	-4842
▁philos	-4843
▁que	-4844
▁Bet	-4845
▁developers	-4846
imal	-4847
▁cuts	-4848
▁fellow	-4849
▁possibly	-4850
ola	-4851
▁twice	-4852
▁univers	-4853
▁academ	-4854
▁Rub	-4855
▁lived	-4856
RA	-4857
rastructure	-4858
ipping	-4859
▁Service	-4860
▁Central	-4861
▁pair	-4862
▁losing	-4863
▁increasingly	-4864
▁rich	-4865
▁appre	-4866
▁paying	-4867
aren	-4868
▁Images	-4869
▁Jes	-4870
illa	-4871
gn	-4872
▁schedul	-4873
▁Carolina	-4874
▁Foundation	-4875
vis	-4876
▁colle	-4877
▁interact	-4878
▁seconds	-4879
▁Before	-4880
aded	-4881
▁changing	-4882
itect	-4883
▁Open	-4884
▁cold	-4885
run	-4886
acks	-4887
▁tests	-4888
aven	-4889
▁apparently	-4890
icted	-4891
▁apply	-4892
▁alternative	-4893
▁deploy	-4894
▁impossible	-4895
▁closer	-4896
▁Free	-4897
▁healthy	-4898
▁innov	-4899
14	-4900
▁Chief	-4901
▁honest	-4902
roud	-4903
▁Whe	-4904
Is	-4905
ruit	-4906
▁Boston	-4907
▁yards	-4908
▁apart	-4909
▁corporate	-4910
▁Middle	-4911
stein	-4912
ansion	-4913
▁agencies	-4914
▁religion	-4915
▁possibility	-4916
ias	-4917
▁District	-4918
awn	-4919
▁Second	-4920
▁beautiful	-4921
▁regarding	-4922
▁AN	-4923
▁Mass	-4924
▁Sign	-4925
▁ath	-4926
fe	-4927
▁server	-4928
▁equip	-4929
▁ultimately	-4930
▁experts	-4931
▁units	-4932
17	-4933
ashed	-4934
▁princ	-4935
▁Lat	-4936
▁Egypt	-4937
hicles	-4938
▁194	-4939
▁sea	-4940
▁sounds	-4941
▁writer	-4942
aine	-4943
▁imagine	-4944
▁Ro	-4945
with	-4946
▁IN	-4947
▁Steve	-4948
▁developing	-4949
▁absolutely	-4950
ores	-4951
▁expensive	-4952
▁Mel	-4953
▁vast	-4954
▁elections	-4955
▁Federal	-4956
▁humans	-4957
▁soldiers	-4958
:00	-4959
▁Ve	-4960
▁tast	-4961
▁flight	-4962
▁adjust	-4963
▁applications	-4964
▁authority	-4965
look	-4966
▁Cru	-4967
▁university	-4968
▁seeking	-4969
▁RE	-4970
▁capacity	-4971
coh	-4972
▁Lee	-4973
!"	-4974
eal	-4975
▁Watch	-4976
▁Though	-4977
▁fundament	-4978
▁sitting	-4979
oving	-4980
pm	-4981
▁Mem	-4982
▁solar	-4983
atures	-4984
▁famous	-4985
▁lob	-4986
▁Gal	-4987
▁covered	-4988
▁Francisco	-4989
state	-4990
▁earn	-4991
▁pil	-4992
▁Conserv	-4993
▁Cath	-4994
▁pit	-4995
▁rid	-4996
▁skin	-4997
▁sport	-4998
▁vision	-4999
cious	-5000
▁Each	-5001
related	-5002
▁heat	-5003
enced	-5004
pire	-5005
▁responsibility	-5006
No	-5007
▁internal	-5008
▁USA	-5009
▁animal	-5010
18	-5011
sen	-5012
▁unless	-5013
osen	-5014
▁odd	-5015
▁Sing	-5016
▁surprise	-5017
▁attorney	-5018
▁guarant	-5019
isted	-5020
▁arms	-5021
▁Sant	-5022
▁Top	-5023
Americ	-5024
▁trail	-5025
lets	-5026
▁Ms	-5027
apers	-5028
rible	-5029
▁Williams	-5030
▁gar	-5031
▁troops	-5032
uster	-5033
▁Virginia	-5034
ologies	-5035
▁Only	-5036
hand	-5037
▁Book	-5038
▁vir	-5039
porary	-5040
ortion	-5041
▁Spr	-5042
▁broken	-5043
▁convention	-5044
▁Journal	-5045
▁mut	-5046
▁helps	-5047
▁occurred	-5048
▁symb	-5049
▁consult	-5050
terday	-5051
rie	-5052
anche	-5053
▁Power	-5054
▁Charl	-5055
▁Hist	-5056
▁45	-5057
▁fif	-5058
▁Still	-5059
▁error	-5060
▁expert	-5061
▁teen	-5062
▁presented	-5063
▁instit	-5064
▁fol	-5065
person	-5066
och	-5067
▁3,	-5068
▁forms	-5069
▁Color	-5070
▁intended	-5071
▁ton	-5072
▁determine	-5073
▁195	-5074
▁streets	-5075
▁fired	-5076
▁estimated	-5077
▁council	-5078
▁tight	-5079
▁seasons	-5080
▁offering	-5081
▁scr	-5082
▁Australian	-5083
▁flow	-5084
orage	-5085
useum	-5086
▁ruling	-5087
▁Paris	-5088
cel	-5089
▁stars	-5090
xual	-5091
▁Rad	-5092
▁vehicles	-5093
▁stress	-5094
▁prepared	-5095
▁refused	-5096
▁3.	-5097
eder	-5098
▁pieces	-5099
pret	-5100
ayer	-5101
▁heav	-5102
▁vulner	-5103
▁specifically	-5104
idden	-5105
▁clim	-5106
▁Saud	-5107
▁selling	-5108
▁proposal	-5109
▁River	-5110
▁Show	-5111
ressive	-5112
▁governments	-5113
▁domin	-5114
alls	-5115
▁located	-5116
▁bringing	-5117
▁jail	-5118
▁faster	-5119
▁About	-5120
▁potentially	-5121
▁prove	-5122
▁boost	-5123
▁rapid	-5124
▁Guard	-5125
▁dram	-5126
eds	-5127
yr	-5128
▁sector	-5129
▁equipment	-5130
▁Tra	-5131
mes	-5132
▁baby	-5133
▁plenty	-5134
▁infrastructure	-5135
under	-5136
phas	-5137
▁breat	-5138
▁prosecut	-5139
▁criticism	-5140
▁conclus	-5141
▁challenges	-5142
▁nar	-5143
00,000	-5144
inent	-5145
▁brow	-5146
endment	-5147
CH	-5148
====	-5149
▁2014,	-5150
For	-5151
ader	-5152
ureau	-5153
▁hyp	-5154
▁clot	-5155
▁2015,	-5156
▁elected	-5157
▁broke	-5158
cean	-5159
IV	-5160
uration	-5161
▁Nov	-5162
▁voted	-5163
▁Andrew	-5164
vey	-5165
isher	-5166
▁equal	-5167
▁Medic	-5168
▁carbon	-5169
▁retail	-5170
ocking	-5171
▁Work	-5172
▁Jackson	-5173
▁prime	-5174
▁originally	-5175
▁secure	-5176
▁Ok	-5177
▁Project	-5178
▁conducted	-5179
▁Haw	-5180
▁NAS	-5181
▁combat	-5182
▁$4	-5183
oty	-5184
▁era	-5185
▁random	-5186
issions	-5187
noon	-5188
▁remove	-5189
▁remained	-5190
mail	-5191
▁positions	-5192
DP	-5193
IP	-5194
▁pointed	-5195
▁youth	-5196
▁PM	-5197
icate	-5198
▁Island	-5199
▁$5	-5200
road	-5201
▁bought	-5202
▁Hol	-5203
▁factors	-5204
▁Meanwhile	-5205
pired	-5206
war	-5207
▁greatest	-5208
▁Sum	-5209
▁finish	-5210
▁Where	-5211
▁voting	-5212
▁trig	-5213
▁expressed	-5214
▁clin	-5215
▁Pac	-5216
▁cultural	-5217
lyn	-5218
▁Labour	-5219
▁methods	-5220
▁Daily	-5221
▁sale	-5222
▁appearance	-5223
▁tele	-5224
ours	-5225
ils	-5226
▁chemical	-5227
▁weren	-5228
▁BBC	-5229
▁hurt	-5230
▁rent	-5231
▁minimum	-5232
▁politicians	-5233
ENT	-5234
▁tourn	-5235
▁percentage	-5236
▁regime	-5237
▁stret	-5238
▁Space	-5239
▁involve	-5240
reens	-5241
▁facing	-5242
****	-5243
▁Force	-5244
▁din	-5245
▁signs	-5246
ashion	-5247
▁indeed	-5248
onom	-5249
▁supporting	-5250
▁argued	-5251
▁Dou	-5252
▁shape	-5253
ean	-5254
olved	-5255
▁shall	-5256
ss	-5257
▁significantly	-5258
▁affected	-5259
lymp	-5260
olit	-5261
ighters	-5262
ION	-5263
▁wood	-5264
▁plus	-5265
▁films	-5266
ownt	-5267
,'	-5268
▁thr	-5269
▁31	-5270
ordin	-5271
▁marg	-5272
▁Turkey	-5273
▁thank	-5274
▁Maybe	-5275
▁considering	-5276
▁depart	-5277
▁reduced	-5278
▁weapon	-5279
▁tact	-5280
IM	-5281
ini	-5282
▁1990	-5283
▁master	-5284
▁grew	-5285
▁excited	-5286
▁remaining	-5287
▁herself	-5288
▁determined	-5289
▁hun	-5290
▁handle	-5291
▁iPh	-5292
▁surprising	-5293
▁wearing	-5294
▁consumers	-5295
standing	-5296
rier	-5297
▁Look	-5298
▁recorded	-5299
▁experienced	-5300
▁videos	-5301
mm	-5302
OW	-5303
▁Road	-5304
▁//	-5305
ey	-5306
▁AT	-5307
▁leads	-5308
▁Human	-5309
ht	-5310
▁Supp	-5311
▁shift	-5312
▁obviously	-5313
essions	-5314
▁basically	-5315
▁aid	-5316
▁Rod	-5317
▁Ron	-5318
▁Wal	-5319
▁contrast	-5320
▁Av	-5321
▁Hy	-5322
rog	-5323
▁cas	-5324
▁apps	-5325
▁identify	-5326
▁Down	-5327
▁revenue	-5328
▁agent	-5329
▁seriously	-5330
arp	-5331
etic	-5332
▁switch	-5333
▁appreci	-5334
▁purchase	-5335
life	-5336
▁minute	-5337
▁prospect	-5338
▁zone	-5339
▁panel	-5340
▁belong	-5341
▁Ma	-5342
▁evening	-5343
▁glass	-5344
ruption	-5345
▁pulled	-5346
▁Develop	-5347
▁aircraft	-5348
▁hopes	-5349
▁accident	-5350
▁turning	-5351
▁opportunities	-5352
▁afternoon	-5353
▁listen	-5354
▁Director	-5355
gment	-5356
▁mode	-5357
▁Penn	-5358
▁seat	-5359
▁package	-5360
▁Olymp	-5361
▁emergency	-5362
▁subs	-5363
ller	-5364
:30	-5365
hab	-5366
hered	-5367
▁privacy	-5368
32	-5369
▁visual	-5370
plom	-5371
▁completed	-5372
▁Squ	-5373
▁explos	-5374
▁treated	-5375
▁proced	-5376
▁Wood	-5377
▁Ohio	-5378
oral	-5379
▁spring	-5380
▁ast	-5381
cohol	-5382
▁Fer	-5383
ogue	-5384
class	-5385
▁Techn	-5386
▁Sher	-5387
▁widely	-5388
▁passing	-5389
▁Somet	-5390
▁Ol	-5391
▁suit	-5392
▁advance	-5393
▁talked	-5394
▁bound	-5395
▁ends	-5396
▁attempts	-5397
▁discl	-5398
▁opposed	-5399
uts	-5400
▁suppl	-5401
▁lots	-5402
▁plants	-5403
nell	-5404
▁Phot	-5405
▁concent	-5406
▁renew	-5407
▁Vict	-5408
LE	-5409
▁struggle	-5410
apping	-5411
▁reporters	-5412
▁motiv	-5413
▁mort	-5414
▁copyright	-5415
()	-5416
▁differences	-5417
▁Lin	-5418
ensions	-5419
▁powers	-5420
▁liberal	-5421
sts	-5422
▁proceed	-5423
▁caption	-5424
ucks	-5425
▁sad	-5426
▁collabor	-5427
ket	-5428
▁Thank	-5429
ran	-5430
▁dismiss	-5431
gent	-5432
asp	-5433
ivered	-5434
UT	-5435
-5	-5436
osite	-5437
rawn	-5438
▁pages	-5439
▁Bus	-5440
aints	-5441
▁tun	-5442
estival	-5443
zer	-5444
▁Gen	-5445
pet	-5446
▁writes	-5447
▁hol	-5448
ato	-5449
raud	-5450
▁storm	-5451
▁Scot	-5452
ita	-5453
▁cart	-5454
employ	-5455
▁construct	-5456
uous	-5457
▁mal	-5458
▁element	-5459
▁default	-5460
▁Grand	-5461
abilities	-5462
▁disappoint	-5463
ributed	-5464
mond	-5465
lines	-5466
lo	-5467
▁valid	-5468
▁combined	-5469
▁appeal	-5470
▁2007	-5471
▁upgr	-5472
▁Week	-5473
▁instruct	-5474
▁reaction	-5475
▁burn	-5476
top	-5477
▁typically	-5478
▁AC	-5479
▁Kim	-5480
▁Again	-5481
▁Science	-5482
▁Seattle	-5483
▁Its	-5484
▁frust	-5485
that	-5486
▁enemy	-5487
ffee	-5488
▁responded	-5489
▁trouble	-5490
▁entertain	-5491
ache	-5492
▁batt	-5493
▁grab	-5494
▁Braz	-5495
erved	-5496
▁broadcast	-5497
elly	-5498
▁Jul	-5499
My	-5500
▁approved	-5501
▁Ire	-5502
75	-5503
▁capable	-5504
▁Afghanistan	-5505
▁Dani	-5506
▁id	-5507
▁CNN	-5508
PD	-5509
▁weather	-5510
▁calcul	-5511
▁gra	-5512
▁prompt	-5513
col	-5514
▁denied	-5515
▁factor	-5516
▁advert	-5517
▁Hen	-5518
▁confident	-5519
▁Four	-5520
▁Thanks	-5521
▁matters	-5522
esters	-5523
anged	-5524
isters	-5525
▁pitch	-5526
▁quant	-5527
▁ML	-5528
▁quiet	-5529
="	-5530
idel	-5531
▁Best	-5532
▁2013,	-5533
▁explo	-5534
▁severe	-5535
▁tradition	-5536
ompl	-5537
aped	-5538
▁sac	-5539
▁mand	-5540
care	-5541
▁Note	-5542
▁elimin	-5543
▁Ill	-5544
▁creation	-5545
oking	-5546
mosp	-5547
▁Life	-5548
▁reference	-5549
▁ongoing	-5550
Tr	-5551
▁reportedly	-5552
▁sets	-5553
free	-5554
▁diss	-5555
▁distance	-5556
▁institutions	-5557
▁craft	-5558
▁perspective	-5559
▁System	-5560
respond	-5561
oken	-5562
apter	-5563
▁Right	-5564
▁optim	-5565
▁ordered	-5566
ternal	-5567
abin	-5568
urb	-5569
▁suffered	-5570
▁stands	-5571
▁advice	-5572
▁faces	-5573
▁Vol	-5574
▁proud	-5575
▁movies	-5576
35	-5577
▁violent	-5578
adow	-5579
▁pictures	-5580
unte	-5581
▁transition	-5582
▁Rev	-5583
razy	-5584
▁Romney	-5585
▁experiences	-5586
▁explains	-5587
▁reporting	-5588
▁newspaper	-5589
▁messages	-5590
▁coast	-5591
▁guns	-5592
▁AD	-5593
▁numerous	-5594
Sh	-5595
▁Saudi	-5596
▁declared	-5597
▁crimes	-5598
22	-5599
▁declined	-5600
ilty	-5601
▁cloud	-5602
▁unable	-5603
▁Christmas	-5604
obe	-5605
▁Long	-5606
▁bodies	-5607
▁forget	-5608
▁satisf	-5609
ym	-5610
▁injured	-5611
▁updates	-5612
rd	-5613
▁approx	-5614
▁route	-5615
0000	-5616
▁van	-5617
▁emails	-5618
▁confidence	-5619
▁giant	-5620
▁fly	-5621
▁bull	-5622
dule	-5623
▁lit	-5624
:0	-5625
▁flag	-5626
▁cooper	-5627
▁circumst	-5628
,’	-5629
astern	-5630
IG	-5631
▁shouldn	-5632
gia	-5633
▁rail	-5634
▁loved	-5635
▁admitted	-5636
▁2012,	-5637
▁substant	-5638
▁Muslims	-5639
▁36	-5640
▁Upd	-5641
▁gather	-5642
▁thoughts	-5643
▁Stan	-5644
▁Far	-5645
▁delay	-5646
▁prin	-5647
pass	-5648
▁editor	-5649
▁delivered	-5650
ionally	-5651
▁Hel	-5652
▁Walk	-5653
▁excell	-5654
▁cann	-5655
▁technical	-5656
▁Ukraine	-5657
▁drivers	-5658
enda	-5659
▁publicly	-5660
▁Str	-5661
▁\	-5662
▁picked	-5663
▁Carl	-5664
▁lawyer	-5665
▁accompl	-5666
ishes	-5667
▁terrorist	-5668
called	-5669
▁forg	-5670
nergy	-5671
▁findings	-5672
▁auth	-5673
▁perman	-5674
▁Mount	-5675
▁appropriate	-5676
▁quarterback	-5677
ulations	-5678
oves	-5679
▁connected	-5680
cos	-5681
▁Gar	-5682
li	-5683
▁Ireland	-5684
▁activists	-5685
▁Michigan	-5686
▁Blue	-5687
▁married	-5688
▁Prem	-5689
▁GM	-5690
▁architect	-5691
rist	-5692
▁readers	-5693
▁pool	-5694
angers	-5695
▁emphas	-5696
PR	-5697
fere	-5698
▁iPhone	-5699
▁ourselves	-5700
uations	-5701
can	-5702
▁injuries	-5703
ampion	-5704
▁allegations	-5705
▁tech	-5706
▁eval	-5707
▁1980	-5708
ooth	-5709
▁Sov	-5710
host	-5711
▁leaves	-5712
▁effectively	-5713
▁rot	-5714
▁realize	-5715
▁argue	-5716
essor	-5717
▁armed	-5718
▁Cop	-5719
▁Lake	-5720
▁transform	-5721
▁walking	-5722
ansas	-5723
▁Swed	-5724
ellow	-5725
hew	-5726
▁session	-5727
▁secretary	-5728
mates	-5729
▁confirm	-5730
▁statements	-5731
▁Three	-5732
▁debut	-5733
▁dial	-5734
So	-5735
▁500	-5736
▁examples	-5737
long	-5738
▁contains	-5739
enture	-5740
▁practices	-5741
▁centre	-5742
▁agents	-5743
▁PR	-5744
▁Columb	-5745
▁franch	-5746
▁initially	-5747
,[	-5748
▁scheduled	-5749
resents	-5750
▁talent	-5751
rid	-5752
▁ISIS	-5753
▁Polit	-5754
▁diplom	-5755
▁dynam	-5756
▁essentially	-5757
▁crack	-5758
▁exercise	-5759
Tube	-5760
▁Ann	-5761
tion	-5762
▁Exp	-5763
▁god	-5764
abled	-5765
▁2016,	-5766
▁ID	-5767
▁Hou	-5768
33	-5769
▁Year	-5770
agers	-5771
▁Elect	-5772
▁missed	-5773
▁expansion	-5774
▁legit	-5775
▁objects	-5776
▁View	-5777
▁edge	-5778
▁patient	-5779
asure	-5780
unction	-5781
ounded	-5782
▁Lib	-5783
▁moral	-5784
▁Ram	-5785
▁magazine	-5786
▁TO	-5787
▁yesterday	-5788
▁motor	-5789
▁buildings	-5790
▁bond	-5791
▁advanced	-5792
▁label	-5793
▁Barack	-5794
arters	-5795
cons	-5796
▁Story	-5797
▁Cub	-5798
-8	-5799
▁tree	-5800
orry	-5801
▁Brazil	-5802
▁filled	-5803
▁rain	-5804
▁fish	-5805
▁governor	-5806
edy	-5807
▁Aff	-5808
ourney	-5809
▁graph	-5810
▁artist	-5811
▁wear	-5812
acter	-5813
64	-5814
▁Ariz	-5815
rant	-5816
enger	-5817
▁subsequ	-5818
▁materials	-5819
esome	-5820
▁thinks	-5821
ador	-5822
▁bare	-5823
▁hell	-5824
▁flo	-5825
▁linked	-5826
▁faced	-5827
▁Sar	-5828
▁performed	-5829
▁shop	-5830
▁suc	-5831
icing	-5832
▁Aut	-5833
▁nations	-5834
iat	-5835
orders	-5836
aza	-5837
ala	-5838
sembly	-5839
▁abandon	-5840
illy	-5841
24	-5842
▁warned	-5843
▁datab	-5844
▁everybody	-5845
▁Wik	-5846
▁athlet	-5847
▁pure	-5848
uls	-5849
orse	-5850
▁desire	-5851
▁causes	-5852
uild	-5853
▁Home	-5854
illance	-5855
▁announcement	-5856
▁consequences	-5857
▁Men	-5858
▁necessarily	-5859
▁subscrib	-5860
▁client	-5861
▁myster	-5862
▁playoff	-5863
▁ride	-5864
▁Board	-5865
▁surprised	-5866
athan	-5867
▁Sky	-5868
▁Enter	-5869
▁explan	-5870
▁radical	-5871
▁4,	-5872
▁improved	-5873
▁threats	-5874
▁Harr	-5875
▁accepted	-5876
▁facts	-5877
▁Author	-5878
▁incor	-5879
▁represents	-5880
▁listed	-5881
whel	-5882
ilit	-5883
▁Div	-5884
▁Perhaps	-5885
▁sam	-5886
▁lawsuit	-5887
▁brings	-5888
▁chart	-5889
▁AL	-5890
▁neither	-5891
▁Share	-5892
▁offense	-5893
▁Further	-5894
▁guilty	-5895
▁joint	-5896
water	-5897
▁remark	-5898
IR	-5899
ette	-5900
▁Next	-5901
▁pushed	-5902
▁doctor	-5903
▁4.	-5904
▁receiving	-5905
rip	-5906
▁adds	-5907
▁fort	-5908
▁ing	-5909
TV	-5910
▁af	-5911
▁democracy	-5912
▁Colorado	-5913
Le	-5914
▁rein	-5915
otic	-5916
▁Card	-5917
▁flood	-5918
itors	-5919
▁Vide	-5920
▁Di	-5921
▁ske	-5922
▁alt	-5923
▁increases	-5924
▁follows	-5925
▁parliament	-5926
▁spons	-5927
▁Brook	-5928
▁restaurant	-5929
▁row	-5930
▁resolution	-5931
rum	-5932
▁pra	-5933
▁plane	-5934
▁warm	-5935
word	-5936
▁stood	-5937
▁Club	-5938
▁interpret	-5939
▁Young	-5940
▁sought	-5941
▁philosop	-5942
amin	-5943
law	-5944
ywood	-5945
▁begins	-5946
▁existence	-5947
▁NBA	-5948
▁trib	-5949
▁Mic	-5950
▁Take	-5951
▁shots	-5952
TM	-5953
▁square	-5954
irty	-5955
▁config	-5956
▁storage	-5957
▁investors	-5958
▁distribution	-5959
▁Sports	-5960
▁Eric	-5961
▁Boy	-5962
▁applied	-5963
▁nearby	-5964
▁Korean	-5965
▁heads	-5966
omin	-5967
▁mir	-5968
TA	-5969
▁Gra	-5970
duc	-5971
burg	-5972
▁Fam	-5973
▁Econom	-5974
▁atmosp	-5975
▁creative	-5976
level	-5977
▁resident	-5978
▁Fil	-5979
▁behavi	-5980
▁articles	-5981
▁manufacture	-5982
▁Asia	-5983
fortunately	-5984
▁consumer	-5985
irds	-5986
II	-5987
▁$10	-5988
▁YouTube	-5989
▁rising	-5990
▁Ell	-5991
▁discussed	-5992
▁moves	-5993
----------------	-5994
▁island	-5995
▁alcohol	-5996
▁33	-5997
▁heavily	-5998
▁sav	-5999
▁phen	-6000
▁classes	-6001
▁DC	-6002
▁warning	-6003
alty	-6004
▁campus	-6005
▁entered	-6006
▁contest	-6007
▁succeed	-6008
▁roughly	-6009
▁rally	-6010
▁native	-6011
▁household	-6012
▁totally	-6013
▁scored	-6014
▁colleagues	-6015
▁bright	-6016
▁Mot	-6017
▁Games	-6018
▁Old	-6019
▁classic	-6020
acle	-6021
icious	-6022
▁lock	-6023
▁withd	-6024
▁resc	-6025
▁fairly	-6026
rich	-6027
▁boys	-6028
usal	-6029
▁vari	-6030
▁decre	-6031
▁currency	-6032
▁Charles	-6033
▁Du	-6034
▁enh	-6035
▁Women	-6036
▁Davis	-6037
▁fill	-6038
▁combination	-6039
born	-6040
▁Die	-6041
▁marketing	-6042
▁boss	-6043
▁younger	-6044
abb	-6045
▁Wild	-6046
▁songs	-6047
▁historical	-6048
ERS	-6049
arden	-6050
andal	-6051
▁split	-6052
▁deaths	-6053
▁networks	-6054
stood	-6055
▁stores	-6056
▁temperature	-6057
▁unlikely	-6058
▁entry	-6059
iques	-6060
▁library	-6061
▁metal	-6062
▁regulations	-6063
▁Kevin	-6064
▁correspond	-6065
▁anywhere	-6066
mitted	-6067
▁Van	-6068
hetic	-6069
▁Ins	-6070
▁symbol	-6071
greg	-6072
▁replaced	-6073
▁breaking	-6074
▁highlight	-6075
▁allegedly	-6076
▁output	-6077
▁Putin	-6078
▁Jews	-6079
▁targets	-6080
▁essential	-6081
▁consistent	-6082
▁Fig	-6083
▁Houston	-6084
▁shif	-6085
▁Cy	-6086
▁snow	-6087
▁manage	-6088
▁Rights	-6089
▁Arizona	-6090
▁favour	-6091
▁buying	-6092
MA	-6093
▁bike	-6094
▁Way	-6095
▁lie	-6096
PU	-6097
oked	-6098
▁downt	-6099
▁importance	-6100
▁prohib	-6101
▁Stephen	-6102
cho	-6103
▁sem	-6104
▁fewer	-6105
▁somewhat	-6106
▁Cruz	-6107
▁customer	-6108
etroit	-6109
▁functions	-6110
▁illust	-6111
▁(4	-6112
▁Child	-6113
▁waste	-6114
▁Tit	-6115
▁bag	-6116
edd	-6117
▁plot	-6118
▁hoping	-6119
uzz	-6120
▁Tay	-6121
▁string	-6122
▁moments	-6123
▁doctors	-6124
inem	-6125
ican	-6126
▁Defense	-6127
▁fraud	-6128
▁sym	-6129
▁sick	-6130
▁vice	-6131
▁Max	-6132
▁laugh	-6133
▁confront	-6134
▁facility	-6135
▁Brad	-6136
▁bug	-6137
▁hardware	-6138
▁button	-6139
SS	-6140
▁adults	-6141
▁tow	-6142
▁division	-6143
▁nav	-6144
▁IP	-6145
onna	-6146
▁zero	-6147
▁Valley	-6148
▁chain	-6149
▁schol	-6150
▁Pan	-6151
▁links	-6152
▁Energy	-6153
▁Java	-6154
▁motion	-6155
ulous	-6156
▁cere	-6157
▁defined	-6158
▁expression	-6159
▁protests	-6160
isp	-6161
west	-6162
▁promise	-6163
ensus	-6164
▁Arch	-6165
▁sees	-6166
▁Cast	-6167
▁blow	-6168
:5	-6169
▁Catholic	-6170
▁Bat	-6171
OD	-6172
olve	-6173
erves	-6174
▁versions	-6175
▁closely	-6176
ena	-6177
▁rum	-6178
▁opponent	-6179
LA	-6180
▁input	-6181
▁holds	-6182
▁opposite	-6183
▁tom	-6184
▁Stand	-6185
▁Jord	-6186
▁embr	-6187
▁squad	-6188
▁immigrants	-6189
▁Camer	-6190
▁returns	-6191
▁Mat	-6192
▁harder	-6193
▁Ital	-6194
▁fashion	-6195
▁flu	-6196
▁grown	-6197
twitter	-6198
▁volunte	-6199
▁Wat	-6200
.[3	-6201
▁hat	-6202
ician	-6203
anish	-6204
nam	-6205
agan	-6206
▁hur	-6207
▁acts	-6208
▁Tal	-6209
▁acknowled	-6210
▁circumstances	-6211
hips	-6212
▁Lord	-6213
▁2006	-6214
▁suffering	-6215
▁industrial	-6216
▁Soviet	-6217
▁relevant	-6218
▁Py	-6219
zy	-6220
▁intention	-6221
▁2015.	-6222
oma	-6223
▁isol	-6224
▁tiny	-6225
utch	-6226
▁flat	-6227
▁Palestinian	-6228
▁carrying	-6229
▁immediate	-6230
ologist	-6231
iger	-6232
▁signing	-6233
▁efficient	-6234
▁mine	-6235
▁Daniel	-6236
▁formed	-6237
efully	-6238
friend	-6239
power	-6240
▁ancient	-6241
▁artists	-6242
▁excellent	-6243
▁emotional	-6244
▁controversial	-6245
▁featured	-6246
▁empt	-6247
▁kinds	-6248
iami	-6249
▁tournament	-6250
game	-6251
▁2018	-6252
▁34	-6253
▁Jesus	-6254
kel	-6255
▁guide	-6256
▁cycle	-6257
ockey	-6258
▁syn	-6259
▁urban	-6260
▁CIA	-6261
▁earned	-6262
▁describe	-6263
▁2011,	-6264
▁updated	-6265
▁2016.	-6266
▁NASA	-6267
chers	-6268
▁Real	-6269
▁Miller	-6270
▁upcoming	-6271
▁NY	-6272
va	-6273
▁unus	-6274
▁Fort	-6275
▁detailed	-6276
▁Invest	-6277
▁authors	-6278
▁schedule	-6279
▁regional	-6280
nic	-6281
▁decline	-6282
/0	-6283
▁instru	-6284
▁pushing	-6285
▁newslet	-6286
▁Contin	-6287
chen	-6288
certain	-6289
▁Detroit	-6290
style	-6291
xy	-6292
▁wire	-6293
▁wave	-6294
▁extent	-6295
gas	-6296
▁Did	-6297
▁competitive	-6298
TS	-6299
atell	-6300
▁attempted	-6301
▁sharing	-6302
▁termin	-6303
▁subsid	-6304
▁relationships	-6305
▁universe	-6306
▁alongside	-6307
mission	-6308
▁participants	-6309
▁serving	-6310
▁owned	-6311
▁mechanism	-6312
ellect	-6313
▁repeatedly	-6314
▁referred	-6315
▁frequently	-6316
▁evolution	-6317
▁Dam	-6318
▁trick	-6319
▁crazy	-6320
▁comfortable	-6321
▁acting	-6322
▁End	-6323
awa	-6324
▁agenda	-6325
ographic	-6326
▁Class	-6327
hus	-6328
▁SC	-6329
▁opponents	-6330
▁pip	-6331
▁Wars	-6332
▁cheap	-6333
▁femin	-6334
▁unemploy	-6335
▁Finally	-6336
▁wins	-6337
▁meat	-6338
ocratic	-6339
▁realized	-6340
▁hotel	-6341
Get	-6342
ocket	-6343
def	-6344
▁protected	-6345
▁Love	-6346
▁Wilson	-6347
bar	-6348
▁strange	-6349
▁cert	-6350
-6	-6351
▁Check	-6352
▁causing	-6353
▁overwhel	-6354
▁lies	-6355
▁inspired	-6356
▁pregn	-6357
▁manner	-6358
▁fundamental	-6359
▁Brian	-6360
uated	-6361
rome	-6362
iveness	-6363
▁Ford	-6364
▁sister	-6365
▁reput	-6366
▁targeted	-6367
▁struck	-6368
▁Land	-6369
anes	-6370
IF	-6371
▁mouth	-6372
▁bon	-6373
▁battery	-6374
bel	-6375
▁egg	-6376
▁du	-6377
▁chairman	-6378
▁studio	-6379
▁rape	-6380
▁surveillance	-6381
▁basket	-6382
▁pled	-6383
ati	-6384
▁mainstream	-6385
ta	-6386
uable	-6387
▁congress	-6388
aze	-6389
▁commitment	-6390
▁virtual	-6391
▁2014.	-6392
▁surrounding	-6393
▁channel	-6394
▁assets	-6395
▁coffee	-6396
▁dedicated	-6397
▁sand	-6398
▁liqu	-6399
▁teachers	-6400
▁bat	-6401
▁orders	-6402
str	-6403
▁watched	-6404
▁PS	-6405
▁Click	-6406
▁aside	-6407
▁suicide	-6408
rive	-6409
▁walked	-6410
▁latter	-6411
adel	-6412
▁Jr	-6413
foot	-6414
weight	-6415
ko	-6416
▁usual	-6417
▁Bas	-6418
1)	-6419
ora	-6420
▁Miami	-6421
▁crash	-6422
▁Among	-6423
▁sending	-6424
▁Inf	-6425
▁1970	-6426
▁Adam	-6427
▁intent	-6428
▁Ep	-6429
▁Dun	-6430
gor	-6431
▁tort	-6432
luding	-6433
▁desk	-6434
▁Disney	-6435
▁sentence	-6436
▁kit	-6437
▁Organ	-6438
azi	-6439
▁column	-6440
▁fasc	-6441
▁narr	-6442
▁communication	-6443
phy	-6444
▁Italy	-6445
▁knowing	-6446
▁medic	-6447
▁deeply	-6448
▁posts	-6449
FP	-6450
▁simpl	-6451
▁approval	-6452
▁explore	-6453
▁alive	-6454
ua	-6455
▁Hollywood	-6456
▁depth	-6457
',	-6458
ii	-6459
edia	-6460
dit	-6461
ugh	-6462
▁Rog	-6463
New	-6464
▁ring	-6465
▁reward	-6466
▁stream	-6467
▁Kn	-6468
▁blame	-6469
▁noticed	-6470
▁Dar	-6471
woman	-6472
▁Win	-6473
She	-6474
umber	-6475
▁Bell	-6476
▁journey	-6477
iments	-6478
▁Georgia	-6479
▁properties	-6480
▁wake	-6481
▁wage	-6482
sex	-6483
▁attacked	-6484
gery	-6485
▁Water	-6486
▁territory	-6487
▁welcome	-6488
▁gap	-6489
▁risks	-6490
23	-6491
OC	-6492
▁Administ	-6493
comm	-6494
▁hall	-6495
iciency	-6496
▁exciting	-6497
▁48	-6498
acking	-6499
▁49	-6500
▁passion	-6501
▁west	-6502
▁eating	-6503
allas	-6504
otal	-6505
lock	-6506
▁promised	-6507
rors	-6508
▁sustain	-6509
▁properly	-6510
▁defeat	-6511
▁franchise	-6512
▁observ	-6513
▁promote	-6514
▁wal	-6515
▁Dig	-6516
▁literally	-6517
boy	-6518
▁folks	-6519
abis	-6520
▁fixed	-6521
print	-6522
ceived	-6523
▁Jordan	-6524
▁dealing	-6525
▁anyway	-6526
▁retire	-6527
▁Turn	-6528
▁refugees	-6529
▁locations	-6530
▁Sk	-6531
▁Labor	-6532
▁(5	-6533
▁winter	-6534
▁Unfortunately	-6535
acc	-6536
▁king	-6537
▁Light	-6538
▁unknown	-6539
▁skill	-6540
▁Steven	-6541
▁volume	-6542
▁sho	-6543
▁discover	-6544
▁Night	-6545
▁Special	-6546
avor	-6547
verty	-6548
▁precise	-6549
All	-6550
▁Irish	-6551
ingu	-6552
▁Company	-6553
▁remote	-6554
▁protesters	-6555
▁approximately	-6556
ixt	-6557
▁sky	-6558
imp	-6559
▁exhib	-6560
ether	-6561
▁Call	-6562
▁neut	-6563
▁extended	-6564
▁height	-6565
ulture	-6566
lv	-6567
▁gang	-6568
▁narrow	-6569
rence	-6570
Con	-6571
’.	-6572
▁Gall	-6573
▁Ah	-6574
▁Cam	-6575
▁requirements	-6576
ensity	-6577
▁selection	-6578
▁tested	-6579
▁teacher	-6580
▁abortion	-6581
▁conver	-6582
▁poverty	-6583
▁Turk	-6584
ORE	-6585
▁forth	-6586
▁observed	-6587
rations	-6588
▁Spanish	-6589
▁fees	-6590
▁38	-6591
▁shel	-6592
▁puts	-6593
▁disag	-6594
▁Moore	-6595
▁5.	-6596
▁Bru	-6597
▁phenomen	-6598
2)	-6599
▁OF	-6600
▁topic	-6601
▁deals	-6602
▁destroyed	-6603
erry	-6604
▁300	-6605
▁Conf	-6606
▁selected	-6607
▁terrorism	-6608
itarian	-6609
▁theme	-6610
▁critics	-6611
▁east	-6612
▁impressive	-6613
▁sweet	-6614
▁Victor	-6615
American	-6616
apse	-6617
▁requests	-6618
▁suddenly	-6619
sole	-6620
▁193	-6621
onymous	-6622
▁facilities	-6623
▁dry	-6624
▁chose	-6625
pool	-6626
▁diet	-6627
▁mistake	-6628
inson	-6629
▁worried	-6630
▁37	-6631
▁typical	-6632
▁oblig	-6633
▁involving	-6634
▁Ut	-6635
anges	-6636
dis	-6637
▁assume	-6638
▁Gi	-6639
▁Attorney	-6640
stone	-6641
esc	-6642
/201	-6643
28	-6644
▁Ret	-6645
Ar	-6646
▁Test	-6647
▁nomine	-6648
▁proof	-6649
▁matches	-6650
▁NHL	-6651
▁Jersey	-6652
▁Key	-6653
▁Society	-6654
raid	-6655
▁license	-6656
▁pal	-6657
▁Josh	-6658
▁village	-6659
▁diagn	-6660
owered	-6661
▁moder	-6662
▁5,	-6663
▁Lew	-6664
▁wid	-6665
oming	-6666
▁merely	-6667
▁supports	-6668
▁likes	-6669
▁Never	-6670
▁allies	-6671
ums	-6672
▁scheme	-6673
▁slowly	-6674
▁Coll	-6675
▁Vis	-6676
▁Scotland	-6677
▁northern	-6678
redit	-6679
▁Nick	-6680
ayers	-6681
▁2005	-6682
GBT	-6683
▁recognize	-6684
cr	-6685
ogan	-6686
▁Cat	-6687
▁adapt	-6688
▁pic	-6689
▁Which	-6690
▁Agency	-6691
axy	-6692
▁dress	-6693
ml	-6694
tle	-6695
asks	-6696
ipl	-6697
▁2010,	-6698
alle	-6699
▁sample	-6700
oster	-6701
To	-6702
gender	-6703
oration	-6704
ao	-6705
▁AR	-6706
▁prote	-6707
aug	-6708
▁Senator	-6709
oric	-6710
fire	-6711
▁condem	-6712
▁polls	-6713
▁drag	-6714
▁Dark	-6715
ocation	-6716
▁meetings	-6717
▁ped	-6718
▁Hun	-6719
celer	-6720
▁personally	-6721
rimination	-6722
▁obtained	-6723
▁somehow	-6724
▁maximum	-6725
▁arguments	-6726
▁controlled	-6727
▁communications	-6728
sters	-6729
▁understood	-6730
How	-6731
▁somewhere	-6732
▁bunch	-6733
▁format	-6734
▁equival	-6735
▁MS	-6736
▁Review	-6737
▁bench	-6738
▁Minnes	-6739
arn	-6740
▁Business	-6741
ads	-6742
▁honor	-6743
▁Network	-6744
▁Nations	-6745
▁Asian	-6746
▁winner	-6747
▁profit	-6748
cers	-6749
▁harass	-6750
▁transp	-6751
▁exposed	-6752
DS	-6753
▁Care	-6754
alo	-6755
▁encourage	-6756
cow	-6757
▁punish	-6758
▁journalists	-6759
owa	-6760
▁Cross	-6761
aire	-6762
▁NE	-6763
▁deck	-6764
▁75	-6765
▁southern	-6766
▁NBC	-6767
▁constant	-6768
▁employee	-6769
▁cutting	-6770
▁bid	-6771
dro	-6772
asts	-6773
aser	-6774
orted	-6775
▁Such	-6776
▁limits	-6777
▁sole	-6778
▁OS	-6779
lder	-6780
26	-6781
▁deleg	-6782
▁strongly	-6783
▁rub	-6784
▁Sn	-6785
▁champion	-6786
regon	-6787
▁phase	-6788
po	-6789
▁comparison	-6790
▁driven	-6791
▁inqu	-6792
▁Joseph	-6793
▁Fre	-6794
▁Civil	-6795
200	-6796
▁regions	-6797
▁resistance	-6798
▁Educ	-6799
▁Source	-6800
▁emissions	-6801
obile	-6802
▁claiming	-6803
▁finds	-6804
onic	-6805
▁desper	-6806
▁officially	-6807
▁goods	-6808
▁Oper	-6809
▁comprom	-6810
▁Sea	-6811
▁truck	-6812
you	-6813
▁flex	-6814
▁database	-6815
▁trees	-6816
list	-6817
▁ties	-6818
han	-6819
▁pod	-6820
zens	-6821
▁Foreign	-6822
▁gotten	-6823
▁decent	-6824
▁definition	-6825
pected	-6826
essed	-6827
▁CD	-6828
▁Come	-6829
iform	-6830
osis	-6831
▁ruled	-6832
▁seats	-6833
pes	-6834
wan	-6835
lls	-6836
eping	-6837
▁Thus	-6838
ciples	-6839
▁Kelly	-6840
▁fifth	-6841
▁bear	-6842
▁escape	-6843
asters	-6844
enders	-6845
intend	-6846
▁fuck	-6847
▁Taylor	-6848
▁falling	-6849
▁Dallas	-6850
▁Program	-6851
:4	-6852
▁anx	-6853
▁Spain	-6854
▁Minnesota	-6855
▁icon	-6856
▁directed	-6857
arity	-6858
▁amounts	-6859
▁electricity	-6860
▁vacc	-6861
▁fighters	-6862
▁stretch	-6863
VER	-6864
▁Hot	-6865
▁ending	-6866
▁developer	-6867
ivery	-6868
▁$6	-6869
▁drawn	-6870
Al	-6871
▁stronger	-6872
▁brew	-6873
▁rival	-6874
sea	-6875
▁threatened	-6876
ems	-6877
▁Tony	-6878
igation	-6879
▁payments	-6880
▁unw	-6881
▁Indeed	-6882
▁regularly	-6883
▁hits	-6884
▁extensive	-6885
%)	-6886
isan	-6887
▁purposes	-6888
▁Run	-6889
▁chosen	-6890
▁anymore	-6891
▁Championship	-6892
▁Academ	-6893
▁Has	-6894
▁rejected	-6895
▁evil	-6896
▁profile	-6897
name	-6898
▁Services	-6899
▁somebody	-6900
▁spin	-6901
▁colon	-6902
rary	-6903
▁reveal	-6904
▁rig	-6905
▁ideal	-6906
▁parking	-6907
▁constantly	-6908
izz	-6909
vy	-6910
▁Anth	-6911
iner	-6912
rett	-6913
▁thread	-6914
NC	-6915
▁solutions	-6916
▁Tem	-6917
▁primarily	-6918
irms	-6919
▁dogs	-6920
▁Southern	-6921
▁DNA	-6922
▁retain	-6923
▁stim	-6924
▁ble	-6925
▁incl	-6926
▁intellect	-6927
icken	-6928
-10	-6929
▁reasonable	-6930
▁contem	-6931
▁choices	-6932
▁perfectly	-6933
▁narrative	-6934
▁actor	-6935
▁courts	-6936
▁Dead	-6937
▁answers	-6938
▁upper	-6939
▁Following	-6940
▁Os	-6941
▁soul	-6942
▁estimates	-6943
▁distinct	-6944
▁apartment	-6945
owed	-6946
-7	-6947
Cl	-6948
▁kil	-6949
▁awesome	-6950
ura	-6951
▁engage	-6952
▁incredible	-6953
▁fields	-6954
▁trading	-6955
▁contributed	-6956
▁Italian	-6957
post	-6958
▁captured	-6959
▁employment	-6960
▁elsewhere	-6961
▁empty	-6962
."[	-6963
▁worldwide	-6964
▁encoun	-6965
▁houses	-6966
fast	-6967
▁fold	-6968
▁Oregon	-6969
▁mixed	-6970
▁crucial	-6971
▁boot	-6972
mann	-6973
Pro	-6974
▁Major	-6975
▁Ult	-6976
▁province	-6977
▁resulting	-6978
27	-6979
▁Orig	-6980
▁technologies	-6981
▁coalition	-6982
▁Foot	-6983
▁Have	-6984
▁aspects	-6985
▁weird	-6986
▁baseball	-6987
▁McG	-6988
▁programming	-6989
▁History	-6990
▁demands	-6991
▁dozen	-6992
▁payment	-6993
ali	-6994
▁innoc	-6995
▁bills	-6996
▁Constitution	-6997
95	-6998
▁Food	-6999
▁founder	-7000
▁returning	-7001
iscal	-7002
▁nobody	-7003
▁Id	-7004
inations	-7005
▁registered	-7006
▁incredibly	-7007
▁clients	-7008
▁Nation	-7009
▁controls	-7010
▁loan	-7011
rehens	-7012
▁signal	-7013
▁unp	-7014
▁components	-7015
▁Roman	-7016
pan	-7017
▁mayor	-7018
▁Jason	-7019
▁feedback	-7020
▁Rick	-7021
▁Sever	-7022
ilarly	-7023
agram	-7024
▁informed	-7025
▁Full	-7026
▁drinking	-7027
........	-7028
▁situations	-7029
▁enemies	-7030
▁assistant	-7031
ship	-7032
▁Make	-7033
▁Global	-7034
▁constit	-7035
▁rus	-7036
▁Pay	-7037
▁letters	-7038
otes	-7039
▁keeps	-7040
▁sight	-7041
▁6,	-7042
▁roster	-7043
▁flying	-7044
▁ticket	-7045
▁enthus	-7046
▁excess	-7047
▁raising	-7048
▁bitcoin	-7049
▁exists	-7050
▁organized	-7051
▁Lo	-7052
▁Saf	-7053
iana	-7054
▁tied	-7055
rates	-7056
▁reporter	-7057
▁murd	-7058
icer	-7059
▁Bowl	-7060
▁param	-7061
UR	-7062
▁stead	-7063
▁compens	-7064
▁outcome	-7065
▁continuing	-7066
▁paint	-7067
▁chances	-7068
▁conven	-7069
▁angry	-7070
earing	-7071
emen	-7072
▁Ray	-7073
▁Greg	-7074
▁concluded	-7075
lights	-7076
Our	-7077
adelph	-7078
▁Parliament	-7079
▁tank	-7080
▁atmosphere	-7081
▁IT	-7082
▁titles	-7083
▁accurate	-7084
otten	-7085
▁complaint	-7086
acked	-7087
▁Balt	-7088
▁writers	-7089
▁terrible	-7090
▁aggressive	-7091
mont	-7092
oil	-7093
anchester	-7094
▁routine	-7095
▁generate	-7096
▁penalty	-7097
▁Henry	-7098
lers	-7099
▁gro	-7100
▁proved	-7101
▁aimed	-7102
Bl	-7103
▁FC	-7104
▁($	-7105
onsin	-7106
▁techniques	-7107
▁category	-7108
▁machines	-7109
▁granted	-7110
▁recovery	-7111
▁Start	-7112
▁Moscow	-7113
▁newly	-7114
isconsin	-7115
▁explanation	-7116
▁imper	-7117
▁manip	-7118
▁shares	-7119
▁gaming	-7120
esy	-7121
38	-7122
ifer	-7123
▁Hom	-7124
▁stuck	-7125
adelphia	-7126
▁lawmakers	-7127
▁(200	-7128
▁conclusion	-7129
there	-7130
▁conspir	-7131
▁myth	-7132
▁Live	-7133
gorith	-7134
▁dollar	-7135
▁veteran	-7136
▁2013.	-7137
▁magic	-7138
▁Viet	-7139
▁capture	-7140
▁Linux	-7141
sell	-7142
▁consumption	-7143
▁tall	-7144
▁estate	-7145
▁represented	-7146
▁pilot	-7147
▁engaged	-7148
inity	-7149
▁audio	-7150
apes	-7151
▁anticip	-7152
▁nut	-7153
ker	-7154
▁scenes	-7155
▁infect	-7156
hent	-7157
▁Mu	-7158
▁lawyers	-7159
inding	-7160
▁plastic	-7161
ifications	-7162
▁Pacific	-7163
ez	-7164
itals	-7165
▁Judge	-7166
▁complicated	-7167
bal	-7168
▁Iowa	-7169
▁Zeal	-7170
▁ads	-7171
▁LGBT	-7172
▁worker	-7173
▁habit	-7174
chain	-7175
anny	-7176
actions	-7177
▁successfully	-7178
▁therap	-7179
▁Alab	-7180
▁county	-7181
▁advis	-7182
▁phr	-7183
▁degrees	-7184
▁Video	-7185
▁solve	-7186
▁permanent	-7187
▁satell	-7188
▁Bull	-7189
▁attended	-7190
elect	-7191
▁assistance	-7192
sm	-7193
On	-7194
▁taught	-7195
▁root	-7196
▁Ash	-7197
▁downtown	-7198
▁afraid	-7199
▁automatically	-7200
▁monit	-7201
▁vulnerable	-7202
▁Kurd	-7203
▁ru	-7204
▁Hor	-7205
▁Through	-7206
▁Does	-7207
era	-7208
▁Jac	-7209
▁Northern	-7210
▁sympt	-7211
▁Report	-7212
itar	-7213
uan	-7214
],	-7215
▁crypt	-7216
▁Kent	-7217
▁western	-7218
▁entit	-7219
mod	-7220
▁recording	-7221
▁inspir	-7222
▁Rand	-7223
▁operate	-7224
▁Wisconsin	-7225
▁Development	-7226
▁championship	-7227
ye	-7228
▁fake	-7229
▁reputation	-7230
▁Nob	-7231
▁Manchester	-7232
▁overse	-7233
▁comic	-7234
▁Philadelphia	-7235
▁Policy	-7236
▁Data	-7237
▁Snow	-7238
▁Eastern	-7239
▁privile	-7240
inder	-7241
▁rating	-7242
▁warming	-7243
▁passes	-7244
▁phones	-7245
▁academic	-7246
rete	-7247
▁installed	-7248
▁regardless	-7249
car	-7250
▁iron	-7251
].	-7252
▁bom	-7253
▁surgery	-7254
An	-7255
idency	-7256
▁taste	-7257
▁dict	-7258
ima	-7259
▁conscious	-7260
HS	-7261
star	-7262
▁blocks	-7263
▁Det	-7264
▁Oak	-7265
lan	-7266
▁Greek	-7267
▁teaching	-7268
▁survive	-7269
▁uncertain	-7270
▁Mid	-7271
▁Avenue	-7272
CE	-7273
▁bes	-7274
▁cable	-7275
▁44	-7276
▁resulted	-7277
rific	-7278
aron	-7279
▁elite	-7280
aed	-7281
▁Series	-7282
▁disaster	-7283
▁mainly	-7284
▁accomp	-7285
▁Using	-7286
▁visited	-7287
▁marked	-7288
▁troub	-7289
▁duty	-7290
uine	-7291
▁Bry	-7292
▁pace	-7293
▁enable	-7294
▁valuable	-7295
▁’	-7296
▁enjoyed	-7297
▁Coast	-7298
▁defence	-7299
▁racial	-7300
▁AS	-7301
29	-7302
▁stations	-7303
▁depending	-7304
LC	-7305
▁Fund	-7306
▁extrem	-7307
cus	-7308
3)	-7309
.00	-7310
▁cup	-7311
▁150	-7312
▁tracks	-7313
▁Moh	-7314
ras	-7315
▁emerged	-7316
▁principles	-7317
▁hidden	-7318
▁7,	-7319
▁pounds	-7320
month	-7321
▁hadn	-7322
▁equivalent	-7323
▁Professor	-7324
▁Without	-7325
▁intense	-7326
▁pin	-7327
▁contracts	-7328
quarters	-7329
▁Mayor	-7330
▁spr	-7331
▁Hard	-7332
rypt	-7333
rating	-7334
▁apolog	-7335
▁coordin	-7336
▁browser	-7337
▁collected	-7338
▁busy	-7339
▁cited	-7340
▁55	-7341
▁Alabama	-7342
21	-7343
▁minority	-7344
▁describes	-7345
▁generated	-7346
▁thin	-7347
▁extract	-7348
▁Fred	-7349
▁funny	-7350
Donald	-7351
▁prominent	-7352
ibilities	-7353
Un	-7354
▁negotiations	-7355
▁Harry	-7356
prise	-7357
▁possession	-7358
▁index	-7359
▁personnel	-7360
▁2004	-7361
ashes	-7362
▁ok	-7363
aun	-7364
▁veget	-7365
gun	-7366
▁grant	-7367
▁unusual	-7368
%.	-7369
▁sufficient	-7370
fr	-7371
▁elev	-7372
▁extension	-7373
▁taxp	-7374
ria	-7375
At	-7376
▁Kir	-7377
etary	-7378
▁compete	-7379
▁portion	-7380
▁Ros	-7381
37	-7382
▁Zealand	-7383
36	-7384
antic	-7385
▁rarely	-7386
▁recru	-7387
▁cameras	-7388
world	-7389
▁advertising	-7390
▁permission	-7391
cles	-7392
’,	-7393
▁adopted	-7394
▁corruption	-7395
▁Use	-7396
▁medium	-7397
iro	-7398
▁tag	-7399
▁shortly	-7400
▁feelings	-7401
▁processes	-7402
##	-7403
▁1,000	-7404
▁Premier	-7405
▁priority	-7406
▁sanctions	-7407
ba	-7408
bro	-7409
▁Atlanta	-7410
▁firms	-7411
▁64	-7412
aturally	-7413
fall	-7414
▁engineering	-7415
▁Arm	-7416
upid	-7417
Photo	-7418
▁finance	-7419
▁Sometimes	-7420
▁OK	-7421
▁Reuters	-7422
▁brut	-7423
▁Hit	-7424
▁Turkish	-7425
rell	-7426
▁Point	-7427
da	-7428
▁Several	-7429
ules	-7430
▁gall	-7431
▁$7	-7432
▁Given	-7433
▁10,	-7434
▁ESP	-7435
▁Navy	-7436
▁inev	-7437
▁expectations	-7438
▁propag	-7439
▁Build	-7440
ilton	-7441
scape	-7442
▁List	-7443
rently	-7444
▁SP	-7445
▁2012.	-7446
▁scenario	-7447
▁discipl	-7448
▁sharp	-7449
▁NC	-7450
ogether	-7451
▁strict	-7452
▁sup	-7453
▁ven	-7454
▁exposure	-7455
rep	-7456
▁mail	-7457
MP	-7458
▁ridic	-7459
▁blind	-7460
▁Little	-7461
▁Sir	-7462
85	-7463
ikes	-7464
▁historic	-7465
▁enorm	-7466
▁recip	-7467
▁Fair	-7468
writ	-7469
▁fought	-7470
▁participate	-7471
▁Music	-7472
▁tur	-7473
▁Royal	-7474
▁Education	-7475
▁cyber	-7476
idelines	-7477
athy	-7478
▁explicit	-7479
▁losses	-7480
86	-7481
▁Lind	-7482
eland	-7483
▁Hay	-7484
▁mel	-7485
▁Independ	-7486
▁basketball	-7487
▁ju	-7488
▁algorith	-7489
▁CH	-7490
▁Nic	-7491
▁affili	-7492
▁Amendment	-7493
front	-7494
▁Season	-7495
▁dim	-7496
▁footage	-7497
34	-7498
▁Scient	-7499
▁plug	-7500
▁bridge	-7501
istent	-7502
▁clubs	-7503
▁acceler	-7504
▁everywhere	-7505
▁wing	-7506
▁implementation	-7507
▁Mir	-7508
▁Market	-7509
▁fee	-7510
▁Gov	-7511
▁patterns	-7512
▁saved	-7513
▁lights	-7514
weet	-7515
▁Link	-7516
orough	-7517
wr	-7518
▁ho	-7519
▁obst	-7520
viously	-7521
▁thick	-7522
▁agric	-7523
profit	-7524
▁laid	-7525
aska	-7526
▁Pen	-7527
▁stab	-7528
▁uncom	-7529
▁stable	-7530
mal	-7531
▁dozens	-7532
▁Stat	-7533
▁Pack	-7534
umer	-7535
making	-7536
▁founded	-7537
htt	-7538
ilipp	-7539
▁episodes	-7540
▁1960	-7541
▁65	-7542
▁loud	-7543
▁airport	-7544
▁behalf	-7545
ifies	-7546
▁Ren	-7547
▁strikes	-7548
▁Administration	-7549
azz	-7550
pread	-7551
xic	-7552
athered	-7553
▁photograph	-7554
▁computers	-7555
▁creates	-7556
▁Ont	-7557
▁Rose	-7558
▁visible	-7559
ni	-7560
▁2009,	-7561
▁shock	-7562
▁stadium	-7563
▁Es	-7564
▁%	-7565
▁thousand	-7566
found	-7567
▁scoring	-7568
▁VR	-7569
▁counsel	-7570
▁yield	-7571
▁McCain	-7572
▁fault	-7573
▁stun	-7574
▁headed	-7575
▁profession	-7576
izon	-7577
▁spark	-7578
▁39	-7579
▁tor	-7580
olt	-7581
▁genuine	-7582
▁Conference	-7583
umin	-7584
▁cycl	-7585
▁Kingdom	-7586
▁wonderful	-7587
▁Luc	-7588
▁pump	-7589
asion	-7590
▁banned	-7591
▁UFC	-7592
▁component	-7593
▁www	-7594
▁Head	-7595
▁Information	-7596
▁Rus	-7597
▁toler	-7598
igg	-7599
▁Patrick	-7600
orne	-7601
oured	-7602
rative	-7603
▁recognized	-7604
active	-7605
▁Bernie	-7606
▁cannabis	-7607
▁interface	-7608
-9	-7609
▁uniform	-7610
imore	-7611
▁rely	-7612
▁Diego	-7613
▁foundation	-7614
▁philosophy	-7615
▁establishment	-7616
▁8,	-7617
▁formal	-7618
▁struggling	-7619
olis	-7620
Oh	-7621
▁Radio	-7622
▁edition	-7623
▁gained	-7624
osexual	-7625
▁journalist	-7626
100	-7627
▁Cre	-7628
/11	-7629
mate	-7630
▁backed	-7631
▁manufacturing	-7632
arsh	-7633
▁Whether	-7634
▁principle	-7635
etime	-7636
▁tackle	-7637
▁Matthew	-7638
tes	-7639
idespread	-7640
▁arrange	-7641
▁ABC	-7642
▁Ice	-7643
▁outr	-7644
inking	-7645
▁deliber	-7646
▁Related	-7647
▁barely	-7648
▁Email	-7649
▁borrow	-7650
▁producer	-7651
▁Centre	-7652
who	-7653
▁liked	-7654
▁magn	-7655
▁flaw	-7656
▁Circ	-7657
▁interviews	-7658
ogen	-7659
▁exception	-7660
ATE	-7661
▁Sat	-7662
▁wheel	-7663
ded	-7664
▁relief	-7665
bell	-7666
rators	-7667
▁drawing	-7668
▁Ly	-7669
▁destruction	-7670
▁Medical	-7671
▁NAT	-7672
▁Christians	-7673
ington	-7674
▁Field	-7675
aching	-7676
▁neighb	-7677
50,000	-7678
▁Anthony	-7679
etts	-7680
▁achieved	-7681
▁hole	-7682
▁neutral	-7683
▁Earlier	-7684
▁languages	-7685
log	-7686
▁entering	-7687
▁Cameron	-7688
aus	-7689
▁hang	-7690
▁crop	-7691
▁Cook	-7692
▁gift	-7693
▁Former	-7694
ounced	-7695
▁river	-7696
ked	-7697
▁SH	-7698
▁Ext	-7699
▁ships	-7700
she	-7701
▁cha	-7702
▁hired	-7703
text	-7704
▁Jay	-7705
▁Academy	-7706
sylv	-7707
MS	-7708
interest	-7709
▁beliefs	-7710
igen	-7711
▁discrimination	-7712
teen	-7713
▁Conservative	-7714
▁indicate	-7715
lete	-7716
abs	-7717
▁convin	-7718
▁nominee	-7719
▁bath	-7720
▁roles	-7721
▁legend	-7722
▁Community	-7723
ami	-7724
▁retired	-7725
▁(6	-7726
▁delivery	-7727
▁CO	-7728
eman	-7729
▁WH	-7730
▁Fed	-7731
core	-7732
▁Battle	-7733
▁Kat	-7734
▁movements	-7735
uer	-7736
________________	-7737
oen	-7738
▁aver	-7739
▁doors	-7740
▁withdraw	-7741
▁plate	-7742
ologists	-7743
amber	-7744
▁Kansas	-7745
▁Walker	-7746
77	-7747
▁farmers	-7748
EA	-7749
rous	-7750
▁synt	-7751
▁containing	-7752
▁challenging	-7753
abinet	-7754
▁convicted	-7755
▁2017.	-7756
▁gonna	-7757
▁Hell	-7758
▁Mah	-7759
▁reviews	-7760
▁structures	-7761
▁2008,	-7762
iti	-7763
▁finger	-7764
▁Brew	-7765
enth	-7766
▁smooth	-7767
▁ren	-7768
▁11,	-7769
▁Set	-7770
▁forever	-7771
▁restrictions	-7772
imm	-7773
▁bra	-7774
▁proven	-7775
▁flash	-7776
▁upset	-7777
CS	-7778
away	-7779
▁incent	-7780
portion	-7781
▁hitting	-7782
▁technique	-7783
▁Ale	-7784
▁producing	-7785
▁Pennsylv	-7786
▁exclusive	-7787
burgh	-7788
▁Having	-7789
▁Ball	-7790
olen	-7791
ulating	-7792
riers	-7793
▁unemployment	-7794
▁Tri	-7795
▁dinner	-7796
▁notion	-7797
▁processing	-7798
▁corporations	-7799
▁Action	-7800
lessly	-7801
▁Albert	-7802
▁electronic	-7803
▁Pot	-7804
▁Tenn	-7805
Ex	-7806
▁Pop	-7807
TH	-7808
ystem	-7809
▁asks	-7810
uce	-7811
▁SS	-7812
iel	-7813
▁ESPN	-7814
▁widespread	-7815
▁begun	-7816
▁Division	-7817
▁websites	-7818
▁ham	-7819
▁suggesting	-7820
▁hide	-7821
▁rose	-7822
▁walls	-7823
arrass	-7824
▁contained	-7825
▁description	-7826
▁grass	-7827
▁NSA	-7828
yard	-7829
▁Person	-7830
ouver	-7831
▁loyal	-7832
▁unex	-7833
this	-7834
▁Austin	-7835
rik	-7836
▁util	-7837
▁Philipp	-7838
▁reduction	-7839
▁ocean	-7840
▁Ap	-7841
▁Town	-7842
ferences	-7843
▁friendly	-7844
▁overwhelming	-7845
▁featuring	-7846
▁contribute	-7847
▁scream	-7848
▁CBS	-7849
▁fiscal	-7850
▁recognition	-7851
ca	-7852
▁Beach	-7853
▁Latin	-7854
▁perpet	-7855
▁recover	-7856
▁0.0	-7857
amsung	-7858
▁robot	-7859
▁bail	-7860
▁Pennsylvania	-7861
▁rapidly	-7862
UL	-7863
▁Core	-7864
pload	-7865
▁tickets	-7866
▁progressive	-7867
usive	-7868
▁Family	-7869
▁viewers	-7870
%,	-7871
then	-7872
RS	-7873
obs	-7874
▁equally	-7875
▁Allen	-7876
ja	-7877
▁branch	-7878
▁(0	-7879
▁Ra	-7880
▁intellectual	-7881
Man	-7882
achus	-7883
▁Environment	-7884
▁indicated	-7885
sa	-7886
▁racist	-7887
▁campaigns	-7888
▁complaints	-7889
One	-7890
▁normally	-7891
▁Ross	-7892
▁external	-7893
▁(201	-7894
▁collapse	-7895
▁joining	-7896
▁prepare	-7897
▁Anton	-7898
▁reaching	-7899
appy	-7900
engers	-7901
▁deputy	-7902
▁reducing	-7903
▁terrorists	-7904
▁devast	-7905
▁independence	-7906
BO	-7907
▁welf	-7908
▁anger	-7909
Be	-7910
ho	-7911
▁ethnic	-7912
▁Greece	-7913
▁elig	-7914
▁menu	-7915
uma	-7916
▁carefully	-7917
▁convinced	-7918
adi	-7919
▁Adv	-7920
▁initiative	-7921
▁listening	-7922
cription	-7923
88	-7924
ancouver	-7925
▁ON	-7926
▁Ministry	-7927
▁Pass	-7928
▁thrown	-7929
▁lobby	-7930
▁practical	-7931
▁Xbox	-7932
bn	-7933
▁touchdown	-7934
▁welfare	-7935
▁Arabia	-7936
▁sugar	-7937
ione	-7938
▁strategic	-7939
▁Brother	-7940
▁fantasy	-7941
▁sensitive	-7942
▁Stone	-7943
▁framework	-7944
▁illness	-7945
bec	-7946
nedy	-7947
))	-7948
▁Baltimore	-7949
▁failing	-7950
▁Roy	-7951
▁Golden	-7952
▁Anderson	-7953
▁hardly	-7954
uties	-7955
▁hook	-7956
▁representative	-7957
▁settlement	-7958
igrant	-7959
▁investigate	-7960
▁remarks	-7961
▁lists	-7962
Getty	-7963
▁HD	-7964
▁invent	-7965
veland	-7966
▁42	-7967
udes	-7968
▁Pent	-7969
▁respectively	-7970
▁mo	-7971
enny	-7972
rolled	-7973
▁Later	-7974
usted	-7975
▁frag	-7976
▁Cost	-7977
▁smoke	-7978
▁Bon	-7979
▁Museum	-7980
▁Keep	-7981
▁roads	-7982
▁Square	-7983
▁tail	-7984
▁MORE	-7985
worth	-7986
▁Queen	-7987
▁citizen	-7988
▁exceed	-7989
▁9,	-7990
page	-7991
▁discovery	-7992
owing	-7993
▁Connect	-7994
rient	-7995
▁scandal	-7996
▁NOT	-7997
achusetts	-7998
iversary	-7999
▁behaviour	-8000
▁scholars	-8001
PG	-8002
▁rural	-8003
▁cos	-8004
▁wages	-8005
▁array	-8006
▁46	-8007
▁captain	-8008
▁screens	-8009
▁involvement	-8010
▁unclear	-8011
rical	-8012
▁remem	-8013
▁Freedom	-8014
▁constitutional	-8015
▁temporary	-8016
▁inject	-8017
▁invited	-8018
▁Samsung	-8019
▁connections	-8020
▁discussions	-8021
▁WW	-8022
▁Sony	-8023
▁Plus	-8024
anna	-8025
▁shit	-8026
▁Gun	-8027
ifest	-8028
▁6.	-8029
▁III	-8030
heast	-8031
▁jury	-8032
tering	-8033
▁spaces	-8034
sels	-8035
▁disagree	-8036
thon	-8037
▁400	-8038
▁civilians	-8039
▁collective	-8040
▁Prov	-8041
▁Liver	-8042
▁Columbia	-8043
unior	-8044
▁association	-8045
▁neighbour	-8046
.[4	-8047
jo	-8048
▁Santa	-8049
▁licens	-8050
▁heading	-8051
rator	-8052
fare	-8053
▁improvements	-8054
▁wars	-8055
umes	-8056
▁Was	-8057
▁deeper	-8058
▁Aud	-8059
▁transgender	-8060
▁overt	-8061
▁referring	-8062
▁Update	-8063
▁scores	-8064
▁vary	-8065
▁controversy	-8066
▁AND	-8067
▁Spring	-8068
▁minds	-8069
▁alien	-8070
phones	-8071
een	-8072
▁2017,	-8073
▁Broad	-8074
allel	-8075
▁Vancouver	-8076
▁Ho	-8077
▁statistics	-8078
▁gathered	-8079
▁platforms	-8080
▁luck	-8081
▁attempting	-8082
▁accus	-8083
▁vital	-8084
lad	-8085
▁Six	-8086
▁Howard	-8087
▁democratic	-8088
aning	-8089
▁Tro	-8090
icket	-8091
▁comprehens	-8092
Pe	-8093
senal	-8094
▁anybody	-8095
▁Massachusetts	-8096
▁trained	-8097
▁serves	-8098
osit	-8099
ources	-8100
▁Bad	-8101
4)	-8102
ecut	-8103
▁Chair	-8104
▁wine	-8105
▁incorpor	-8106
wo	-8107
▁fiction	-8108
▁Dev	-8109
▁->	-8110
▁47	-8111
▁legs	-8112
▁Copy	-8113
▁Harris	-8114
gener	-8115
▁define	-8116
▁Dave	-8117
▁Death	-8118
▁Kennedy	-8119
▁regulation	-8120
aka	-8121
▁handful	-8122
▁fears	-8123
▁tone	-8124
▁awareness	-8125
▁API	-8126
▁visitors	-8127
▁ownership	-8128
▁recommended	-8129
yer	-8130
▁Ott	-8131
▁Lewis	-8132
▁attacking	-8133
▁Lim	-8134
▁€	-8135
▁extend	-8136
▁register	-8137
oding	-8138
▁stupid	-8139
▁Ba	-8140
▁sin	-8141
▁dynamic	-8142
▁Guardian	-8143
▁tweeted	-8144
▁purchased	-8145
PM	-8146
hour	-8147
ouch	-8148
▁suffer	-8149
▁Yeah	-8150
▁milk	-8151
▁Main	-8152
▁entertainment	-8153
▁expanded	-8154
▁races	-8155
▁versus	-8156
▁admit	-8157
▁gear	-8158
▁theat	-8159
▁suspected	-8160
▁noise	-8161
▁tasks	-8162
▁fab	-8163
angel	-8164
▁ignore	-8165
arry	-8166
▁peak	-8167
▁implemented	-8168
agg	-8169
▁Hop	-8170
icking	-8171
▁resource	-8172
▁tip	-8173
▁testim	-8174
▁Sus	-8175
▁investigators	-8176
▁ultimate	-8177
iry	-8178
▁salary	-8179
▁Exper	-8180
▁ranked	-8181
</	-8182
▁190	-8183
▁~	-8184
▁holiday	-8185
▁reven	-8186
from	-8187
▁Po	-8188
▁providers	-8189
▁actors	-8190
▁embarrass	-8191
▁displ	-8192
▁publication	-8193
▁prosec	-8194
▁Chel	-8195
▁UC	-8196
itionally	-8197
▁grounds	-8198
dem	-8199
▁2003	-8200
▁raw	-8201
▁horse	-8202
▁symptoms	-8203
▁jur	-8204
▁reprodu	-8205
▁factory	-8206
aret	-8207
▁recall	-8208
▁investigating	-8209
uros	-8210
▁samples	-8211
▁poly	-8212
▁Sure	-8213
▁subjects	-8214
▁Price	-8215
▁Iranian	-8216
▁Cleveland	-8217
▁advocates	-8218
▁eastern	-8219
▁improvement	-8220
▁tomorrow	-8221
▁seemingly	-8222
▁Form	-8223
Every	-8224
▁casual	-8225
▁Pitt	-8226
▁logic	-8227
including	-8228
ictions	-8229
▁Prince	-8230
▁affairs	-8231
▁layer	-8232
▁liquid	-8233
▁Hon	-8234
inois	-8235
▁amid	-8236
▁resign	-8237
▁porn	-8238
▁Vegas	-8239
▁Control	-8240
▁Lyn	-8241
Script	-8242
▁referend	-8243
▁settings	-8244
iy	-8245
▁iOS	-8246
▁attached	-8247
▁enormous	-8248
ommod	-8249
▁rhet	-8250
aying	-8251
▁guest	-8252
▁Stadium	-8253
▁sorry	-8254
▁Bang	-8255
▁cro	-8256
lah	-8257
▁Low	-8258
▁activist	-8259
▁Expl	-8260
▁humanity	-8261
▁soph	-8262
▁?	-8263
▁Below	-8264
dri	-8265
▁15,	-8266
▁bureau	-8267
▁overs	-8268
▁Iraqi	-8269
▁Gaza	-8270
▁dramatic	-8271
▁neck	-8272
▁outs	-8273
▁offices	-8274
▁Hospital	-8275
▁intervention	-8276
▁iP	-8277
▁inflation	-8278
EE	-8279
▁forest	-8280
▁Jam	-8281
cific	-8282
▁authent	-8283
▁estimate	-8284
▁celeb	-8285
▁LA	-8286
▁opinions	-8287
cience	-8288
esh	-8289
▁1:	-8290
stract	-8291
▁fallen	-8292
▁coaches	-8293
▁Credit	-8294
▁legitimate	-8295
▁10.	-8296
▁je	-8297
▁Design	-8298
▁monitor	-8299
▁suspended	-8300
▁Engine	-8301
▁loans	-8302
▁diversity	-8303
With	-8304
intendo	-8305
▁Fall	-8306
▁depends	-8307
acon	-8308
▁hypot	-8309
▁presum	-8310
mary	-8311
▁throwing	-8312
repre	-8313
▁genetic	-8314
▁petition	-8315
▁ingred	-8316
▁Tour	-8317
▁viewed	-8318
▁20,	-8319
▁virtually	-8320
flix	-8321
▁stake	-8322
▁brothers	-8323
▁substantial	-8324
▁entr	-8325
xit	-8326
▁gam	-8327
amac	-8328
▁Age	-8329
▁covers	-8330
▁conspiracy	-8331
▁colors	-8332
▁warrant	-8333
▁reads	-8334
▁Unlike	-8335
▁12,	-8336
▁Buff	-8337
cover	-8338
▁Mill	-8339
▁chapter	-8340
▁bars	-8341
pat	-8342
ective	-8343
arms	-8344
ultural	-8345
▁consistently	-8346
▁papers	-8347
▁Line	-8348
▁Football	-8349
▁foss	-8350
▁steel	-8351
▁Budd	-8352
inch	-8353
▁Short	-8354
oval	-8355
▁Prop	-8356
mo	-8357
RC	-8358
▁Revolution	-8359
▁rook	-8360
39	-8361
▁brill	-8362
▁careful	-8363
reprene	-8364
▁Ast	-8365
▁preced	-8366
▁transportation	-8367
▁stayed	-8368
case	-8369
▁conversations	-8370
▁addressed	-8371
▁profits	-8372
▁mountain	-8373
ref	-8374
maker	-8375
▁Ha	-8376
▁Five	-8377
▁7.	-8378
▁shr	-8379
▁Marvel	-8380
▁missile	-8381
▁absence	-8382
▁Justin	-8383
ivals	-8384
▁involves	-8385
▁Abb	-8386
▁km	-8387
▁noting	-8388
▁medicine	-8389
▁Las	-8390
▁Sel	-8391
▁encouraged	-8392
▁”	-8393
rison	-8394
vard	-8395
itage	-8396
▁NATO	-8397
iences	-8398
▁comedy	-8399
▁brown	-8400
iability	-8401
▁Getty	-8402
'.	-8403
▁coc	-8404
wered	-8405
PC	-8406
▁surf	-8407
▁clothes	-8408
▁accommod	-8409
▁Norm	-8410
▁disrupt	-8411
▁fulf	-8412
▁Ontario	-8413
▁mad	-8414
▁Patri	-8415
▁lowest	-8416
otype	-8417
▁Illinois	-8418
▁rational	-8419
geon	-8420
▁Indiana	-8421
▁closing	-8422
▁Creat	-8423
EST	-8424
▁drew	-8425
▁mining	-8426
▁ballot	-8427
65	-8428
▁boat	-8429
▁Moon	-8430
▁gains	-8431
▁incidents	-8432
▁dance	-8433
▁protecting	-8434
▁handed	-8435
▁mic	-8436
claim	-8437
▁reader	-8438
▁protocol	-8439
▁2001	-8440
▁Sarah	-8441
rets	-8442
▁Denver	-8443
▁guarantee	-8444
▁personality	-8445
▁Event	-8446
ijing	-8447
▁swing	-8448
amacare	-8449
▁Marsh	-8450
bi	-8451
▁appreciate	-8452
▁Liverpool	-8453
▁41	-8454
unicip	-8455
▁Intelligence	-8456
▁premium	-8457
▁insist	-8458
▁spoken	-8459
ropri	-8460
▁attitude	-8461
▁fantastic	-8462
▁inner	-8463
ammed	-8464
▁conce	-8465
▁Portland	-8466
▁ranks	-8467
▁Unt	-8468
▁Common	-8469
▁princip	-8470
▁43	-8471
▁astron	-8472
RI	-8473
hot	-8474
▁Trib	-8475
unes	-8476
cut	-8477
▁spokesperson	-8478
▁lucky	-8479
▁revel	-8480
▁judges	-8481
▁Jonathan	-8482
▁horror	-8483
▁handling	-8484
plate	-8485
▁promises	-8486
AG	-8487
▁lands	-8488
dy	-8489
▁mos	-8490
!)	-8491
keep	-8492
▁locked	-8493
▁fruit	-8494
▁contributions	-8495
▁trem	-8496
")	-8497
▁voter	-8498
▁checks	-8499
▁Alexander	-8500
▁Mexican	-8501
aval	-8502
ordon	-8503
▁tries	-8504
▁mistakes	-8505
plete	-8506
▁Ur	-8507
▁covering	-8508
itter	-8509
▁innovation	-8510
Not	-8511
▁portray	-8512
▁10-	-8513
▁bacter	-8514
▁hint	-8515
zed	-8516
▁maps	-8517
▁shoulder	-8518
▁chat	-8519
▁speaks	-8520
▁Nintendo	-8521
":	-8522
▁replacement	-8523
7)	-8524
▁Hind	-8525
▁Associated	-8526
-201	-8527
▁soil	-8528
▁improving	-8529
▁marks	-8530
++	-8531
▁Sweden	-8532
▁musical	-8533
▁distributed	-8534
▁Utah	-8535
▁commonly	-8536
▁Ten	-8537
These	-8538
▁console	-8539
▁Master	-8540
EG	-8541
ille	-8542
AF	-8543
▁Mrs	-8544
▁referendum	-8545
▁silver	-8546
▁Technology	-8547
▁cogn	-8548
▁Front	-8549
▁efficiency	-8550
backs	-8551
▁Mach	-8552
▁instrument	-8553
▁shout	-8554
▁homeless	-8555
▁divided	-8556
▁Code	-8557
▁Ruby	-8558
eding	-8559
pled	-8560
▁legacy	-8561
▁tea	-8562
▁ec	-8563
raph	-8564
▁midfield	-8565
▁Dream	-8566
▁photograp	-8567
annels	-8568
▁cust	-8569
▁Final	-8570
▁Non	-8571
▁wrest	-8572
▁drama	-8573
▁tape	-8574
yo	-8575
des	-8576
▁grid	-8577
▁barrel	-8578
scale	-8579
▁Tes	-8580
▁dump	-8581
dog	-8582
▁Beijing	-8583
▁threw	-8584
▁spiritual	-8585
▁subsequent	-8586
▁Eag	-8587
▁lying	-8588
▁abandoned	-8589
ounce	-8590
aping	-8591
mad	-8592
▁Deb	-8593
▁30,	-8594
▁deficit	-8595
▁stone	-8596
▁dad	-8597
▁diverse	-8598
▁2011.	-8599
▁Girl	-8600
▁tracking	-8601
▁Cooper	-8602
▁joke	-8603
66	-8604
▁Bron	-8605
▁joy	-8606
▁conservatives	-8607
▁Warren	-8608
iley	-8609
▁acknowledged	-8610
▁temperatures	-8611
▁nomination	-8612
▁stolen	-8613
▁festival	-8614
abeth	-8615
▁acquired	-8616
▁rom	-8617
▁monitoring	-8618
▁ignored	-8619
————	-8620
▁None	-8621
Im	-8622
▁studied	-8623
iate	-8624
▁headquarters	-8625
▁Bloom	-8626
▁ordinary	-8627
▁universities	-8628
uits	-8629
▁Bra	-8630
▁Roberts	-8631
▁depression	-8632
▁partnership	-8633
argo	-8634
▁skept	-8635
▁Speaking	-8636
▁gal	-8637
assador	-8638
▁programme	-8639
inf	-8640
▁passengers	-8641
▁buff	-8642
▁Empire	-8643
lahoma	-8644
▁Kong	-8645
▁Hur	-8646
heim	-8647
▁sty	-8648
▁breaks	-8649
▁Galaxy	-8650
▁Rather	-8651
▁blast	-8652
▁Ever	-8653
▁lets	-8654
▁yellow	-8655
▁Netflix	-8656
▁Ted	-8657
▁scan	-8658
▁usage	-8659
▁Corpor	-8660
▁funded	-8661
▁Equ	-8662
▁Kar	-8663
UN	-8664
ported	-8665
▁Beck	-8666
▁scope	-8667
oded	-8668
PP	-8669
▁upgrade	-8670
esty	-8671
▁Base	-8672
▁18,	-8673
▁Belg	-8674
▁Vill	-8675
▁Atlantic	-8676
▁hoped	-8677
▁Wolf	-8678
▁2:	-8679
▁supplies	-8680
▁criticized	-8681
▁transactions	-8682
▁veterans	-8683
pie	-8684
▁literature	-8685
▁Chelsea	-8686
▁Graham	-8687
▁targeting	-8688
uction	-8689
▁demonstrated	-8690
▁Ak	-8691
door	-8692
▁counts	-8693
▁insisted	-8694
8)	-8695
▁3-	-8696
ieties	-8697
▁Bureau	-8698
▁receiver	-8699
▁Tech	-8700
▁measured	-8701
▁Liberal	-8702
uted	-8703
▁helpful	-8704
▁responses	-8705
▁Bruce	-8706
▁Cro	-8707
ais	-8708
▁assert	-8709
▁DO	-8710
▁guitar	-8711
▁AI	-8712
▁replied	-8713
▁exit	-8714
▁Award	-8715
▁fro	-8716
▁shopping	-8717
▁compe	-8718
▁spokeswoman	-8719
▁falls	-8720
▁(“	-8721
▁performing	-8722
▁moon	-8723
▁racism	-8724
▁Bud	-8725
▁les	-8726
▁Lear	-8727
Well	-8728
▁congressional	-8729
▁tie	-8730
rec	-8731
▁appointed	-8732
▁representing	-8733
▁Dutch	-8734
▁Les	-8735
▁distract	-8736
▁abroad	-8737
ixed	-8738
▁Governor	-8739
▁accomplish	-8740
▁Left	-8741
▁cance	-8742
▁Silver	-8743
▁Sean	-8744
▁capabilities	-8745
▁copies	-8746
itary	-8747
.[5	-8748
▁Edward	-8749
▁Sab	-8750
▁rear	-8751
fund	-8752
ihad	-8753
arring	-8754
▁unions	-8755
▁exch	-8756
▁hockey	-8757
▁entitled	-8758
▁swim	-8759
▁visiting	-8760
▁plain	-8761
▁Indust	-8762
▁trave	-8763
▁letting	-8764
aware	-8765
▁Article	-8766
dney	-8767
inction	-8768
▁naturally	-8769
▁conventional	-8770
hop	-8771
olph	-8772
WS	-8773
erted	-8774
aga	-8775
▁Tele	-8776
▁dust	-8777
▁Eliz	-8778
▁render	-8779
aeda	-8780
▁arrive	-8781
▁stages	-8782
▁clock	-8783
iler	-8784
▁bub	-8785
bridge	-8786
▁urged	-8787
shire	-8788
▁predicted	-8789
rimin	-8790
▁Eff	-8791
▁appearances	-8792
▁auto	-8793
▁Oklahoma	-8794
▁proposals	-8795
▁protein	-8796
▁mathem	-8797
▁Ali	-8798
▁grav	-8799
▁pursue	-8800
▁landscape	-8801
Trump	-8802
▁2020	-8803
▁waters	-8804
▁Uber	-8805
▁Carter	-8806
▁assessment	-8807
▁Obamacare	-8808
▁documentary	-8809
RL	-8810
ctic	-8811
mony	-8812
▁patch	-8813
▁reliable	-8814
▁Hold	-8815
high	-8816
▁17,	-8817
▁ratio	-8818
▁clar	-8819
▁Som	-8820
▁march	-8821
▁dismissed	-8822
▁Der	-8823
▁equality	-8824
▁symp	-8825
▁Early	-8826
▁employed	-8827
▁Jere	-8828
▁beauty	-8829
▁inequ	-8830
▁restaurants	-8831
▁warn	-8832
▁drove	-8833
89	-8834
▁rif	-8835
▁centers	-8836
hesis	-8837
▁Est	-8838
▁classified	-8839
iamond	-8840
▁rescue	-8841
ecutive	-8842
▁senator	-8843
▁Olympic	-8844
▁Hamilton	-8845
▁19,	-8846
encing	-8847
▁neuro	-8848
▁virus	-8849
irts	-8850
▁Vietnam	-8851
App	-8852
▁ramp	-8853
▁16,	-8854
▁twenty	-8855
▁compare	-8856
▁concrete	-8857
▁introduction	-8858
▁politically	-8859
▁Vice	-8860
▁Bridge	-8861
▁margin	-8862
comes	-8863
▁Bible	-8864
archy	-8865
▁whenever	-8866
ira	-8867
▁transit	-8868
▁presidency	-8869
▁Cow	-8870
▁Andre	-8871
▁14,	-8872
▁domain	-8873
Sp	-8874
zing	-8875
FF	-8876
▁Children	-8877
▁tips	-8878
Do	-8879
pton	-8880
sl	-8881
▁blocked	-8882
ught	-8883
eries	-8884
▁wider	-8885
theless	-8886
▁artific	-8887
▁obs	-8888
▁hung	-8889
▁2002	-8890
isk	-8891
▁prisoners	-8892
acket	-8893
olves	-8894
▁museum	-8895
ped	-8896
▁Maryland	-8897
44	-8898
-19	-8899
usalem	-8900
enez	-8901
▁Hu	-8902
plus	-8903
-20	-8904
▁bread	-8905
▁innocent	-8906
▁producers	-8907
▁McK	-8908
▁salt	-8909
▁forecast	-8910
ila	-8911
jud	-8912
made	-8913
har	-8914
▁soccer	-8915
▁Reddit	-8916
▁retirement	-8917
▁Represent	-8918
▁requested	-8919
▁trigger	-8920
▁dub	-8921
▁demanding	-8922
fol	-8923
▁breath	-8924
▁tactics	-8925
▁Everyone	-8926
ultane	-8927
▁assign	-8928
▁Much	-8929
▁21,	-8930
▁Harvard	-8931
▁Cho	-8932
▁ves	-8933
inating	-8934
orous	-8935
▁burden	-8936
mat	-8937
crib	-8938
▁cul	-8939
UST	-8940
conf	-8941
▁membership	-8942
iano	-8943
▁discour	-8944
▁approached	-8945
▁populations	-8946
▁Pict	-8947
▁toxic	-8948
acco	-8949
type	-8950
ela	-8951
▁focusing	-8952
▁Mess	-8953
ji	-8954
rooms	-8955
▁celebrate	-8956
elson	-8957
emed	-8958
omes	-8959
▁mac	-8960
▁testimony	-8961
▁bab	-8962
▁pig	-8963
▁representatives	-8964
▁absor	-8965
▁popularity	-8966
duction	-8967
erts	-8968
▁pipeline	-8969
▁cig	-8970
▁parallel	-8971
isons	-8972
76	-8973
▁22,	-8974
▁Iron	-8975
▁violation	-8976
▁quote	-8977
▁wedd	-8978
▁preparing	-8979
▁hosp	-8980
▁Friend	-8981
▁scientist	-8982
▁Priv	-8983
TT	-8984
break	-8985
▁Leon	-8986
▁weigh	-8987
▁Scottish	-8988
▁generations	-8989
▁dates	-8990
ika	-8991
▁CS	-8992
▁channels	-8993
▁Should	-8994
ordinary	-8995
▁spots	-8996
don	-8997
▁PD	-8998
▁rush	-8999
▁designs	-9000
▁PH	-9001
▁phrase	-9002
▁rocket	-9003
▁Michel	-9004
ouri	-9005
▁Morgan	-9006
▁contrad	-9007
▁phenomenon	-9008
▁95	-9009
▁shame	-9010
▁graduate	-9011
▁introduce	-9012
▁universal	-9013
▁monthly	-9014
▁persons	-9015
▁Sound	-9016
▁entreprene	-9017
▁argues	-9018
▁legislative	-9019
▁loose	-9020
▁Gary	-9021
▁Figure	-9022
bow	-9023
▁overseas	-9024
========	-9025
▁differently	-9026
eters	-9027
press	-9028
asty	-9029
ederation	-9030
mers	-9031
▁Jerusalem	-9032
▁Custom	-9033
▁investigations	-9034
atar	-9035
Why	-9036
▁hyper	-9037
▁odds	-9038
▁experiments	-9039
▁firing	-9040
▁stability	-9041
▁forcing	-9042
▁wealthy	-9043
▁Boe	-9044
::	-9045
▁Ark	-9046
▁importantly	-9047
▁ax	-9048
▁24,	-9049
▁fool	-9050
▁Trade	-9051
▁unpre	-9052
▁keys	-9053
▁releases	-9054
▁delic	-9055
▁surely	-9056
▁8.	-9057
▁survival	-9058
▁Mult	-9059
▁Lt	-9060
▁$8	-9061
▁arguing	-9062
only	-9063
▁Tax	-9064
▁Crime	-9065
▁anxiety	-9066
FA	-9067
▁Wr	-9068
▁Could	-9069
▁flags	-9070
▁Others	-9071
▁settled	-9072
▁shadow	-9073
▁prosecutors	-9074
minute	-9075
▁encounter	-9076
▁provision	-9077
▁13,	-9078
▁Know	-9079
▁Az	-9080
▁fighter	-9081
king	-9082
▁Sydney	-9083
▁Cra	-9084
▁saving	-9085
▁unexpected	-9086
▁Batman	-9087
▁actively	-9088
▁kilomet	-9089
▁Metro	-9090
▁sequence	-9091
orious	-9092
.-	-9093
irlf	-9094
olds	-9095
▁Tennes	-9096
▁servers	-9097
▁weekly	-9098
ested	-9099
▁Gulf	-9100
▁satellite	-9101
▁secondary	-9102
▁titled	-9103
▁healthcare	-9104
ois	-9105
ennis	-9106
▁anniversary	-9107
▁Tai	-9108
rapped	-9109
ounding	-9110
▁tonight	-9111
▁reveals	-9112
▁ratings	-9113
▁Kick	-9114
afe	-9115
aria	-9116
▁1.5	-9117
irlfriend	-9118
▁Son	-9119
▁disorder	-9120
▁abilities	-9121
▁Magic	-9122
▁tab	-9123
▁reforms	-9124
▁brilliant	-9125
▁Capital	-9126
▁waves	-9127
▁Leader	-9128
▁Being	-9129
▁puzz	-9130
▁Anna	-9131
oenix	-9132
through	-9133
▁deny	-9134
▁threatening	-9135
▁affordable	-9136
▁smartphone	-9137
held	-9138
agh	-9139
▁Bi	-9140
▁GT	-9141
▁deadly	-9142
ocolate	-9143
▁circle	-9144
lined	-9145
▁butt	-9146
▁savings	-9147
▁Quest	-9148
BM	-9149
VE	-9150
▁Bal	-9151
berry	-9152
▁Would	-9153
▁2007,	-9154
▁Think	-9155
▁streaming	-9156
aved	-9157
▁consent	-9158
▁mini	-9159
▁rounds	-9160
▁banking	-9161
▁ceremony	-9162
▁25,	-9163
▁exha	-9164
▁Yemen	-9165
▁thorough	-9166
▁harassment	-9167
▁CL	-9168
itol	-9169
ompson	-9170
icism	-9171
▁demonstrate	-9172
▁smell	-9173
▁(199	-9174
▁relax	-9175
▁stepped	-9176
▁maintained	-9177
tenance	-9178
▁errors	-9179
▁newsletter	-9180
▁windows	-9181
▁prepar	-9182
▁YOU	-9183
▁silence	-9184
mind	-9185
▁Support	-9186
mans	-9187
▁sorts	-9188
▁Berlin	-9189
▁Instagram	-9190
▁Official	-9191
▁fur	-9192
▁alarm	-9193
▁lunch	-9194
▁adventure	-9195
▁okay	-9196
opher	-9197
▁Assembly	-9198
▁pointing	-9199
igious	-9200
▁comprehensive	-9201
▁tremend	-9202
▁Palestinians	-9203
▁voices	-9204
▁outrage	-9205
▁objective	-9206
enter	-9207
oret	-9208
▁ages	-9209
▁broader	-9210
▁civilian	-9211
▁drives	-9212
▁Sa	-9213
▁analyst	-9214
People	-9215
▁Hart	-9216
▁intim	-9217
▁submitted	-9218
▁Eth	-9219
party	-9220
▁Oakland	-9221
▁striking	-9222
▁PA	-9223
gage	-9224
▁struggled	-9225
▁awarded	-9226
▁hosted	-9227
▁wanting	-9228
▁Remember	-9229
ahu	-9230
▁borders	-9231
▁picks	-9232
isa	-9233
▁Jenn	-9234
▁Fal	-9235
▁hal	-9236
▁Total	-9237
▁childhood	-9238
▁gent	-9239
▁51	-9240
▁Hong	-9241
▁Marx	-9242
▁mole	-9243
▁Gil	-9244
bered	-9245
▁wounded	-9246
▁Libya	-9247
▁execution	-9248
ocument	-9249
▁quoted	-9250
▁highlights	-9251
▁Crit	-9252
▁fing	-9253
▁Opp	-9254
▁Elizabeth	-9255
rection	-9256
▁tens	-9257
▁Wel	-9258
onder	-9259
▁Fact	-9260
▁staying	-9261
▁aer	-9262
ailed	-9263
▁torture	-9264
Star	-9265
▁autonom	-9266
▁questioned	-9267
inals	-9268
▁hydro	-9269
▁sevent	-9270
▁pron	-9271
▁Comey	-9272
▁consensus	-9273
ctr	-9274
▁54	-9275
hatt	-9276
▁Local	-9277
▁23,	-9278
▁stem	-9279
scribe	-9280
iev	-9281
apolis	-9282
▁reverse	-9283
▁executives	-9284
▁propaganda	-9285
▁sear	-9286
▁managing	-9287
rows	-9288
▁fate	-9289
▁persu	-9290
▁Therefore	-9291
ishop	-9292
▁Store	-9293
▁dying	-9294
▁Brexit	-9295
▁contacted	-9296
31	-9297
aders	-9298
walk	-9299
▁donations	-9300
▁architecture	-9301
▁roof	-9302
▁instructions	-9303
ethe	-9304
ierce	-9305
ses	-9306
▁rooms	-9307
▁consideration	-9308
▁100%	-9309
▁chicken	-9310
▁bias	-9311
▁Moreover	-9312
akh	-9313
abet	-9314
▁calm	-9315
▁deserve	-9316
iffs	-9317
▁distingu	-9318
▁trillion	-9319
▁Festival	-9320
▁Murray	-9321
▁Management	-9322
▁greatly	-9323
▁GO	-9324
▁Clark	-9325
▁Things	-9326
▁$20	-9327
▁physically	-9328
pa	-9329
▁promising	-9330
▁Tok	-9331
they	-9332
ceptions	-9333
CA	-9334
▁mit	-9335
▁Roll	-9336
▁emerging	-9337
▁lux	-9338
lee	-9339
▁Lam	-9340
▁remarkable	-9341
▁DV	-9342
▁landing	-9343
▁Li	-9344
▁dialogue	-9345
▁rookie	-9346
organ	-9347
,000.	-9348
uper	-9349
asury	-9350
Pl	-9351
xx	-9352
etch	-9353
▁Simon	-9354
▁simultane	-9355
▁Hand	-9356
▁Vik	-9357
▁defeated	-9358
▁semi	-9359
▁gross	-9360
▁28,	-9361
▁acid	-9362
▁Digital	-9363
▁ministry	-9364
▁stored	-9365
asant	-9366
▁Sud	-9367
▁ele	-9368
▁smoking	-9369
▁Nev	-9370
▁contribution	-9371
uten	-9372
▁Intel	-9373
▁playoffs	-9374
▁meaningful	-9375
▁dispute	-9376
▁ans	-9377
▁blank	-9378
▁bonus	-9379
▁inches	-9380
agic	-9381
bury	-9382
▁competing	-9383
▁participation	-9384
yes	-9385
▁Thompson	-9386
cedented	-9387
▁Gordon	-9388
▁27,	-9389
▁na	-9390
umble	-9391
▁legally	-9392
▁promoting	-9393
▁categories	-9394
▁gif	-9395
▁Jean	-9396
▁Access	-9397
▁formation	-9398
trans	-9399
▁trials	-9400
was	-9401
▁Charlie	-9402
▁Harper	-9403
▁clothing	-9404
▁procedure	-9405
▁difficulty	-9406
▁Box	-9407
EP	-9408
izer	-9409
78	-9410
▁Tennessee	-9411
aver	-9412
▁chest	-9413
▁burning	-9414
omed	-9415
▁assigned	-9416
▁implications	-9417
▁cream	-9418
alia	-9419
▁rhetoric	-9420
▁Alan	-9421
▁drone	-9422
▁assumed	-9423
▁2010.	-9424
▁birds	-9425
▁cooperation	-9426
ds	-9427
▁26,	-9428
▁knee	-9429
▁coinc	-9430
▁Download	-9431
cest	-9432
icity	-9433
▁MLS	-9434
bits	-9435
▁smile	-9436
??	-9437
▁strategies	-9438
▁Online	-9439
▁investments	-9440
▁alter	-9441
▁cow	-9442
▁assass	-9443
achel	-9444
▁dating	-9445
▁eligible	-9446
▁ease	-9447
▁opens	-9448
▁aged	-9449
▁Wales	-9450
▁52	-9451
step	-9452
▁memories	-9453
week	-9454
▁precisely	-9455
orship	-9456
▁guidelines	-9457
gus	-9458
riors	-9459
▁backing	-9460
holders	-9461
▁Pentagon	-9462
portation	-9463
▁nic	-9464
▁repeat	-9465
▁Dur	-9466
▁dish	-9467
▁possess	-9468
▁Until	-9469
▁Staff	-9470
▁Russell	-9471
▁Executive	-9472
vertisements	-9473
▁charity	-9474
▁memo	-9475
▁Bow	-9476
▁Fant	-9477
▁riding	-9478
▁1950	-9479
▁athletes	-9480
▁spectrum	-9481
▁defending	-9482
▁custody	-9483
▁Editor	-9484
▁revers	-9485
▁arrival	-9486
▁Assad	-9487
▁openly	-9488
▁crimin	-9489
▁gathering	-9490
▁tired	-9491
▁expanding	-9492
▁Page	-9493
▁Captain	-9494
even	-9495
▁tons	-9496
▁vig	-9497
child	-9498
▁$100	-9499
▁Player	-9500
▁racing	-9501
▁theories	-9502
sect	-9503
▁judgment	-9504
▁whereas	-9505
▁perceived	-9506
▁Additionally	-9507
55	-9508
▁tap	-9509
▁centuries	-9510
▁accessible	-9511
▁recipe	-9512
▁transaction	-9513
rif	-9514
▁Hawai	-9515
▁addresses	-9516
▁indicates	-9517
annon	-9518
▁Mit	-9519
▁info	-9520
▁counterpart	-9521
▁battles	-9522
▁Affairs	-9523
▁inspect	-9524
▁presentation	-9525
atern	-9526
▁endorse	-9527
igate	-9528
▁coaching	-9529
▁Ze	-9530
▁Sav	-9531
ributes	-9532
▁enthusi	-9533
▁passage	-9534
▁echo	-9535
▁arbit	-9536
6)	-9537
▁CA	-9538
▁manifest	-9539
▁educational	-9540
▁fossil	-9541
▁suspects	-9542
▁picking	-9543
author	-9544
▁Andy	-9545
issue	-9546
▁fled	-9547
▁stops	-9548
▁discussing	-9549
▁Imm	-9550
▁organic	-9551
▁hip	-9552
herent	-9553
▁divor	-9554
▁lapt	-9555
▁fundra	-9556
race	-9557
iture	-9558
pha	-9559
▁Occ	-9560
▁Cole	-9561
▁enhance	-9562
▁studying	-9563
▁Heart	-9564
▁permit	-9565
▁unfair	-9566
after	-9567
▁surviv	-9568
▁bowl	-9569
▁Station	-9570
▁Third	-9571
▁managers	-9572
▁CON	-9573
▁IC	-9574
js	-9575
odox	-9576
▁pharm	-9577
▁Stew	-9578
▁shield	-9579
▁shipping	-9580
▁mood	-9581
math	-9582
▁frequency	-9583
▁Ox	-9584
AND	-9585
▁explaining	-9586
▁facilit	-9587
▁therapy	-9588
▁followers	-9589
bu	-9590
lando	-9591
▁bot	-9592
▁grade	-9593
▁00	-9594
assy	-9595
▁industries	-9596
/4	-9597
▁Bol	-9598
orable	-9599
▁Log	-9600
▁everyday	-9601
aration	-9602
▁hopefully	-9603
▁obsc	-9604
Hz	-9605
base	-9606
▁outlets	-9607
iki	-9608
itual	-9609
▁damaged	-9610
ito	-9611
▁helic	-9612
▁stere	-9613
▁recruit	-9614
▁dominant	-9615
▁Ku	-9616
lla	-9617
▁Delhi	-9618
▁pollution	-9619
▁substance	-9620
gered	-9621
▁hospitals	-9622
▁clinical	-9623
vision	-9624
▁sixth	-9625
▁bin	-9626
omy	-9627
▁tut	-9628
van	-9629
▁scrut	-9630
▁EPA	-9631
▁gate	-9632
▁superior	-9633
▁120	-9634
▁pulling	-9635
▁missions	-9636
aki	-9637
gence	-9638
acher	-9639
kee	-9640
▁muscle	-9641
▁sentenced	-9642
▁2.0	-9643
▁compensation	-9644
Os	-9645
▁Kentucky	-9646
▁escal	-9647
ova	-9648
▁Dog	-9649
▁dies	-9650
▁math	-9651
▁pocket	-9652
▁Phill	-9653
▁institution	-9654
igenous	-9655
stal	-9656
▁overcome	-9657
▁signature	-9658
▁Disc	-9659
▁discount	-9660
▁impression	-9661
emic	-9662
▁Continue	-9663
▁Ref	-9664
▁roy	-9665
▁upload	-9666
▁underlying	-9667
▁insult	-9668
▁Case	-9669
unicipal	-9670
▁bottle	-9671
▁rebels	-9672
▁Capt	-9673
AY	-9674
▁Burn	-9675
▁Furthermore	-9676
▁stance	-9677
roph	-9678
▁sovere	-9679
▁economics	-9680
▁beach	-9681
▁lad	-9682
▁adviser	-9683
▁hire	-9684
▁helicop	-9685
▁Pitts	-9686
▁Phoenix	-9687
▁recre	-9688
html	-9689
▁topics	-9690
▁Rest	-9691
▁foods	-9692
ylum	-9693
▁cler	-9694
market	-9695
▁compat	-9696
▁rend	-9697
Go	-9698
▁Hal	-9699
▁citing	-9700
eria	-9701
▁punishment	-9702
▁grap	-9703
▁lineup	-9704
▁Dick	-9705
player	-9706
▁regulatory	-9707
▁kitchen	-9708
▁seed	-9709
▁nin	-9710
ateral	-9711
Can	-9712
TER	-9713
▁engineers	-9714
▁eager	-9715
arency	-9716
▁trends	-9717
▁JavaScript	-9718
▁setup	-9719
alties	-9720
▁spell	-9721
▁tweets	-9722
▁module	-9723
arre	-9724
▁Psych	-9725
oz	-9726
▁signals	-9727
▁ridiculous	-9728
▁_	-9729
itudes	-9730
▁crus	-9731
▁diseases	-9732
watch	-9733
▁answered	-9734
▁searching	-9735
▁graphics	-9736
▁shoes	-9737
▁Economic	-9738
▁timing	-9739
hard	-9740
▁bow	-9741
▁Yan	-9742
atively	-9743
▁attractive	-9744
cosystem	-9745
▁merch	-9746
▁Dragon	-9747
▁Arsenal	-9748
▁Channel	-9749
▁poison	-9750
▁badly	-9751
▁sed	-9752
izza	-9753
enezuel	-9754
rix	-9755
▁Gro	-9756
▁colour	-9757
▁creatures	-9758
▁beings	-9759
▁Find	-9760
-12	-9761
▁nerv	-9762
▁segment	-9763
▁SU	-9764
▁migrants	-9765
9)	-9766
rac	-9767
▁preferred	-9768
▁tables	-9769
▁Brooklyn	-9770
▁procedures	-9771
▁gig	-9772
alysis	-9773
▁genre	-9774
▁mice	-9775
▁capitalism	-9776
osa	-9777
brid	-9778
▁("	-9779
▁Publ	-9780
rowing	-9781
▁periods	-9782
▁Bul	-9783
84	-9784
▁dramatically	-9785
▁requirement	-9786
▁beating	-9787
▁Han	-9788
Reuters	-9789
▁engineer	-9790
▁pill	-9791
▁bold	-9792
ogy	-9793
▁unve	-9794
▁Order	-9795
▁loves	-9796
oln	-9797
▁unprecedented	-9798
▁speaker	-9799
▁Dod	-9800
▁Aaron	-9801
build	-9802
▁eggs	-9803
▁partly	-9804
▁psychological	-9805
▁Ocean	-9806
▁Future	-9807
▁seized	-9808
▁logo	-9809
▁Pers	-9810
▁principal	-9811
▁blockchain	-9812
▁acknowledge	-9813
▁publishing	-9814
▁56	-9815
iac	-9816
▁inquiry	-9817
ptions	-9818
▁Khan	-9819
5)	-9820
▁requiring	-9821
▁arr	-9822
▁99	-9823
▁GDP	-9824
▁amendment	-9825
▁arts	-9826
▁shell	-9827
▁Jeremy	-9828
die	-9829
▁vend	-9830
▁eliminate	-9831
▁billions	-9832
agger	-9833
▁utility	-9834
▁deadline	-9835
▁invasion	-9836
▁collaps	-9837
▁Everything	-9838
▁removal	-9839
▁frequent	-9840
▁camps	-9841
▁aims	-9842
▁commander	-9843
▁disappointed	-9844
▁analysts	-9845
▁Nothing	-9846
▁10,000	-9847
▁butter	-9848
▁NS	-9849
▁lect	-9850
olving	-9851
▁collaboration	-9852
▁Argent	-9853
***	-9854
owski	-9855
netic	-9856
quest	-9857
▁statist	-9858
▁diplomatic	-9859
▁Change	-9860
▁undert	-9861
▁loop	-9862
▁notable	-9863
▁genes	-9864
▁sheet	-9865
▁instant	-9866
▁Barb	-9867
▁Word	-9868
▁convince	-9869
▁instances	-9870
▁Tesla	-9871
▁concepts	-9872
▁insight	-9873
▁dreams	-9874
▁sections	-9875
▁maintenance	-9876
▁buck	-9877
grade	-9878
▁Photos	-9879
/10	-9880
eared	-9881
eness	-9882
ppers	-9883
▁carries	-9884
▁Ban	-9885
▁rolling	-9886
▁Venezuel	-9887
necess	-9888
▁mask	-9889
▁subsc	-9890
▁export	-9891
▁contemporary	-9892
▁posting	-9893
▁perception	-9894
▁Montreal	-9895
ental	-9896
▁Table	-9897
▁Missouri	-9898
▁towns	-9899
▁Reagan	-9900
▁Bes	-9901
ixture	-9902
oting	-9903
▁mystery	-9904
▁talented	-9905
▁2019	-9906
▁elder	-9907
▁extraordinary	-9908
▁recommendations	-9909
▁labour	-9910
▁gest	-9911
▁Move	-9912
▁coup	-9913
▁Kl	-9914
▁prompted	-9915
▁comics	-9916
▁variable	-9917
▁Independent	-9918
▁communicate	-9919
▁associate	-9920
aya	-9921
▁cheaper	-9922
oca	-9923
▁bullet	-9924
▁occurs	-9925
▁CB	-9926
.[10	-9927
▁Doctor	-9928
▁homosexual	-9929
▁Writ	-9930
▁Near	-9931
left	-9932
NS	-9933
▁ET	-9934
▁Marine	-9935
▁couples	-9936
▁corrupt	-9937
▁BM	-9938
▁encouraging	-9939
▁birthday	-9940
▁designer	-9941
▁heroes	-9942
▁deployed	-9943
▁prize	-9944
▁neighbors	-9945
▁lift	-9946
▁Type	-9947
▁tempor	-9948
instein	-9949
▁Orlando	-9950
Now	-9951
▁TR	-9952
▁distur	-9953
ls	-9954
▁Poll	-9955
▁hanging	-9956
cott	-9957
▁span	-9958
▁85	-9959
apore	-9960
▁Ven	-9961
▁militants	-9962
leans	-9963
▁repair	-9964
▁manufacturers	-9965
▁Model	-9966
erg	-9967
▁sessions	-9968
▁lessons	-9969
ele	-9970
▁sits	-9971
▁Rome	-9972
▁occasionally	-9973
▁approaches	-9974
check	-9975
▁roots	-9976
▁glad	-9977
▁fabric	-9978
▁weakness	-9979
▁Mun	-9980
isdom	-9981
▁drunk	-9982
▁fights	-9983
▁pleased	-9984
.[1]	-9985
▁Steel	-9986
▁traged	-9987
▁interviewed	-9988
▁Trust	-9989
87	-9990
▁representation	-9991
▁bene	-9992
▁Gh	-9993
▁pregnant	-9994
mic	-9995
▁29,	-9996
▁nose	-9997
▁fatal	-9998
news	-9999
▁prospects	-10000
▁Had	-10001
▁adopt	-10002
▁parad	-10003
const	-10004
▁reserved	-10005
▁resolve	-10006
▁employers	-10007
screen	-10008
▁demanded	-10009
▁Coal	-10010
▁constitu	-10011
▁Perry	-10012
angle	-10013
▁Hitler	-10014
ikh	-10015
ulty	-10016
▁53	-10017
▁Copyright	-10018
throp	-10019
▁Capitol	-10020
▁anonymous	-10021
▁inequality	-10022
▁3:	-10023
▁momentum	-10024
▁Craig	-10025
▁electoral	-10026
▁intellig	-10027
▁ecosystem	-10028
▁Antonio	-10029
olar	-10030
▁CC	-10031
▁Ts	-10032
wich	-10033
▁arc	-10034
▁Film	-10035
▁cens	-10036
▁emp	-10037
starter	-10038
arted	-10039
▁interaction	-10040
▁cock	-10041
▁punch	-10042
▁nurs	-10043
▁Tel	-10044
▁irre	-10045
▁defender	-10046
oli	-10047
ials	-10048
▁podcast	-10049
▁Convention	-10050
▁landed	-10051
▁9.	-10052
▁violations	-10053
▁performances	-10054
vi	-10055
iban	-10056
▁Duke	-10057
▁Nevada	-10058
alling	-10059
▁Orleans	-10060
hr	-10061
▁Adams	-10062
▁Buy	-10063
▁FA	-10064
▁moderate	-10065
▁constitution	-10066
▁Sheriff	-10067
hattan	-10068
▁knock	-10069
▁clip	-10070
▁Place	-10071
▁shirt	-10072
▁Standard	-10073
▁Authority	-10074
▁Library	-10075
▁artificial	-10076
▁Area	-10077
▁Officer	-10078
▁Raj	-10079
section	-10080
▁jumped	-10081
awks	-10082
cour	-10083
▁stamp	-10084
▁Portug	-10085
election	-10086
▁professionals	-10087
▁wedding	-10088
onz	-10089
▁functional	-10090
appropri	-10091
istol	-10092
estyle	-10093
▁guests	-10094
De	-10095
▁Rs	-10096
▁shocked	-10097
▁oppose	-10098
mir	-10099
wa	-10100
▁Protection	-10101
istant	-10102
▁forum	-10103
acles	-10104
▁Interest	-10105
▁20-	-10106
▁=>	-10107
▁intr	-10108
▁euro	-10109
▁girlfriend	-10110
▁Robinson	-10111
▁displayed	-10112
▁owns	-10113
▁underground	-10114
iens	-10115
▁summit	-10116
▁Studies	-10117
▁biological	-10118
▁IM	-10119
▁Christopher	-10120
▁imposed	-10121
▁Gill	-10122
VP	-10123
endar	-10124
ricane	-10125
ALL	-10126
▁relation	-10127
▁Resp	-10128
▁adequ	-10129
▁vocal	-10130
Some	-10131
▁Mail	-10132
▁describing	-10133
ipedia	-10134
▁volunteers	-10135
▁registration	-10136
oga	-10137
▁accompan	-10138
▁interior	-10139
▁cheese	-10140
▁advocate	-10141
▁recalled	-10142
▁Subscribe	-10143
▁modified	-10144
▁Pittsburgh	-10145
▁Pope	-10146
cor	-10147
▁SD	-10148
ighth	-10149
▁terr	-10150
income	-10151
▁maintaining	-10152
▁opposing	-10153
▁refugee	-10154
96	-10155
▁Leban	-10156
▁explosion	-10157
▁embrace	-10158
▁Mountain	-10159
▁Wright	-10160
▁choosing	-10161
▁#1	-10162
▁Indones	-10163
▁integrity	-10164
▁boxes	-10165
▁correctly	-10166
▁swit	-10167
unity	-10168
▁delight	-10169
▁Stewart	-10170
Yes	-10171
▁bell	-10172
▁buried	-10173
▁confused	-10174
▁Hung	-10175
▁OR	-10176
owned	-10177
Ind	-10178
▁desperate	-10179
▁Eve	-10180
▁guid	-10181
▁Marc	-10182
rying	-10183
▁subscribe	-10184
▁organisation	-10185
isition	-10186
▁sustainable	-10187
▁probe	-10188
▁pm	-10189
▁emotions	-10190
▁sne	-10191
********	-10192
arget	-10193
▁bands	-10194
▁Looking	-10195
▁lifetime	-10196
▁Eb	-10197
▁removing	-10198
tra	-10199
▁exclud	-10200
▁asset	-10201
▁recon	-10202
▁Bor	-10203
▁Hamp	-10204
▁Pant	-10205
▁subur	-10206
▁Tam	-10207
▁bombs	-10208
▁pa	-10209
▁traveling	-10210
▁Comb	-10211
▁Alliance	-10212
▁isolated	-10213
acre	-10214
will	-10215
▁Singapore	-10216
▁pride	-10217
umph	-10218
▁concerning	-10219
▁Aren	-10220
▁assembly	-10221
▁configuration	-10222
">	-10223
▁Reserve	-10224
▁quit	-10225
▁Drug	-10226
▁ingredients	-10227
▁lesson	-10228
▁annoy	-10229
▁dual	-10230
▁Spir	-10231
▁journalism	-10232
▁Vlad	-10233
incoln	-10234
▁silent	-10235
▁soldier	-10236
▁ED	-10237
▁Marg	-10238
gate	-10239
▁Ukrainian	-10240
▁jer	-10241
▁stro	-10242
father	-10243
▁Warner	-10244
▁promotion	-10245
▁CR	-10246
▁Nazi	-10247
PL	-10248
▁minimal	-10249
▁Giants	-10250
agen	-10251
istle	-10252
bourne	-10253
▁DE	-10254
▁).	-10255
▁Var	-10256
▁flour	-10257
▁gene	-10258
▁monster	-10259
▁Product	-10260
▁peaceful	-10261
▁stack	-10262
▁submit	-10263
▁Manhattan	-10264
▁dominated	-10265
Ob	-10266
▁yell	-10267
ibl	-10268
ixon	-10269
▁ancest	-10270
▁integration	-10271
74	-10272
▁nod	-10273
▁inspiration	-10274
▁Ottawa	-10275
via	-10276
bound	-10277
▁Univers	-10278
▁profound	-10279
▁tremendous	-10280
Qu	-10281
▁references	-10282
▁MPs	-10283
▁Treasury	-10284
▁Entertain	-10285
▁meal	-10286
pd	-10287
▁suspic	-10288
▁Holy	-10289
▁desktop	-10290
▁keyboard	-10291
▁Griff	-10292
▁stating	-10293
div	-10294
▁Emer	-10295
isd	-10296
▁Gib	-10297
gets	-10298
▁brutal	-10299
▁Oil	-10300
▁Mother	-10301
▁Map	-10302
▁evac	-10303
▁vert	-10304
▁guards	-10305
▁bankrupt	-10306
otte	-10307
▁struggles	-10308
▁libr	-10309
▁cognitive	-10310
▁Chairman	-10311
▁charging	-10312
▁Ent	-10313
▁consciousness	-10314
▁executed	-10315
▁accum	-10316
sub	-10317
▁2006,	-10318
vo	-10319
▁Cars	-10320
▁deemed	-10321
▁credits	-10322
▁acceptable	-10323
▁mile	-10324
▁electron	-10325
▁creature	-10326
▁knife	-10327
▁kicked	-10328
▁ideology	-10329
▁Hug	-10330
▁thro	-10331
▁abstract	-10332
▁passenger	-10333
▁surrounded	-10334
inge	-10335
▁speakers	-10336
▁exclusively	-10337
▁bird	-10338
▁holes	-10339
▁fleet	-10340
▁Jane	-10341
▁existed	-10342
▁refers	-10343
imize	-10344
▁Edit	-10345
hero	-10346
abe	-10347
ardo	-10348
human	-10349
▁wondering	-10350
bes	-10351
▁Nelson	-10352
.[6	-10353
▁2.5	-10354
▁disappear	-10355
▁convert	-10356
rock	-10357
▁closest	-10358
security	-10359
▁Climate	-10360
▁athe	-10361
▁cabinet	-10362
stop	-10363
books	-10364
▁Nether	-10365
▁donors	-10366
▁routes	-10367
▁attending	-10368
▁confusion	-10369
▁teeth	-10370
▁Kr	-10371
▁expenses	-10372
300	-10373
▁NO	-10374
▁refuse	-10375
▁flee	-10376
▁Jimmy	-10377
▁compr	-10378
▁utter	-10379
Fi	-10380
▁revolutionary	-10381
▁Dak	-10382
▁occasional	-10383
▁stimul	-10384
▁ministers	-10385
▁FR	-10386
vernment	-10387
▁hosts	-10388
▁speculation	-10389
aa	-10390
▁steady	-10391
hist	-10392
▁survived	-10393
▁briefly	-10394
lynn	-10395
▁teammates	-10396
▁subsequently	-10397
oker	-10398
▁Band	-10399
▁Niger	-10400
elle	-10401
▁Within	-10402
▁engaging	-10403
▁engines	-10404
▁Soft	-10405
▁lobb	-10406
grad	-10407
▁Mississ	-10408
dam	-10409
▁sexually	-10410
▁Dal	-10411
▁void	-10412
▁chaos	-10413
▁Blood	-10414
▁hiring	-10415
▁leaked	-10416
▁compromise	-10417
▁Jerry	-10418
▁Kings	-10419
▁gameplay	-10420
orneys	-10421
utter	-10422
hire	-10423
some	-10424
▁defended	-10425
▁brands	-10426
dr	-10427
▁districts	-10428
▁Command	-10429
ateful	-10430
▁100,000	-10431
▁printed	-10432
▁Osc	-10433
▁figured	-10434
▁Poland	-10435
▁concert	-10436
▁witnesses	-10437
▁1.0	-10438
▁evident	-10439
▁nervous	-10440
▁Canadians	-10441
▁Jun	-10442
▁physics	-10443
-15	-10444
TON	-10445
▁patri	-10446
pack	-10447
▁justify	-10448
▁produces	-10449
▁loaded	-10450
ben	-10451
▁CPU	-10452
▁Hans	-10453
▁boom	-10454
▁expense	-10455
cur	-10456
▁curious	-10457
orge	-10458
▁cinem	-10459
▁considerable	-10460
▁Father	-10461
▁31,	-10462
▁harsh	-10463
▁Wi	-10464
▁250	-10465
graph	-10466
has	-10467
▁strengthen	-10468
▁Round	-10469
▁Cas	-10470
chell	-10471
▁Lincoln	-10472
good	-10473
▁pir	-10474
ocated	-10475
▁attracted	-10476
resident	-10477
▁repeal	-10478
▁Ni	-10479
ophob	-10480
▁packages	-10481
aro	-10482
cal	-10483
▁fel	-10484
▁contrary	-10485
attered	-10486
▁Entertainment	-10487
▁developments	-10488
oub	-10489
▁(20	-10490
▁Overall	-10491
▁guaranteed	-10492
▁HIV	-10493
Station	-10494
▁caps	-10495
▁Louisiana	-10496
▁scar	-10497
▁gri	-10498
▁challenged	-10499
▁Blake	-10500
▁Mario	-10501
ernand	-10502
▁consecut	-10503
▁Name	-10504
▁blamed	-10505
apper	-10506
▁Ka	-10507
▁packed	-10508
▁bacteria	-10509
▁57	-10510
▁Taliban	-10511
▁SN	-10512
ishers	-10513
▁publish	-10514
▁alert	-10515
TML	-10516
▁criminals	-10517
▁Russians	-10518
▁Based	-10519
▁blocking	-10520
anim	-10521
▁Sche	-10522
▁embed	-10523
▁taxpayers	-10524
▁interpretation	-10525
▁9/11	-10526
thodox	-10527
▁households	-10528
▁nu	-10529
▁Larry	-10530
▁asylum	-10531
▁suspension	-10532
▁ranking	-10533
▁researcher	-10534
vation	-10535
▁Grant	-10536
▁orient	-10537
▁recovered	-10538
ester	-10539
▁Tower	-10540
▁robust	-10541
▁Zim	-10542
▁$15	-10543
▁Stock	-10544
ressing	-10545
▁Modern	-10546
▁impacts	-10547
▁1)	-10548
erent	-10549
▁prost	-10550
▁characteristics	-10551
▁!	-10552
▁courtesy	-10553
rank	-10554
▁breast	-10555
▁Bir	-10556
▁nowhere	-10557
imir	-10558
white	-10559
▁Da	-10560
▁scared	-10561
adesh	-10562
Just	-10563
▁surprisingly	-10564
▁Ub	-10565
▁bombing	-10566
▁junior	-10567
acts	-10568
▁Very	-10569
▁Victoria	-10570
OK	-10571
elve	-10572
▁USB	-10573
▁editorial	-10574
reck	-10575
gal	-10576
▁avo	-10577
▁chip	-10578
▁dropping	-10579
▁yeah	-10580
▁fails	-10581
▁continu	-10582
▁telephone	-10583
▁epic	-10584
▁Mind	-10585
ping	-10586
▁Gard	-10587
mble	-10588
▁sophistic	-10589
▁fert	-10590
ATCH	-10591
strong	-10592
ILL	-10593
▁Stanford	-10594
leep	-10595
▁Queens	-10596
800	-10597
▁integrated	-10598
gged	-10599
▁simultaneously	-10600
▁Sin	-10601
izarre	-10602
▁EC	-10603
▁Winter	-10604
ERE	-10605
▁da	-10606
▁BC	-10607
▁True	-10608
▁wet	-10609
▁certific	-10610
amous	-10611
▁Financial	-10612
omic	-10613
▁Section	-10614
▁endors	-10615
▁Pa	-10616
lihood	-10617
▁FOR	-10618
▁reserv	-10619
▁vent	-10620
▁assemb	-10621
▁raises	-10622
nan	-10623
▁agreements	-10624
▁Nich	-10625
merce	-10626
▁slot	-10627
▁mirror	-10628
▁outcomes	-10629
enh	-10630
▁Edition	-10631
▁expects	-10632
▁Abu	-10633
▁Olympics	-10634
thood	-10635
▁Egyptian	-10636
▁Snowden	-10637
▁Phys	-10638
▁Manning	-10639
GE	-10640
▁tear	-10641
looking	-10642
ixel	-10643
▁correl	-10644
bian	-10645
▁Nik	-10646
eling	-10647
▁Cold	-10648
lu	-10649
tarian	-10650
▁Pear	-10651
.[11	-10652
AB	-10653
▁engagement	-10654
▁uncertainty	-10655
▁Level	-10656
▁2009.	-10657
cop	-10658
▁oxy	-10659
▁Citiz	-10660
▁fingers	-10661
vas	-10662
▁Corp	-10663
▁Malays	-10664
▁productive	-10665
atus	-10666
▁solo	-10667
▁Alaska	-10668
rics	-10669
▁hunting	-10670
▁mathemat	-10671
▁unnecess	-10672
▁flav	-10673
▁babies	-10674
▁checking	-10675
achment	-10676
▁presents	-10677
▁Rubio	-10678
▁occasion	-10679
▁flavor	-10680
▁conflicts	-10681
nie	-10682
▁pleasure	-10683
▁Flash	-10684
▁courage	-10685
▁Sport	-10686
breaking	-10687
▁intimid	-10688
▁headlines	-10689
.[2]	-10690
▁inaug	-10691
mented	-10692
▁Collins	-10693
NBC	-10694
uter	-10695
▁191	-10696
▁Deep	-10697
▁departure	-10698
DR	-10699
cap	-10700
▁expecting	-10701
▁2008.	-10702
▁Fif	-10703
thur	-10704
▁angle	-10705
▁trailer	-10706
▁singer	-10707
▁bol	-10708
▁colleg	-10709
terror	-10710
▁modest	-10711
▁qualified	-10712
dict	-10713
▁hub	-10714
▁proportion	-10715
QL	-10716
▁functionality	-10717
▁1999	-10718
▁inher	-10719
▁SEC	-10720
).[	-10721
▁transparency	-10722
▁Small	-10723
▁Rangers	-10724
▁chronic	-10725
http	-10726
▁Vo	-10727
▁flights	-10728
▁painting	-10729
▁SE	-10730
▁66	-10731
inst	-10732
low	-10733
aste	-10734
▁similarly	-10735
UC	-10736
▁animation	-10737
▁patent	-10738
▁reass	-10739
▁ES	-10740
▁meters	-10741
▁Morm	-10742
▁venture	-10743
▁Fight	-10744
▁accuracy	-10745
▁alliance	-10746
BN	-10747
▁Cloud	-10748
▁Smart	-10749
▁inbox	-10750
▁insur	-10751
▁examine	-10752
ippi	-10753
ucker	-10754
▁theft	-10755
▁provider	-10756
▁enact	-10757
▁ric	-10758
▁desp	-10759
▁uncomfort	-10760
cling	-10761
▁Netherlands	-10762
oft	-10763
▁accord	-10764
▁organis	-10765
▁Wy	-10766
▁Abd	-10767
By	-10768
▁Talk	-10769
orate	-10770
oned	-10771
▁rebuild	-10772
fish	-10773
▁Modi	-10774
▁promoted	-10775
▁inevitable	-10776
iere	-10777
▁lin	-10778
▁backs	-10779
▁Tokyo	-10780
▁beta	-10781
▁58	-10782
▁Wiki	-10783
▁barg	-10784
▁mart	-10785
▁consecutive	-10786
▁jet	-10787
▁algorithm	-10788
▁luxury	-10789
▁visits	-10790
94	-10791
etheless	-10792
▁Stanley	-10793
▁balls	-10794
▁invested	-10795
▁forgotten	-10796
iden	-10797
▁influenced	-10798
▁burned	-10799
olid	-10800
▁Mand	-10801
forward	-10802
▁Toy	-10803
offs	-10804
ifier	-10805
▁entrance	-10806
▁Wayne	-10807
▁Summer	-10808
▁enabled	-10809
▁bulk	-10810
leading	-10811
isms	-10812
▁50%	-10813
▁Prom	-10814
▁tanks	-10815
▁los	-10816
keley	-10817
▁Qual	-10818
▁McDonald	-10819
400	-10820
agine	-10821
▁bits	-10822
▁neighborhoods	-10823
▁Nature	-10824
▁ally	-10825
▁chips	-10826
▁solely	-10827
▁py	-10828
▁nationwide	-10829
Me	-10830
▁PlayStation	-10831
iar	-10832
icked	-10833
rition	-10834
▁Medicare	-10835
▁privilege	-10836
▁Ronald	-10837
▁orbit	-10838
zone	-10839
reshold	-10840
citation	-10841
▁releasing	-10842
▁Organization	-10843
limited	-10844
▁bases	-10845
▁wise	-10846
▁dependent	-10847
▁Philippines	-10848
▁Block	-10849
▁polling	-10850
▁volunt	-10851
▁checked	-10852
gly	-10853
▁sake	-10854
▁politician	-10855
tery	-10856
▁lane	-10857
▁senators	-10858
▁imprison	-10859
ahoo	-10860
▁restore	-10861
▁strip	-10862
▁formula	-10863
Let	-10864
ampa	-10865
▁Python	-10866
▁belt	-10867
million	-10868
▁Medicaid	-10869
▁influential	-10870
▁Between	-10871
▁earthqu	-10872
▁motivated	-10873
ailable	-10874
uating	-10875
▁outf	-10876
▁Hampshire	-10877
▁handled	-10878
▁keen	-10879
▁tower	-10880
wed	-10881
▁advertisement	-10882
▁30-	-10883
izations	-10884
▁investigated	-10885
?’	-10886
▁Champions	-10887
.]	-10888
▁vit	-10889
▁occupied	-10890
▁infection	-10891
▁reluct	-10892
▁0.1	-10893
wind	-10894
▁identical	-10895
ollar	-10896
▁kidn	-10897
▁destination	-10898
▁Building	-10899
▁renewable	-10900
▁ignor	-10901
vol	-10902
▁Ay	-10903
Cont	-10904
boys	-10905
▁impressed	-10906
▁Jen	-10907
▁Dean	-10908
▁Pod	-10909
▁kiss	-10910
▁shops	-10911
ista	-10912
▁fut	-10913
large	-10914
▁chocolate	-10915
▁explicitly	-10916
may	-10917
onduct	-10918
olas	-10919
▁Kurdish	-10920
▁(1)	-10921
▁screw	-10922
▁lifestyle	-10923
reek	-10924
▁Hamas	-10925
▁tears	-10926
aco	-10927
▁guidance	-10928
▁settle	-10929
olitan	-10930
▁Domin	-10931
▁Peace	-10932
▁seeks	-10933
▁gut	-10934
▁Reid	-10935
▁Beh	-10936
▁evolved	-10937
▁complained	-10938
▁Kal	-10939
▁awards	-10940
▁transferred	-10941
▁password	-10942
town	-10943
▁distribut	-10944
card	-10945
▁jurisd	-10946
rah	-10947
▁accepting	-10948
▁Forest	-10949
▁decrease	-10950
▁variables	-10951
▁tragedy	-10952
▁Environmental	-10953
uther	-10954
▁killer	-10955
overs	-10956
▁launching	-10957
▁immune	-10958
▁iPad	-10959
▁mandate	-10960
▁garden	-10961
▁provisions	-10962
▁applies	-10963
llor	-10964
▁Pir	-10965
▁Tan	-10966
▁diver	-10967
▁Ow	-10968
▁recession	-10969
▁bags	-10970
bitious	-10971
ormal	-10972
▁radiation	-10973
▁Benn	-10974
▁gym	-10975
▁Luke	-10976
▁poet	-10977
▁residential	-10978
friendly	-10979
▁jihad	-10980
▁absurd	-10981
assion	-10982
▁occasions	-10983
▁Steam	-10984
una	-10985
▁Lad	-10986
▁Less	-10987
forced	-10988
▁suck	-10989
usting	-10990
▁Asked	-10991
▁manual	-10992
▁conviction	-10993
uz	-10994
erald	-10995
▁Murphy	-10996
▁preserve	-10997
laim	-10998
▁Date	-10999
▁detention	-11000
▁resemb	-11001
JP	-11002
▁elabor	-11003
▁Patriots	-11004
▁Fle	-11005
▁operated	-11006
▁wireless	-11007
oup	-11008
▁Taiwan	-11009
▁concentration	-11010
->	-11011
amine	-11012
▁Along	-11013
▁preventing	-11014
iper	-11015
▁pose	-11016
▁ought	-11017
▁McCon	-11018
▁Laur	-11019
▁reflects	-11020
▁overl	-11021
▁assists	-11022
▁adap	-11023
rifice	-11024
▁excuse	-11025
▁Trek	-11026
▁innovative	-11027
▁Anti	-11028
▁supposedly	-11029
▁180	-11030
being	-11031
▁shelter	-11032
▁Native	-11033
oning	-11034
Se	-11035
▁rolled	-11036
▁Nash	-11037
▁projected	-11038
▁poster	-11039
▁missiles	-11040
▁regarded	-11041
about	-11042
▁Posted	-11043
ouses	-11044
▁trains	-11045
▁tent	-11046
▁dimin	-11047
▁</	-11048
▁fits	-11049
▁emphasis	-11050
▁drum	-11051
▁Drive	-11052
▁compelling	-11053
inite	-11054
▁males	-11055
▁Pinterest	-11056
ige	-11057
▁Flynn	-11058
▁traded	-11059
▁operator	-11060
▁prosecutor	-11061
UM	-11062
▁bump	-11063
▁Progress	-11064
▁Cuba	-11065
▁circuit	-11066
pen	-11067
dep	-11068
ante	-11069
▁realistic	-11070
non	-11071
track	-11072
ding	-11073
▁Singh	-11074
▁Cry	-11075
▁Yang	-11076
▁Inn	-11077
anguage	-11078
▁longtime	-11079
ulse	-11080
▁fer	-11081
▁bone	-11082
▁destro	-11083
▁tension	-11084
▁criteria	-11085
▁Reds	-11086
▁Knight	-11087
▁bother	-11088
▁prosecution	-11089
ilation	-11090
TE	-11091
▁bicy	-11092
▁departments	-11093
”)	-11094
such	-11095
▁lean	-11096
FS	-11097
▁AFP	-11098
▁lens	-11099
▁backup	-11100
▁coin	-11101
▁accusations	-11102
▁inex	-11103
▁Whit	-11104
ugby	-11105
▁cops	-11106
▁static	-11107
▁beneath	-11108
("	-11109
▁Roger	-11110
}}	-11111
▁hes	-11112
▁reck	-11113
▁filter	-11114
▁participating	-11115
▁antib	-11116
▁painful	-11117
▁surge	-11118
▁newsletters	-11119
▁disabled	-11120
▁stopping	-11121
▁DVD	-11122
▁stats	-11123
▁Orange	-11124
▁Imp	-11125
▁iconic	-11126
▁container	-11127
▁(7	-11128
▁Comput	-11129
▁subtle	-11130
▁spotted	-11131
?)	-11132
idal	-11133
▁Jess	-11134
▁awful	-11135
▁photographs	-11136
bery	-11137
TR	-11138
▁FO	-11139
shore	-11140
▁sentiment	-11141
▁Dor	-11142
▁Jacob	-11143
▁(10	-11144
▁cooking	-11145
▁Rap	-11146
inally	-11147
▁favourite	-11148
obb	-11149
thal	-11150
untu	-11151
▁Corporation	-11152
▁voc	-11153
urches	-11154
vironments	-11155
▁accompanied	-11156
▁slide	-11157
iah	-11158
▁Vin	-11159
▁Quebec	-11160
▁Bah	-11161
▁speeds	-11162
▁600	-11163
▁fed	-11164
▁constructed	-11165
▁productivity	-11166
▁rhy	-11167
▁Swedish	-11168
▁Sac	-11169
armed	-11170
▁theater	-11171
▁outstanding	-11172
▁Chron	-11173
▁hosting	-11174
▁revenues	-11175
▁liberty	-11176
▁advent	-11177
▁boards	-11178
century	-11179
▁finishing	-11180
IE	-11181
▁consists	-11182
itement	-11183
▁Gre	-11184
▁Tell	-11185
▁graphic	-11186
▁Mississippi	-11187
▁Side	-11188
▁dressed	-11189
rc	-11190
former	-11191
▁Manager	-11192
bus	-11193
▁59	-11194
leted	-11195
▁filing	-11196
▁Against	-11197
charg	-11198
▁reviewed	-11199
▁operators	-11200
▁Kickstarter	-11201
▁Kas	-11202
▁bip	-11203
▁beaten	-11204
▁Ian	-11205
▁ther	-11206
▁earnings	-11207
▁Pel	-11208
▁Huff	-11209
▁Sessions	-11210
▁administrative	-11211
▁synd	-11212
▁praised	-11213
incial	-11214
HA	-11215
rons	-11216
wall	-11217
▁Players	-11218
▁devastating	-11219
▁possibilities	-11220
▁theoret	-11221
▁eru	-11222
isive	-11223
▁Fergus	-11224
▁examined	-11225
▁Lady	-11226
▁infant	-11227
▁Commons	-11228
▁converted	-11229
encer	-11230
▁Len	-11231
▁Text	-11232
▁preview	-11233
▁Fun	-11234
▁1000	-11235
▁dealt	-11236
▁SM	-11237
▁Todd	-11238
▁iter	-11239
▁torn	-11240
▁intrig	-11241
▁rivals	-11242
▁Rh	-11243
▁dirty	-11244
▁1998	-11245
▁municipal	-11246
▁experimental	-11247
▁HTML	-11248
▁Heat	-11249
ocur	-11250
▁resort	-11251
▁sustained	-11252
Ne	-11253
▁automatic	-11254
ilst	-11255
▁riders	-11256
▁surre	-11257
▁globe	-11258
words	-11259
▁fishing	-11260
▁cleared	-11261
▁analys	-11262
▁panels	-11263
▁creator	-11264
▁secular	-11265
▁controller	-11266
▁displays	-11267
May	-11268
▁Na	-11269
▁Beyond	-11270
▁meanwhile	-11271
▁oldest	-11272
opp	-11273
▁layers	-11274
▁occupation	-11275
▁availability	-11276
▁Blu	-11277
▁detained	-11278
▁horrible	-11279
▁entity	-11280
▁Vladimir	-11281
600	-11282
▁5-	-11283
▁discrimin	-11284
▁golf	-11285
▁fucking	-11286
▁seeds	-11287
▁Speaker	-11288
▁bizarre	-11289
▁leak	-11290
▁Lions	-11291
▁Motor	-11292
▁wisdom	-11293
▁>>	-11294
▁uncomfortable	-11295
▁Gab	-11296
▁Bab	-11297
comp	-11298
▁Cos	-11299
▁deserves	-11300
▁mortgage	-11301
▁Nap	-11302
oop	-11303
▁documented	-11304
▁72	-11305
▁misc	-11306
▁Benj	-11307
▁Hann	-11308
▁Row	-11309
▁Commissioner	-11310
▁Mas	-11311
▁attorneys	-11312
▁significance	-11313
neg	-11314
▁convenient	-11315
▁anonym	-11316
▁Congressional	-11317
▁polar	-11318
.[3]	-11319
▁neur	-11320
▁Ward	-11321
▁inhab	-11322
▁earning	-11323
▁Brandon	-11324
▁Berkeley	-11325
▁Watson	-11326
▁regret	-11327
fers	-11328
EMENT	-11329
▁Blog	-11330
▁$25	-11331
▁anch	-11332
▁trips	-11333
itty	-11334
olly	-11335
winning	-11336
▁affects	-11337
agu	-11338
▁Magazine	-11339
▁ambitious	-11340
▁exploit	-11341
▁tu	-11342
named	-11343
anyahu	-11344
celona	-11345
kward	-11346
first	-11347
uels	-11348
▁Beat	-11349
▁comed	-11350
▁Bloomberg	-11351
▁debates	-11352
▁offseason	-11353
▁Chrome	-11354
▁mothers	-11355
arios	-11356
▁interactions	-11357
▁predec	-11358
▁Draft	-11359
▁combine	-11360
▁crossing	-11361
▁complexity	-11362
▁$500	-11363
▁mysterious	-11364
▁viable	-11365
arer	-11366
block	-11367
▁steal	-11368
user	-11369
▁scrutiny	-11370
▁Lie	-11371
owder	-11372
accept	-11373
▁walks	-11374
▁mouse	-11375
▁radar	-11376
DC	-11377
▁Madrid	-11378
beat	-11379
▁ranging	-11380
▁Eagles	-11381
ailing	-11382
▁Mitchell	-11383
▁robots	-11384
▁mm	-11385
▁adoption	-11386
stra	-11387
▁arrests	-11388
KE	-11389
▁interven	-11390
iors	-11391
▁Swit	-11392
▁catast	-11393
uably	-11394
ambling	-11395
▁lady	-11396
▁wore	-11397
▁Karl	-11398
▁Safety	-11399
▁Chall	-11400
▁rebel	-11401
▁Airport	-11402
▁prayer	-11403
▁appearing	-11404
▁Marshall	-11405
▁Pur	-11406
▁Posts	-11407
▁carrier	-11408
▁amongst	-11409
▁delegates	-11410
▁delivering	-11411
▁meets	-11412
▁Hunter	-11413
▁Kyle	-11414
▁reserve	-11415
▁collecting	-11416
kind	-11417
▁safely	-11418
▁crossed	-11419
▁rewards	-11420
▁unfortunately	-11421
xide	-11422
▁Naz	-11423
▁overnight	-11424
▁competitors	-11425
▁restricted	-11426
profile	-11427
Int	-11428
▁publisher	-11429
rencies	-11430
▁tale	-11431
▁coins	-11432
arded	-11433
▁relatives	-11434
▁drops	-11435
ching	-11436
▁Stein	-11437
▁2005,	-11438
aments	-11439
▁cease	-11440
▁nights	-11441
▁addressing	-11442
▁RT	-11443
seless	-11444
▁IV	-11445
▁toss	-11446
▁murdered	-11447
▁Parker	-11448
err	-11449
▁Ky	-11450
▁2)	-11451
▁Storm	-11452
▁spray	-11453
▁pricing	-11454
▁beef	-11455
▁duties	-11456
▁Melbourne	-11457
▁intelligent	-11458
ori	-11459
▁commentary	-11460
▁Sad	-11461
▁fires	-11462
▁indication	-11463
Or	-11464
▁burst	-11465
▁ambassador	-11466
▁environments	-11467
▁peer	-11468
▁McM	-11469
▁Doug	-11470
▁acted	-11471
ected	-11472
▁documentation	-11473
uke	-11474
▁12-	-11475
▁stir	-11476
arians	-11477
▁Baker	-11478
▁lighting	-11479
...”	-11480
▁Print	-11481
▁tissue	-11482
▁witnessed	-11483
mons	-11484
▁Mitt	-11485
▁employer	-11486
▁Gene	-11487
▁align	-11488
▁viewing	-11489
founder	-11490
▁coord	-11491
▁Mom	-11492
▁Federation	-11493
▁bathroom	-11494
▁pregnancy	-11495
▁Advertisements	-11496
47	-11497
▁corn	-11498
▁violated	-11499
▁hiding	-11500
GA	-11501
arts	-11502
ques	-11503
..."	-11504
▁Amb	-11505
▁altogether	-11506
▁Laure	-11507
▁unl	-11508
▁bugs	-11509
▁commod	-11510
▁sleeping	-11511
▁relie	-11512
▁winners	-11513
▁replacing	-11514
icating	-11515
▁firearms	-11516
▁threshold	-11517
▁whis	-11518
isting	-11519
▁Legisl	-11520
▁aspir	-11521
▁Netanyahu	-11522
ugs	-11523
▁Ferguson	-11524
▁desert	-11525
▁pension	-11526
▁Campbell	-11527
▁360	-11528
ects	-11529
ART	-11530
gov	-11531
▁venue	-11532
bin	-11533
government	-11534
▁citizenship	-11535
▁Soon	-11536
▁sons	-11537
▁6-	-11538
▁Currently	-11539
fi	-11540
ATED	-11541
▁themes	-11542
▁celebrated	-11543
Ps	-11544
▁reflected	-11545
▁Ca	-11546
emin	-11547
obby	-11548
▁Natural	-11549
▁76	-11550
▁reign	-11551
▁DJ	-11552
▁conced	-11553
▁remembered	-11554
▁Coalition	-11555
▁pledge	-11556
▁equipped	-11557
▁pour	-11558
▁laptop	-11559
shot	-11560
▁Hend	-11561
▁courses	-11562
▁delayed	-11563
▁gradually	-11564
▁limitations	-11565
ui	-11566
▁grants	-11567
▁Express	-11568
aucus	-11569
▁exploring	-11570
prot	-11571
▁4:	-11572
▁WAS	-11573
▁caution	-11574
▁indu	-11575
▁designated	-11576
piece	-11577
▁Dub	-11578
▁ensuring	-11579
▁curve	-11580
mart	-11581
rike	-11582
▁FCC	-11583
▁verify	-11584
▁chemicals	-11585
▁Mobile	-11586
▁questioning	-11587
▁10%	-11588
.),	-11589
▁Saint	-11590
ttes	-11591
▁2,000	-11592
▁supporter	-11593
▁Money	-11594
▁Arts	-11595
▁abund	-11596
ESS	-11597
▁Ga	-11598
▁Fro	-11599
▁planes	-11600
▁Barcelona	-11601
▁calculated	-11602
erman	-11603
isode	-11604
▁faculty	-11605
▁notably	-11606
▁Want	-11607
▁Political	-11608
▁orange	-11609
▁$9	-11610
ocial	-11611
▁actress	-11612
▁Morris	-11613
▁prevented	-11614
avery	-11615
▁quietly	-11616
▁disappeared	-11617
▁Senior	-11618
▁installation	-11619
FO	-11620
Leaks	-11621
▁Arena	-11622
cular	-11623
HT	-11624
▁Forces	-11625
▁toug	-11626
▁sophisticated	-11627
▁MA	-11628
▁Brand	-11629
▁pending	-11630
uri	-11631
▁Buck	-11632
▁styles	-11633
▁Whatever	-11634
▁192	-11635
otion	-11636
▁Hond	-11637
▁drones	-11638
cre	-11639
▁sizes	-11640
▁Similarly	-11641
arently	-11642
istance	-11643
▁oxygen	-11644
▁newspapers	-11645
▁Song	-11646
▁cous	-11647
▁damn	-11648
▁startup	-11649
▁Ry	-11650
commun	-11651
▁commands	-11652
urities	-11653
arma	-11654
quer	-11655
▁tablet	-11656
▁appointment	-11657
▁cruel	-11658
▁impose	-11659
oda	-11660
acies	-11661
rup	-11662
▁Hawaii	-11663
▁builds	-11664
athon	-11665
▁libraries	-11666
▁preparation	-11667
omer	-11668
rait	-11669
appropriate	-11670
link	-11671
▁Benjamin	-11672
49	-11673
▁800	-11674
▁Regard	-11675
▁countless	-11676
▁bonds	-11677
▁1.2	-11678
ierre	-11679
▁hunt	-11680
▁cultiv	-11681
▁advocacy	-11682
uj	-11683
▁fascinating	-11684
▁Dom	-11685
▁Alberta	-11686
omach	-11687
▁technological	-11688
▁Something	-11689
▁suggestions	-11690
▁Campaign	-11691
▁stunning	-11692
fs	-11693
▁complain	-11694
▁psychiat	-11695
bet	-11696
▁Treat	-11697
▁tends	-11698
▁frustration	-11699
▁separated	-11700
▁arena	-11701
▁Lawrence	-11702
oyd	-11703
▁Abbott	-11704
▁migration	-11705
▁Dakota	-11706
▁marginal	-11707
▁gentle	-11708
▁parameters	-11709
▁Nevertheless	-11710
▁drafted	-11711
▁Anyone	-11712
▁agriculture	-11713
▁Beng	-11714
▁Christianity	-11715
PI	-11716
▁furn	-11717
▁prol	-11718
uates	-11719
▁endless	-11720
▁contents	-11721
▁advised	-11722
▁weaken	-11723
▁fet	-11724
▁Kerry	-11725
▁Need	-11726
▁praise	-11727
emit	-11728
▁NCAA	-11729
▁cave	-11730
▁McConnell	-11731
▁demo	-11732
▁makers	-11733
atal	-11734
▁protections	-11735
▁adj	-11736
▁hearts	-11737
burn	-11738
▁essay	-11739
▁Roc	-11740
▁wound	-11741
two	-11742
▁2-	-11743
▁tempt	-11744
▁Election	-11745
▁epid	-11746
▁Corps	-11747
▁instantly	-11748
▁poorly	-11749
TIS	-11750
▁happiness	-11751
▁Investig	-11752
▁reactions	-11753
.[7	-11754
▁greet	-11755
▁transmission	-11756
▁''	-11757
▁annually	-11758
▁suggestion	-11759
▁translation	-11760
▁Mov	-11761
▁metaph	-11762
▁capability	-11763
ols	-11764
orical	-11765
▁doctr	-11766
▁addiction	-11767
▁chamber	-11768
▁demonstration	-11769
bably	-11770
▁logical	-11771
▁alike	-11772
▁UI	-11773
lesh	-11774
▁tob	-11775
oples	-11776
function	-11777
▁Awards	-11778
▁drinks	-11779
▁Farm	-11780
gments	-11781
▁stressed	-11782
▁assumption	-11783
▁WATCH	-11784
▁directors	-11785
▁Tampa	-11786
News	-11787
udeau	-11788
▁Bart	-11789
▁BL	-11790
▁discipline	-11791
▁patrol	-11792
mid	-11793
atre	-11794
▁Prior	-11795
gary	-11796
▁Sep	-11797
map	-11798
▁Terry	-11799
▁scratch	-11800
▁pressing	-11801
formance	-11802
▁Around	-11803
▁Obviously	-11804
▁worlds	-11805
Of	-11806
▁rice	-11807
▁hostile	-11808
outing	-11809
▁shocking	-11810
▁tum	-11811
▁Rain	-11812
▁Evans	-11813
▁suprem	-11814
▁shooter	-11815
▁highlighted	-11816
▁strongest	-11817
▁forb	-11818
▁Hotel	-11819
▁Cut	-11820
▁Chap	-11821
▁Rice	-11822
▁understands	-11823
Ass	-11824
alid	-11825
▁circles	-11826
▁67	-11827
▁climb	-11828
▁Switzer	-11829
▁partially	-11830
▁permitted	-11831
▁awkward	-11832
▁[1	-11833
▁Records	-11834
opt	-11835
▁Occup	-11836
▁grave	-11837
▁buyers	-11838
▁Deputy	-11839
▁exploration	-11840
▁arguably	-11841
48	-11842
uming	-11843
▁Swiss	-11844
▁Je	-11845
rior	-11846
polit	-11847
handed	-11848
▁audiences	-11849
oons	-11850
▁Barry	-11851
▁prosper	-11852
▁bubble	-11853
open	-11854
▁decor	-11855
▁fract	-11856
67	-11857
▁divide	-11858
pot	-11859
▁trucks	-11860
bie	-11861
speed	-11862
▁mechanisms	-11863
▁yard	-11864
▁References	-11865
▁enterprise	-11866
▁Hus	-11867
▁parks	-11868
▁Chance	-11869
▁starter	-11870
▁devoted	-11871
▁Raid	-11872
▁vaccine	-11873
▁fastest	-11874
▁Kirk	-11875
uh	-11876
▁Rogers	-11877
▁crown	-11878
▁Oxford	-11879
▁mountains	-11880
minded	-11881
▁1996	-11882
▁ritual	-11883
▁lyr	-11884
acular	-11885
oj	-11886
kes	-11887
▁placing	-11888
▁sacrifice	-11889
▁anarch	-11890
▁experiencing	-11891
▁fo	-11892
▁Indians	-11893
▁recept	-11894
▁BE	-11895
aman	-11896
▁spy	-11897
▁Gray	-11898
▁Salt	-11899
▁supplement	-11900
▁coordinator	-11901
anches	-11902
▁Philip	-11903
▁Members	-11904
▁mandatory	-11905
▁safer	-11906
▁dil	-11907
▁incorrect	-11908
asted	-11909
▁ineff	-11910
▁focuses	-11911
▁applying	-11912
▁Eventually	-11913
▁Ess	-11914
▁ash	-11915
▁seventh	-11916
▁EX	-11917
▁honestly	-11918
UD	-11919
▁summary	-11920
▁respective	-11921
natural	-11922
▁historically	-11923
/3	-11924
▁Notes	-11925
▁COM	-11926
▁Fantasy	-11927
▁powered	-11928
▁celebration	-11929
ernel	-11930
▁mild	-11931
▁Kit	-11932
▁sauce	-11933
▁0.5	-11934
orer	-11935
▁shake	-11936
▁Tea	-11937
▁Hum	-11938
▁Almost	-11939
ologically	-11940
▁penalties	-11941
▁cats	-11942
TO	-11943
▁Maine	-11944
▁longest	-11945
▁conservation	-11946
▁depos	-11947
itate	-11948
▁electrical	-11949
▁golden	-11950
abling	-11951
rint	-11952
▁Inside	-11953
▁Ta	-11954
▁unnecessary	-11955
▁Neil	-11956
▁toll	-11957
▁Christie	-11958
▁boundaries	-11959
aughters	-11960
mother	-11961
▁hacking	-11962
borne	-11963
▁Lock	-11964
▁derived	-11965
▁lineback	-11966
ims	-11967
zes	-11968
▁revealing	-11969
.[4]	-11970
▁grocer	-11971
count	-11972
▁illegally	-11973
▁accomplished	-11974
▁dign	-11975
uccess	-11976
▁painted	-11977
▁mechanics	-11978
▁harvest	-11979
MAN	-11980
stan	-11981
pling	-11982
68	-11983
▁63	-11984
▁Bond	-11985
▁lone	-11986
▁Trudeau	-11987
▁Ped	-11988
▁ethics	-11989
ocus	-11990
▁Emb	-11991
▁flew	-11992
▁Fried	-11993
▁observations	-11994
▁bears	-11995
▁printing	-11996
ulpt	-11997
▁feminist	-11998
▁Aw	-11999
▁meth	-12000
▁node	-12001
▁Wikipedia	-12002
▁tunnel	-12003
▁Cohen	-12004
▁traveled	-12005
▁$50	-12006
▁Due	-12007
▁Temple	-12008
▁singing	-12009
▁UPD	-12010
▁tobacco	-12011
▁initiatives	-12012
▁Brady	-12013
▁vague	-12014
ICE	-12015
▁haz	-12016
▁orientation	-12017
sk	-12018
▁Saints	-12019
▁qualify	-12020
▁contributing	-12021
ND	-12022
▁emerge	-12023
▁oversight	-12024
After	-12025
▁Brus	-12026
▁Hispan	-12027
▁Switzerland	-12028
▁1.1	-12029
▁Alt	-12030
▁investing	-12031
▁Tun	-12032
▁Pok	-12033
▁responding	-12034
▁acquisition	-12035
half	-12036
▁Hey	-12037
▁animated	-12038
▁priorities	-12039
▁1997	-12040
▁Tyler	-12041
▁overd	-12042
rot	-12043
▁confirmation	-12044
▁operates	-12045
▁interrupt	-12046
verning	-12047
▁stomach	-12048
Ad	-12049
▁cultures	-12050
▁ghost	-12051
uez	-12052
▁bitter	-12053
rin	-12054
▁calendar	-12055
▁Conservatives	-12056
▁pays	-12057
comed	-12058
▁Works	-12059
▁Franklin	-12060
▁transformation	-12061
▁Rio	-12062
▁Cand	-12063
▁BR	-12064
▁Jets	-12065
▁Military	-12066
formed	-12067
While	-12068
▁crops	-12069
itivity	-12070
ridge	-12071
▁gaining	-12072
▁enjoying	-12073
▁receives	-12074
▁subsidies	-12075
▁Firef	-12076
version	-12077
Res	-12078
ipher	-12079
▁Fast	-12080
▁tune	-12081
▁counties	-12082
▁entities	-12083
oria	-12084
▁Besides	-12085
▁achievement	-12086
SE	-12087
anded	-12088
valid	-12089
▁Keith	-12090
▁12.	-12091
▁Nav	-12092
▁breach	-12093
▁frustrated	-12094
storm	-12095
▁Rail	-12096
▁computing	-12097
▁density	-12098
▁Vers	-12099
▁crowds	-12100
oa	-12101
▁conclusions	-12102
flow	-12103
▁expertise	-12104
▁popul	-12105
▁Norway	-12106
▁exchanges	-12107
mare	-12108
▁frank	-12109
▁bund	-12110
▁Friends	-12111
nor	-12112
drop	-12113
requ	-12114
▁Scar	-12115
▁bio	-12116
▁heritage	-12117
▁greenhouse	-12118
mn	-12119
▁motivation	-12120
mun	-12121
▁sentences	-12122
size	-12123
atoes	-12124
▁scenarios	-12125
▁Try	-12126
▁READ	-12127
▁WikiLeaks	-12128
jan	-12129
~~	-12130
DAY	-12131
▁jokes	-12132
connect	-12133
▁pedest	-12134
▁balanced	-12135
▁reserves	-12136
▁rotation	-12137
▁Buffalo	-12138
icut	-12139
▁peers	-12140
▁quantum	-12141
▁ceiling	-12142
▁highway	-12143
liminary	-12144
▁cryptocur	-12145
▁cam	-12146
sur	-12147
▁composed	-12148
▁conversion	-12149
uerto	-12150
icts	-12151
▁Oscar	-12152
▁tutorial	-12153
▁manufacturer	-12154
▁humanitarian	-12155
?'	-12156
▁acquire	-12157
▁grateful	-12158
byn	-12159
▁Dougl	-12160
cat	-12161
▁Diff	-12162
pg	-12163
ults	-12164
km	-12165
▁earl	-12166
bart	-12167
▁imperial	-12168
▁WWE	-12169
▁prototype	-12170
▁resigned	-12171
outheast	-12172
▁Arctic	-12173
▁Neither	-12174
acer	-12175
▁exem	-12176
▁Chuck	-12177
▁ideological	-12178
▁Cu	-12179
▁till	-12180
▁Fisher	-12181
▁Warriors	-12182
▁treating	-12183
▁$30	-12184
▁Dri	-12185
▁designers	-12186
▁economies	-12187
▁cake	-12188
▁Maria	-12189
▁Liberty	-12190
▁completion	-12191
ryption	-12192
▁islands	-12193
ivan	-12194
▁desired	-12195
▁Lynch	-12196
▁scary	-12197
▁nonprofit	-12198
vious	-12199
▁intensity	-12200
SU	-12201
atile	-12202
string	-12203
▁resur	-12204
▁anticipated	-12205
-11	-12206
Russ	-12207
▁Bund	-12208
▁shorter	-12209
▁agricultural	-12210
umbled	-12211
▁explosive	-12212
▁pione	-12213
test	-12214
hill	-12215
iary	-12216
onia	-12217
▁ears	-12218
▁Speed	-12219
▁attendance	-12220
▁61	-12221
▁toile	-12222
initely	-12223
▁residence	-12224
▁serial	-12225
▁buzz	-12226
▁tar	-12227
boards	-12228
arettes	-12229
▁Circuit	-12230
▁clever	-12231
▁dispar	-12232
▁1930	-12233
iciary	-12234
▁EV	-12235
Image	-12236
ayed	-12237
▁Century	-12238
▁AB	-12239
▁Prin	-12240
▁Columbus	-12241
▁panic	-12242
▁rehab	-12243
▁Danny	-12244
utt	-12245
ortunate	-12246
las	-12247
idding	-12248
▁monetary	-12249
▁posed	-12250
specific	-12251
▁Krist	-12252
▁distant	-12253
brew	-12254
sized	-12255
matic	-12256
▁participated	-12257
▁condemned	-12258
▁flexible	-12259
▁appeals	-12260
▁acceptance	-12261
▁Jake	-12262
▁spreading	-12263
▁hatred	-12264
▁insane	-12265
▁Arkansas	-12266
▁respected	-12267
▁condemn	-12268
▁deployment	-12269
▁editors	-12270
▁Venezuela	-12271
▁respondents	-12272
▁exped	-12273
▁freely	-12274
incinn	-12275
▁distinction	-12276
▁priest	-12277
written	-12278
▁rumors	-12279
imens	-12280
▁Elsa	-12281
▁disclosure	-12282
▁composition	-12283
▁bones	-12284
▁approve	-12285
sign	-12286
chron	-12287
▁Yahoo	-12288
▁Rodrig	-12289
▁62	-12290
▁Medicine	-12291
▁controlling	-12292
▁lanes	-12293
▁touched	-12294
.[5]	-12295
▁por	-12296
▁Luck	-12297
think	-12298
▁Corn	-12299
▁formally	-12300
▁particles	-12301
NG	-12302
▁declare	-12303
▁attributed	-12304
story	-12305
▁Number	-12306
▁directions	-12307
Co	-12308
▁pink	-12309
Col	-12310
▁excessive	-12311
▁Bh	-12312
auc	-12313
▁lung	-12314
▁sher	-12315
▁ugly	-12316
orient	-12317
▁Susan	-12318
▁Harvey	-12319
▁Contact	-12320
▁filling	-12321
▁shifted	-12322
▁trapped	-12323
irs	-12324
supp	-12325
bage	-12326
otypes	-12327
▁crude	-12328
▁pressed	-12329
▁equity	-12330
▁churches	-12331
▁1995	-12332
▁heaven	-12333
▁Solar	-12334
ECT	-12335
▁Past	-12336
▁advantages	-12337
▁operational	-12338
▁fluid	-12339
uto	-12340
▁Fel	-12341
western	-12342
79	-12343
▁GPU	-12344
▁sword	-12345
▁turb	-12346
prising	-12347
wid	-12348
▁Robin	-12349
SD	-12350
ATION	-12351
VERTIS	-12352
▁Puerto	-12353
▁volunteer	-12354
rane	-12355
▁Stre	-12356
▁quotes	-12357
second	-12358
powered	-12359
ilateral	-12360
▁zones	-12361
▁knocked	-12362
eller	-12363
code	-12364
▁Select	-12365
incinnati	-12366
▁announcing	-12367
▁recy	-12368
hol	-12369
▁Ju	-12370
▁beloved	-12371
▁deliberately	-12372
▁Bou	-12373
▁Lucas	-12374
▁Reading	-12375
▁Holland	-12376
Mus	-12377
▁tensions	-12378
▁instruments	-12379
file	-12380
▁whistle	-12381
▁affair	-12382
▁mechanical	-12383
di	-12384
mi	-12385
▁FDA	-12386
▁judicial	-12387
▁fest	-12388
▁raid	-12389
▁Imagine	-12390
▁secured	-12391
dev	-12392
▁fright	-12393
▁interrog	-12394
▁Charlotte	-12395
▁Communist	-12396
▁portfol	-12397
▁welcomed	-12398
eu	-12399
▁mamm	-12400
Fig	-12401
▁wings	-12402
▁legislature	-12403
ockets	-12404
▁worthy	-12405
▁Meet	-12406
▁naked	-12407
▁defenders	-12408
▁viral	-12409
▁floating	-12410
pin	-12411
▁);	-12412
▁RC	-12413
guard	-12414
▁dispos	-12415
▁Must	-12416
▁Consider	-12417
▁tel	-12418
▁colleges	-12419
sing	-12420
▁bass	-12421
▁rocks	-12422
▁wrapped	-12423
▁Weiss	-12424
▁Joy	-12425
▁Connecticut	-12426
▁difficulties	-12427
▁lifted	-12428
▁triggered	-12429
▁Ath	-12430
▁flexibility	-12431
▁chap	-12432
▁processor	-12433
▁incomp	-12434
▁68	-12435
▁Morning	-12436
▁disturbing	-12437
▁colleague	-12438
izard	-12439
▁sparked	-12440
▁suitable	-12441
SL	-12442
rust	-12443
▁conj	-12444
▁Mission	-12445
▁infring	-12446
▁ADVERTIS	-12447
▁pursuing	-12448
agraph	-12449
▁spacecraft	-12450
▁slavery	-12451
erving	-12452
itably	-12453
econom	-12454
▁Crown	-12455
▁reson	-12456
▁grasp	-12457
▁pledged	-12458
▁conducting	-12459
▁HP	-12460
odge	-12461
2:	-12462
dec	-12463
▁Shan	-12464
llers	-12465
CO	-12466
▁interf	-12467
▁Pap	-12468
keeper	-12469
▁MM	-12470
▁IRS	-12471
▁McL	-12472
▁incons	-12473
▁MD	-12474
Rep	-12475
▁11.	-12476
▁rushed	-12477
▁identifying	-12478
▁3.5	-12479
▁2004,	-12480
▁Raven	-12481
▁consequence	-12482
▁rifle	-12483
▁reply	-12484
▁reaches	-12485
ropolitan	-12486
▁Jefferson	-12487
whe	-12488
product	-12489
▁avoided	-12490
▁technically	-12491
pace	-12492
igers	-12493
charge	-12494
▁clicking	-12495
▁Corbyn	-12496
▁abol	-12497
▁parliamentary	-12498
orph	-12499
▁Pred	-12500
▁tendency	-12501
▁harmful	-12502
IO	-12503
zb	-12504
▁Rams	-12505
▁Merkel	-12506
▁Pence	-12507
▁assured	-12508
▁excitement	-12509
▁traditionally	-12510
▁subt	-12511
▁Resear	-12512
▁stocks	-12513
▁Verizon	-12514
▁exports	-12515
crat	-12516
group	-12517
▁grip	-12518
ighed	-12519
▁Thor	-12520
abetes	-12521
▁resolved	-12522
lli	-12523
▁Anim	-12524
because	-12525
▁teenager	-12526
▁elderly	-12527
▁Partners	-12528
▁immigrant	-12529
▁habits	-12530
▁Phone	-12531
▁77	-12532
▁instinct	-12533
▁minorities	-12534
▁ft	-12535
▁deciding	-12536
▁Rank	-12537
▁vegan	-12538
▁Updated	-12539
▁token	-12540
▁Load	-12541
▁hier	-12542
▁reminded	-12543
▁alternatives	-12544
atin	-12545
▁absent	-12546
▁earliest	-12547
▁hybrid	-12548
▁Dest	-12549
▁empire	-12550
▁neglect	-12551
dale	-12552
▁Madison	-12553
▁(8	-12554
▁refusing	-12555
▁tourists	-12556
XX	-12557
▁tragic	-12558
around	-12559
▁Stars	-12560
sky	-12561
▁Garden	-12562
▁duration	-12563
IST	-12564
▁mutual	-12565
▁philosoph	-12566
▁texts	-12567
usters	-12568
▁sends	-12569
orig	-12570
▁aest	-12571
▁assuming	-12572
▁survivors	-12573
▁Cincinnati	-12574
gi	-12575
never	-12576
▁Carson	-12577
bles	-12578
▁barriers	-12579
▁MC	-12580
▁ethical	-12581
▁indicating	-12582
▁provincial	-12583
▁legendary	-12584
▁Seven	-12585
▁temporarily	-12586
last	-12587
▁whites	-12588
▁(2)	-12589
▁Imper	-12590
aukee	-12591
▁Bears	-12592
▁compliance	-12593
-16	-12594
ella	-12595
▁constrain	-12596
fold	-12597
UTERS	-12598
▁innings	-12599
chi	-12600
▁1/2	-12601
▁Employ	-12602
▁structural	-12603
▁Advent	-12604
Name	-12605
▁steep	-12606
▁Arthur	-12607
▁hopeful	-12608
gree	-12609
▁Thunder	-12610
▁bless	-12611
.25	-12612
stock	-12613
▁transparent	-12614
▁Living	-12615
▁flip	-12616
▁declaration	-12617
▁wishes	-12618
▁immense	-12619
▁optimistic	-12620
▁sued	-12621
data	-12622
▁humor	-12623
▁Bos	-12624
owell	-12625
▁athletic	-12626
▁brains	-12627
▁Islands	-12628
▁economists	-12629
▁divorce	-12630
▁fitness	-12631
▁breakfast	-12632
▁socialist	-12633
▁probability	-12634
▁lun	-12635
forcement	-12636
▁satisfied	-12637
abil	-12638
▁$1,	-12639
▁hackers	-12640
▁Brussels	-12641
▁null	-12642
rained	-12643
▁template	-12644
▁Anne	-12645
▁headline	-12646
▁NEW	-12647
nered	-12648
urned	-12649
▁tang	-12650
▁Oliver	-12651
▁(9	-12652
▁Turner	-12653
beit	-12654
lash	-12655
▁Altern	-12656
▁Belgium	-12657
▁Fab	-12658
▁romantic	-12659
▁Hi	-12660
▁detected	-12661
▁Memorial	-12662
▁mixture	-12663
▁thereby	-12664
▁undermine	-12665
▁Country	-12666
▁fare	-12667
unct	-12668
▁waited	-12669
tics	-12670
▁Communications	-12671
▁squee	-12672
HING	-12673
▁Fixed	-12674
▁magical	-12675
abl	-12676
▁silly	-12677
▁approaching	-12678
▁essence	-12679
▁pursuit	-12680
leton	-12681
▁Nin	-12682
▁Studio	-12683
▁wallet	-12684
gregation	-12685
eor	-12686
▁Hunt	-12687
ousing	-12688
best	-12689
▁frozen	-12690
▁reminder	-12691
▁identification	-12692
▁vel	-12693
▁Room	-12694
erer	-12695
▁compos	-12696
somet	-12697
oard	-12698
▁Prize	-12699
▁planets	-12700
▁Ja	-12701
waukee	-12702
▁liberals	-12703
('	-12704
▁Guide	-12705
main	-12706
▁fru	-12707
▁15-	-12708
▁Od	-12709
backed	-12710
iva	-12711
▁breakdown	-12712
▁presumably	-12713
▁BY	-12714
▁preval	-12715
ationally	-12716
▁infected	-12717
iated	-12718
▁WR	-12719
▁Guy	-12720
▁financing	-12721
ructive	-12722
▁Vermont	-12723
▁penet	-12724
▁champions	-12725
NT	-12726
▁nick	-12727
inging	-12728
▁20%	-12729
seud	-12730
afi	-12731
itbart	-12732
▁font	-12733
▁buttons	-12734
▁cartoon	-12735
▁editing	-12736
▁verdict	-12737
vals	-12738
acent	-12739
▁detain	-12740
▁Bradley	-12741
▁licensed	-12742
▁purchases	-12743
idays	-12744
▁Getting	-12745
▁suppose	-12746
ocate	-12747
▁comply	-12748
▁Carr	-12749
▁tong	-12750
▁Ghost	-12751
▁Mormon	-12752
▁strain	-12753
▁lib	-12754
▁Kle	-12755
▁URL	-12756
▁Universal	-12757
▁Princ	-12758
▁smugg	-12759
▁Students	-12760
enz	-12761
▁vibr	-12762
▁Cambridge	-12763
otton	-12764
▁Rosen	-12765
▁barrier	-12766
▁grabbed	-12767
▁PAC	-12768
▁Cass	-12769
▁unity	-12770
▁regulators	-12771
azy	-12772
▁embedded	-12773
urred	-12774
gs	-12775
▁trusted	-12776
▁Member	-12777
▁worship	-12778
▁Save	-12779
▁reun	-12780
▁imagination	-12781
fil	-12782
▁Pi	-12783
▁urge	-12784
▁preference	-12785
▁admits	-12786
();	-12787
ski	-12788
▁nons	-12789
quality	-12790
gt	-12791
▁grows	-12792
▁slower	-12793
Sc	-12794
▁societies	-12795
▁accountable	-12796
▁Title	-12797
▁Nobody	-12798
▁casting	-12799
▁Lane	-12800
▁Nort	-12801
Mar	-12802
▁screening	-12803
▁Clar	-12804
▁DR	-12805
▁Veter	-12806
▁disg	-12807
lly	-12808
▁Celt	-12809
▁auction	-12810
▁beers	-12811
▁Peters	-12812
▁winds	-12813
,000,	-12814
▁Cher	-12815
▁Coach	-12816
▁Bash	-12817
▁damaging	-12818
▁0.00	-12819
▁horm	-12820
▁Serge	-12821
▁economist	-12822
acceptable	-12823
▁sequel	-12824
▁throws	-12825
owners	-12826
▁treatments	-12827
▁rall	-12828
▁Books	-12829
▁Better	-12830
▁expend	-12831
when	-12832
▁Michelle	-12833
▁attitudes	-12834
▁vertical	-12835
▁trash	-12836
▁advances	-12837
olk	-12838
▁Mort	-12839
▁masc	-12840
▁visa	-12841
▁Glenn	-12842
▁Chapter	-12843
▁cub	-12844
▁sooner	-12845
▁decides	-12846
▁QB	-12847
plex	-12848
▁Theatre	-12849
▁1994	-12850
oni	-12851
▁trop	-12852
irable	-12853
▁recount	-12854
▁separation	-12855
▁careers	-12856
▁stabil	-12857
▁Kam	-12858
▁meantime	-12859
▁Ebola	-12860
▁secrets	-12861
▁diagnosed	-12862
▁Il	-12863
▁Gonz	-12864
▁indict	-12865
▁streak	-12866
▁masses	-12867
▁unfortunate	-12868
▁millenn	-12869
▁Leaf	-12870
▁eleph	-12871
izable	-12872
▁Glass	-12873
▁creep	-12874
▁conclude	-12875
▁warnings	-12876
▁aftermath	-12877
▁DA	-12878
▁lobbying	-12879
GM	-12880
len	-12881
▁Gallery	-12882
▁execute	-12883
▁69	-12884
▁armor	-12885
▁retreat	-12886
media	-12887
▁exempt	-12888
▁Profile	-12889
▁permits	-12890
▁governing	-12891
▁succeeded	-12892
46	-12893
note	-12894
▁Ec	-12895
▁scrap	-12896
uy	-12897
▁Universe	-12898
▁donation	-12899
haul	-12900
▁Virt	-12901
▁outer	-12902
▁intentions	-12903
▁Poké	-12904
▁width	-12905
▁Johnny	-12906
▁lake	-12907
advant	-12908
▁Indonesia	-12909
tha	-12910
▁donated	-12911
▁batteries	-12912
▁commissioner	-12913
▁DNC	-12914
▁pizza	-12915
▁evangel	-12916
enna	-12917
▁median	-12918
▁daughters	-12919
▁purely	-12920
▁ADVERTISEMENT	-12921
anka	-12922
esis	-12923
rien	-12924
▁Garc	-12925
▁transformed	-12926
orses	-12927
roc	-12928
▁Joh	-12929
▁dispro	-12930
▁feared	-12931
▁inhib	-12932
▁sacrific	-12933
▁edited	-12934
En	-12935
visor	-12936
▁metab	-12937
▁creators	-12938
▁lasted	-12939
▁unders	-12940
▁Hindu	-12941
fig	-12942
▁comparing	-12943
▁destroying	-12944
▁passionate	-12945
▁gifts	-12946
writer	-12947
estone	-12948
hess	-12949
▁agrees	-12950
▁offset	-12951
arents	-12952
▁honey	-12953
▁treaty	-12954
▁demol	-12955
▁farms	-12956
▁sensor	-12957
▁Argentina	-12958
school	-12959
▁Spirit	-12960
▁suspicious	-12961
dig	-12962
▁JS	-12963
▁Current	-12964
▁lau	-12965
▁bottles	-12966
▁Record	-12967
▁Muham	-12968
▁Hills	-12969
▁Polish	-12970
▁Isa	-12971
▁denial	-12972
▁helicopter	-12973
▁midfielder	-12974
▁Hub	-12975
▁fierce	-12976
▁Budget	-12977
▁warfare	-12978
▁generous	-12979
▁Devil	-12980
▁Photograph	-12981
isers	-12982
▁dose	-12983
▁aired	-12984
▁Amy	-12985
shirt	-12986
▁Travel	-12987
▁firef	-12988
▁monop	-12989
▁slave	-12990
▁“[	-12991
▁Tob	-12992
▁arrangement	-12993
▁riot	-12994
▁observation	-12995
▁Cowboys	-12996
▁arriving	-12997
tail	-12998
wal	-12999
Pal	-13000
▁sculpt	-13001
▁REUTERS	-13002
▁wondered	-13003
▁Milwaukee	-13004
eded	-13005
oner	-13006
▁cluster	-13007
five	-13008
▁Search	-13009
▁lacking	-13010
▁decreased	-13011
▁recruiting	-13012
▁4-	-13013
gian	-13014
▁Viol	-13015
▁capitalist	-13016
arenthood	-13017
▁Jennifer	-13018
LY	-13019
▁UPDATE	-13020
▁Douglas	-13021
▁collapsed	-13022
▁dece	-13023
▁insect	-13024
▁Pick	-13025
▁unh	-13026
peror	-13027
▁screaming	-13028
▁Kind	-13029
▁Walter	-13030
▁wildlife	-13031
▁AMD	-13032
▁Pakistani	-13033
▁rib	-13034
▁Collect	-13035
▁Islamist	-13036
▁draws	-13037
Ty	-13038
pop	-13039
▁Sor	-13040
▁Sciences	-13041
▁ultra	-13042
▁Finance	-13043
▁emotion	-13044
és	-13045
▁Working	-13046
▁Zh	-13047
▁mock	-13048
▁Making	-13049
OG	-13050
▁continuous	-13051
▁cleaning	-13052
actor	-13053
▁organisations	-13054
▁invite	-13055
▁rushing	-13056
▁failures	-13057
▁founding	-13058
▁touchdowns	-13059
▁CM	-13060
▁Gay	-13061
driven	-13062
▁introducing	-13063
▁suspicion	-13064
resa	-13065
▁Aqu	-13066
▁ampl	-13067
▁females	-13068
▁interference	-13069
▁Too	-13070
▁counting	-13071
700	-13072
▁hill	-13073
▁feeding	-13074
▁Say	-13075
utical	-13076
▁villages	-13077
▁gravity	-13078
▁Half	-13079
points	-13080
▁cheer	-13081
▁fence	-13082
value	-13083
▁Either	-13084
▁boring	-13085
▁Return	-13086
▁awa	-13087
store	-13088
iph	-13089
▁boyfriend	-13090
▁beneficial	-13091
cha	-13092
▁labels	-13093
▁appealing	-13094
cker	-13095
▁24-	-13096
rape	-13097
▁licensing	-13098
▁zomb	-13099
▁doubled	-13100
▁variation	-13101
▁grace	-13102
hal	-13103
▁authorized	-13104
arest	-13105
▁shifts	-13106
big	-13107
▁routinely	-13108
▁smartphones	-13109
▁BJP	-13110
▁jew	-13111
▁Marco	-13112
▁traditions	-13113
▁considers	-13114
▁Armen	-13115
▁evaluate	-13116
claimed	-13117
▁Spider	-13118
▁leverage	-13119
▁taxpayer	-13120
▁unveiled	-13121
▁Relations	-13122
▁urging	-13123
giving	-13124
▁novels	-13125
▁disorders	-13126
▁educated	-13127
▁700	-13128
▁compiled	-13129
▁translated	-13130
▁Years	-13131
▁teens	-13132
▁organizing	-13133
▁TD	-13134
▁threaten	-13135
.[6]	-13136
▁Mason	-13137
▁genet	-13138
▁Jar	-13139
▁directory	-13140
▁believing	-13141
▁::	-13142
▁Cond	-13143
▁rhyth	-13144
▁renewed	-13145
▁institutional	-13146
▁inclusion	-13147
▁retailers	-13148
▁18-	-13149
▁Lisa	-13150
urable	-13151
▁commented	-13152
▁workplace	-13153
aux	-13154
▁acres	-13155
ollah	-13156
urse	-13157
normal	-13158
▁gamers	-13159
▁encount	-13160
▁celebrity	-13161
▁Hope	-13162
▁Ubuntu	-13163
▁damages	-13164
▁encountered	-13165
CD	-13166
▁plaint	-13167
▁compound	-13168
▁marine	-13169
▁enables	-13170
zech	-13171
▁NPR	-13172
▁contam	-13173
start	-13174
ueller	-13175
▁Officials	-13176
▁pleaded	-13177
ctive	-13178
▁breathing	-13179
▁realm	-13180
▁Inv	-13181
▁Brun	-13182
▁tenure	-13183
▁Tory	-13184
▁Goldman	-13185
▁Lebanon	-13186
plan	-13187
▁negotiate	-13188
anium	-13189
▁1920	-13190
▁Caption	-13191
▁Fat	-13192
▁Bros	-13193
▁decks	-13194
tech	-13195
▁Alf	-13196
ussion	-13197
▁Brooks	-13198
▁Software	-13199
▁instruction	-13200
▁firmly	-13201
▁Tribune	-13202
▁Wallace	-13203
ublin	-13204
▁incentive	-13205
iasm	-13206
▁dumb	-13207
▁invented	-13208
aley	-13209
ools	-13210
olphins	-13211
cend	-13212
▁Hem	-13213
▁Seah	-13214
▁severely	-13215
▁Highway	-13216
▁reconst	-13217
oler	-13218
roller	-13219
▁laser	-13220
▁crying	-13221
▁literary	-13222
umm	-13223
path	-13224
astically	-13225
▁branches	-13226
▁eliminated	-13227
▁counterparts	-13228
▁PL	-13229
master	-13230
▁albums	-13231
▁glob	-13232
▁justified	-13233
▁fict	-13234
▁civilization	-13235
Hey	-13236
lem	-13237
▁3,000	-13238
2-	-13239
▁78	-13240
▁Rah	-13241
▁statistical	-13242
▁dys	-13243
▁shed	-13244
▁lyrics	-13245
▁Bernard	-13246
▁2007.	-13247
▁retrie	-13248
▁isolation	-13249
direct	-13250
▁Blues	-13251
ifting	-13252
▁motorcy	-13253
▁74	-13254
▁cocaine	-13255
▁Ric	-13256
▁lip	-13257
▁steam	-13258
▁credibility	-13259
▁nan	-13260
▁jumping	-13261
DB	-13262
▁wheels	-13263
▁shoulders	-13264
▁bust	-13265
ordable	-13266
▁Workers	-13267
▁compassion	-13268
▁Ave	-13269
▁aging	-13270
▁Calgary	-13271
▁Rat	-13272
py	-13273
feld	-13274
illo	-13275
▁$2.	-13276
▁shar	-13277
▁proceedings	-13278
▁Nixon	-13279
▁Spencer	-13280
amps	-13281
days	-13282
▁Impro	-13283
98	-13284
▁unrest	-13285
▁Colomb	-13286
▁Eight	-13287
▁codes	-13288
▁kingdom	-13289
▁subscription	-13290
erences	-13291
ocker	-13292
▁Electric	-13293
▁mentally	-13294
▁unch	-13295
cribed	-13296
olo	-13297
reach	-13298
NET	-13299
▁brave	-13300
▁fraction	-13301
lie	-13302
▁Sent	-13303
▁observe	-13304
itative	-13305
▁$0	-13306
▁corresponding	-13307
▁partial	-13308
▁vacation	-13309
▁meals	-13310
heric	-13311
▁snaps	-13312
▁entrepreneurs	-13313
▁layout	-13314
▁iT	-13315
From	-13316
▁terminal	-13317
▁exceptions	-13318
issa	-13319
▁monsters	-13320
nik	-13321
▁Stop	-13322
▁Exchange	-13323
▁sheer	-13324
▁2001,	-13325
essional	-13326
▁NA	-13327
▁Ide	-13328
▁divers	-13329
▁sweat	-13330
▁pilots	-13331
▁consultant	-13332
▁Denmark	-13333
aceutical	-13334
▁Init	-13335
▁Koch	-13336
▁magnitude	-13337
▁willingness	-13338
▁Merc	-13339
▁magnetic	-13340
▁preliminary	-13341
alog	-13342
▁Close	-13343
▁peoples	-13344
ugged	-13345
▁implementing	-13346
▁lengthy	-13347
▁outright	-13348
▁sponsored	-13349
▁enhanced	-13350
▁Till	-13351
umbling	-13352
▁finan	-13353
.[8	-13354
▁BB	-13355
▁consumed	-13356
lib	-13357
▁Woman	-13358
▁regards	-13359
▁filming	-13360
ello	-13361
itated	-13362
engu	-13363
▁spawn	-13364
▁Nearly	-13365
▁connecting	-13366
ulum	-13367
ulative	-13368
▁resume	-13369
▁incentives	-13370
SC	-13371
iking	-13372
▁Studios	-13373
▁traits	-13374
▁adequate	-13375
▁trafficking	-13376
▁hed	-13377
▁cents	-13378
▁Broncos	-13379
▁precious	-13380
▁reflection	-13381
▁toy	-13382
▁hence	-13383
▁funeral	-13384
▁cricket	-13385
▁purchasing	-13386
▁psychology	-13387
bull	-13388
▁sectors	-13389
▁workforce	-13390
▁overlook	-13391
coins	-13392
▁establishing	-13393
-200	-13394
▁SW	-13395
▁thirty	-13396
▁Representatives	-13397
▁pepper	-13398
▁Researchers	-13399
▁inch	-13400
▁DM	-13401
▁Pere	-13402
▁Zero	-13403
▁audit	-13404
▁Wonder	-13405
cca	-13406
▁Dennis	-13407
▁Bennett	-13408
iots	-13409
opard	-13410
▁amend	-13411
▁convinc	-13412
▁climbing	-13413
▁()	-13414
▁PT	-13415
####	-13416
▁Charg	-13417
▁GPS	-13418
▁Urban	-13419
▁statue	-13420
▁Incre	-13421
▁timeline	-13422
▁Breitbart	-13423
ivic	-13424
mouth	-13425
▁Shadow	-13426
▁Qaeda	-13427
▁averaged	-13428
controlled	-13429
▁Si	-13430
▁contacts	-13431
ppy	-13432
▁Analy	-13433
▁accounting	-13434
▁File	-13435
▁worn	-13436
▁underway	-13437
1:	-13438
▁Nex	-13439
▁MMA	-13440
▁Join	-13441
▁hypothesis	-13442
▁fundraising	-13443
▁solidarity	-13444
▁dism	-13445
▁kills	-13446
▁Kel	-13447
IVE	-13448
▁grain	-13449
▁Liberals	-13450
▁5:	-13451
▁Hud	-13452
ellar	-13453
▁Resources	-13454
▁Billy	-13455
▁indirect	-13456
▁accompany	-13457
=”	-13458
▁ACL	-13459
arthy	-13460
▁Gates	-13461
▁supportive	-13462
je	-13463
▁Truth	-13464
Am	-13465
▁locally	-13466
▁unst	-13467
▁Chile	-13468
▁triple	-13469
▁leather	-13470
▁Race	-13471
▁Harrison	-13472
▁Brazilian	-13473
▁divid	-13474
▁disappointing	-13475
▁Double	-13476
▁avoiding	-13477
/20	-13478
stage	-13479
▁shaped	-13480
▁offshore	-13481
▁esp	-13482
▁dirt	-13483
▁veto	-13484
▁matching	-13485
▁origins	-13486
adows	-13487
▁Added	-13488
▁Rachel	-13489
▁cra	-13490
▁Reed	-13491
▁creativity	-13492
▁Transportation	-13493
▁1.3	-13494
▁Lost	-13495
anz	-13496
raham	-13497
▁Carlos	-13498
▁Own	-13499
▁hij	-13500
▁Unit	-13501
closure	-13502
▁counted	-13503
▁Give	-13504
ugging	-13505
▁investor	-13506
▁paths	-13507
▁determination	-13508
▁Blair	-13509
hell	-13510
source	-13511
▁mobil	-13512
▁suits	-13513
▁accurately	-13514
▁Juan	-13515
▁skilled	-13516
▁Self	-13517
▁shootings	-13518
▁Server	-13519
/5	-13520
acker	-13521
▁predictions	-13522
oline	-13523
▁comparable	-13524
aghd	-13525
▁2018.	-13526
▁embassy	-13527
▁pupp	-13528
umbl	-13529
▁3.0	-13530
▁pants	-13531
▁escaped	-13532
aha	-13533
oday	-13534
▁impress	-13535
▁spare	-13536
▁vegetables	-13537
Per	-13538
▁endorsed	-13539
https	-13540
▁1940	-13541
▁twist	-13542
▁descript	-13543
▁affecting	-13544
▁2003,	-13545
▁Teh	-13546
ulent	-13547
▁apology	-13548
uum	-13549
▁Shar	-13550
pur	-13551
▁GR	-13552
▁Buzz	-13553
▁consolid	-13554
▁musicians	-13555
▁1993	-13556
live	-13557
▁Sox	-13558
▁une	-13559
asi	-13560
iang	-13561
▁Defence	-13562
▁inmates	-13563
ateur	-13564
▁anime	-13565
▁vulnerability	-13566
▁sensors	-13567
▁generating	-13568
▁delays	-13569
▁wrestling	-13570
ignt	-13571
▁Prim	-13572
▁Ltd	-13573
▁dio	-13574
▁dubbed	-13575
affe	-13576
▁trace	-13577
home	-13578
▁Object	-13579
.[7]	-13580
▁sie	-13581
▁Introdu	-13582
▁swimming	-13583
▁indigenous	-13584
▁blacks	-13585
▁likelihood	-13586
atherine	-13587
▁1992	-13588
health	-13589
▁adaptation	-13590
▁bankruptcy	-13591
rose	-13592
▁Recently	-13593
▁shifting	-13594
Book	-13595
▁Gas	-13596
▁royal	-13597
▁mounted	-13598
▁problematic	-13599
▁User	-13600
▁Muhammad	-13601
▁continent	-13602
▁MO	-13603
▁Iss	-13604
▁Planned	-13605
aku	-13606
date	-13607
▁cort	-13608
▁earthquake	-13609
▁buses	-13610
▁wooden	-13611
igma	-13612
▁Hat	-13613
ocaly	-13614
ride	-13615
isible	-13616
▁Episode	-13617
▁Movement	-13618
than	-13619
eches	-13620
acious	-13621
▁garbage	-13622
▁NG	-13623
elta	-13624
ACK	-13625
▁Iv	-13626
▁LED	-13627
▁pub	-13628
rament	-13629
▁reasoning	-13630
▁Scientists	-13631
▁Dublin	-13632
▁resignation	-13633
▁Shel	-13634
▁forming	-13635
▁maker	-13636
airy	-13637
ailand	-13638
▁Seahawks	-13639
▁lawsuits	-13640
▁afterwards	-13641
Any	-13642
▁mph	-13643
▁triumph	-13644
▁powder	-13645
fin	-13646
outube	-13647
▁crashed	-13648
▁specialist	-13649
▁Systems	-13650
▁inappropriate	-13651
▁merc	-13652
▁Activ	-13653
▁leagues	-13654
Sec	-13655
▁Homeland	-13656
▁Marl	-13657
▁broadband	-13658
ector	-13659
▁Operation	-13660
▁certificate	-13661
▁0.3	-13662
▁von	-13663
▁marry	-13664
▁intu	-13665
▁Upon	-13666
▁folk	-13667
munition	-13668
▁Superman	-13669
▁NDP	-13670
▁Gate	-13671
▁shore	-13672
▁slaves	-13673
▁seiz	-13674
▁temple	-13675
pse	-13676
▁Pas	-13677
idges	-13678
▁autonomous	-13679
table	-13680
have	-13681
▁Palin	-13682
▁Jamie	-13683
▁Method	-13684
gel	-13685
▁chains	-13686
▁corners	-13687
▁admission	-13688
rowth	-13689
▁cycling	-13690
OST	-13691
▁Hockey	-13692
▁limiting	-13693
▁disadvant	-13694
▁cod	-13695
▁neat	-13696
▁loving	-13697
▁Certain	-13698
oubted	-13699
▁Greens	-13700
▁abused	-13701
▁Roth	-13702
▁Mueller	-13703
▁GMT	-13704
▁metres	-13705
▁wherever	-13706
iosity	-13707
▁tradem	-13708
▁sisters	-13709
bean	-13710
▁Agr	-13711
▁Gear	-13712
▁Raiders	-13713
▁Vikings	-13714
▁teenage	-13715
▁obligation	-13716
▁alternate	-13717
▁assumptions	-13718
▁republic	-13719
▁tatt	-13720
▁wreck	-13721
▁Palestine	-13722
▁publishers	-13723
ooting	-13724
▁costly	-13725
▁memorial	-13726
▁testified	-13727
▁Czech	-13728
▁compatible	-13729
▁intend	-13730
▁Apparently	-13731
enc	-13732
▁attacker	-13733
▁Assistant	-13734
▁paragraph	-13735
▁16-	-13736
▁Spot	-13737
▁rated	-13738
▁Account	-13739
etta	-13740
▁Pros	-13741
zo	-13742
ocity	-13743
▁VA	-13744
orns	-13745
▁Forum	-13746
▁Cart	-13747
97	-13748
▁fuels	-13749
▁lesser	-13750
▁Arn	-13751
pered	-13752
▁observers	-13753
Net	-13754
▁Study	-13755
▁Comics	-13756
▁imagined	-13757
▁switched	-13758
▁aggression	-13759
kees	-13760
▁farming	-13761
cules	-13762
esity	-13763
▁intercept	-13764
▁medication	-13765
▁SA	-13766
▁corporation	-13767
▁halt	-13768
▁Agree	-13769
▁besides	-13770
▁laughing	-13771
▁MB	-13772
▁Joined	-13773
▁straightforward	-13774
▁airline	-13775
▁outbreak	-13776
▁detection	-13777
qual	-13778
▁sail	-13779
▁Bryan	-13780
▁spill	-13781
▁Germans	-13782
▁plea	-13783
▁slip	-13784
▁oh	-13785
▁fib	-13786
▁tub	-13787
letter	-13788
▁swift	-13789
▁Edwards	-13790
MB	-13791
▁Hero	-13792
▁leaf	-13793
people	-13794
▁HTT	-13795
▁REL	-13796
▁Silicon	-13797
▁prohibited	-13798
issance	-13799
iliation	-13800
▁insists	-13801
▁privately	-13802
-18	-13803
▁Iceland	-13804
▁sounded	-13805
▁ye	-13806
▁Bulls	-13807
ullivan	-13808
▁0.	-13809
▁Fly	-13810
▁Soul	-13811
ignty	-13812
▁rankings	-13813
▁Qatar	-13814
▁Shah	-13815
▁sink	-13816
ocumented	-13817
width	-13818
levant	-13819
▁Julian	-13820
▁folder	-13821
▁lecture	-13822
▁thoroughly	-13823
▁interactive	-13824
rer	-13825
▁betray	-13826
▁listing	-13827
▁sheriff	-13828
neath	-13829
20]	-13830
▁Creek	-13831
addy	-13832
artisan	-13833
▁organize	-13834
▁elaborate	-13835
▁org	-13836
insula	-13837
▁recalls	-13838
alin	-13839
kg	-13840
iberal	-13841
▁exhaust	-13842
9.99	-13843
▁trauma	-13844
▁unanim	-13845
▁locals	-13846
wart	-13847
▁Terror	-13848
selling	-13849
▁Malaysia	-13850
▁portfolio	-13851
▁gray	-13852
▁Fourth	-13853
▁photographer	-13854
▁prest	-13855
▁Fitz	-13856
lude	-13857
▁enthusiasm	-13858
▁laboratory	-13859
IDS	-13860
▁Mack	-13861
▁independently	-13862
▁matched	-13863
▁striker	-13864
mination	-13865
▁Pokémon	-13866
▁Parenthood	-13867
ppo	-13868
▁demon	-13869
▁sacred	-13870
▁hood	-13871
▁expose	-13872
▁accountability	-13873
1-	-13874
▁leaks	-13875
▁superhero	-13876
▁misleading	-13877
▁gods	-13878
▁holy	-13879
▁relating	-13880
................	-13881
▁fame	-13882
▁outdoor	-13883
▁Mul	-13884
▁evaluation	-13885
anto	-13886
▁Rou	-13887
▁colonial	-13888
-17	-13889
▁Git	-13890
▁0.2	-13891
▁clinic	-13892
▁delicious	-13893
▁diabetes	-13894
▁classical	-13895
▁practically	-13896
ML	-13897
▁Ot	-13898
▁5,000	-13899
▁Griffin	-13900
▁adjusted	-13901
▁darkness	-13902
.5%	-13903
auer	-13904
cup	-13905
▁130	-13906
funded	-13907
▁Bryant	-13908
▁iTunes	-13909
▁toys	-13910
▁unfold	-13911
▁88	-13912
▁lap	-13913
cs	-13914
▁exercises	-13915
▁celebrating	-13916
▁Auto	-13917
▁foul	-13918
mile	-13919
▁stays	-13920
▁Thailand	-13921
olan	-13922
▁declining	-13923
▁tribal	-13924
gro	-13925
▁73	-13926
▁bite	-13927
▁trap	-13928
▁ordin	-13929
▁healing	-13930
▁transcript	-13931
▁dealers	-13932
▁specified	-13933
▁Bangl	-13934
▁encryption	-13935
▁dated	-13936
▁Diamond	-13937
▁GB	-13938
ovic	-13939
▁disk	-13940
▁mortality	-13941
Cal	-13942
Who	-13943
▁drought	-13944
▁searches	-13945
ahl	-13946
▁Days	-13947
▁charts	-13948
▁twitter	-13949
▁behaviors	-13950
See	-13951
▁archae	-13952
▁Laura	-13953
▁infamous	-13954
nesty	-13955
-14	-13956
▁HBO	-13957
▁algorithms	-13958
four	-13959
▁Linked	-13960
▁110	-13961
▁predomin	-13962
▁photography	-13963
▁Mi	-13964
▁Spurs	-13965
▁Barbara	-13966
▁raped	-13967
pelled	-13968
entials	-13969
respons	-13970
▁Richmond	-13971
Even	-13972
proof	-13973
▁edges	-13974
▁McCarthy	-13975
aws	-13976
uced	-13977
▁classroom	-13978
tic	-13979
lett	-13980
missions	-13981
▁bedroom	-13982
▁skeptical	-13983
▁frustrating	-13984
manuel	-13985
▁Butler	-13986
remlin	-13987
▁briefing	-13988
▁demonstrations	-13989
▁fundamentally	-13990
▁substantially	-13991
px	-13992
iop	-13993
abul	-13994
▁Quick	-13995
▁Legend	-13996
▁convey	-13997
▁linear	-13998
▁spectacular	-13999
blog	-14000
viol	-14001
▁Help	-14002
▁loses	-14003
▁linebacker	-14004
▁demographic	-14005
▁RAM	-14006
hner	-14007
▁rubber	-14008
▁effectiveness	-14009
keys	-14010
ieval	-14011
▁nuts	-14012
ocaust	-14013
▁MIT	-14014
▁shy	-14015
▁cher	-14016
NE	-14017
inos	-14018
▁ALL	-14019
▁Break	-14020
▁MLB	-14021
▁reduces	-14022
irk	-14023
abad	-14024
actic	-14025
▁forums	-14026
oubtedly	-14027
▁Village	-14028
▁cancelled	-14029
▁inevitably	-14030
othy	-14031
▁rebell	-14032
▁Original	-14033
▁Lev	-14034
▁closure	-14035
▁friendship	-14036
izont	-14037
his	-14038
▁Kill	-14039
▁billionaire	-14040
asm	-14041
olutions	-14042
▁desperately	-14043
▁Pun	-14044
▁query	-14045
puted	-14046
▁accommodate	-14047
roots	-14048
▁Legal	-14049
▁attributes	-14050
black	-14051
itis	-14052
▁160	-14053
▁insure	-14054
▁playback	-14055
ittees	-14056
▁Bobby	-14057
▁nominated	-14058
degree	-14059
▁bloody	-14060
▁maintains	-14061
wear	-14062
▁lasting	-14063
▁wounds	-14064
▁modules	-14065
fix	-14066
▁exhibition	-14067
▁Cuban	-14068
represent	-14069
▁automated	-14070
▁grat	-14071
bul	-14072
▁midst	-14073
▁Gand	-14074
▁historian	-14075
▁uncons	-14076
▁gallery	-14077
eren	-14078
▁disclose	-14079
▁dash	-14080
▁diagnosis	-14081
▁reception	-14082
▁orche	-14083
▁thumb	-14084
▁athlete	-14085
▁Jav	-14086
▁prox	-14087
▁eighth	-14088
▁Invalid	-14089
▁formerly	-14090
▁deleted	-14091
borough	-14092
▁Browns	-14093
agging	-14094
▁exagger	-14095
DE	-14096
ioned	-14097
▁dangers	-14098
▁qualities	-14099
▁withdrawal	-14100
▁185	-14101
▁Survey	-14102
▁BP	-14103
▁Lem	-14104
▁Shield	-14105
▁140	-14106
ahn	-14107
uru	-14108
▁Learn	-14109
national	-14110
ITY	-14111
▁Ele	-14112
▁Titan	-14113
][1	-14114
marks	-14115
▁risen	-14116
▁Abs	-14117
▁aide	-14118
▁ports	-14119
▁confusing	-14120
Te	-14121
▁Visit	-14122
▁altered	-14123
▁consume	-14124
▁rage	-14125
▁Colon	-14126
▁Sunni	-14127
oween	-14128
▁chase	-14129
69	-14130
blem	-14131
▁Maj	-14132
▁Confeder	-14133
illery	-14134
▁mate	-14135
▁aggreg	-14136
▁Regional	-14137
▁Clean	-14138
▁schemes	-14139
▁Hurricane	-14140
icers	-14141
▁twin	-14142
▁flowers	-14143
▁territories	-14144
▁Soccer	-14145
▁tuned	-14146
▁newest	-14147
iga	-14148
thirds	-14149
chair	-14150
▁whilst	-14151
▁carriers	-14152
▁wand	-14153
▁VP	-14154
azed	-14155
▁nit	-14156
▁revised	-14157
▁Ib	-14158
▁vessel	-14159
▁denying	-14160
▁chemistry	-14161
▁relate	-14162
▁labeled	-14163
ortions	-14164
▁Palace	-14165
▁ammunition	-14166
View	-14167
▁Snap	-14168
semble	-14169
▁doctrine	-14170
▁pseud	-14171
▁vigil	-14172
▁Brothers	-14173
HD	-14174
▁==	-14175
▁Mall	-14176
▁grey	-14177
▁filmed	-14178
▁Packers	-14179
▁Rico	-14180
▁CBC	-14181
iology	-14182
▁entries	-14183
▁IBM	-14184
rolling	-14185
▁anonymity	-14186
▁wrap	-14187
▁permanently	-14188
writing	-14189
▁Analysis	-14190
▁monument	-14191
▁pitcher	-14192
▁overhaul	-14193
UE	-14194
▁FL	-14195
wealth	-14196
▁Target	-14197
▁organizers	-14198
▁belongs	-14199
▁electro	-14200
onge	-14201
▁juice	-14202
▁impe	-14203
▁Phillips	-14204
thereum	-14205
▁Marcus	-14206
▁1.4	-14207
▁Kate	-14208
▁Rush	-14209
feed	-14210
▁dioxide	-14211
▁midnight	-14212
3:	-14213
▁regulate	-14214
▁examination	-14215
▁Webs	-14216
▁loyalty	-14217
▁kernel	-14218
▁fulfill	-14219
▁accidentally	-14220
▁SO	-14221
uki	-14222
▁Hide	-14223
▁genuinely	-14224
▁unacceptable	-14225
▁0.9	-14226
▁medal	-14227
ository	-14228
▁premiere	-14229
▁considerably	-14230
ulsion	-14231
▁streams	-14232
▁ignoring	-14233
▁skull	-14234
▁Ald	-14235
▁Newton	-14236
▁SL	-14237
▁$40	-14238
▁fancy	-14239
▁fiber	-14240
opes	-14241
▁***	-14242
oping	-14243
wer	-14244
▁modes	-14245
▁Shi	-14246
▁exceptional	-14247
.[8]	-14248
lation	-14249
▁wip	-14250
▁sexuality	-14251
▁demonstrates	-14252
UI	-14253
▁Create	-14254
▁fines	-14255
▁prejud	-14256
▁arranged	-14257
▁meg	-14258
▁tackles	-14259
▁restored	-14260
▁misconduct	-14261
uv	-14262
▁Protest	-14263
▁Fish	-14264
▁__	-14265
▁hungry	-14266
▁freshman	-14267
▁Ultimately	-14268
▁bikes	-14269
▁Starting	-14270
mines	-14271
▁pipe	-14272
▁strictly	-14273
▁unle	-14274
▁15.	-14275
▁translate	-14276
team	-14277
▁locker	-14278
▁tribute	-14279
ango	-14280
▁Applic	-14281
▁Politics	-14282
▁Additional	-14283
▁battlefield	-14284
ften	-14285
▁quad	-14286
▁symbols	-14287
▁partisan	-14288
▁preseason	-14289
▁Biden	-14290
▁2000,	-14291
▁Bishop	-14292
▁puzzle	-14293
▁Assange	-14294
▁dancing	-14295
▁volumes	-14296
▁processed	-14297
olutely	-14298
tor	-14299
clusion	-14300
▁Planet	-14301
ervation	-14302
▁artif	-14303
▁shapes	-14304
rawl	-14305
Qaeda	-14306
▁boats	-14307
▁infer	-14308
▁submar	-14309
▁outlined	-14310
▁differ	-14311
▁Ax	-14312
riel	-14313
▁2018,	-14314
▁inhabit	-14315
▁shutdown	-14316
▁Tru	-14317
istically	-14318
▁spotlight	-14319
ungle	-14320
▁relies	-14321
▁inability	-14322
▁quo	-14323
▁Surv	-14324
▁tolerance	-14325
inate	-14326
Semit	-14327
▁manages	-14328
▁expressing	-14329
▁obligations	-14330
▁flows	-14331
▁Fame	-14332
▁sanct	-14333
▁Tigers	-14334
▁rendering	-14335
▁pound	-14336
Fr	-14337
▁Cab	-14338
▁Stra	-14339
▁heter	-14340
▁embraced	-14341
▁unre	-14342
▁od	-14343
▁binding	-14344
▁Cant	-14345
▁divisions	-14346
runner	-14347
▁killings	-14348
▁electronics	-14349
▁surveys	-14350
▁Orthodox	-14351
▁teenagers	-14352
▁Chand	-14353
▁Sandy	-14354
▁horses	-14355
▁completing	-14356
▁AV	-14357
.:	-14358
ulu	-14359
ranean	-14360
▁defining	-14361
▁Really	-14362
▁empower	-14363
▁Okay	-14364
▁prescription	-14365
▁militant	-14366
▁Beer	-14367
▁£1	-14368
▁spite	-14369
▁pile	-14370
ickets	-14371
▁cm	-14372
▁Tar	-14373
▁84	-14374
▁Commerce	-14375
cill	-14376
▁bind	-14377
▁unlimited	-14378
▁genius	-14379
▁mentions	-14380
▁governance	-14381
▁Daw	-14382
▁Lang	-14383
▁heroin	-14384
▁Continued	-14385
▁variations	-14386
!!!	-14387
▁Bannon	-14388
▁honour	-14389
▁lovely	-14390
▁Throughout	-14391
▁Rud	-14392
retion	-14393
ripp	-14394
▁occurring	-14395
▁Chamber	-14396
▁speeches	-14397
▁Few	-14398
▁signatures	-14399
▁confidential	-14400
var	-14401
wick	-14402
▁Dra	-14403
▁shipped	-14404
▁spirits	-14405
kh	-14406
▁contractors	-14407
▁legislators	-14408
▁garage	-14409
▁consistency	-14410
▁mature	-14411
Ed	-14412
Up	-14413
Mod	-14414
▁reasonably	-14415
heimer	-14416
rus	-14417
▁Pad	-14418
▁solved	-14419
▁Clay	-14420
▁rings	-14421
▁dispens	-14422
▁extends	-14423
Time	-14424
▁Month	-14425
▁grocery	-14426
▁Nancy	-14427
fam	-14428
▁Nag	-14429
▁Dawn	-14430
▁Border	-14431
John	-14432
Because	-14433
▁MI	-14434
▁Gam	-14435
▁Austria	-14436
...]	-14437
lies	-14438
aton	-14439
▁Imperial	-14440
▁subscribing	-14441
▁vendors	-14442
sis	-14443
▁snap	-14444
▁cargo	-14445
▁guilt	-14446
▁Hig	-14447
▁Wade	-14448
▁yours	-14449
▁tourism	-14450
fly	-14451
▁Colin	-14452
▁sovereignty	-14453
▁13.	-14454
▁melt	-14455
▁enabling	-14456
▁confronted	-14457
▁publications	-14458
ipt	-14459
space	-14460
▁corrid	-14461
rones	-14462
airo	-14463
▁strings	-14464
▁dense	-14465
▁spends	-14466
▁indef	-14467
\\	-14468
iri	-14469
▁doubts	-14470
ocide	-14471
▁Bott	-14472
▁Cape	-14473
izards	-14474
▁Nathan	-14475
▁TC	-14476
arette	-14477
▁coastal	-14478
▁Nar	-14479
▁sect	-14480
▁Rodgers	-14481
▁backlash	-14482
▁drilling	-14483
▁McD	-14484
names	-14485
▁incumb	-14486
oust	-14487
▁Pil	-14488
▁artic	-14489
▁intens	-14490
▁flesh	-14491
▁victories	-14492
▁Regardless	-14493
▁advers	-14494
▁Drag	-14495
▁leap	-14496
aneous	-14497
▁travelling	-14498
▁79	-14499
▁Zion	-14500
closed	-14501
▁0.4	-14502
lementary	-14503
▁lined	-14504
▁quarters	-14505
▁Vi	-14506
yang	-14507
▁10:	-14508
▁gard	-14509
▁ware	-14510
▁premier	-14511
▁measurements	-14512
apor	-14513
▁clouds	-14514
▁arrangements	-14515
73	-14516
▁Pin	-14517
▁sells	-14518
▁namely	-14519
▁Arc	-14520
▁Tib	-14521
▁Late	-14522
▁discon	-14523
▁Pink	-14524
▁rede	-14525
mingham	-14526
▁Tehran	-14527
▁concess	-14528
▁tactical	-14529
ede	-14530
▁malware	-14531
▁presidents	-14532
ashi	-14533
▁proc	-14534
▁LLC	-14535
▁Raw	-14536
▁Pete	-14537
▁Together	-14538
▁underneath	-14539
▁Going	-14540
▁Cou	-14541
working	-14542
▁Flight	-14543
▁donate	-14544
▁plates	-14545
▁adverse	-14546
▁piv	-14547
▁Jesse	-14548
▁determining	-14549
accur	-14550
▁Girls	-14551
▁binary	-14552
▁dignity	-14553
▁sponsors	-14554
rone	-14555
▁2002,	-14556
▁Sens	-14557
usterity	-14558
Christ	-14559
▁String	-14560
▁tongue	-14561
▁stepping	-14562
ogg	-14563
agged	-14564
▁cute	-14565
▁intake	-14566
Id	-14567
”—	-14568
▁Mans	-14569
▁Animal	-14570
▁parade	-14571
▁united	-14572
▁Machine	-14573
▁exhibit	-14574
▁Kath	-14575
▁nort	-14576
forming	-14577
▁incoming	-14578
▁dive	-14579
▁Classic	-14580
▁flooding	-14581
▁3)	-14582
isy	-14583
▁Jobs	-14584
▁sweep	-14585
INE	-14586
riages	-14587
▁laug	-14588
▁sporting	-14589
▁casualties	-14590
▁Holmes	-14591
List	-14592
azines	-14593
▁ende	-14594
holder	-14595
▁Mitch	-14596
▁Cardinals	-14597
▁Hopefully	-14598
hole	-14599
▁firearm	-14600
▁Index	-14601
▁Sources	-14602
▁encrypt	-14603
▁SF	-14604
▁facilitate	-14605
▁tube	-14606
Israel	-14607
▁admin	-14608
▁successor	-14609
▁functioning	-14610
▁negotiating	-14611
▁outlet	-14612
▁clarity	-14613
▁Sudan	-14614
constitutional	-14615
bad	-14616
▁Brend	-14617
prom	-14618
▁Kor	-14619
▁felony	-14620
▁Luther	-14621
▁luc	-14622
▁liability	-14623
Press	-14624
▁Kaz	-14625
inery	-14626
▁glasses	-14627
▁Poly	-14628
▁fortun	-14629
▁Happy	-14630
▁Samuel	-14631
aters	-14632
▁Garcia	-14633
▁Release	-14634
▁generic	-14635
▁bipartisan	-14636
▁Batt	-14637
▁Sem	-14638
▁retro	-14639
osi	-14640
▁businessman	-14641
▁98	-14642
▁Winn	-14643
HINGTON	-14644
▁Path	-14645
▁airpl	-14646
edge	-14647
▁0.8	-14648
pless	-14649
▁defendants	-14650
▁Fortunately	-14651
IFA	-14652
▁Bird	-14653
▁hearings	-14654
▁stealing	-14655
ulator	-14656
▁CSS	-14657
▁cousin	-14658
▁frankly	-14659
entions	-14660
▁disclosed	-14661
▁{\	-14662
headed	-14663
▁laughed	-14664
Look	-14665
▁Got	-14666
▁bearing	-14667
▁notorious	-14668
▁Edge	-14669
▁Occupy	-14670
▁hardest	-14671
▁subjected	-14672
▁vet	-14673
▁alumin	-14674
▁Baseball	-14675
urring	-14676
▁Minor	-14677
▁oversee	-14678
▁catching	-14679
ggle	-14680
▁dot	-14681
▁artwork	-14682
▁convincing	-14683
▁MVP	-14684
▁analyzed	-14685
pit	-14686
▁prevention	-14687
sche	-14688
▁Erd	-14689
▁Firefox	-14690
▁muscles	-14691
▁sensitivity	-14692
ARD	-14693
▁hash	-14694
▁fond	-14695
▁tier	-14696
▁subscribers	-14697
▁Horn	-14698
building	-14699
▁refusal	-14700
▁licenses	-14701
bled	-14702
umblr	-14703
▁pretend	-14704
exp	-14705
▁extending	-14706
▁aboard	-14707
castle	-14708
▁Boeing	-14709
▁coat	-14710
▁autism	-14711
▁redist	-14712
▁Quinn	-14713
▁hind	-14714
▁acute	-14715
▁Halloween	-14716
ido	-14717
▁erupt	-14718
▁stroke	-14719
▁71	-14720
▁14.	-14721
▁Computer	-14722
▁Agricult	-14723
▁sweeping	-14724
▁Chen	-14725
▁Panthers	-14726
▁cancel	-14727
▁jurisdiction	-14728
▁slic	-14729
▁defic	-14730
▁Kos	-14731
▁tourist	-14732
▁mistaken	-14733
▁astronaut	-14734
▁LG	-14735
▁treasure	-14736
▁cure	-14737
▁salaries	-14738
▁switching	-14739
ernandez	-14740
▁sponsor	-14741
▁gau	-14742
▁arrives	-14743
▁globally	-14744
▁Deal	-14745
▁Citizens	-14746
▁hydrogen	-14747
ithub	-14748
lickr	-14749
▁forests	-14750
▁EM	-14751
▁pale	-14752
▁96	-14753
zilla	-14754
▁Actually	-14755
▁portrayed	-14756
▁characterized	-14757
CL	-14758
▁finals	-14759
▁identities	-14760
.“	-14761
▁frames	-14762
Ab	-14763
vised	-14764
write	-14765
▁vessels	-14766
▁marketplace	-14767
▁drill	-14768
▁glory	-14769
ierra	-14770
▁Spect	-14771
▁hunger	-14772
ucc	-14773
oute	-14774
▁rolls	-14775
ufficient	-14776
terior	-14777
▁tricks	-14778
▁achieving	-14779
/8	-14780
▁Alice	-14781
▁Castle	-14782
▁bureaucrat	-14783
▁1991	-14784
▁attackers	-14785
aires	-14786
▁analyses	-14787
also	-14788
▁Enterprise	-14789
▁Ferr	-14790
▁Wire	-14791
▁utterly	-14792
▁haul	-14793
▁Mis	-14794
▁Beast	-14795
▁Globe	-14796
▁apologize	-14797
▁revelation	-14798
utenant	-14799
▁biology	-14800
Post	-14801
▁TODAY	-14802
▁Someone	-14803
▁deterior	-14804
▁Stay	-14805
▁heal	-14806
▁jack	-14807
▁memor	-14808
▁Wii	-14809
Muslim	-14810
▁libertarian	-14811
rend	-14812
▁incon	-14813
▁interim	-14814
▁186	-14815
▁Mode	-14816
▁straw	-14817
▁committing	-14818
El	-14819
▁nodes	-14820
▁WASHINGTON	-14821
▁ME	-14822
orus	-14823
▁vowed	-14824
▁holders	-14825
▁troubled	-14826
▁Chronicle	-14827
72	-14828
▁Shaw	-14829
▁Jessica	-14830
▁proport	-14831
▁"[	-14832
image	-14833
▁blown	-14834
▁Finn	-14835
▁relent	-14836
SM	-14837
▁twelve	-14838
▁Armed	-14839
▁endorsement	-14840
42	-14841
▁stimulus	-14842
▁affiliate	-14843
▁Bed	-14844
outed	-14845
▁Brewing	-14846
▁VM	-14847
▁Sex	-14848
▁reiter	-14849
▁violate	-14850
del	-14851
▁lately	-14852
00000000	-14853
▁Finland	-14854
▁villain	-14855
▁exploitation	-14856
▁Reform	-14857
▁duo	-14858
▁sometime	-14859
0,	-14860
▁ram	-14861
▁Baghd	-14862
▁cu	-14863
▁settlements	-14864
▁propri	-14865
▁Kremlin	-14866
umns	-14867
▁Crow	-14868
▁nightmare	-14869
▁aster	-14870
▁Fan	-14871
▁upside	-14872
▁Martine	-14873
▁Nobel	-14874
▁credible	-14875
.[9]	-14876
▁proving	-14877
▁accusing	-14878
disc	-14879
▁recommendation	-14880
▁Hait	-14881
▁antibiot	-14882
uting	-14883
▁useless	-14884
▁Birmingham	-14885
green	-14886
▁Chip	-14887
▁Wells	-14888
▁aston	-14889
▁aliens	-14890
▁objectives	-14891
▁nurse	-14892
▁murders	-14893
▁HR	-14894
▁referen	-14895
▁necessity	-14896
BL	-14897
mined	-14898
▁newer	-14899
WA	-14900
BER	-14901
▁pray	-14902
▁aides	-14903
▁diamond	-14904
▁1989	-14905
▁adapted	-14906
▁HE	-14907
Yeah	-14908
oriented	-14909
▁barrels	-14910
▁favorable	-14911
▁IG	-14912
▁Sold	-14913
▁artistic	-14914
▁Foster	-14915
▁Affordable	-14916
▁Nat	-14917
▁valued	-14918
▁neo	-14919
▁Arabic	-14920
▁OP	-14921
▁Opt	-14922
▁listened	-14923
talk	-14924
▁protective	-14925
▁predecessor	-14926
▁Zach	-14927
▁Large	-14928
▁cares	-14929
▁descend	-14930
▁readily	-14931
ulk	-14932
atican	-14933
▁surpass	-14934
NY	-14935
▁Strong	-14936
▁Nexus	-14937
ausible	-14938
▁revelations	-14939
▁Drew	-14940
▁Were	-14941
▁Nine	-14942
▁mall	-14943
▁renov	-14944
▁arbitrary	-14945
Com	-14946
Men	-14947
▁shortage	-14948
---	-14949
▁1-	-14950
▁tribes	-14951
▁Rodriguez	-14952
▁Alb	-14953
▁Ground	-14954
pic	-14955
▁Angela	-14956
▁finale	-14957
▁Joel	-14958
▁cab	-14959
▁poses	-14960
▁Portugal	-14961
▁assembled	-14962
▁violating	-14963
▁nationally	-14964
▁ward	-14965
pection	-14966
▁subway	-14967
▁),	-14968
▁theoretical	-14969
▁undoubtedly	-14970
atched	-14971
▁Hughes	-14972
three	-14973
▁stark	-14974
▁Aleppo	-14975
▁Duncan	-14976
▁worries	-14977
▁Content	-14978
▁defendant	-14979
▁Welcome	-14980
▁financially	-14981
▁petro	-14982
▁disability	-14983
zi	-14984
php	-14985
▁analog	-14986
▁fortune	-14987
jar	-14988
▁Sacrament	-14989
▁shower	-14990
▁cooling	-14991
▁Jong	-14992
▁Compan	-14993
▁drown	-14994
▁Immigration	-14995
▁expressions	-14996
▁0.7	-14997
▁specify	-14998
▁credited	-14999
▁profitable	-15000
▁reviewing	-15001
osures	-15002
?!	-15003
char	-15004
▁Fac	-15005
▁Dere	-15006
spr	-15007
aky	-15008
ribly	-15009
▁warr	-15010
anting	-15011
▁sketch	-15012
▁spells	-15013
▁unsuccess	-15014
mos	-15015
Islam	-15016
▁Walt	-15017
▁elevated	-15018
▁grandfather	-15019
▁Nep	-15020
▁Ahmed	-15021
telling	-15022
▁mosque	-15023
uity	-15024
▁lacks	-15025
▁provin	-15026
far	-15027
▁Grey	-15028
▁Trav	-15029
▁189	-15030
▁TE	-15031
▁mant	-15032
▁maneu	-15033
▁tribe	-15034
▁equation	-15035
appro	-15036
▁recipes	-15037
▁Israelis	-15038
▁navigate	-15039
▁oral	-15040
rophic	-15041
▁backers	-15042
▁Cox	-15043
▁kicks	-15044
omo	-15045
▁86	-15046
▁aqu	-15047
▁texture	-15048
–1	-15049
▁RO	-15050
▁fart	-15051
▁fictional	-15052
ulin	-15053
▁seam	-15054
▁gaps	-15055
▁1.6	-15056
▁caut	-15057
▁Palmer	-15058
nex	-15059
▁pockets	-15060
▁incomes	-15061
▁lesbian	-15062
▁persistent	-15063
▁Catal	-15064
▁substitute	-15065
▁Dear	-15066
TION	-15067
▁taxi	-15068
▁cache	-15069
▁patience	-15070
▁donor	-15071
▁relied	-15072
▁charter	-15073
▁syndrome	-15074
[...]
