<unk>	0
<s>	0
</s>	0
▁t	-0
▁a	-1
he	-2
in	-3
re	-4
▁the	-5
on	-6
er	-7
▁s	-8
▁w	-9
at	-10
▁o	-11
en	-12
▁c	-13
it	-14
is	-15
an	-16
or	-17
▁b	-18
es	-19
ed	-20
▁f	-21
ing	-22
▁p	-23
ou	-24
▁an	-25
▁to	-26
al	-27
ar	-28
▁m	-29
▁in	-30
▁of	-31
▁h	-32
▁d	-33
as	-34
▁and	-35
ic	-36
▁th	-37
le	-38
om	-39
ion	-40
ll	-41
ent	-42
▁T	-43
▁n	-44
▁l	-45
▁re	-46
st	-47
ve	-48
ly	-49
▁e	-50
▁be	-51
ro	-52
▁g	-53
id	-54
▁I	-55
ut	-56
ac	-57
▁S	-58
ot	-59
▁A	-60
▁that	-61
▁on	-62
ay	-63
▁is	-64
et	-65
im	-66
am	-67
ad	-68
ow	-69
ig	-70
▁for	-71
se	-72
▁C	-73
ver	-74
ur	-75
ld	-76
ct	-77
▁u	-78
▁st	-79
▁y	-80
▁M	-81
▁it	-82
▁he	-83
ir	-84
ation	-85
▁B	-86
ith	-87
▁wh	-88
ce	-89
▁The	-90
ter	-91
ol	-92
▁we	-93
il	-94
▁with	-95
▁as	-96
▁P	-97
ch	-98
ill	-99
▁W	-100
nd	-101
▁was	-102
ers	-103
▁you	-104
ke	-105
▁H	-106
▁con	-107
▁de	-108
▁r	-109
her	-110
▁D	-111
ate	-112
if	-113
▁at	-114
ag	-115
▁R	-116
▁ha	-117
▁se	-118
▁F	-119
ore	-120
▁pro	-121
ul	-122
pp	-123
ment	-124
ri	-125
▁are	-126
▁1	-127
est	-128
us	-129
▁com	-130
ist	-131
and	-132
op	-133
▁2	-134
ain	-135
▁N	-136
igh	-137
rom	-138
▁(	-139
ort	-140
▁ne	-141
od	-142
▁“	-143
um	-144
▁ex	-145
un	-146
▁G	-147
res	-148
ab	-149
▁not	-150
▁v	-151
▁L	-152
▁have	-153
ess	-154
ity	-155
ould	-156
em	-157
▁or	-158
▁by	-159
th	-160
os	-161
ant	-162
▁from	-163
ive	-164
▁al	-165
▁E	-166
el	-167
art	-168
▁su	-169
oc	-170
▁sh	-171
▁this	-172
nt	-173
▁O	-174
qu	-175
ight	-176
ust	-177
pe	-178
▁le	-179
▁"	-180
▁J	-181
ies	-182
end	-183
▁sa	-184
▁ch	-185
out	-186
▁ab	-187
all	-188
ie	-189
ack	-190
red	-191
▁has	-192
ally	-193
▁pl	-194
00	-195
▁go	-196
ard	-197
▁his	-198
iv	-199
ome	-200
gh	-201
ost	-202
ear	-203
ap	-204
our	-205
▁tr	-206
ast	-207
▁j	-208
ak	-209
▁U	-210
ud	-211
▁do	-212
▁they	-213
▁but	-214
▁wor	-215
▁said	-216
▁will	-217
rou	-218
▁can	-219
ge	-220
▁whe	-221
ich	-222
▁k	-223
ok	-224
▁all	-225
▁who	-226
ide	-227
▁int	-228
ame	-229
ans	-230
▁out	-231
ther	-232
ial	-233
▁their	-234
▁Th	-235
ff	-236
ong	-237
▁In	-238
ice	-239
ect	-240
pl	-241
ure	-242
pt	-243
▁more	-244
one	-245
age	-246
ike	-247
ions	-248
▁up	-249
act	-250
▁me	-251
ous	-252
▁ad	-253
▁K	-254
ine	-255
▁about	-256
ated	-257
ra	-258
ber	-259
▁one	-260
▁were	-261
▁so	-262
▁us	-263
ime	-264
▁St	-265
og	-266
ep	-267
▁had	-268
ub	-269
ia	-270
are	-271
▁20	-272
cc	-273
▁cl	-274
▁would	-275
▁im	-276
▁which	-277
ake	-278
ind	-279
ue	-280
▁cont	-281
▁ag	-282
very	-283
iz	-284
▁te	-285
▁off	-286
▁comp	-287
▁been	-288
▁un	-289
so	-290
▁en	-291
au	-292
ign	-293
per	-294
▁year	-295
ace	-296
ary	-297
ew	-298
ip	-299
▁like	-300
ven	-301
ere	-302
ook	-303
▁It	-304
▁inc	-305
ays	-306
▁man	-307
▁pe	-308
..	-309
ry	-310
ose	-311
▁per	-312
▁res	-313
ite	-314
able	-315
▁sp	-316
ord	-317
ass	-318
ire	-319
▁other	-320
mer	-321
▁Y	-322
▁some	-323
▁201	-324
ile	-325
ople	-326
ence	-327
ib	-328
ks	-329
▁over	-330
ations	-331
▁there	-332
ical	-333
▁new	-334
▁Ch	-335
ress	-336
▁dis	-337
int	-338
▁also	-339
▁than	-340
ult	-341
own	-342
▁bec	-343
▁ar	-344
▁them	-345
ough	-346
ru	-347
ount	-348
ance	-349
▁app	-350
port	-351
▁part	-352
▁your	-353
▁when	-354
ail	-355
▁what	-356
ree	-357
▁V	-358
ond	-359
▁people	-360
fter	-361
orm	-362
▁sc	-363
▁qu	-364
ase	-365
av	-366
▁just	-367
▁any	-368
▁its	-369
ach	-370
▁time	-371
▁3	-372
▁kn	-373
lic	-374
▁her	-375
.”	-376
▁rec	-377
ens	-378
▁He	-379
▁get	-380
▁my	-381
reat	-382
▁if	-383
ian	-384
▁work	-385
▁into	-386
▁tw	-387
ound	-388
irst	-389
vel	-390
ction	-391
▁no	-392
du	-393
ings	-394
ory	-395
ident	-396
▁our	-397
▁-	-398
ors	-399
ick	-400
ition	-401
ob	-402
▁pre	-403
ove	-404
▁play	-405
ang	-406
ink	-407
wn	-408
ause	-409
ade	-410
itt	-411
hing	-412
ark	-413
ates	-414
▁pol	-415
▁ro	-416
▁she	-417
amp	-418
▁after	-419
▁co	-420
vers	-421
,”	-422
ne	-423
▁how	-424
▁could	-425
▁first	-426
▁19	-427
▁acc	-428
ious	-429
▁him	-430
nder	-431
▁po	-432
ild	-433
aw	-434
ons	-435
▁We	-436
▁fe	-437
▁att	-438
▁only	-439
▁But	-440
ict	-441
hed	-442
▁pr	-443
▁two	-444
ov	-445
ish	-446
▁spe	-447
▁comm	-448
▁act	-449
form	-450
▁Wh	-451
erv	-452
we	-453
▁bl	-454
ft	-455
▁This	-456
▁dec	-457
▁bet	-458
."	-459
ning	-460
▁–	-461
▁back	-462
▁most	-463
te	-464
ces	-465
▁And	-466
ck	-467
ood	-468
▁4	-469
▁—	-470
▁am	-471
oy	-472
▁did	-473
rough	-474
iff	-475
▁again	-476
round	-477
day	-478
ater	-479
ise	-480
▁want	-481
ual	-482
▁des	-483
▁under	-484
▁cons	-485
▁$	-486
ull	-487
▁because	-488
sel	-489
rit	-490
▁years	-491
lud	-492
▁now	-493
ublic	-494
ents	-495
▁need	-496
man	-497
▁even	-498
tern	-499
▁inv	-500
ec	-501
▁As	-502
iss	-503
▁Un	-504
▁know	-505
▁add	-506
▁see	-507
ments	-508
ced	-509
old	-510
▁sec	-511
▁ind	-512
▁5	-513
▁every	-514
,"	-515
fore	-516
uch	-517
urn	-518
▁supp	-519
▁make	-520
pect	-521
▁Tr	-522
▁em	-523
ock	-524
▁these	-525
oll	-526
▁where	-527
ject	-528
vern	-529
xt	-530
ational	-531
▁look	-532
ump	-533
▁bu	-534
▁don	-535
oss	-536
▁way	-537
ating	-538
▁[	-539
▁ev	-540
▁being	-541
▁right	-542
ily	-543
▁rem	-544
row	-545
▁many	-546
ng	-547
▁may	-548
▁then	-549
ason	-550
iew	-551
lect	-552
▁def	-553
▁call	-554
▁diff	-555
▁think	-556
▁rel	-557
aking	-558
▁includ	-559
les	-560
ont	-561
ied	-562
ased	-563
▁imp	-564
▁reg	-565
meric	-566
▁through	-567
ited	-568
rib	-569
▁pres	-570
ath	-571
▁sy	-572
▁say	-573
▁should	-574
▁last	-575
uring	-576
▁fl	-577
).	-578
▁those	-579
other	-580
▁very	-581
The	-582
▁show	-583
▁state	-584
▁much	-585
ities	-586
ower	-587
ative	-588
ific	-589
▁Re	-590
▁br	-591
▁New	-592
arg	-593
hen	-594
▁ph	-595
▁well	-596
oth	-597
▁does	-598
▁200	-599
ty	-600
und	-601
ell	-602
▁count	-603
▁end	-604
arly	-605
ting	-606
als	-607
▁down	-608
▁own	-609
ics	-610
▁bel	-611
▁use	-612
▁Americ	-613
▁ass	-614
ange	-615
ince	-616
▁long	-617
ters	-618
▁before	-619
▁govern	-620
gr	-621
▁mon	-622
omet	-623
ward	-624
▁report	-625
ues	-626
▁start	-627
▁ke	-628
ible	-629
up	-630
▁team	-631
ts	-632
▁fin	-633
ble	-634
ife	-635
▁made	-636
▁Al	-637
ren	-638
olog	-639
oun	-640
▁such	-641
),	-642
ek	-643
erson	-644
ener	-645
▁sm	-646
▁world	-647
▁You	-648
▁hel	-649
ful	-650
ists	-651
ually	-652
▁going	-653
ix	-654
ism	-655
▁stud	-656
ility	-657
▁ac	-658
▁good	-659
▁6	-660
tain	-661
com	-662
▁against	-663
▁sur	-664
▁set	-665
▁game	-666
...	-667
▁point	-668
▁eff	-669
▁gu	-670
▁sub	-671
ys	-672
ork	-673
its	-674
▁ent	-675
▁If	-676
ars	-677
gan	-678
stem	-679
▁prov	-680
▁still	-681
ier	-682
illion	-683
▁while	-684
▁help	-685
roup	-686
▁lead	-687
000	-688
ween	-689
imes	-690
▁min	-691
▁says	-692
ax	-693
▁gr	-694
ms	-695
alk	-696
▁ob	-697
ank	-698
cy	-699
▁produ	-700
▁inter	-701
▁inst	-702
▁str	-703
▁conf	-704
cess	-705
▁take	-706
▁col	-707
▁sim	-708
▁For	-709
io	-710
self	-711
ures	-712
▁same	-713
arch	-714
▁offic	-715
uss	-716
▁though	-717
▁cr	-718
ool	-719
land	-720
▁ed	-721
▁between	-722
▁Ar	-723
ollow	-724
▁disc	-725
▁differe	-726
▁high	-727
hes	-728
▁government	-729
▁op	-730
ever	-731
ah	-732
▁De	-733
▁law	-734
ution	-735
cent	-736
air	-737
▁sign	-738
read	-739
way	-740
ner	-741
▁num	-742
gg	-743
▁An	-744
▁They	-745
ames	-746
ros	-747
led	-748
atch	-749
any	-750
▁Sh	-751
▁ter	-752
▁Le	-753
▁Com	-754
▁somet	-755
▁ins	-756
velop	-757
▁run	-758
▁Is	-759
▁ref	-760
▁trans	-761
hip	-762
▁ser	-763
▁Trump	-764
▁three	-765
▁found	-766
▁mem	-767
▁around	-768
ather	-769
▁here	-770
▁10	-771
ives	-772
▁med	-773
ouse	-774
ave	-775
▁real	-776
▁Se	-777
▁7	-778
▁system	-779
ved	-780
▁used	-781
ving	-782
▁exp	-783
oot	-784
▁support	-785
cept	-786
▁really	-787
az	-788
▁cour	-789
--	-790
cer	-791
▁group	-792
ci	-793
▁Cl	-794
▁mod	-795
ets	-796
▁That	-797
con	-798
▁public	-799
▁ret	-800
▁hand	-801
ale	-802
ins	-803
,000	-804
ying	-805
▁spec	-806
▁There	-807
▁sl	-808
.[	-809
▁great	-810
▁fam	-811
ph	-812
▁cur	-813
▁car	-814
pr	-815
ense	-816
▁ext	-817
▁wom	-818
alth	-819
▁happ	-820
irect	-821
▁fr	-822
▁cap	-823
ton	-824
▁fact	-825
▁both	-826
▁exper	-827
▁day	-828
▁find	-829
▁read	-830
uth	-831
ices	-832
▁det	-833
ular	-834
oh	-835
min	-836
ered	-837
▁rep	-838
▁during	-839
▁8	-840
▁'	-841
▁month	-842
▁cre	-843
▁big	-844
▁serv	-845
▁So	-846
▁told	-847
▁On	-848
▁person	-849
▁since	-850
▁develop	-851
ision	-852
ines	-853
akes	-854
▁iss	-855
▁week	-856
▁follow	-857
ivers	-858
ared	-859
ically	-860
med	-861
▁polit	-862
ording	-863
▁few	-864
▁war	-865
att	-866
▁cent	-867
ages	-868
▁Ad	-869
▁leg	-870
orth	-871
get	-872
aj	-873
ves	-874
ash	-875
ene	-876
▁Fr	-877
▁expl	-878
▁belie	-879
▁9	-880
▁lot	-881
▁too	-882
▁gener	-883
rent	-884
▁opp	-885
▁contin	-886
▁prot	-887
▁At	-888
ric	-889
▁fil	-890
anc	-891
der	-892
bers	-893
▁‘	-894
▁requ	-895
iet	-896
ata	-897
▁put	-898
▁another	-899
▁cle	-900
chool	-901
ention	-902
▁Pro	-903
ex	-904
▁resp	-905
▁How	-906
ness	-907
▁invest	-908
▁something	-909
▁loc	-910
▁cor	-911
ized	-912
▁inf	-913
▁different	-914
ute	-915
▁soc	-916
▁rele	-917
▁plan	-918
▁vot	-919
▁commun	-920
▁camp	-921
arl	-922
ned	-923
▁power	-924
ience	-925
▁head	-926
▁art	-927
uc	-928
▁life	-929
▁far	-930
▁Rep	-931
▁pass	-932
the	-933
ody	-934
erest	-935
ross	-936
▁things	-937
▁che	-938
▁bo	-939
▁poss	-940
thing	-941
ik	-942
view	-943
▁child	-944
▁ask	-945
iness	-946
arge	-947
▁each	-948
▁might	-949
▁met	-950
▁next	-951
▁dep	-952
▁never	-953
▁0	-954
ants	-955
ret	-956
▁second	-957
ient	-958
▁US	-959
ize	-960
▁mark	-961
▁bus	-962
▁quest	-963
▁adv	-964
▁dem	-965
ee	-966
▁come	-967
ield	-968
▁best	-969
▁percent	-970
▁allow	-971
▁open	-972
ital	-973
▁Bl	-974
▁got	-975
son	-976
▁post	-977
ittle	-978
▁seem	-979
▁feel	-980
▁pri	-981
gram	-982
ple	-983
▁.	-984
▁home	-985
rat	-986
▁direct	-987
ug	-988
ired	-989
ten	-990
▁incre	-991
▁dist	-992
▁wr	-993
▁hard	-994
osed	-995
▁result	-996
orn	-997
▁contro	-998
cl	-999
▁import	-1000
less	-1001
▁million	-1002
▁place	-1003
▁without	-1004
▁including	-1005
ately	-1006
▁care	-1007
▁comple	-1008
▁av	-1009
▁hum	-1010
conom	-1011
▁Ind	-1012
ama	-1013
▁inform	-1014
▁proble	-1015
chn	-1016
▁She	-1017
▁top	-1018
▁ide	-1019
aim	-1020
▁build	-1021
oney	-1022
▁country	-1023
▁stand	-1024
gy	-1025
▁number	-1026
ral	-1027
▁four	-1028
▁Z	-1029
riend	-1030
ably	-1031
▁gl	-1032
20	-1033
▁better	-1034
▁recent	-1035
ways	-1036
▁mov	-1037
▁season	-1038
▁let	-1039
co	-1040
ished	-1041
▁partic	-1042
▁el	-1043
▁When	-1044
▁interest	-1045
▁tri	-1046
We	-1047
ration	-1048
▁less	-1049
▁turn	-1050
▁appro	-1051
line	-1052
▁called	-1053
▁mil	-1054
▁little	-1055
▁Q	-1056
▁beh	-1057
ised	-1058
▁bro	-1059
▁Be	-1060
app	-1061
ract	-1062
▁attack	-1063
▁ann	-1064
▁case	-1065
▁dr	-1066
▁pop	-1067
▁left	-1068
▁rest	-1069
▁Ph	-1070
ency	-1071
ling	-1072
leg	-1073
▁move	-1074
▁keep	-1075
ina	-1076
▁full	-1077
▁didn	-1078
▁What	-1079
ering	-1080
▁main	-1081
▁prev	-1082
▁fun	-1083
▁pay	-1084
ajor	-1085
ode	-1086
▁program	-1087
uro	-1088
▁using	-1089
▁police	-1090
ted	-1091
▁test	-1092
▁news	-1093
ature	-1094
inal	-1095
rem	-1096
▁val	-1097
▁American	-1098
be	-1099
▁effect	-1100
▁econom	-1101
▁pos	-1102
▁Ob	-1103
▁data	-1104
▁win	-1105
▁form	-1106
ready	-1107
▁list	-1108
iving	-1109
▁small	-1110
ains	-1111
ined	-1112
▁school	-1113
▁char	-1114
uck	-1115
▁level	-1116
ploy	-1117
▁women	-1118
▁change	-1119
▁president	-1120
to	-1121
▁eas	-1122
▁Go	-1123
ided	-1124
ger	-1125
ology	-1126
▁current	-1127
▁process	-1128
▁company	-1129
▁prom	-1130
▁Can	-1131
▁United	-1132
ird	-1133
__	-1134
▁dri	-1135
nce	-1136
▁rece	-1137
used	-1138
▁already	-1139
ians	-1140
▁hist	-1141
▁Chr	-1142
ohn	-1143
iver	-1144
▁expect	-1145
ruct	-1146
▁job	-1147
▁ty	-1148
▁always	-1149
▁bre	-1150
▁All	-1151
▁why	-1152
▁official	-1153
▁money	-1154
▁business	-1155
▁unt	-1156
aign	-1157
reen	-1158
rap	-1159
▁later	-1160
▁techn	-1161
▁mat	-1162
▁--	-1163
▁sol	-1164
▁claim	-1165
wit	-1166
▁Sp	-1167
▁project	-1168
▁book	-1169
▁organ	-1170
▁thing	-1171
ards	-1172
▁class	-1173
iversity	-1174
stand	-1175
It	-1176
▁story	-1177
aff	-1178
▁prof	-1179
▁talk	-1180
lection	-1181
▁information	-1182
▁rese	-1183
ead	-1184
iven	-1185
▁health	-1186
▁major	-1187
▁able	-1188
▁past	-1189
▁One	-1190
▁design	-1191
ases	-1192
urs	-1193
▁chang	-1194
▁vis	-1195
ertain	-1196
▁Pres	-1197
▁Mr	-1198
▁free	-1199
outh	-1200
10	-1201
ior	-1202
▁away	-1203
▁city	-1204
▁18	-1205
▁Sc	-1206
here	-1207
▁oper	-1208
▁edit	-1209
ope	-1210
uthor	-1211
▁grow	-1212
▁doesn	-1213
▁Pl	-1214
▁must	-1215
urity	-1216
▁John	-1217
▁happen	-1218
ption	-1219
ending	-1220
ury	-1221
ample	-1222
▁important	-1223
▁old	-1224
ured	-1225
acy	-1226
▁Mar	-1227
▁To	-1228
▁kill	-1229
ural	-1230
▁campaign	-1231
▁sk	-1232
▁least	-1233
ney	-1234
▁est	-1235
▁Con	-1236
ission	-1237
▁Br	-1238
▁cost	-1239
▁tell	-1240
ider	-1241
▁12	-1242
▁var	-1243
ained	-1244
▁pat	-1245
els	-1246
▁const	-1247
▁days	-1248
ides	-1249
▁enough	-1250
▁men	-1251
▁Republic	-1252
ott	-1253
▁stre	-1254
ccess	-1255
▁came	-1256
▁making	-1257
▁family	-1258
side	-1259
▁view	-1260
▁tax	-1261
▁Or	-1262
▁mar	-1263
ox	-1264
▁aff	-1265
▁record	-1266
▁large	-1267
sc	-1268
▁friend	-1269
▁kind	-1270
▁polic	-1271
▁elect	-1272
ern	-1273
▁15	-1274
eral	-1275
ising	-1276
▁Comm	-1277
▁No	-1278
ush	-1279
▁political	-1280
▁sit	-1281
ley	-1282
oad	-1283
pped	-1284
ality	-1285
augh	-1286
▁vide	-1287
arent	-1288
▁until	-1289
ional	-1290
▁deal	-1291
▁working	-1292
▁Mc	-1293
▁deb	-1294
▁Dem	-1295
▁Russ	-1296
ries	-1297
ror	-1298
alf	-1299
ived	-1300
ified	-1301
tt	-1302
ued	-1303
ator	-1304
▁line	-1305
ister	-1306
▁ve	-1307
▁del	-1308
▁May	-1309
▁took	-1310
▁actually	-1311
ocrat	-1312
▁air	-1313
aps	-1314
▁intern	-1315
▁fore	-1316
bs	-1317
▁become	-1318
▁es	-1319
▁President	-1320
iol	-1321
aining	-1322
▁fund	-1323
▁Sy	-1324
▁according	-1325
ony	-1326
ember	-1327
▁former	-1328
▁mean	-1329
▁Euro	-1330
year	-1331
▁human	-1332
ware	-1333
▁won	-1334
▁ever	-1335
▁With	-1336
▁often	-1337
▁give	-1338
by	-1339
work	-1340
▁games	-1341
oint	-1342
▁=	-1343
eng	-1344
ane	-1345
▁return	-1346
most	-1347
aring	-1348
-1	-1349
▁name	-1350
▁bit	-1351
ison	-1352
gin	-1353
▁word	-1354
▁Am	-1355
▁times	-1356
▁order	-1357
▁dev	-1358
▁bas	-1359
ann	-1360
wh	-1361
iber	-1362
▁sever	-1363
▁market	-1364
ization	-1365
▁night	-1366
uture	-1367
▁perform	-1368
▁Col	-1369
iam	-1370
▁sing	-1371
icle	-1372
ither	-1373
▁today	-1374
▁fac	-1375
▁lear	-1376
▁la	-1377
▁ra	-1378
▁players	-1379
▁199	-1380
▁charac	-1381
raft	-1382
▁doing	-1383
aken	-1384
ron	-1385
ched	-1386
▁seen	-1387
iqu	-1388
▁having	-1389
▁media	-1390
▁11	-1391
▁After	-1392
▁appear	-1393
▁early	-1394
▁children	-1395
idd	-1396
▁event	-1397
▁five	-1398
rop	-1399
for	-1400
mber	-1401
▁Obama	-1402
▁whether	-1403
▁pot	-1404
▁crit	-1405
▁several	-1406
▁social	-1407
▁press	-1408
▁milit	-1409
▁went	-1410
iously	-1411
▁meet	-1412
idence	-1413
▁prop	-1414
▁Im	-1415
▁young	-1416
artment	-1417
▁likely	-1418
Th	-1419
▁sure	-1420
▁question	-1421
▁members	-1422
ium	-1423
ands	-1424
▁Europe	-1425
let	-1426
▁equ	-1427
ats	-1428
▁Te	-1429
ories	-1430
▁control	-1431
▁York	-1432
vert	-1433
▁occ	-1434
▁certain	-1435
ots	-1436
ortun	-1437
▁done	-1438
enn	-1439
▁success	-1440
▁eng	-1441
▁water	-1442
▁States	-1443
▁example	-1444
▁invol	-1445
▁vers	-1446
▁arg	-1447
ball	-1448
ended	-1449
▁along	-1450
▁short	-1451
▁Not	-1452
br	-1453
▁hour	-1454
▁side	-1455
ential	-1456
▁ant	-1457
empt	-1458
sh	-1459
▁course	-1460
▁months	-1461
▁,	-1462
ones	-1463
▁]	-1464
ER	-1465
▁Ex	-1466
ially	-1467
▁once	-1468
▁State	-1469
ague	-1470
ubl	-1471
▁Co	-1472
▁investig	-1473
▁among	-1474
▁sex	-1475
imate	-1476
▁activ	-1477
iting	-1478
▁within	-1479
▁future	-1480
▁desc	-1481
▁concer	-1482
lf	-1483
rew	-1484
nect	-1485
urch	-1486
▁priv	-1487
▁fight	-1488
uff	-1489
▁possible	-1490
ster	-1491
▁cho	-1492
une	-1493
50	-1494
▁author	-1495
▁means	-1496
ggest	-1497
ulation	-1498
▁problem	-1499
▁understand	-1500
▁viol	-1501
ourn	-1502
▁across	-1503
▁avail	-1504
ald	-1505
▁thought	-1506
▁Pol	-1507
▁community	-1508
▁product	-1509
▁known	-1510
itive	-1511
▁However	-1512
▁fail	-1513
▁local	-1514
▁hold	-1515
▁protect	-1516
▁yet	-1517
▁2016	-1518
▁#	-1519
▁non	-1520
▁writ	-1521
verage	-1522
gress	-1523
▁House	-1524
▁suggest	-1525
▁/	-1526
▁reason	-1527
ler	-1528
▁makes	-1529
▁Christ	-1530
ivid	-1531
inc	-1532
oci	-1533
▁orig	-1534
book	-1535
▁given	-1536
▁reported	-1537
ederal	-1538
ensive	-1539
aged	-1540
back	-1541
▁asked	-1542
▁$1	-1543
▁Sen	-1544
por	-1545
▁video	-1546
orld	-1547
▁While	-1548
arm	-1549
▁believe	-1550
▁getting	-1551
▁mus	-1552
not	-1553
▁Fl	-1554
▁Democrat	-1555
▁strong	-1556
▁i	-1557
▁&	-1558
▁announ	-1559
▁Pr	-1560
▁cut	-1561
▁sent	-1562
ances	-1563
▁light	-1564
▁others	-1565
▁Min	-1566
▁prob	-1567
▁University	-1568
iety	-1569
ober	-1570
ored	-1571
▁ca	-1572
▁ident	-1573
▁X	-1574
▁creat	-1575
iron	-1576
▁lim	-1577
▁30	-1578
lement	-1579
▁Don	-1580
▁sour	-1581
itions	-1582
my	-1583
urther	-1584
ashing	-1585
▁cond	-1586
▁saf	-1587
▁2015	-1588
▁hig	-1589
▁Cent	-1590
▁close	-1591
▁indust	-1592
rest	-1593
▁net	-1594
▁national	-1595
▁party	-1596
▁started	-1597
▁available	-1598
▁(1	-1599
▁low	-1600
▁issue	-1601
▁following	-1602
▁land	-1603
▁death	-1604
▁employ	-1605
▁comes	-1606
ef	-1607
▁ago	-1608
aster	-1609
▁par	-1610
▁account	-1611
.,	-1612
▁trying	-1613
.5	-1614
hers	-1615
orts	-1616
selves	-1617
▁love	-1618
▁based	-1619
▁mom	-1620
uly	-1621
▁history	-1622
▁America	-1623
▁almost	-1624
▁isn	-1625
▁series	-1626
use	-1627
ument	-1628
utes	-1629
ability	-1630
▁toget	-1631
▁idea	-1632
▁foc	-1633
▁together	-1634
▁Sec	-1635
▁added	-1636
▁access	-1637
ief	-1638
ination	-1639
▁impro	-1640
itional	-1641
resent	-1642
▁Canad	-1643
reed	-1644
ails	-1645
of	-1646
though	-1647
▁trad	-1648
ustom	-1649
▁...	-1650
▁Bro	-1651
▁experience	-1652
▁clear	-1653
▁Ne	-1654
▁half	-1655
ilar	-1656
----	-1657
ged	-1658
▁pract	-1659
▁2014	-1660
▁film	-1661
pro	-1662
▁rul	-1663
▁Gr	-1664
▁16	-1665
▁six	-1666
witter	-1667
inton	-1668
▁looking	-1669
erence	-1670
▁fav	-1671
unch	-1672
nes	-1673
▁Eng	-1674
ien	-1675
rael	-1676
▁saying	-1677
minist	-1678
ream	-1679
▁complete	-1680
▁anal	-1681
erman	-1682
▁Man	-1683
ograp	-1684
▁bill	-1685
▁live	-1686
▁ris	-1687
af	-1688
▁area	-1689
▁miss	-1690
rict	-1691
▁anything	-1692
▁phot	-1693
aid	-1694
▁Su	-1695
arr	-1696
▁bene	-1697
ividual	-1698
rug	-1699
▁present	-1700
uge	-1701
▁13	-1702
▁Now	-1703
▁North	-1704
ai	-1705
cially	-1706
.1	-1707
▁compet	-1708
▁vict	-1709
▁court	-1710
▁bad	-1711
eb	-1712
▁taken	-1713
ows	-1714
▁14	-1715
▁mor	-1716
▁aut	-1717
raw	-1718
▁behind	-1719
osp	-1720
ators	-1721
▁military	-1722
.0	-1723
▁entire	-1724
▁War	-1725
▁try	-1726
ert	-1727
wards	-1728
▁Just	-1729
▁er	-1730
▁face	-1731
▁security	-1732
▁Af	-1733
▁rather	-1734
AT	-1735
▁Dep	-1736
▁threat	-1737
▁near	-1738
▁Brit	-1739
▁discuss	-1740
▁proper	-1741
▁Ab	-1742
▁National	-1743
▁Clinton	-1744
▁Cal	-1745
sy	-1746
▁quick	-1747
▁single	-1748
▁mult	-1749
aper	-1750
▁Inst	-1751
▁policy	-1752
▁publ	-1753
▁study	-1754
play	-1755
▁fall	-1756
▁tot	-1757
▁z	-1758
▁mess	-1759
▁mind	-1760
▁Ed	-1761
▁Aust	-1762
▁wanted	-1763
▁App	-1764
▁sum	-1765
lling	-1766
▁Res	-1767
▁Israel	-1768
irc	-1769
ales	-1770
▁His	-1771
▁individual	-1772
▁By	-1773
▁special	-1774
▁cult	-1775
ids	-1776
▁someone	-1777
atic	-1778
▁food	-1779
▁key	-1780
▁attempt	-1781
▁bring	-1782
▁black	-1783
▁Bar	-1784
30	-1785
▁compan	-1786
▁Some	-1787
▁World	-1788
▁redu	-1789
▁player	-1790
off	-1791
ify	-1792
▁Dav	-1793
▁City	-1794
ply	-1795
▁17	-1796
▁taking	-1797
▁Ge	-1798
▁comb	-1799
par	-1800
▁These	-1801
▁My	-1802
▁Me	-1803
▁Car	-1804
▁jo	-1805
ches	-1806
▁foot	-1807
viron	-1808
▁pret	-1809
▁body	-1810
▁coming	-1811
▁research	-1812
ashington	-1813
▁cou	-1814
rote	-1815
▁front	-1816
elt	-1817
▁probably	-1818
▁sw	-1819
ming	-1820
▁nothing	-1821
olution	-1822
▁connect	-1823
▁else	-1824
▁Part	-1825
▁Gu	-1826
▁space	-1827
2,	-1828
cing	-1829
▁points	-1830
1,	-1831
▁benef	-1832
amed	-1833
ully	-1834
icult	-1835
.)	-1836
▁however	-1837
▁sus	-1838
▁Washington	-1839
▁coun	-1840
▁ear	-1841
go	-1842
//	-1843
▁describ	-1844
reme	-1845
▁targ	-1846
▁Do	-1847
▁decision	-1848
▁imm	-1849
▁conv	-1850
aces	-1851
ault	-1852
▁exist	-1853
▁chall	-1854
▁house	-1855
irl	-1856
ps	-1857
▁2013	-1858
▁similar	-1859
▁rights	-1860
▁mass	-1861
▁enc	-1862
asing	-1863
▁Jan	-1864
▁signific	-1865
IN	-1866
▁feat	-1867
▁ban	-1868
▁either	-1869
▁wa	-1870
▁fig	-1871
▁doc	-1872
▁wrote	-1873
hy	-1874
ana	-1875
▁service	-1876
▁fire	-1877
▁further	-1878
ried	-1879
▁hit	-1880
▁South	-1881
▁cand	-1882
ung	-1883
▁compl	-1884
▁third	-1885
▁repl	-1886
over	-1887
▁stop	-1888
▁step	-1889
▁issues	-1890
▁create	-1891
▁begin	-1892
▁whole	-1893
iday	-1894
▁:	-1895
ively	-1896
▁Med	-1897
ON	-1898
now	-1899
yn	-1900
▁pick	-1901
ently	-1902
pite	-1903
▁field	-1904
▁everything	-1905
▁meas	-1906
sw	-1907
▁states	-1908
▁watch	-1909
pping	-1910
itted	-1911
▁seems	-1912
attle	-1913
▁companies	-1914
▁Acc	-1915
▁officials	-1916
▁federal	-1917
▁tra	-1918
pecially	-1919
ring	-1920
▁custom	-1921
aul	-1922
amer	-1923
▁due	-1924
▁released	-1925
head	-1926
▁students	-1927
▁exec	-1928
▁China	-1929
ivil	-1930
▁super	-1931
▁relations	-1932
▁sound	-1933
▁leaders	-1934
mb	-1935
▁room	-1936
oon	-1937
uation	-1938
▁ey	-1939
ape	-1940
▁2017	-1941
▁tre	-1942
▁Dr	-1943
▁lab	-1944
▁statement	-1945
▁role	-1946
▁stri	-1947
ibility	-1948
rodu	-1949
▁Intern	-1950
://	-1951
▁Ass	-1952
▁began	-1953
▁infl	-1954
▁position	-1955
▁outside	-1956
▁self	-1957
▁dou	-1958
ender	-1959
▁dam	-1960
▁opt	-1961
ilt	-1962
ades	-1963
IS	-1964
ery	-1965
▁final	-1966
▁provide	-1967
obal	-1968
▁hope	-1969
▁above	-1970
▁ener	-1971
arlier	-1972
vironment	-1973
▁action	-1974
▁matter	-1975
▁gun	-1976
▁development	-1977
▁Will	-1978
▁Ir	-1979
▁stat	-1980
▁character	-1981
▁address	-1982
▁hours	-1983
▁office	-1984
▁init	-1985
▁general	-1986
.2	-1987
▁break	-1988
lim	-1989
▁German	-1990
sec	-1991
▁treat	-1992
▁himself	-1993
▁amount	-1994
▁represent	-1995
▁themselves	-1996
iod	-1997
▁continue	-1998
like	-1999
▁larg	-2000
**	-2001
▁became	-2002
▁countries	-2003
▁News	-2004
▁itself	-2005
▁neg	-2006
aced	-2007
▁198	-2008
ww	-2009
▁25	-2010
▁specific	-2011
▁Face	-2012
▁interview	-2013
▁Twitter	-2014
▁running	-2015
▁100	-2016
▁administ	-2017
▁ground	-2018
▁simply	-2019
lish	-2020
▁agree	-2021
ask	-2022
umb	-2023
▁wasn	-2024
arter	-2025
▁true	-2026
▁needs	-2027
▁ball	-2028
▁En	-2029
▁significant	-2030
eks	-2031
ili	-2032
▁profess	-2033
oid	-2034
▁drug	-2035
▁red	-2036
▁appe	-2037
▁difficult	-2038
▁everyone	-2039
ogn	-2040
▁version	-2041
▁building	-2042
▁groups	-2043
▁lat	-2044
▁evidence	-2045
angu	-2046
ogle	-2047
▁Mus	-2048
▁shows	-2049
▁inj	-2050
BC	-2051
ev	-2052
reg	-2053
▁typ	-2054
▁release	-2055
▁rad	-2056
ournal	-2057
11	-2058
lam	-2059
▁West	-2060
AN	-2061
▁below	-2062
▁woman	-2063
▁respons	-2064
▁music	-2065
▁candid	-2066
▁needed	-2067
▁exc	-2068
▁White	-2069
▁Pe	-2070
▁played	-2071
▁saw	-2072
▁dom	-2073
▁industry	-2074
iddle	-2075
▁common	-2076
▁include	-2077
▁dest	-2078
ribut	-2079
▁deep	-2080
atur	-2081
right	-2082
▁quite	-2083
▁Ste	-2084
▁alleg	-2085
AR	-2086
▁tem	-2087
▁ap	-2088
▁pretty	-2089
▁playing	-2090
▁legal	-2091
ift	-2092
▁Facebook	-2093
ival	-2094
ote	-2095
▁energy	-2096
▁mot	-2097
▁50	-2098
▁charg	-2099
fully	-2100
▁)	-2101
▁late	-2102
▁phys	-2103
▁Cong	-2104
isc	-2105
▁friends	-2106
▁Oct	-2107
▁Mich	-2108
▁election	-2109
▁sense	-2110
body	-2111
▁billion	-2112
▁lost	-2113
▁white	-2114
▁mag	-2115
▁Per	-2116
▁instead	-2117
▁host	-2118
▁abs	-2119
oring	-2120
▁especially	-2121
bo	-2122
▁recently	-2123
osing	-2124
▁weeks	-2125
istic	-2126
▁value	-2127
▁vote	-2128
yle	-2129
▁jud	-2130
ager	-2131
▁gen	-2132
me	-2133
▁Sept	-2134
▁cop	-2135
▁track	-2136
▁anim	-2137
▁object	-2138
where	-2139
▁forward	-2140
time	-2141
▁suff	-2142
▁hom	-2143
▁opportun	-2144
▁March	-2145
▁Republican	-2146
▁ple	-2147
OR	-2148
▁period	-2149
▁ep	-2150
lev	-2151
▁Sm	-2152
medi	-2153
ights	-2154
▁site	-2155
▁deter	-2156
▁changes	-2157
epend	-2158
ij	-2159
irt	-2160
▁More	-2161
▁soon	-2162
2.	-2163
▁decl	-2164
▁check	-2165
▁bar	-2166
▁shoot	-2167
▁Syri	-2168
▁lo	-2169
▁longer	-2170
▁Here	-2171
▁Har	-2172
▁pie	-2173
▁accept	-2174
▁Google	-2175
ached	-2176
▁consum	-2177
duct	-2178
▁pain	-2179
▁htt	-2180
▁economic	-2181
▁Department	-2182
ript	-2183
itting	-2184
oke	-2185
▁Aug	-2186
▁El	-2187
▁moment	-2188
irm	-2189
▁24	-2190
den	-2191
▁higher	-2192
ners	-2193
▁block	-2194
▁consider	-2195
ental	-2196
▁potential	-2197
▁relig	-2198
▁goal	-2199
▁held	-2200
lege	-2201
ancial	-2202
▁reve	-2203
ularly	-2204
overed	-2205
hel	-2206
▁circ	-2207
▁wrong	-2208
iding	-2209
▁tit	-2210
▁parent	-2211
▁online	-2212
▁educ	-2213
▁According	-2214
▁led	-2215
▁webs	-2216
▁share	-2217
AS	-2218
hod	-2219
▁focus	-2220
▁Em	-2221
▁June	-2222
arc	-2223
ique	-2224
▁works	-2225
ns	-2226
cial	-2227
key	-2228
▁stay	-2229
▁review	-2230
▁words	-2231
▁cred	-2232
▁walk	-2233
▁stru	-2234
lt	-2235
▁contract	-2236
oe	-2237
99	-2238
ES	-2239
▁risk	-2240
▁Red	-2241
▁Act	-2242
▁laws	-2243
▁rev	-2244
▁Off	-2245
onse	-2246
▁code	-2247
aut	-2248
fer	-2249
ees	-2250
▁services	-2251
▁July	-2252
▁di	-2253
▁sold	-2254
asons	-2255
▁applic	-2256
▁results	-2257
▁favor	-2258
▁function	-2259
▁{	-2260
▁Mond	-2261
cil	-2262
▁rate	-2263
▁pred	-2264
lear	-2265
▁age	-2266
▁article	-2267
▁Austral	-2268
▁|	-2269
▁personal	-2270
▁aud	-2271
▁ce	-2272
▁Apr	-2273
fect	-2274
▁minutes	-2275
▁anyone	-2276
ham	-2277
▁Congress	-2278
▁expected	-2279
▁wind	-2280
▁upd	-2281
▁target	-2282
▁total	-2283
▁popular	-2284
anger	-2285
▁earlier	-2286
ients	-2287
▁ste	-2288
▁prim	-2289
ilities	-2290
▁Des	-2291
uary	-2292
▁Hill	-2293
haps	-2294
▁den	-2295
▁answ	-2296
ole	-2297
▁Friday	-2298
aging	-2299
▁necess	-2300
apan	-2301
omm	-2302
▁environment	-2303
▁problems	-2304
▁dead	-2305
itution	-2306
▁comput	-2307
▁created	-2308
▁private	-2309
____	-2310
reet	-2311
isl	-2312
▁technology	-2313
alt	-2314
ule	-2315
▁comment	-2316
▁express	-2317
iter	-2318
▁surpr	-2319
▁port	-2320
ends	-2321
▁hy	-2322
▁easy	-2323
▁ways	-2324
▁anti	-2325
▁vol	-2326
uel	-2327
ateg	-2328
put	-2329
na	-2330
ude	-2331
▁base	-2332
atives	-2333
▁increase	-2334
▁shot	-2335
▁scient	-2336
▁received	-2337
ittee	-2338
▁pack	-2339
▁announced	-2340
▁God	-2341
▁respect	-2342
▁questions	-2343
▁force	-2344
▁Tues	-2345
▁+	-2346
▁cannot	-2347
aving	-2348
eter	-2349
▁Monday	-2350
rel	-2351
▁Cour	-2352
▁Cont	-2353
▁langu	-2354
iple	-2355
▁speak	-2356
▁impact	-2357
val	-2358
▁Russia	-2359
▁@	-2360
▁197	-2361
okes	-2362
▁staff	-2363
▁Tuesday	-2364
▁April	-2365
▁involved	-2366
▁Ag	-2367
hern	-2368
action	-2369
itiz	-2370
▁pur	-2371
▁sen	-2372
▁Pal	-2373
▁nearly	-2374
▁type	-2375
hood	-2376
▁model	-2377
▁civil	-2378
aterial	-2379
itten	-2380
ples	-2381
St	-2382
▁Count	-2383
lex	-2384
▁div	-2385
▁Even	-2386
▁execut	-2387
▁exact	-2388
▁inside	-2389
▁content	-2390
ises	-2391
▁David	-2392
8,	-2393
ips	-2394
▁Wed	-2395
▁terror	-2396
ops	-2397
▁international	-2398
▁leave	-2399
▁capt	-2400
▁average	-2401
lled	-2402
60	-2403
▁fans	-2404
icro	-2405
▁Japan	-2406
▁Geor	-2407
▁ur	-2408
▁2010	-2409
▁Americans	-2410
▁arrest	-2411
▁cases	-2412
▁broad	-2413
▁original	-2414
cast	-2415
▁coll	-2416
eed	-2417
ires	-2418
▁reports	-2419
▁San	-2420
▁club	-2421
omb	-2422
▁relationship	-2423
▁Gl	-2424
▁Paul	-2425
▁becom	-2426
▁First	-2427
che	-2428
.3	-2429
▁soft	-2430
▁Cor	-2431
▁*	-2432
▁nation	-2433
ray	-2434
▁Qu	-2435
▁response	-2436
This	-2437
▁worked	-2438
▁users	-2439
▁killed	-2440
▁et	-2441
▁Sund	-2442
ams	-2443
ctor	-2444
ites	-2445
▁worth	-2446
▁heart	-2447
In	-2448
▁source	-2449
bor	-2450
ellig	-2451
▁living	-2452
ests	-2453
▁global	-2454
▁respond	-2455
▁immedi	-2456
oto	-2457
▁takes	-2458
▁chance	-2459
atural	-2460
joy	-2461
▁price	-2462
onst	-2463
▁tou	-2464
ging	-2465
ovember	-2466
rought	-2467
▁store	-2468
▁director	-2469
▁cal	-2470
▁oil	-2471
▁Calif	-2472
▁adm	-2473
ze	-2474
ael	-2475
▁road	-2476
ky	-2477
▁estab	-2478
▁Her	-2479
▁published	-2480
▁Post	-2481
▁mid	-2482
bit	-2483
▁terms	-2484
osition	-2485
▁Sch	-2486
izing	-2487
▁obs	-2488
▁financial	-2489
▁ability	-2490
▁phone	-2491
▁collect	-2492
▁Spe	-2493
▁squ	-2494
▁40	-2495
▁cell	-2496
▁weap	-2497
▁buy	-2498
-2	-2499
▁Thurs	-2500
▁currently	-2501
unt	-2502
....	-2503
ological	-2504
vertise	-2505
▁<	-2506
▁log	-2507
▁workers	-2508
▁mother	-2509
▁emer	-2510
▁capital	-2511
▁Feb	-2512
▁defin	-2513
▁Wednes	-2514
▁decided	-2515
▁September	-2516
▁bur	-2517
▁gave	-2518
EN	-2519
▁lack	-2520
▁January	-2521
▁subject	-2522
▁Thursday	-2523
▁November	-2524
▁associ	-2525
▁girl	-2526
▁foreign	-2527
▁Ang	-2528
▁require	-2529
▁offer	-2530
▁member	-2531
▁Wednesday	-2532
▁influ	-2533
▁happened	-2534
▁situation	-2535
aled	-2536
.4	-2537
ought	-2538
oved	-2539
▁plans	-2540
▁tal	-2541
▁Islam	-2542
▁goes	-2543
▁fem	-2544
▁whose	-2545
▁lives	-2546
clus	-2547
rain	-2548
".	-2549
mon	-2550
▁pict	-2551
icated	-2552
▁teams	-2553
based	-2554
▁TV	-2555
9,	-2556
▁simple	-2557
▁areas	-2558
▁cy	-2559
▁meeting	-2560
He	-2561
▁events	-2562
▁introdu	-2563
ctions	-2564
▁huge	-2565
▁arri	-2566
▁material	-2567
▁email	-2568
▁text	-2569
▁Tw	-2570
▁ill	-2571
3,	-2572
▁network	-2573
▁bank	-2574
▁recogn	-2575
▁turned	-2576
ino	-2577
▁mis	-2578
▁Afric	-2579
ruction	-2580
▁particip	-2581
▁Sunday	-2582
▁couple	-2583
▁Court	-2584
▁race	-2585
15	-2586
▁affect	-2587
▁August	-2588
▁norm	-2589
▁via	-2590
▁method	-2591
▁tool	-2592
▁approach	-2593
▁administration	-2594
▁improve	-2595
face	-2596
▁hon	-2597
▁European	-2598
aily	-2599
▁career	-2600
▁performance	-2601
▁page	-2602
ese	-2603
▁quickly	-2604
▁October	-2605
▁Canada	-2606
ills	-2607
oud	-2608
ety	-2609
▁round	-2610
▁pull	-2611
▁regard	-2612
12	-2613
▁Of	-2614
▁poll	-2615
▁ord	-2616
istan	-2617
▁felt	-2618
▁numbers	-2619
order	-2620
▁economy	-2621
▁Ke	-2622
rown	-2623
oo	-2624
oor	-2625
load	-2626
▁British	-2627
ett	-2628
▁victim	-2629
ructure	-2630
▁Californ	-2631
▁pers	-2632
aur	-2633
▁trade	-2634
”.	-2635
▁thous	-2636
▁loss	-2637
▁engine	-2638
chie	-2639
avy	-2640
▁boy	-2641
▁fre	-2642
down	-2643
▁Then	-2644
▁}	-2645
6,	-2646
▁website	-2647
bl	-2648
▁legisl	-2649
▁heard	-2650
▁dig	-2651
7,	-2652
▁Black	-2653
▁wants	-2654
▁built	-2655
▁UK	-2656
orters	-2657
▁secret	-2658
▁board	-2659
▁hop	-2660
▁cover	-2661
▁Russian	-2662
▁enjoy	-2663
uses	-2664
▁spent	-2665
▁allowed	-2666
▁travel	-2667
atory	-2668
▁match	-2669
fl	-2670
▁father	-2671
▁Sw	-2672
cember	-2673
apt	-2674
▁lower	-2675
ume	-2676
▁hands	-2677
ech	-2678
iction	-2679
▁neigh	-2680
anks	-2681
▁IS	-2682
▁repe	-2683
▁visit	-2684
You	-2685
▁Pat	-2686
▁included	-2687
▁town	-2688
▁knew	-2689
▁production	-2690
ences	-2691
▁wide	-2692
1.	-2693
▁Int	-2694
ishing	-2695
agement	-2696
gest	-2697
▁California	-2698
▁gets	-2699
▁forces	-2700
▁ens	-2701
estern	-2702
▁growth	-2703
Wh	-2704
ened	-2705
▁Mark	-2706
ession	-2707
▁behav	-2708
?”	-2709
▁movement	-2710
▁Kore	-2711
force	-2712
▁separ	-2713
▁tried	-2714
▁bud	-2715
",	-2716
▁fear	-2717
rect	-2718
▁perfect	-2719
▁previous	-2720
▁From	-2721
▁population	-2722
▁cause	-2723
▁bi	-2724
▁reach	-2725
▁December	-2726
▁Senate	-2727
de	-2728
▁particular	-2729
▁attention	-2730
oph	-2731
▁looks	-2732
ening	-2733
field	-2734
▁brought	-2735
idents	-2736
ceed	-2737
▁morning	-2738
▁sett	-2739
idered	-2740
40	-2741
yond	-2742
▁various	-2743
▁vo	-2744
▁Fin	-2745
inks	-2746
▁Park	-2747
▁image	-2748
▁Che	-2749
ibly	-2750
hic	-2751
arily	-2752
cle	-2753
aker	-2754
▁fair	-2755
▁mention	-2756
alled	-2757
▁Street	-2758
▁link	-2759
▁leader	-2760
▁song	-2761
▁rules	-2762
▁India	-2763
uk	-2764
▁demand	-2765
▁latest	-2766
undred	-2767
▁rac	-2768
ining	-2769
sequ	-2770
▁Cons	-2771
▁training	-2772
▁hot	-2773
▁fell	-2774
cies	-2775
urd	-2776
hold	-2777
▁contact	-2778
▁citiz	-2779
▁hor	-2780
][	-2781
▁progress	-2782
▁Par	-2783
ecause	-2784
ges	-2785
▁Donald	-2786
▁size	-2787
ED	-2788
▁strugg	-2789
raz	-2790
▁Tex	-2791
▁coach	-2792
▁prep	-2793
▁Times	-2794
▁search	-2795
▁liber	-2796
▁Satur	-2797
▁speed	-2798
ny	-2799
▁King	-2800
iers	-2801
come	-2802
▁ess	-2803
ondon	-2804
▁Party	-2805
▁fast	-2806
▁reb	-2807
iant	-2808
ledge	-2809
uments	-2810
aries	-2811
▁Iran	-2812
▁Rom	-2813
);	-2814
▁talking	-2815
▁1,	-2816
het	-2817
▁considered	-2818
▁und	-2819
▁features	-2820
raq	-2821
▁Jew	-2822
▁Sand	-2823
elligence	-2824
ma	-2825
▁investigation	-2826
▁Police	-2827
▁independ	-2828
▁County	-2829
ification	-2830
▁slow	-2831
ground	-2832
14	-2833
▁upon	-2834
▁jobs	-2835
▁Center	-2836
▁Up	-2837
▁McC	-2838
▁wond	-2839
▁conduct	-2840
arth	-2841
▁(2	-2842
imately	-2843
▁spokes	-2844
bed	-2845
▁medical	-2846
▁critic	-2847
▁language	-2848
ille	-2849
▁achie	-2850
▁exam	-2851
▁addition	-2852
▁safe	-2853
▁Saturday	-2854
▁Muslim	-2855
rim	-2856
▁parents	-2857
▁box	-2858
▁Tur	-2859
vent	-2860
ysis	-2861
▁doll	-2862
▁levels	-2863
uf	-2864
▁conserv	-2865
▁paper	-2866
▁prevent	-2867
▁Iraq	-2868
sych	-2869
atform	-2870
▁Let	-2871
▁sn	-2872
▁sort	-2873
ament	-2874
▁increasing	-2875
▁mach	-2876
▁card	-2877
▁Read	-2878
▁document	-2879
▁Net	-2880
unk	-2881
▁hear	-2882
▁systems	-2883
▁learn	-2884
ources	-2885
OS	-2886
asc	-2887
▁sexual	-2888
▁London	-2889
▁pen	-2890
ani	-2891
▁seek	-2892
▁prior	-2893
▁Soc	-2894
▁written	-2895
▁seven	-2896
▁Lab	-2897
igr	-2898
==	-2899
pir	-2900
▁$2	-2901
▁Other	-2902
▁2012	-2903
▁TH	-2904
.7	-2905
▁regul	-2906
vertisement	-2907
▁draw	-2908
AC	-2909
▁Sim	-2910
▁21	-2911
▁obv	-2912
idge	-2913
▁effort	-2914
ruary	-2915
uit	-2916
▁completely	-2917
▁extreme	-2918
▁particularly	-2919
▁sens	-2920
▁inn	-2921
▁despite	-2922
▁Mor	-2923
▁Michael	-2924
AL	-2925
▁son	-2926
ication	-2927
rast	-2928
ico	-2929
rench	-2930
▁eight	-2931
.6	-2932
itch	-2933
▁claims	-2934
▁message	-2935
▁journal	-2936
room	-2937
▁serious	-2938
If	-2939
ibr	-2940
5,	-2941
▁climate	-2942
▁conc	-2943
▁violence	-2944
reedom	-2945
▁Gener	-2946
▁doub	-2947
▁opportunity	-2948
▁range	-2949
▁society	-2950
▁surve	-2951
erve	-2952
▁paid	-2953
▁attacks	-2954
▁biggest	-2955
▁defense	-2956
▁screen	-2957
IT	-2958
▁guy	-2959
▁Play	-2960
▁carry	-2961
▁interesting	-2962
▁officers	-2963
atter	-2964
▁James	-2965
▁majority	-2966
▁Most	-2967
ux	-2968
aming	-2969
▁Republicans	-2970
inese	-2971
▁answer	-2972
▁aren	-2973
light	-2974
▁Bill	-2975
pper	-2976
▁East	-2977
▁February	-2978
entially	-2979
▁extra	-2980
▁quarter	-2981
▁exactly	-2982
lin	-2983
▁experien	-2984
▁cross	-2985
▁bott	-2986
▁science	-2987
▁surv	-2988
ension	-2989
anced	-2990
▁hundred	-2991
▁required	-2992
ously	-2993
▁practice	-2994
OP	-2995
80	-2996
▁natural	-2997
isions	-2998
set	-2999
There	-3000
ospital	-3001
▁Why	-3002
▁movie	-3003
eff	-3004
lying	-3005
▁certainly	-3006
▁crim	-3007
▁imag	-3008
▁modern	-3009
▁prison	-3010
▁lay	-3011
▁rout	-3012
▁summer	-3013
▁Democratic	-3014
▁gas	-3015
▁giving	-3016
▁products	-3017
▁Since	-3018
▁stories	-3019
▁aw	-3020
▁remain	-3021
▁sometimes	-3022
utions	-3023
IC	-3024
▁remains	-3025
▁ones	-3026
▁leading	-3027
▁user	-3028
▁convers	-3029
▁dro	-3030
▁histor	-3031
▁except	-3032
▁stuff	-3033
▁table	-3034
nces	-3035
▁starting	-3036
▁looked	-3037
▁pan	-3038
▁star	-3039
▁Coun	-3040
▁danger	-3041
oses	-3042
▁details	-3043
icks	-3044
▁quality	-3045
illed	-3046
uclear	-3047
▁Last	-3048
tr	-3049
▁middle	-3050
▁ult	-3051
▁growing	-3052
▁described	-3053
aves	-3054
akers	-3055
▁finally	-3056
▁showed	-3057
▁Many	-3058
▁comments	-3059
▁term	-3060
▁Mon	-3061
▁costs	-3062
anch	-3063
▁Every	-3064
erc	-3065
▁named	-3066
ida	-3067
aught	-3068
▁Rec	-3069
ari	-3070
▁voters	-3071
▁changed	-3072
enge	-3073
▁region	-3074
▁parts	-3075
▁poor	-3076
▁mob	-3077
uing	-3078
hib	-3079
▁Jack	-3080
▁chief	-3081
▁provided	-3082
▁assist	-3083
▁Texas	-3084
▁Chinese	-3085
▁writing	-3086
ha	-3087
▁path	-3088
coin	-3089
▁Ser	-3090
▁blood	-3091
▁Rich	-3092
13	-3093
mp	-3094
▁occur	-3095
▁continued	-3096
ago	-3097
▁demonst	-3098
▁William	-3099
▁education	-3100
eth	-3101
▁thinking	-3102
▁camer	-3103
▁fix	-3104
▁died	-3105
urt	-3106
16	-3107
▁multiple	-3108
-0	-3109
4,	-3110
▁purp	-3111
▁League	-3112
▁wouldn	-3113
▁culture	-3114
▁Apple	-3115
▁implement	-3116
▁purch	-3117
▁spot	-3118
ban	-3119
arian	-3120
▁calls	-3121
.8	-3122
▁write	-3123
mit	-3124
▁mill	-3125
▁efforts	-3126
▁ready	-3127
▁maintain	-3128
▁request	-3129
zz	-3130
▁platform	-3131
inary	-3132
▁file	-3133
▁(@	-3134
▁hous	-3135
▁standard	-3136
▁alone	-3137
▁although	-3138
▁usually	-3139
▁cele	-3140
US	-3141
▁Get	-3142
▁football	-3143
▁speech	-3144
▁beyond	-3145
ables	-3146
FL	-3147
omp	-3148
▁perhaps	-3149
▁reading	-3150
▁reality	-3151
▁scene	-3152
▁damage	-3153
▁http	-3154
▁Dis	-3155
▁kids	-3156
fort	-3157
▁avoid	-3158
▁Over	-3159
▁student	-3160
▁Indian	-3161
aly	-3162
egr	-3163
▁Democrats	-3164
▁Bo	-3165
using	-3166
▁select	-3167
▁increased	-3168
▁directly	-3169
oul	-3170
▁challeng	-3171
▁towards	-3172
▁item	-3173
▁consist	-3174
iles	-3175
ara	-3176
oper	-3177
▁Bel	-3178
ications	-3179
▁includes	-3180
▁rob	-3181
▁Well	-3182
ford	-3183
rowd	-3184
▁Rober	-3185
▁22	-3186
hest	-3187
▁additional	-3188
▁guys	-3189
▁center	-3190
itute	-3191
▁couldn	-3192
▁Mart	-3193
▁wife	-3194
▁Comp	-3195
▁effects	-3196
▁epis	-3197
▁clos	-3198
▁23	-3199
▁unf	-3200
▁ahead	-3201
▁choice	-3202
▁Minister	-3203
▁Add	-3204
inated	-3205
▁throughout	-3206
▁immediately	-3207
▁piece	-3208
▁Super	-3209
▁debate	-3210
▁researc	-3211
▁recomm	-3212
▁corpor	-3213
▁safety	-3214
ston	-3215
▁il	-3216
▁thousands	-3217
▁tro	-3218
▁figure	-3219
9.	-3220
▁ver	-3221
aches	-3222
▁remember	-3223
▁subst	-3224
▁complex	-3225
▁cast	-3226
▁sle	-3227
▁Day	-3228
▁software	-3229
▁designed	-3230
ilies	-3231
▁Our	-3232
▁blog	-3233
▁Associ	-3234
17	-3235
▁French	-3236
▁agency	-3237
▁ten	-3238
▁letter	-3239
astic	-3240
▁Like	-3241
▁toward	-3242
▁concept	-3243
▁Cr	-3244
rupt	-3245
▁counter	-3246
▁gone	-3247
ports	-3248
▁opin	-3249
irth	-3250
aph	-3251
▁prec	-3252
isis	-3253
▁Serv	-3254
▁swe	-3255
▁officer	-3256
omen	-3257
▁receive	-3258
▁launch	-3259
▁moved	-3260
▁Green	-3261
--------	-3262
itor	-3263
▁suspect	-3264
▁twe	-3265
iment	-3266
▁sell	-3267
wise	-3268
▁disapp	-3269
▁appears	-3270
airs	-3271
▁alleged	-3272
▁reasons	-3273
▁ut	-3274
▁clean	-3275
▁pressure	-3276
▁stage	-3277
▁Sci	-3278
▁passed	-3279
ampions	-3280
▁dark	-3281
▁meaning	-3282
▁Val	-3283
bur	-3284
adem	-3285
▁rock	-3286
Ph	-3287
▁touch	-3288
▁II	-3289
aughter	-3290
▁moving	-3291
icient	-3292
▁park	-3293
olute	-3294
▁helped	-3295
yan	-3296
▁relative	-3297
▁sil	-3298
▁brain	-3299
▁option	-3300
▁date	-3301
▁budget	-3302
BI	-3303
ression	-3304
▁Advertisement	-3305
▁Wind	-3306
▁device	-3307
agon	-3308
▁drive	-3309
▁dog	-3310
▁Although	-3311
▁score	-3312
itness	-3313
▁tour	-3314
▁Tor	-3315
▁encour	-3316
atever	-3317
▁English	-3318
▁Syria	-3319
▁property	-3320
▁failed	-3321
iny	-3322
▁ign	-3323
itation	-3324
▁organization	-3325
ocked	-3326
▁nom	-3327
▁candidate	-3328
▁sat	-3329
▁fan	-3330
imum	-3331
▁myself	-3332
sp	-3333
▁Ham	-3334
▁maybe	-3335
urning	-3336
rief	-3337
▁Ben	-3338
▁happy	-3339
▁battle	-3340
▁college	-3341
▁beginning	-3342
▁Star	-3343
▁x	-3344
▁deg	-3345
add	-3346
just	-3347
wood	-3348
men	-3349
▁command	-3350
▁difference	-3351
▁characters	-3352
▁computer	-3353
roy	-3354
▁contribut	-3355
▁Air	-3356
▁band	-3357
▁Tom	-3358
▁Because	-3359
▁copy	-3360
berg	-3361
▁title	-3362
▁conditions	-3363
▁wall	-3364
▁presidential	-3365
▁spending	-3366
ufact	-3367
more	-3368
▁league	-3369
new	-3370
▁estim	-3371
▁schools	-3372
▁60	-3373
▁compared	-3374
venue	-3375
▁nuclear	-3376
▁necessary	-3377
▁yes	-3378
▁nature	-3379
▁sche	-3380
ivity	-3381
▁trust	-3382
▁Australia	-3383
▁disp	-3384
▁La	-3385
igration	-3386
chan	-3387
▁High	-3388
▁Govern	-3389
▁powerful	-3390
▁century	-3391
aling	-3392
▁positive	-3393
▁note	-3394
▁aim	-3395
▁citizens	-3396
▁conference	-3397
lease	-3398
?"	-3399
▁Mex	-3400
▁shown	-3401
▁bal	-3402
▁forced	-3403
▁eyes	-3404
▁arch	-3405
▁largest	-3406
▁analysis	-3407
▁cat	-3408
▁stra	-3409
▁limited	-3410
▁throw	-3411
▁Cap	-3412
ext	-3413
▁religious	-3414
▁feature	-3415
ource	-3416
▁During	-3417
▁aware	-3418
ube	-3419
▁autom	-3420
▁books	-3421
▁illeg	-3422
enty	-3423
▁Reg	-3424
▁refer	-3425
▁meant	-3426
▁George	-3427
aint	-3428
▁families	-3429
▁confir	-3430
▁grad	-3431
▁sal	-3432
AM	-3433
orney	-3434
▁eventually	-3435
band	-3436
▁executive	-3437
They	-3438
▁signed	-3439
▁easily	-3440
▁Def	-3441
▁mix	-3442
▁income	-3443
▁Ant	-3444
▁followed	-3445
▁crowd	-3446
iable	-3447
▁cool	-3448
▁People	-3449
▁yourself	-3450
▁Bre	-3451
▁2011	-3452
▁Smith	-3453
▁Jer	-3454
▁Tod	-3455
▁196	-3456
▁Germany	-3457
▁senior	-3458
ressed	-3459
▁physical	-3460
▁EU	-3461
▁esc	-3462
▁School	-3463
board	-3464
▁smart	-3465
▁Rob	-3466
▁feed	-3467
▁Image	-3468
▁Angel	-3469
orks	-3470
▁International	-3471
▁detail	-3472
ero	-3473
rated	-3474
▁draft	-3475
▁pus	-3476
▁£	-3477
bum	-3478
▁appeared	-3479
8.	-3480
▁susp	-3481
ken	-3482
cul	-3483
▁Brown	-3484
iring	-3485
▁firm	-3486
▁decades	-3487
▁politics	-3488
▁actions	-3489
OT	-3490
▁overall	-3491
▁allows	-3492
craft	-3493
ares	-3494
▁gives	-3495
etro	-3496
▁promot	-3497
uty	-3498
▁streng	-3499
▁analy	-3500
▁central	-3501
▁Christian	-3502
encies	-3503
aud	-3504
▁benefits	-3505
▁treatment	-3506
▁Flor	-3507
lements	-3508
▁beaut	-3509
▁crime	-3510
▁Bu	-3511
▁goals	-3512
▁lif	-3513
▁har	-3514
▁uses	-3515
▁frequ	-3516
riage	-3517
▁ideas	-3518
▁sales	-3519
▁weapons	-3520
▁Oh	-3521
▁noted	-3522
▁conflic	-3523
▁mist	-3524
▁Ber	-3525
▁crisis	-3526
▁nice	-3527
▁Us	-3528
1]	-3529
▁continues	-3530
▁ang	-3531
▁Earth	-3532
▁altern	-3533
▁challenge	-3534
▁General	-3535
EC	-3536
resh	-3537
▁Gold	-3538
▁Art	-3539
box	-3540
▁display	-3541
▁dise	-3542
▁•	-3543
urance	-3544
▁customers	-3545
▁projects	-3546
▁apparent	-3547
▁Union	-3548
▁drop	-3549
▁Mac	-3550
▁Arab	-3551
▁unique	-3552
▁Franc	-3553
▁27	-3554
oti	-3555
▁Scott	-3556
▁credit	-3557
-3	-3558
▁psych	-3559
▁Trans	-3560
▁manager	-3561
▁reform	-3562
▁successful	-3563
▁Two	-3564
▁larger	-3565
▁resources	-3566
▁rates	-3567
▁related	-3568
▁Council	-3569
oes	-3570
dd	-3571
▁expand	-3572
AP	-3573
▁developed	-3574
▁truth	-3575
▁emb	-3576
change	-3577
▁measure	-3578
iance	-3579
▁Mo	-3580
▁peace	-3581
▁intelligence	-3582
▁door	-3583
itely	-3584
onents	-3585
IA	-3586
▁incident	-3587
▁Another	-3588
▁clearly	-3589
▁previously	-3590
▁>	-3591
EL	-3592
▁sto	-3593
▁highly	-3594
ville	-3595
yl	-3596
▁Follow	-3597
▁individuals	-3598
▁rap	-3599
▁Your	-3600
ounds	-3601
▁advant	-3602
▁primary	-3603
ram	-3604
▁charge	-3605
pre	-3606
▁predict	-3607
▁lic	-3608
▁Internet	-3609
▁save	-3610
part	-3611
▁reached	-3612
▁Alex	-3613
▁web	-3614
nown	-3615
▁correct	-3616
▁prem	-3617
▁Law	-3618
▁color	-3619
▁manufact	-3620
▁fully	-3621
orter	-3622
▁programs	-3623
▁favorite	-3624
▁criminal	-3625
▁spread	-3626
▁straight	-3627
▁rule	-3628
owers	-3629
ET	-3630
25	-3631
▁brother	-3632
while	-3633
▁lines	-3634
▁indic	-3635
erved	-3636
iders	-3637
▁seemed	-3638
sey	-3639
▁Stud	-3640
▁rare	-3641
▁Matt	-3642
▁laun	-3643
▁shooting	-3644
19	-3645
▁Also	-3646
ki	-3647
bon	-3648
secut	-3649
▁Yes	-3650
▁organiz	-3651
▁England	-3652
▁spend	-3653
mar	-3654
▁kept	-3655
▁traff	-3656
antly	-3657
As	-3658
ategy	-3659
▁minor	-3660
▁attract	-3661
ID	-3662
▁places	-3663
▁Mag	-3664
▁determin	-3665
.9	-3666
▁rise	-3667
▁greater	-3668
▁feet	-3669
▁Chic	-3670
▁knows	-3671
ingly	-3672
▁origin	-3673
▁liter	-3674
▁status	-3675
EO	-3676
osh	-3677
wide	-3678
▁pun	-3679
▁prices	-3680
▁send	-3681
▁26	-3682
ota	-3683
▁Hillary	-3684
▁ended	-3685
iced	-3686
▁arm	-3687
▁knowledge	-3688
▁activity	-3689
▁integr	-3690
▁sources	-3691
OM	-3692
▁spir	-3693
▁Florida	-3694
net	-3695
icit	-3696
term	-3697
▁fine	-3698
▁owners	-3699
ifying	-3700
▁names	-3701
▁emot	-3702
▁regular	-3703
ocks	-3704
onent	-3705
▁AP	-3706
▁claimed	-3707
▁Sam	-3708
▁researchers	-3709
▁happens	-3710
lick	-3711
▁Pre	-3712
levision	-3713
iled	-3714
▁options	-3715
▁calling	-3716
▁voice	-3717
olic	-3718
usion	-3719
▁Op	-3720
▁cities	-3721
dom	-3722
▁uns	-3723
roll	-3724
▁caused	-3725
▁Mod	-3726
ength	-3727
▁normal	-3728
oles	-3729
▁employees	-3730
▁Port	-3731
▁studies	-3732
▁fighting	-3733
▁trou	-3734
▁reflect	-3735
ado	-3736
”,	-3737
▁shut	-3738
):	-3739
uana	-3740
▁album	-3741
aith	-3742
que	-3743
▁Bay	-3744
▁Phil	-3745
2]	-3746
uman	-3747
▁minister	-3748
▁station	-3749
▁Chicago	-3750
▁jump	-3751
iverse	-3752
▁print	-3753
▁creating	-3754
▁policies	-3755
▁virt	-3756
▁adding	-3757
▁concerns	-3758
▁authorities	-3759
▁pros	-3760
▁charges	-3761
▁Sun	-3762
▁hospital	-3763
▁plant	-3764
▁raised	-3765
inger	-3766
▁female	-3767
▁basic	-3768
▁absolute	-3769
▁freedom	-3770
▁Bit	-3771
▁agreement	-3772
▁traditional	-3773
ona	-3774
▁haven	-3775
▁leaving	-3776
▁funding	-3777
rs	-3778
.’	-3779
▁commer	-3780
ica	-3781
ribution	-3782
gen	-3783
▁birth	-3784
▁supposed	-3785
rol	-3786
▁grand	-3787
▁slight	-3788
▁scen	-3789
▁France	-3790
▁acqu	-3791
▁beat	-3792
roid	-3793
▁weekend	-3794
▁lik	-3795
▁rank	-3796
ijuana	-3797
▁Micro	-3798
▁Instead	-3799
arliam	-3800
▁posted	-3801
▁seeing	-3802
▁Sl	-3803
▁offered	-3804
▁revealed	-3805
▁enem	-3806
▁wait	-3807
▁ensure	-3808
▁cry	-3809
▁eth	-3810
▁green	-3811
ya	-3812
▁Sub	-3813
▁Lou	-3814
▁Mike	-3815
see	-3816
▁Att	-3817
ipped	-3818
▁Step	-3819
▁eye	-3820
▁beg	-3821
rian	-3822
▁impl	-3823
vere	-3824
▁$3	-3825
▁Health	-3826
▁push	-3827
ocr	-3828
▁ir	-3829
▁gold	-3830
▁vac	-3831
▁actual	-3832
▁weight	-3833
▁patients	-3834
▁propos	-3835
▁mer	-3836
▁willing	-3837
▁mechan	-3838
▁Bush	-3839
▁application	-3840
▁style	-3841
▁Are	-3842
arliament	-3843
acing	-3844
miss	-3845
▁behavior	-3846
▁adop	-3847
soft	-3848
▁appl	-3849
18	-3850
▁Once	-3851
▁believed	-3852
earch	-3853
▁values	-3854
▁brief	-3855
alse	-3856
▁Press	-3857
ING	-3858
mark	-3859
▁devices	-3860
▁mostly	-3861
▁Wall	-3862
▁Secret	-3863
▁Mil	-3864
▁judge	-3865
▁commit	-3866
▁picture	-3867
500	-3868
igned	-3869
itude	-3870
▁choose	-3871
org	-3872
▁Johnson	-3873
▁qual	-3874
▁establ	-3875
▁street	-3876
But	-3877
ipp	-3878
▁install	-3879
▁Justice	-3880
▁learned	-3881
.'	-3882
▁cars	-3883
▁enforce	-3884
▁whom	-3885
▁adult	-3886
▁strategy	-3887
▁Del	-3888
▁Liber	-3889
▁Mal	-3890
▁Rel	-3891
▁wild	-3892
ented	-3893
▁assault	-3894
▁bab	-3895
▁Pri	-3896
▁mount	-3897
SA	-3898
▁28	-3899
▁asking	-3900
▁arrested	-3901
▁negoti	-3902
Ch	-3903
▁Under	-3904
▁teac	-3905
▁parties	-3906
▁massive	-3907
▁Ter	-3908
▁feeling	-3909
▁records	-3910
▁operations	-3911
▁lawy	-3912
▁lose	-3913
ront	-3914
pri	-3915
istry	-3916
▁produced	-3917
cher	-3918
▁drink	-3919
▁Palest	-3920
▁Mad	-3921
▁confirmed	-3922
▁border	-3923
▁images	-3924
▁mission	-3925
▁wat	-3926
▁wonder	-3927
inn	-3928
▁influence	-3929
▁debt	-3930
▁cru	-3931
▁critical	-3932
rows	-3933
▁showing	-3934
▁Security	-3935
3]	-3936
▁residents	-3937
▁Committee	-3938
▁dire	-3939
▁opposition	-3940
▁fat	-3941
▁runs	-3942
▁Sanders	-3943
RE	-3944
▁temper	-3945
▁whatever	-3946
▁highest	-3947
ae	-3948
▁tick	-3949
point	-3950
orial	-3951
▁advoc	-3952
▁celebr	-3953
▁Photo	-3954
ugg	-3955
rav	-3956
▁provides	-3957
▁tend	-3958
▁Western	-3959
▁Big	-3960
ste	-3961
▁enter	-3962
ection	-3963
▁Those	-3964
▁dream	-3965
▁Inc	-3966
aked	-3967
AD	-3968
▁Korea	-3969
▁Found	-3970
▁district	-3971
▁unc	-3972
▁Ev	-3973
▁produce	-3974
abor	-3975
▁Windows	-3976
70	-3977
▁interested	-3978
▁Francis	-3979
estic	-3980
▁digital	-3981
▁Great	-3982
▁Commission	-3983
icians	-3984
ties	-3985
▁learning	-3986
▁core	-3987
▁benefit	-3988
▁Chris	-3989
▁investment	-3990
▁etc	-3991
▁defe	-3992
▁daily	-3993
▁brand	-3994
▁2,	-3995
icial	-3996
▁worse	-3997
45	-3998
▁mur	-3999
▁photo	-4000
▁NFL	-4001
▁solution	-4002
▁coal	-4003
▁marriage	-4004
ograph	-4005
▁train	-4006
▁section	-4007
▁protest	-4008
▁chem	-4009
▁replace	-4010
www	-4011
amb	-4012
▁independent	-4013
▁defend	-4014
▁dollars	-4015
▁fit	-4016
▁vill	-4017
no	-4018
▁hero	-4019
▁chair	-4020
▁opening	-4021
▁Any	-4022
ords	-4023
▁occas	-4024
▁millions	-4025
mine	-4026
IL	-4027
▁effective	-4028
▁offers	-4029
▁responsible	-4030
▁Dist	-4031
cell	-4032
What	-4033
▁See	-4034
▁Game	-4035
ription	-4036
4]	-4037
▁Cup	-4038
ags	-4039
hicle	-4040
▁join	-4041
▁Uk	-4042
gency	-4043
That	-4044
▁pattern	-4045
▁proposed	-4046
▁onto	-4047
▁explained	-4048
▁types	-4049
▁memory	-4050
▁announce	-4051
▁becomes	-4052
▁Tre	-4053
▁restrict	-4054
▁heavy	-4055
▁trial	-4056
▁controvers	-4057
▁hundreds	-4058
illing	-4059
aks	-4060
▁agreed	-4061
▁reject	-4062
▁Cle	-4063
uries	-4064
▁basis	-4065
▁Commun	-4066
▁theory	-4067
▁Office	-4068
▁male	-4069
▁Ty	-4070
rial	-4071
▁Vir	-4072
oly	-4073
ipe	-4074
coming	-4075
▁kick	-4076
▁accused	-4077
iation	-4078
BA	-4079
azing	-4080
▁Jud	-4081
▁advantage	-4082
orthern	-4083
▁Both	-4084
▁opened	-4085
▁Islamic	-4086
▁television	-4087
▁legislation	-4088
vest	-4089
▁Today	-4090
▁Direct	-4091
▁partners	-4092
▁condition	-4093
OU	-4094
▁Prof	-4095
▁double	-4096
▁becoming	-4097
▁miles	-4098
well	-4099
▁camera	-4100
▁Jones	-4101
▁management	-4102
olf	-4103
▁achieve	-4104
icip	-4105
▁Despite	-4106
▁wealth	-4107
▁illegal	-4108
▁Fox	-4109
▁Robert	-4110
▁opinion	-4111
▁vs	-4112
▁electric	-4113
▁understanding	-4114
▁born	-4115
▁species	-4116
▁Canadian	-4117
▁serve	-4118
▁initial	-4119
▁sleep	-4120
▁surround	-4121
▁load	-4122
CC	-4123
▁ice	-4124
▁location	-4125
▁limit	-4126
ris	-4127
▁assum	-4128
▁winning	-4129
▁Hall	-4130
rate	-4131
/2	-4132
▁Thom	-4133
▁map	-4134
ander	-4135
▁easier	-4136
bert	-4137
▁generally	-4138
▁Out	-4139
▁obtain	-4140
▁documents	-4141
▁scientists	-4142
▁ship	-4143
▁Britain	-4144
▁80	-4145
▁amb	-4146
▁Wil	-4147
▁destroy	-4148
▁unlike	-4149
▁active	-4150
▁professional	-4151
BS	-4152
▁marijuana	-4153
▁2008	-4154
▁AM	-4155
▁strik	-4156
known	-4157
▁returned	-4158
odes	-4159
outhern	-4160
▁harm	-4161
mission	-4162
And	-4163
▁shared	-4164
oom	-4165
▁Israeli	-4166
▁served	-4167
▁Ac	-4168
▁UN	-4169
lands	-4170
atically	-4171
▁teach	-4172
▁solid	-4173
iful	-4174
▁neighbor	-4175
▁incred	-4176
▁notice	-4177
eline	-4178
▁belief	-4179
▁hearing	-4180
▁Mer	-4181
▁bomb	-4182
▁reduce	-4183
▁mobile	-4184
house	-4185
▁spl	-4186
▁der	-4187
▁existing	-4188
witch	-4189
ears	-4190
ference	-4191
90	-4192
▁negative	-4193
▁frame	-4194
▁department	-4195
▁resist	-4196
▁Los	-4197
▁Ver	-4198
▁victory	-4199
▁audience	-4200
▁episode	-4201
▁Please	-4202
▁watching	-4203
▁associated	-4204
▁internet	-4205
iller	-4206
▁Bank	-4207
▁THE	-4208
▁nine	-4209
▁purpose	-4210
lant	-4211
▁Tim	-4212
▁committee	-4213
▁extremely	-4214
▁Que	-4215
za	-4216
equ	-4217
▁machine	-4218
▁comfort	-4219
scrib	-4220
▁communities	-4221
▁instance	-4222
▁launched	-4223
▁supporters	-4224
▁FBI	-4225
▁bed	-4226
▁doubt	-4227
▁Institute	-4228
ortunately	-4229
▁coverage	-4230
▁fresh	-4231
ios	-4232
iliar	-4233
▁Ken	-4234
▁Church	-4235
▁notes	-4236
▁Bur	-4237
▁ran	-4238
▁Leg	-4239
▁putting	-4240
▁1.	-4241
▁Microsoft	-4242
▁90	-4243
▁thus	-4244
▁explain	-4245
▁ge	-4246
GB	-4247
▁contain	-4248
▁conservative	-4249
▁Ryan	-4250
5.	-4251
▁trend	-4252
istics	-4253
▁dangerous	-4254
▁decade	-4255
▁Yet	-4256
ih	-4257
▁argument	-4258
▁rat	-4259
▁church	-4260
▁victims	-4261
▁competition	-4262
▁Miss	-4263
asy	-4264
▁separate	-4265
resp	-4266
met	-4267
▁die	-4268
▁faith	-4269
▁bottom	-4270
▁Their	-4271
▁Sur	-4272
▁radio	-4273
▁Sil	-4274
________	-4275
acity	-4276
▁charged	-4277
ghan	-4278
ctors	-4279
▁leadership	-4280
cont	-4281
▁Carol	-4282
▁definitely	-4283
orrow	-4284
▁views	-4285
▁Jim	-4286
▁background	-4287
▁Jeff	-4288
▁cash	-4289
▁floor	-4290
▁Back	-4291
▁hus	-4292
▁vehicle	-4293
FC	-4294
ography	-4295
▁issued	-4296
how	-4297
▁sites	-4298
▁Inter	-4299
▁daughter	-4300
▁structure	-4301
▁stated	-4302
▁commercial	-4303
inate	-4304
anted	-4305
▁cards	-4306
▁discovered	-4307
▁spoke	-4308
zen	-4309
▁Gree	-4310
▁ded	-4311
going	-4312
bing	-4313
▁closed	-4314
gu	-4315
gers	-4316
ario	-4317
ribute	-4318
▁restaur	-4319
▁suggested	-4320
4.	-4321
▁Pak	-4322
inct	-4323
ada	-4324
▁purs	-4325
▁drugs	-4326
▁Frank	-4327
▁;	-4328
▁Who	-4329
▁worst	-4330
▁telling	-4331
vention	-4332
6]	-4333
ampionship	-4334
▁repeated	-4335
▁Char	-4336
▁Ukrain	-4337
works	-4338
▁north	-4339
▁smaller	-4340
▁Jo	-4341
▁businesses	-4342
▁traffic	-4343
▁concerned	-4344
▁driving	-4345
▁direction	-4346
la	-4347
which	-4348
▁task	-4349
▁false	-4350
▁gay	-4351
▁transfer	-4352
▁Good	-4353
▁hack	-4354
▁driver	-4355
▁exerc	-4356
▁Cur	-4357
ulf	-4358
▁refere	-4359
▁Richard	-4360
iest	-4361
oman	-4362
▁nor	-4363
PS	-4364
▁allowing	-4365
!”	-4366
▁sun	-4367
PA	-4368
▁annual	-4369
▁supported	-4370
▁Sup	-4371
▁stock	-4372
▁GOP	-4373
▁labor	-4374
▁plays	-4375
▁raise	-4376
▁items	-4377
▁Kh	-4378
▁older	-4379
▁novel	-4380
▁70	-4381
▁Fore	-4382
rey	-4383
▁candidates	-4384
andom	-4385
semb	-4386
▁disease	-4387
phone	-4388
▁PC	-4389
▁finding	-4390
ga	-4391
▁Met	-4392
▁Const	-4393
ulated	-4394
oyal	-4395
▁tools	-4396
ibrary	-4397
ait	-4398
▁max	-4399
▁sud	-4400
azon	-4401
▁aspect	-4402
▁react	-4403
▁activities	-4404
NN	-4405
▁compar	-4406
▁please	-4407
▁caught	-4408
ception	-4409
▁witness	-4410
icy	-4411
▁transport	-4412
▁blue	-4413
▁2009	-4414
▁concern	-4415
▁categ	-4416
▁murder	-4417
▁wel	-4418
▁Rock	-4419
▁largely	-4420
▁believes	-4421
▁insurance	-4422
ancy	-4423
▁animals	-4424
iling	-4425
izes	-4426
tered	-4427
arant	-4428
kins	-4429
▁Africa	-4430
ici	-4431
▁surface	-4432
▁accur	-4433
▁entirely	-4434
itable	-4435
▁consequ	-4436
▁generation	-4437
andon	-4438
▁testing	-4439
eal	-4440
ossible	-4441
▁Dec	-4442
▁Jewish	-4443
night	-4444
overy	-4445
▁Group	-4446
▁spokesman	-4447
▁holding	-4448
▁fuel	-4449
▁rough	-4450
▁requires	-4451
gl	-4452
▁farm	-4453
▁context	-4454
▁truly	-4455
anging	-4456
▁Nor	-4457
rad	-4458
▁joined	-4459
▁strateg	-4460
▁construction	-4461
▁refuge	-4462
olly	-4463
annel	-4464
▁Association	-4465
▁attend	-4466
▁catch	-4467
▁Sal	-4468
win	-4469
▁planning	-4470
▁decisions	-4471
▁tells	-4472
ius	-4473
cknow	-4474
▁justice	-4475
▁afford	-4476
▁Mont	-4477
▁Pakistan	-4478
▁CEO	-4479
▁phil	-4480
▁Palestin	-4481
NA	-4482
▁injury	-4483
pective	-4484
nel	-4485
▁waiting	-4486
▁Afghan	-4487
▁strength	-4488
▁length	-4489
▁African	-4490
hem	-4491
▁offensive	-4492
▁Rem	-4493
▁guess	-4494
▁Virgin	-4495
▁Louis	-4496
igrants	-4497
▁san	-4498
▁conflict	-4499
▁Joe	-4500
▁presence	-4501
7]	-4502
▁hasn	-4503
▁kid	-4504
▁29	-4505
▁placed	-4506
▁banks	-4507
osure	-4508
▁south	-4509
▁Fire	-4510
!!	-4511
but	-4512
▁introduced	-4513
▁Android	-4514
▁removed	-4515
▁Martin	-4516
udd	-4517
▁Fe	-4518
▁Pet	-4519
▁deliver	-4520
▁newsp	-4521
▁scale	-4522
▁Angeles	-4523
cript	-4524
▁obvious	-4525
▁establish	-4526
▁mentioned	-4527
▁missing	-4528
bour	-4529
▁cook	-4530
▁occup	-4531
▁tim	-4532
▁unit	-4533
ups	-4534
▁update	-4535
▁download	-4536
▁conversation	-4537
▁discussion	-4538
▁providing	-4539
bre	-4540
vant	-4541
▁enforcement	-4542
igan	-4543
▁sequ	-4544
rick	-4545
▁Japanese	-4546
▁Thomas	-4547
▁interests	-4548
oted	-4549
▁committed	-4550
season	-4551
ava	-4552
▁assess	-4553
▁Mexico	-4554
▁fourth	-4555
▁Jose	-4556
ocracy	-4557
▁recommend	-4558
▁initi	-4559
▁models	-4560
▁housing	-4561
OL	-4562
▁cancer	-4563
▁Government	-4564
▁2.	-4565
▁eat	-4566
▁managed	-4567
icles	-4568
▁hair	-4569
▁abuse	-4570
▁homes	-4571
▁focused	-4572
6.	-4573
3.	-4574
▁fant	-4575
isation	-4576
7.	-4577
ula	-4578
ady	-4579
azine	-4580
▁Jon	-4581
onto	-4582
▁Peter	-4583
▁figures	-4584
▁established	-4585
▁Time	-4586
▁stopped	-4587
▁tough	-4588
▁measures	-4589
icon	-4590
▁click	-4591
ading	-4592
▁cells	-4593
inter	-4594
▁Research	-4595
owl	-4596
EM	-4597
▁transl	-4598
▁identified	-4599
▁setting	-4600
▁Supreme	-4601
▁exchange	-4602
▁veter	-4603
▁operation	-4604
▁girls	-4605
kin	-4606
cient	-4607
▁sports	-4608
onym	-4609
▁tweet	-4610
▁keeping	-4611
▁Bern	-4612
▁acknow	-4613
▁35	-4614
▁files	-4615
▁ST	-4616
▁skills	-4617
▁feels	-4618
▁appropri	-4619
8]	-4620
ulate	-4621
▁useful	-4622
outs	-4623
apped	-4624
real	-4625
itz	-4626
umn	-4627
▁taxes	-4628
▁stick	-4629
▁partner	-4630
▁Web	-4631
▁Army	-4632
anda	-4633
what	-4634
formation	-4635
▁conclud	-4636
▁husband	-4637
▁exclus	-4638
▁finished	-4639
▁earth	-4640
▁connection	-4641
gar	-4642
▁Public	-4643
▁Mary	-4644
▁prefer	-4645
hi	-4646
cks	-4647
▁MP	-4648
▁corner	-4649
oms	-4650
Don	-4651
ano	-4652
▁Den	-4653
▁2000	-4654
▁arrived	-4655
rd	-4656
▁bul	-4657
▁Put	-4658
-4	-4659
▁steps	-4660
▁survey	-4661
▁relatively	-4662
▁Lu	-4663
makers	-4664
place	-4665
▁otherwise	-4666
▁owner	-4667
▁suggests	-4668
spe	-4669
▁circum	-4670
▁funds	-4671
▁elements	-4672
▁organizations	-4673
▁gender	-4674
ocal	-4675
prof	-4676
▁speaking	-4677
ucky	-4678
▁slightly	-4679
wing	-4680
itutional	-4681
▁trip	-4682
▁sust	-4683
enses	-4684
▁https	-4685
▁detect	-4686
lig	-4687
uct	-4688
verse	-4689
▁spirit	-4690
▁regist	-4691
▁Prime	-4692
▁fle	-4693
▁therefore	-4694
agn	-4695
hedul	-4696
icide	-4697
▁killing	-4698
▁roll	-4699
▁weak	-4700
▁defensive	-4701
ania	-4702
▁photos	-4703
SP	-4704
▁gain	-4705
▁planned	-4706
▁sides	-4707
vis	-4708
▁strike	-4709
▁identity	-4710
▁aggress	-4711
AA	-4712
▁familiar	-4713
fe	-4714
▁Bitcoin	-4715
ighter	-4716
▁commission	-4717
eah	-4718
▁immigration	-4719
.[2	-4720
gypt	-4721
▁dat	-4722
▁struct	-4723
ronic	-4724
▁Syrian	-4725
▁thanks	-4726
▁planet	-4727
:00	-4728
▁supply	-4729
▁Team	-4730
▁32	-4731
lor	-4732
▁guard	-4733
▁Atlant	-4734
▁Sol	-4735
▁pet	-4736
stream	-4737
▁amazing	-4738
▁spect	-4739
ils	-4740
▁failure	-4741
▁beer	-4742
▁Mean	-4743
▁(3	-4744
▁sudden	-4745
rency	-4746
▁army	-4747
▁hate	-4748
uate	-4749
▁mere	-4750
uters	-4751
mas	-4752
▁helping	-4753
▁Amazon	-4754
▁bigger	-4755
adium	-4756
▁depend	-4757
ka	-4758
agues	-4759
▁protection	-4760
isf	-4761
hens	-4762
▁talks	-4763
▁none	-4764
ancing	-4765
▁Media	-4766
▁starts	-4767
▁seconds	-4768
▁collection	-4769
▁College	-4770
▁crew	-4771
▁award	-4772
▁remind	-4773
▁tack	-4774
▁happening	-4775
▁standing	-4776
▁filed	-4777
odies	-4778
rees	-4779
▁standards	-4780
idering	-4781
▁revolution	-4782
9]	-4783
▁appoint	-4784
▁Secretary	-4785
▁Plan	-4786
▁mental	-4787
upp	-4788
▁honest	-4789
▁micro	-4790
ST	-4791
▁sch	-4792
▁Jes	-4793
▁Camp	-4794
▁window	-4795
▁Mos	-4796
oston	-4797
▁cuts	-4798
▁territ	-4799
▁wish	-4800
▁environmental	-4801
rig	-4802
▁(19	-4803
▁union	-4804
▁Social	-4805
▁markets	-4806
When	-4807
▁Bet	-4808
▁Toronto	-4809
▁carried	-4810
▁tests	-4811
▁decide	-4812
▁batter	-4813
▁multi	-4814
▁academ	-4815
TC	-4816
▁paying	-4817
▁Bob	-4818
arsh	-4819
▁Ari	-4820
eless	-4821
▁variety	-4822
▁script	-4823
▁impossible	-4824
HL	-4825
▁turns	-4826
▁Service	-4827
ynam	-4828
▁balance	-4829
▁scientific	-4830
RA	-4831
awn	-4832
▁vul	-4833
ipping	-4834
amm	-4835
▁Foundation	-4836
▁worry	-4837
imal	-4838
▁server	-4839
▁Rub	-4840
▁interact	-4841
▁Prot	-4842
▁professor	-4843
iot	-4844
▁appre	-4845
iser	-4846
▁degree	-4847
▁Mur	-4848
▁Egypt	-4849
▁Central	-4850
▁dropped	-4851
DA	-4852
gn	-4853
▁domestic	-4854
pm	-4855
▁que	-4856
▁increasingly	-4857
arks	-4858
▁philos	-4859
▁pair	-4860
▁Steve	-4861
rastructure	-4862
icted	-4863
▁losing	-4864
▁rich	-4865
Is	-4866
ola	-4867
▁twice	-4868
▁Federal	-4869
▁changing	-4870
▁Dan	-4871
▁cold	-4872
▁votes	-4873
▁Open	-4874
mitted	-4875
do	-4876
▁operating	-4877
▁apparently	-4878
aded	-4879
▁accounts	-4880
▁Before	-4881
▁developers	-4882
▁colle	-4883
roud	-4884
▁fellow	-4885
▁ultimately	-4886
▁expensive	-4887
ruit	-4888
▁neighborhood	-4889
▁possibly	-4890
erous	-4891
▁Whe	-4892
▁schedul	-4893
ansion	-4894
▁closer	-4895
aren	-4896
▁beautiful	-4897
▁alternative	-4898
▁agencies	-4899
ores	-4900
▁authority	-4901
range	-4902
▁IN	-4903
▁ath	-4904
run	-4905
▁Chief	-4906
▁univers	-4907
▁innov	-4908
itect	-4909
▁Mel	-4910
▁Images	-4911
hicles	-4912
▁absolutely	-4913
aven	-4914
▁lived	-4915
▁Sign	-4916
▁Cru	-4917
▁apart	-4918
▁possibility	-4919
▁District	-4920
▁seeking	-4921
▁corporate	-4922
ashed	-4923
5]	-4924
ocol	-4925
▁princ	-4926
▁sea	-4927
▁Free	-4928
▁194	-4929
▁RE	-4930
▁healthy	-4931
cious	-4932
▁deploy	-4933
illa	-4934
▁Boston	-4935
with	-4936
▁yards	-4937
▁AN	-4938
▁Conserv	-4939
▁Top	-4940
▁heat	-4941
stein	-4942
▁vir	-4943
▁soldiers	-4944
▁humans	-4945
Re	-4946
▁developing	-4947
▁Watch	-4948
▁Though	-4949
▁vast	-4950
▁Carolina	-4951
▁Ve	-4952
▁religion	-4953
▁sounds	-4954
▁applications	-4955
▁teen	-4956
apers	-4957
▁Second	-4958
▁equip	-4959
▁USA	-4960
▁animal	-4961
▁imagine	-4962
▁pit	-4963
▁Sing	-4964
state	-4965
▁Lat	-4966
▁skin	-4967
▁Lee	-4968
——	-4969
ias	-4970
acks	-4971
▁covered	-4972
aine	-4973
▁fol	-4974
▁vision	-4975
▁sitting	-4976
▁solar	-4977
related	-4978
sen	-4979
▁capacity	-4980
▁Sant	-4981
atures	-4982
▁apply	-4983
▁Mass	-4984
isted	-4985
▁Mem	-4986
▁Spr	-4987
▁elections	-4988
▁Williams	-4989
▁attorney	-4990
coh	-4991
▁adjust	-4992
▁Journal	-4993
!"	-4994
▁Ro	-4995
▁Middle	-4996
▁rid	-4997
▁regarding	-4998
▁elim	-4999
▁units	-5000
No	-5001
▁tast	-5002
▁writer	-5003
▁tight	-5004
▁surprise	-5005
▁lob	-5006
▁Francisco	-5007
▁forms	-5008
▁guarant	-5009
▁Book	-5010
▁responsibility	-5011
▁odd	-5012
pire	-5013
▁experts	-5014
▁internal	-5015
▁Gal	-5016
▁mut	-5017
ologies	-5018
▁Still	-5019
▁sport	-5020
▁helps	-5021
▁gar	-5022
▁university	-5023
look	-5024
▁flight	-5025
▁pil	-5026
▁Charl	-5027
oving	-5028
▁Virginia	-5029
▁unless	-5030
▁streets	-5031
▁Australian	-5032
▁convention	-5033
▁Only	-5034
▁estimated	-5035
▁earn	-5036
anche	-5037
▁fired	-5038
▁Color	-5039
person	-5040
osen	-5041
enced	-5042
▁error	-5043
▁trail	-5044
▁instit	-5045
▁clim	-5046
▁3.	-5047
▁Hist	-5048
▁Guard	-5049
▁Saud	-5050
▁presented	-5051
▁ton	-5052
▁famous	-5053
▁prepared	-5054
▁stars	-5055
▁195	-5056
▁symb	-5057
pay	-5058
▁About	-5059
▁proposal	-5060
▁sector	-5061
terday	-5062
▁intended	-5063
idden	-5064
▁Cath	-5065
▁Medic	-5066
▁Each	-5067
▁3,	-5068
▁Ms	-5069
▁vehicles	-5070
▁boost	-5071
▁bringing	-5072
▁broken	-5073
pret	-5074
lets	-5075
Americ	-5076
xual	-5077
uster	-5078
****	-5079
under	-5080
▁arms	-5081
cel	-5082
▁determine	-5083
ortion	-5084
hand	-5085
▁Show	-5086
rible	-5087
▁plenty	-5088
▁carbon	-5089
▁baby	-5090
▁jail	-5091
▁Power	-5092
▁faster	-5093
▁flow	-5094
▁council	-5095
▁located	-5096
▁potentially	-5097
uration	-5098
▁broke	-5099
▁consult	-5100
▁dram	-5101
▁offering	-5102
▁troops	-5103
▁selling	-5104
▁nar	-5105
orage	-5106
▁PM	-5107
▁expert	-5108
▁secure	-5109
▁elected	-5110
▁prosecut	-5111
▁Paris	-5112
▁fif	-5113
▁voted	-5114
▁Rad	-5115
▁Andrew	-5116
ressive	-5117
▁infrastructure	-5118
▁occurred	-5119
====	-5120
▁NAS	-5121
rie	-5122
noon	-5123
▁vulner	-5124
▁pieces	-5125
DP	-5126
▁rapid	-5127
▁2015,	-5128
▁prime	-5129
▁prove	-5130
och	-5131
useum	-5132
▁trig	-5133
alls	-5134
eder	-5135
porary	-5136
▁refused	-5137
phas	-5138
▁era	-5139
▁45	-5140
▁voting	-5141
ureau	-5142
endment	-5143
▁din	-5144
For	-5145
▁clot	-5146
▁stress	-5147
cean	-5148
▁Space	-5149
▁Work	-5150
▁conducted	-5151
isher	-5152
▁retail	-5153
▁River	-5154
▁specifically	-5155
vey	-5156
▁challenges	-5157
mes	-5158
oty	-5159
▁heav	-5160
▁Project	-5161
▁Where	-5162
▁Meanwhile	-5163
IV	-5164
▁positions	-5165
icate	-5166
▁random	-5167
▁pointed	-5168
▁equipment	-5169
▁seasons	-5170
▁Nov	-5171
▁stret	-5172
▁conclus	-5173
▁originally	-5174
▁clin	-5175
▁ruling	-5176
▁shall	-5177
yr	-5178
ean	-5179
▁Sum	-5180
▁factors	-5181
ader	-5182
▁thr	-5183
eds	-5184
▁revenue	-5185
▁governments	-5186
▁expressed	-5187
▁equal	-5188
▁percentage	-5189
▁Hol	-5190
▁remained	-5191
▁//	-5192
▁remove	-5193
▁sale	-5194
▁combat	-5195
00,000	-5196
▁Island	-5197
▁breat	-5198
▁involve	-5199
▁chemical	-5200
▁Jackson	-5201
▁Daily	-5202
olved	-5203
▁criticism	-5204
IP	-5205
▁cultural	-5206
▁weapon	-5207
▁weren	-5208
CH	-5209
▁tourn	-5210
ss	-5211
▁facing	-5212
▁Av	-5213
▁bought	-5214
▁Labour	-5215
▁methods	-5216
▁Maybe	-5217
▁Haw	-5218
pired	-5219
▁Human	-5220
▁Force	-5221
▁hyp	-5222
,'	-5223
▁2014,	-5224
▁signs	-5225
standing	-5226
▁Hy	-5227
▁wood	-5228
onom	-5229
road	-5230
ey	-5231
▁Pac	-5232
▁politicians	-5233
▁marg	-5234
▁Tra	-5235
▁finish	-5236
ENT	-5237
▁master	-5238
▁Turkey	-5239
▁pulled	-5240
▁Ok	-5241
lymp	-5242
▁youth	-5243
ini	-5244
▁tele	-5245
mail	-5246
▁experienced	-5247
IM	-5248
war	-5249
▁greatest	-5250
▁$5	-5251
▁$4	-5252
▁thank	-5253
▁Supp	-5254
▁obviously	-5255
▁Phot	-5256
▁BBC	-5257
olit	-5258
▁hurt	-5259
▁afternoon	-5260
▁films	-5261
▁remaining	-5262
ashion	-5263
▁Ma	-5264
▁Road	-5265
▁cas	-5266
ION	-5267
▁hun	-5268
▁purchase	-5269
▁reduced	-5270
rog	-5271
▁handle	-5272
ht	-5273
▁identify	-5274
▁determined	-5275
▁herself	-5276
-20	-5277
rier	-5278
lyn	-5279
reens	-5280
▁argued	-5281
▁Rod	-5282
▁affected	-5283
▁significantly	-5284
ours	-5285
▁regime	-5286
▁recorded	-5287
()	-5288
▁indeed	-5289
▁appreci	-5290
▁appearance	-5291
▁rent	-5292
ocking	-5293
▁considering	-5294
etic	-5295
▁grew	-5296
▁leads	-5297
▁Lin	-5298
▁consumers	-5299
▁apps	-5300
▁plus	-5301
▁1990	-5302
▁prospect	-5303
ownt	-5304
▁shape	-5305
▁minimum	-5306
:30	-5307
▁subs	-5308
▁iPh	-5309
ighters	-5310
▁dismiss	-5311
ruption	-5312
▁Director	-5313
▁Develop	-5314
▁aircraft	-5315
▁Down	-5316
▁Dou	-5317
estival	-5318
▁surprising	-5319
▁excited	-5320
▁opportunities	-5321
▁depart	-5322
gment	-5323
arp	-5324
inating	-5325
▁tact	-5326
▁wearing	-5327
▁Sher	-5328
▁panel	-5329
▁spring	-5330
▁Olymp	-5331
life	-5332
ivered	-5333
▁talked	-5334
ller	-5335
▁mode	-5336
▁motiv	-5337
▁Somet	-5338
hered	-5339
mm	-5340
▁differences	-5341
apping	-5342
▁Wal	-5343
▁AT	-5344
▁shift	-5345
▁package	-5346
▁contrast	-5347
▁Look	-5348
▁seriously	-5349
▁explos	-5350
ensions	-5351
▁Ron	-5352
▁videos	-5353
essions	-5354
▁turning	-5355
▁agent	-5356
▁glass	-5357
raud	-5358
▁passing	-5359
/20	-5360
▁supporting	-5361
▁minute	-5362
▁opposed	-5363
▁struggle	-5364
▁construct	-5365
Sh	-5366
▁Penn	-5367
▁accident	-5368
▁belong	-5369
▁emergency	-5370
nell	-5371
▁Ohio	-5372
▁hopes	-5373
▁dim	-5374
▁concent	-5375
▁switch	-5376
cohol	-5377
▁Science	-5378
▁visual	-5379
top	-5380
gent	-5381
▁combined	-5382
plom	-5383
▁Vict	-5384
▁suit	-5385
▁Week	-5386
▁ends	-5387
▁Thank	-5388
OW	-5389
▁Kim	-5390
▁ast	-5391
▁2007	-5392
▁Fer	-5393
▁bound	-5394
▁Gen	-5395
▁suppl	-5396
▁seat	-5397
ogue	-5398
▁basically	-5399
▁Ol	-5400
uous	-5401
▁completed	-5402
▁evening	-5403
▁listen	-5404
▁privacy	-5405
▁zone	-5406
ucks	-5407
▁disappoint	-5408
▁experiment	-5409
▁aid	-5410
▁Squ	-5411
▁default	-5412
▁31	-5413
▁proced	-5414
▁observ	-5415
▁trouble	-5416
▁reportedly	-5417
▁reporters	-5418
UT	-5419
mond	-5420
▁collabor	-5421
▁plants	-5422
▁weather	-5423
uts	-5424
PD	-5425
▁writes	-5426
▁pages	-5427
="	-5428
▁treated	-5429
ato	-5430
▁powers	-5431
▁advance	-5432
▁calcul	-5433
▁Bus	-5434
▁ML	-5435
▁batt	-5436
▁copyright	-5437
▁Wood	-5438
▁diss	-5439
▁burn	-5440
▁upgr	-5441
▁factor	-5442
▁Ill	-5443
▁quiet	-5444
▁Its	-5445
32	-5446
▁Dani	-5447
▁frust	-5448
▁responded	-5449
▁denied	-5450
▁mal	-5451
oral	-5452
▁approved	-5453
▁hol	-5454
▁element	-5455
apter	-5456
osite	-5457
▁Life	-5458
sts	-5459
▁mand	-5460
▁optim	-5461
▁attempts	-5462
LE	-5463
▁tradition	-5464
▁pitch	-5465
▁entertain	-5466
ffee	-5467
▁renew	-5468
respond	-5469
▁mort	-5470
▁2013,	-5471
▁advert	-5472
▁widely	-5473
▁Techn	-5474
▁proceed	-5475
ket	-5476
▁tun	-5477
▁pictures	-5478
abilities	-5479
▁id	-5480
Tr	-5481
adow	-5482
asp	-5483
-5	-5484
▁lots	-5485
▁Thanks	-5486
▁sad	-5487
▁typically	-5488
▁sac	-5489
employ	-5490
ench	-5491
▁confidence	-5492
aints	-5493
▁cart	-5494
▁discl	-5495
▁grab	-5496
▁Grand	-5497
anged	-5498
▁liberal	-5499
lo	-5500
▁caption	-5501
▁Right	-5502
▁transition	-5503
class	-5504
oking	-5505
▁stands	-5506
▁matters	-5507
rawn	-5508
mosp	-5509
▁declined	-5510
75	-5511
▁System	-5512
lines	-5513
▁Seattle	-5514
▁capable	-5515
▁Scot	-5516
▁perspective	-5517
▁Braz	-5518
▁Saudi	-5519
▁Again	-5520
col	-5521
ran	-5522
My	-5523
▁AD	-5524
▁reaction	-5525
▁coord	-5526
▁proud	-5527
ributed	-5528
▁explo	-5529
▁shouldn	-5530
▁violent	-5531
▁Four	-5532
idel	-5533
▁guns	-5534
ompl	-5535
▁faces	-5536
▁institutions	-5537
pet	-5538
▁ment	-5539
that	-5540
▁CNN	-5541
▁bodies	-5542
▁distance	-5543
ita	-5544
elly	-5545
oken	-5546
li	-5547
pass	-5548
▁reference	-5549
▁delivered	-5550
▁(20	-5551
▁AC	-5552
▁crimes	-5553
▁creation	-5554
▁ordered	-5555
▁appeal	-5556
▁confident	-5557
▁instruct	-5558
▁coast	-5559
esters	-5560
▁Jul	-5561
ilty	-5562
▁loved	-5563
▁fly	-5564
care	-5565
▁quant	-5566
▁broadcast	-5567
▁declared	-5568
issions	-5569
▁messages	-5570
▁forget	-5571
▁sets	-5572
▁route	-5573
▁newspaper	-5574
▁Hou	-5575
▁emails	-5576
▁suffered	-5577
▁cloud	-5578
astern	-5579
▁Afghanistan	-5580
▁Vol	-5581
ache	-5582
▁Rev	-5583
zer	-5584
▁storm	-5585
▁gather	-5586
▁brows	-5587
IG	-5588
▁Romney	-5589
▁auth	-5590
aped	-5591
▁Carl	-5592
▁enemy	-5593
hab	-5594
abin	-5595
▁giant	-5596
▁explains	-5597
ym	-5598
urb	-5599
▁Upd	-5600
▁unable	-5601
35	-5602
▁prompt	-5603
22	-5604
rist	-5605
▁Ire	-5606
▁Best	-5607
▁circumst	-5608
isters	-5609
▁lit	-5610
rid	-5611
razy	-5612
▁ongoing	-5613
fere	-5614
▁approx	-5615
▁updates	-5616
▁satisf	-5617
▁advice	-5618
▁Muslims	-5619
unte	-5620
▁Note	-5621
▁delay	-5622
▁married	-5623
▁Prem	-5624
▁Michigan	-5625
can	-5626
▁2012,	-5627
▁Str	-5628
▁admitted	-5629
▁publicly	-5630
▁ID	-5631
ellow	-5632
0000	-5633
▁Far	-5634
gia	-5635
▁drivers	-5636
▁valid	-5637
▁rail	-5638
▁craft	-5639
▁graph	-5640
▁movies	-5641
free	-5642
▁injured	-5643
64	-5644
▁technical	-5645
obe	-5646
▁patient	-5647
▁editor	-5648
▁Walk	-5649
▁Gar	-5650
dule	-5651
▁numerous	-5652
▁confirm	-5653
Tube	-5654
▁prin	-5655
▁reporting	-5656
▁gra	-5657
enda	-5658
▁discrim	-5659
▁accompl	-5660
▁cann	-5661
▁appropriate	-5662
▁flag	-5663
▁excell	-5664
▁Long	-5665
▁connected	-5666
▁forg	-5667
▁Hen	-5668
▁Blue	-5669
▁readers	-5670
▁Stan	-5671
▁Christmas	-5672
▁pool	-5673
rum	-5674
▁agents	-5675
called	-5676
cos	-5677
ounded	-5678
oves	-5679
▁emphas	-5680
▁severe	-5681
ansas	-5682
▁allegations	-5683
abled	-5684
▁armed	-5685
▁activists	-5686
▁Cop	-5687
▁walking	-5688
ishes	-5689
▁fish	-5690
▁picked	-5691
▁GM	-5692
▁realize	-5693
▁bull	-5694
ulations	-5695
▁secretary	-5696
ampion	-5697
ternal	-5698
essor	-5699
▁experiences	-5700
▁thinks	-5701
▁Hel	-5702
enture	-5703
host	-5704
:0	-5705
▁Elect	-5706
▁pray	-5707
▁findings	-5708
▁Ukraine	-5709
▁thoughts	-5710
▁perman	-5711
▁edge	-5712
ooth	-5713
▁substant	-5714
angers	-5715
▁bond	-5716
▁lawyer	-5717
▁shop	-5718
▁session	-5719
▁architect	-5720
▁flo	-5721
▁cooper	-5722
▁label	-5723
tion	-5724
▁500	-5725
ourney	-5726
▁eval	-5727
▁statements	-5728
,’	-5729
▁missed	-5730
▁exercise	-5731
▁terrorist	-5732
mates	-5733
▁Dev	-5734
amental	-5735
▁leaves	-5736
,[	-5737
▁centre	-5738
▁debut	-5739
▁objects	-5740
uations	-5741
▁moral	-5742
▁1980	-5743
▁franch	-5744
unction	-5745
hew	-5746
▁argue	-5747
▁Exp	-5748
PR	-5749
ionally	-5750
orry	-5751
▁god	-5752
nergy	-5753
▁talent	-5754
▁buildings	-5755
▁crack	-5756
▁wear	-5757
24	-5758
▁client	-5759
▁tech	-5760
▁causes	-5761
▁Mount	-5762
▁ourselves	-5763
long	-5764
▁dial	-5765
▁governor	-5766
▁facts	-5767
▁practices	-5768
▁Columb	-5769
▁36	-5770
▁Three	-5771
▁datab	-5772
▁Lake	-5773
▁quarterback	-5774
▁ISIS	-5775
▁Author	-5776
▁iPhone	-5777
▁contains	-5778
▁Ann	-5779
TV	-5780
▁desire	-5781
▁2016,	-5782
▁Brazil	-5783
▁Aff	-5784
▁warned	-5785
▁diplom	-5786
▁Swed	-5787
▁injuries	-5788
▁expansion	-5789
▁Polit	-5790
uls	-5791
agers	-5792
▁Ireland	-5793
▁Harr	-5794
▁examples	-5795
▁initially	-5796
▁Year	-5797
▁Contin	-5798
▁van	-5799
▁effectively	-5800
▁Barack	-5801
▁plane	-5802
▁View	-5803
▁moves	-5804
illy	-5805
▁ing	-5806
▁dynam	-5807
▁PR	-5808
▁announcement	-5809
▁artist	-5810
aza	-5811
▁Div	-5812
resents	-5813
rich	-5814
▁Sar	-5815
▁playoff	-5816
▁TO	-5817
cons	-5818
whel	-5819
▁33	-5820
▁4,	-5821
evin	-5822
▁listed	-5823
▁Lib	-5824
▁rot	-5825
▁scheduled	-5826
▁native	-5827
inals	-5828
▁joint	-5829
▁legit	-5830
▁athlet	-5831
▁Perhaps	-5832
ador	-5833
▁Houston	-5834
▁ske	-5835
icing	-5836
▁Ariz	-5837
▁performed	-5838
▁magazine	-5839
▁chart	-5840
▁subsequ	-5841
orse	-5842
arters	-5843
▁yesterday	-5844
asure	-5845
▁ride	-5846
▁essentially	-5847
▁Home	-5848
▁Next	-5849
▁filled	-5850
▁transform	-5851
iat	-5852
Le	-5853
▁lawsuit	-5854
▁nearby	-5855
So	-5856
▁faced	-5857
▁linked	-5858
-8	-5859
▁tree	-5860
ette	-5861
▁Card	-5862
▁explan	-5863
▁Sports	-5864
▁hell	-5865
▁improved	-5866
▁Share	-5867
▁YouTube	-5868
▁Sky	-5869
▁radical	-5870
▁rain	-5871
word	-5872
athan	-5873
▁Wik	-5874
▁fill	-5875
▁interpret	-5876
ala	-5877
▁Gra	-5878
rant	-5879
▁Ram	-5880
▁Ell	-5881
▁materials	-5882
▁Cub	-5883
▁Enter	-5884
▁suc	-5885
▁doctor	-5886
▁Sov	-5887
▁guilty	-5888
▁neither	-5889
law	-5890
▁pra	-5891
▁accepted	-5892
▁incor	-5893
▁Aut	-5894
duc	-5895
▁sought	-5896
▁trib	-5897
▁adds	-5898
rip	-5899
▁rising	-5900
▁Di	-5901
water	-5902
▁increases	-5903
▁pure	-5904
▁threats	-5905
▁Colorado	-5906
▁necessarily	-5907
▁follows	-5908
illance	-5909
▁bare	-5910
▁consequences	-5911
▁Wild	-5912
inent	-5913
▁Story	-5914
▁Further	-5915
uild	-5916
▁begins	-5917
▁4.	-5918
▁motor	-5919
edy	-5920
esome	-5921
▁Club	-5922
▁Men	-5923
▁phen	-5924
▁Fam	-5925
▁af	-5926
orders	-5927
▁bright	-5928
▁resolution	-5929
▁offense	-5930
▁manufacture	-5931
▁Take	-5932
▁restaurant	-5933
▁subscrib	-5934
▁songs	-5935
▁Boy	-5936
▁Brook	-5937
irds	-5938
▁Fig	-5939
▁myster	-5940
▁advanced	-5941
▁surprised	-5942
▁fort	-5943
▁resident	-5944
▁everybody	-5945
acter	-5946
▁atmosp	-5947
enger	-5948
▁represents	-5949
▁Eric	-5950
▁distribution	-5951
▁stood	-5952
sembly	-5953
▁creative	-5954
▁heads	-5955
▁contest	-5956
born	-5957
▁warm	-5958
▁decre	-5959
▁remark	-5960
ician	-5961
▁nations	-5962
▁consumer	-5963
IR	-5964
▁flood	-5965
▁Board	-5966
▁roughly	-5967
▁Er	-5968
▁receiving	-5969
▁NBA	-5970
▁democracy	-5971
▁colleagues	-5972
abb	-5973
▁brings	-5974
▁Econom	-5975
▁highlight	-5976
▁scr	-5977
▁spons	-5978
alty	-5979
▁correspond	-5980
▁pushed	-5981
ilit	-5982
▁scored	-5983
▁articles	-5984
▁discussed	-5985
▁withd	-5986
▁(4	-5987
▁totally	-5988
▁resc	-5989
▁\	-5990
▁parliament	-5991
▁Games	-5992
▁Van	-5993
▁library	-5994
▁island	-5995
▁abandon	-5996
level	-5997
▁applied	-5998
▁Young	-5999
▁mir	-6000
▁functions	-6001
▁Du	-6002
▁Vide	-6003
▁investors	-6004
icious	-6005
▁classes	-6006
▁shots	-6007
acle	-6008
burg	-6009
▁stores	-6010
▁enh	-6011
▁Charles	-6012
▁$10	-6013
▁Asia	-6014
▁boss	-6015
▁Korean	-6016
▁config	-6017
▁sam	-6018
▁square	-6019
otic	-6020
▁prohib	-6021
▁historical	-6022
▁alcohol	-6023
▁household	-6024
▁boys	-6025
TM	-6026
▁vari	-6027
▁Ins	-6028
▁Jews	-6029
ERS	-6030
irty	-6031
▁marketing	-6032
▁Die	-6033
▁Fil	-6034
ollywood	-6035
▁storage	-6036
▁sav	-6037
▁fraud	-6038
▁doctors	-6039
▁Rights	-6040
TA	-6041
itors	-6042
▁unlikely	-6043
▁warning	-6044
▁Stephen	-6045
▁rein	-6046
▁younger	-6047
▁succeed	-6048
▁Tay	-6049
▁tom	-6050
▁Brad	-6051
▁philosop	-6052
▁DC	-6053
▁Old	-6054
▁protests	-6055
onna	-6056
▁alt	-6057
▁sem	-6058
▁Women	-6059
▁fairly	-6060
▁schol	-6061
▁regulations	-6062
▁deaths	-6063
▁behavi	-6064
▁targets	-6065
▁currency	-6066
▁laugh	-6067
▁metal	-6068
33	-6069
▁Mot	-6070
▁string	-6071
fortunately	-6072
▁entry	-6073
▁importance	-6074
▁Kevin	-6075
▁combination	-6076
▁breaking	-6077
▁AL	-6078
greg	-6079
▁tow	-6080
pan	-6081
▁blow	-6082
▁Mic	-6083
andal	-6084
▁temperature	-6085
▁Max	-6086
ena	-6087
▁output	-6088
▁symbol	-6089
▁Cruz	-6090
▁campus	-6091
▁nav	-6092
▁snow	-6093
▁bike	-6094
▁consistent	-6095
cho	-6096
▁existence	-6097
▁rally	-6098
▁Child	-6099
ican	-6100
▁entered	-6101
▁anywhere	-6102
▁heavily	-6103
▁Davis	-6104
▁Miller	-6105
▁Ital	-6106
▁favour	-6107
▁CIA	-6108
▁classic	-6109
▁replaced	-6110
OD	-6111
▁customer	-6112
▁illust	-6113
hetic	-6114
iques	-6115
▁button	-6116
▁sym	-6117
usal	-6118
▁downt	-6119
▁acts	-6120
▁lock	-6121
▁Palestinian	-6122
edd	-6123
▁allegedly	-6124
oked	-6125
▁rum	-6126
▁networks	-6127
▁hoping	-6128
▁plot	-6129
▁Arizona	-6130
▁essential	-6131
▁harder	-6132
▁vice	-6133
▁expression	-6134
xy	-6135
▁Way	-6136
etroit	-6137
▁Lord	-6138
▁split	-6139
▁lie	-6140
stood	-6141
ulous	-6142
▁Putin	-6143
▁facility	-6144
PU	-6145
arden	-6146
▁zero	-6147
▁Jesus	-6148
▁bag	-6149
▁links	-6150
▁relevant	-6151
▁somewhat	-6152
▁opponent	-6153
▁hardware	-6154
▁Bat	-6155
',	-6156
▁promise	-6157
▁row	-6158
inem	-6159
▁34	-6160
▁authors	-6161
west	-6162
▁sees	-6163
▁input	-6164
▁motion	-6165
▁earned	-6166
erves	-6167
olve	-6168
▁manage	-6169
uzz	-6170
▁shif	-6171
▁Daniel	-6172
▁closely	-6173
chers	-6174
▁Arch	-6175
▁grown	-6176
▁Pan	-6177
▁buying	-6178
II	-6179
▁circumstances	-6180
▁defined	-6181
ocket	-6182
▁holds	-6183
twitter	-6184
▁acting	-6185
▁versions	-6186
▁hat	-6187
▁wins	-6188
▁waste	-6189
▁returns	-6190
▁PS	-6191
chen	-6192
iner	-6193
▁controversial	-6194
▁empt	-6195
▁opposite	-6196
▁industrial	-6197
▁Camer	-6198
▁IP	-6199
▁decline	-6200
▁confront	-6201
▁Stand	-6202
▁Cy	-6203
ship	-6204
▁squad	-6205
▁Defense	-6206
▁cere	-6207
▁cheap	-6208
▁immediate	-6209
▁fewer	-6210
MA	-6211
▁intention	-6212
▁sick	-6213
▁suffering	-6214
▁adults	-6215
▁flat	-6216
▁isol	-6217
SS	-6218
▁Mat	-6219
▁chain	-6220
zy	-6221
omin	-6222
▁bug	-6223
▁Real	-6224
agan	-6225
▁flu	-6226
▁moments	-6227
:5	-6228
▁volunte	-6229
power	-6230
▁fundamental	-6231
LA	-6232
friend	-6233
▁division	-6234
▁acknowled	-6235
▁Cast	-6236
gas	-6237
▁kinds	-6238
▁termin	-6239
▁newslet	-6240
▁Catholic	-6241
▁Valley	-6242
▁detailed	-6243
▁NASA	-6244
▁2006	-6245
▁Py	-6246
▁intent	-6247
str	-6248
▁embr	-6249
atell	-6250
▁Java	-6251
▁upcoming	-6252
▁syn	-6253
▁Tal	-6254
ensus	-6255
▁Energy	-6256
▁cycle	-6257
▁2015.	-6258
▁formed	-6259
iami	-6260
▁tournament	-6261
▁carrying	-6262
nic	-6263
vin	-6264
▁attempted	-6265
▁extent	-6266
▁2016.	-6267
▁Invest	-6268
▁comfortable	-6269
▁alongside	-6270
▁wave	-6271
----------------	-6272
▁urban	-6273
▁End	-6274
▁overwhel	-6275
▁Wat	-6276
ellect	-6277
awa	-6278
▁commitment	-6279
▁artists	-6280
▁excellent	-6281
▁causing	-6282
▁signing	-6283
iger	-6284
▁regional	-6285
▁evolution	-6286
▁mainstream	-6287
certain	-6288
▁fashion	-6289
▁efficient	-6290
▁Jord	-6291
ologist	-6292
▁unus	-6293
▁immigrants	-6294
▁Tit	-6295
kel	-6296
▁wire	-6297
▁experim	-6298
▁emotional	-6299
▁featured	-6300
nam	-6301
▁pip	-6302
ockey	-6303
▁mechanism	-6304
isp	-6305
▁updated	-6306
▁agenda	-6307
▁Finally	-6308
▁Span	-6309
▁Wars	-6310
def	-6311
▁bon	-6312
▁kit	-6313
▁targeted	-6314
▁tiny	-6315
▁dedicated	-6316
▁repeatedly	-6317
oma	-6318
bel	-6319
▁Love	-6320
ocratic	-6321
▁Detroit	-6322
▁strange	-6323
style	-6324
▁pregn	-6325
▁hotel	-6326
luding	-6327
▁guide	-6328
▁lies	-6329
1)	-6330
.[3	-6331
▁2011,	-6332
▁2018	-6333
▁column	-6334
erry	-6335
▁participants	-6336
▁SC	-6337
▁pled	-6338
▁mine	-6339
▁Wilson	-6340
▁competitive	-6341
▁Ep	-6342
▁trick	-6343
▁ancient	-6344
▁describe	-6345
bar	-6346
▁pushing	-6347
va	-6348
▁frequently	-6349
▁coffee	-6350
▁schedule	-6351
▁hur	-6352
anes	-6353
▁teachers	-6354
▁relationships	-6355
▁literally	-6356
▁crazy	-6357
▁Class	-6358
-6	-6359
▁bat	-6360
▁owned	-6361
▁Inf	-6362
▁sentence	-6363
utch	-6364
▁referred	-6365
▁femin	-6366
▁folks	-6367
▁stream	-6368
▁sharing	-6369
▁NY	-6370
OC	-6371
TS	-6372
▁aside	-6373
ii	-6374
hus	-6375
▁unemploy	-6376
▁suicide	-6377
▁Check	-6378
▁universe	-6379
ta	-6380
uable	-6381
game	-6382
▁inspired	-6383
▁mouth	-6384
▁Soviet	-6385
▁du	-6386
▁gang	-6387
weight	-6388
▁Ford	-6389
▁opponents	-6390
▁manner	-6391
▁virtual	-6392
▁knowing	-6393
▁hall	-6394
▁protected	-6395
▁sister	-6396
▁instru	-6397
▁Did	-6398
▁battery	-6399
▁serving	-6400
▁Bas	-6401
▁defeat	-6402
▁Dam	-6403
uated	-6404
▁1970	-6405
▁journey	-6406
▁desk	-6407
She	-6408
gor	-6409
▁Ret	-6410
▁egg	-6411
▁wake	-6412
▁2014.	-6413
ographic	-6414
▁Adam	-6415
▁chairman	-6416
phy	-6417
▁properties	-6418
Con	-6419
▁surrounding	-6420
ati	-6421
▁Win	-6422
▁subsid	-6423
▁cert	-6424
▁studio	-6425
Get	-6426
▁matches	-6427
▁deeply	-6428
▁Rog	-6429
▁tort	-6430
▁struck	-6431
▁mistake	-6432
▁usual	-6433
▁realized	-6434
woman	-6435
▁Miami	-6436
▁Brian	-6437
rome	-6438
▁Among	-6439
aze	-6440
▁liqu	-6441
▁meat	-6442
▁watched	-6443
FP	-6444
▁king	-6445
▁Click	-6446
foot	-6447
▁orders	-6448
▁exciting	-6449
▁posts	-6450
umber	-6451
▁Kn	-6452
▁assets	-6453
▁Italy	-6454
▁winter	-6455
▁surveillance	-6456
▁reput	-6457
▁sending	-6458
▁ring	-6459
rive	-6460
▁remote	-6461
New	-6462
▁promised	-6463
ugh	-6464
▁latter	-6465
▁Turn	-6466
iciency	-6467
▁simpl	-6468
▁worried	-6469
rations	-6470
▁Hollywood	-6471
▁Jr	-6472
▁passion	-6473
▁fasc	-6474
All	-6475
▁refugees	-6476
ceived	-6477
allas	-6478
▁Conf	-6479
iveness	-6480
▁skill	-6481
▁approval	-6482
rence	-6483
▁franchise	-6484
azi	-6485
dit	-6486
▁Steven	-6487
ora	-6488
▁phenomen	-6489
▁rape	-6490
▁territory	-6491
ko	-6492
▁Organ	-6493
▁teacher	-6494
▁walked	-6495
otal	-6496
▁wal	-6497
▁neut	-6498
▁sand	-6499
Ar	-6500
ulture	-6501
▁sustain	-6502
▁discover	-6503
▁Vis	-6504
▁risks	-6505
▁Land	-6506
▁noticed	-6507
▁Georgia	-6508
▁congress	-6509
▁northern	-6510
aser	-6511
95	-6512
esc	-6513
abis	-6514
ingu	-6515
▁basket	-6516
edia	-6517
▁medic	-6518
▁CD	-6519
▁tested	-6520
▁Water	-6521
▁depth	-6522
▁Dun	-6523
sex	-6524
ixt	-6525
▁narr	-6526
▁locations	-6527
▁attacked	-6528
adel	-6529
▁west	-6530
▁sho	-6531
▁channel	-6532
▁fixed	-6533
▁Dig	-6534
▁Moore	-6535
▁Society	-6536
▁involving	-6537
▁Administ	-6538
▁crash	-6539
IF	-6540
▁dry	-6541
gery	-6542
▁sample	-6543
▁eating	-6544
▁supports	-6545
▁precise	-6546
oming	-6547
sole	-6548
▁conver	-6549
▁Special	-6550
ORE	-6551
▁dealing	-6552
▁alive	-6553
▁diet	-6554
avor	-6555
name	-6556
▁exhib	-6557
▁Dar	-6558
▁Night	-6559
▁welcome	-6560
▁193	-6561
boy	-6562
▁retire	-6563
’.	-6564
▁requests	-6565
▁Cam	-6566
▁Spanish	-6567
▁(5	-6568
▁wage	-6569
▁height	-6570
▁Gall	-6571
▁properly	-6572
rors	-6573
▁Test	-6574
▁volume	-6575
▁suddenly	-6576
/0	-6577
▁protesters	-6578
lv	-6579
alle	-6580
▁selection	-6581
▁48	-6582
verty	-6583
▁promote	-6584
▁Agency	-6585
▁gap	-6586
lock	-6587
ether	-6588
▁explore	-6589
▁blame	-6590
▁chose	-6591
itarian	-6592
▁puts	-6593
▁reward	-6594
▁sweet	-6595
▁approximately	-6596
▁sky	-6597
▁Gi	-6598
23	-6599
▁extended	-6600
28	-6601
▁38	-6602
▁300	-6603
▁2005	-6604
▁Bell	-6605
▁nomine	-6606
▁observed	-6607
dis	-6608
print	-6609
▁unknown	-6610
pool	-6611
▁anyway	-6612
To	-6613
▁polls	-6614
▁slowly	-6615
▁Lew	-6616
▁Victor	-6617
▁requirements	-6618
▁poverty	-6619
dro	-6620
▁Sea	-6621
▁shel	-6622
▁communication	-6623
acc	-6624
▁5.	-6625
▁Labor	-6626
▁Ut	-6627
ensity	-6628
▁Senator	-6629
▁impressive	-6630
▁theme	-6631
▁proof	-6632
▁Cat	-6633
▁OF	-6634
▁narrow	-6635
▁Call	-6636
▁Minnes	-6637
▁Sk	-6638
▁Asian	-6639
▁destroyed	-6640
▁Hun	-6641
▁Nick	-6642
comm	-6643
▁Light	-6644
▁Which	-6645
▁selected	-6646
acking	-6647
asks	-6648
▁moder	-6649
ogan	-6650
owered	-6651
▁forth	-6652
▁fees	-6653
▁merely	-6654
▁Unfortunately	-6655
▁Attorney	-6656
▁terrorism	-6657
▁pal	-6658
celer	-6659
▁wid	-6660
▁allies	-6661
▁Sn	-6662
▁deals	-6663
▁diagn	-6664
▁Turk	-6665
you	-6666
▁Jordan	-6667
▁arguments	-6668
▁Ah	-6669
▁Bru	-6670
▁database	-6671
▁oblig	-6672
▁Disney	-6673
ums	-6674
▁recognize	-6675
▁east	-6676
▁condem	-6677
▁MS	-6678
▁bid	-6679
▁falling	-6680
▁sole	-6681
▁5,	-6682
▁rub	-6683
▁typical	-6684
▁Educ	-6685
▁domin	-6686
oster	-6687
▁Oper	-6688
▁Jersey	-6689
▁2010,	-6690
ml	-6691
▁equival	-6692
▁pic	-6693
▁Network	-6694
stone	-6695
ipl	-6696
onymous	-6697
tle	-6698
oration	-6699
▁likes	-6700
▁facilities	-6701
apse	-6702
American	-6703
raid	-6704
redit	-6705
▁employee	-6706
▁flex	-6707
▁dress	-6708
fire	-6709
▁journalists	-6710
gender	-6711
▁critics	-6712
How	-6713
▁49	-6714
▁drag	-6715
▁Thus	-6716
▁comprom	-6717
▁truck	-6718
▁limits	-6719
arn	-6720
sters	-6721
ao	-6722
po	-6723
ocation	-6724
▁scheme	-6725
▁license	-6726
▁NE	-6727
aug	-6728
▁honor	-6729
▁disag	-6730
▁Company	-6731
▁bunch	-6732
▁Scotland	-6733
▁Minnesota	-6734
▁Care	-6735
▁assume	-6736
▁profit	-6737
▁punish	-6738
▁abortion	-6739
axy	-6740
▁desper	-6741
▁topic	-6742
▁Key	-6743
▁prote	-6744
▁Come	-6745
▁Irish	-6746
▁Tony	-6747
enders	-6748
GBT	-6749
▁exposed	-6750
▁strongly	-6751
asts	-6752
▁Fre	-6753
▁maximum	-6754
▁cutting	-6755
oric	-6756
▁Nations	-6757
▁ped	-6758
owa	-6759
▁electricity	-6760
▁regions	-6761
▁controlled	-6762
▁constant	-6763
▁communications	-6764
▁winner	-6765
▁format	-6766
▁personally	-6767
ua	-6768
▁comparison	-6769
▁decent	-6770
▁somewhere	-6771
list	-6772
inson	-6773
zens	-6774
▁fuck	-6775
▁Taylor	-6776
▁obtained	-6777
▁37	-6778
▁encourage	-6779
▁NHL	-6780
▁Dark	-6781
▁Review	-6782
▁village	-6783
▁Business	-6784
▁Civil	-6785
▁claiming	-6786
▁adapt	-6787
▁Never	-6788
........	-6789
ads	-6790
▁$6	-6791
anges	-6792
DS	-6793
▁Josh	-6794
▁seats	-6795
arity	-6796
▁goods	-6797
▁escape	-6798
▁resistance	-6799
▁champion	-6800
▁bear	-6801
▁ideal	-6802
▁Indeed	-6803
▁transp	-6804
▁meetings	-6805
obile	-6806
▁emissions	-6807
pes	-6808
alo	-6809
▁retain	-6810
▁threatened	-6811
▁Cross	-6812
▁trees	-6813
wan	-6814
▁Source	-6815
sea	-6816
▁dogs	-6817
▁inqu	-6818
▁vacc	-6819
▁AR	-6820
▁Such	-6821
▁reasonable	-6822
▁deleg	-6823
▁purposes	-6824
▁bench	-6825
▁Italian	-6826
▁officially	-6827
▁Dallas	-6828
▁unw	-6829
▁parking	-6830
▁stretch	-6831
▁stronger	-6832
inations	-6833
▁stim	-6834
▁somehow	-6835
26	-6836
▁empty	-6837
▁ending	-6838
▁constit	-6839
▁province	-6840
▁Fort	-6841
▁ble	-6842
▁understood	-6843
lls	-6844
ems	-6845
ivery	-6846
▁reveal	-6847
▁answers	-6848
▁anx	-6849
▁registered	-6850
era	-6851
▁hits	-6852
igation	-6853
▁Joseph	-6854
▁deck	-6855
irms	-6856
intend	-6857
orted	-6858
▁payment	-6859
iform	-6860
▁rejected	-6861
100	-6862
▁Has	-6863
▁amounts	-6864
▁Anth	-6865
▁spin	-6866
▁Spain	-6867
▁developer	-6868
▁primarily	-6869
▁harass	-6870
27	-6871
▁DNA	-6872
▁directed	-6873
VER	-6874
▁75	-6875
▁upper	-6876
cow	-6877
essed	-6878
▁Program	-6879
▁Os	-6880
▁ruled	-6881
pected	-6882
▁evil	-6883
ura	-6884
▁Parliament	-6885
asters	-6886
▁southern	-6887
▁engage	-6888
ciples	-6889
▁finds	-6890
Al	-6891
▁trading	-6892
post	-6893
▁ties	-6894
cers	-6895
osis	-6896
▁courts	-6897
▁NBC	-6898
▁Pay	-6899
▁incl	-6900
▁Academ	-6901
▁captured	-6902
eping	-6903
▁aspects	-6904
▁exists	-6905
▁Ult	-6906
▁actor	-6907
▁gotten	-6908
agram	-6909
▁Kelly	-6910
owed	-6911
▁OS	-6912
▁Championship	-6913
▁keeps	-6914
Cl	-6915
▁Orig	-6916
▁driven	-6917
▁resulting	-6918
▁pod	-6919
▁definition	-6920
▁Dead	-6921
▁bills	-6922
▁profile	-6923
▁intellect	-6924
▁payments	-6925
▁technologies	-6926
aire	-6927
▁drawn	-6928
▁boot	-6929
rary	-6930
▁choices	-6931
▁Tem	-6932
▁fifth	-6933
▁fold	-6934
onic	-6935
▁fighters	-6936
▁Coll	-6937
▁dozen	-6938
NC	-6939
▁chosen	-6940
▁founder	-6941
▁icon	-6942
▁coalition	-6943
▁contributed	-6944
▁estimates	-6945
▁regularly	-6946
▁Foot	-6947
isan	-6948
▁History	-6949
▁incredible	-6950
unning	-6951
▁houses	-6952
▁elsewhere	-6953
."[	-6954
▁worldwide	-6955
▁constantly	-6956
fast	-6957
▁phase	-6958
▁sight	-6959
otes	-6960
izz	-6961
▁somebody	-6962
86	-6963
▁thread	-6964
▁flying	-6965
200	-6966
Our	-6967
▁encoun	-6968
▁awesome	-6969
▁tank	-6970
▁Id	-6971
amin	-6972
▁kil	-6973
▁param	-6974
▁baseball	-6975
▁Linux	-6976
▁anymore	-6977
▁extensive	-6978
▁loan	-6979
rett	-6980
▁Rick	-6981
▁($	-6982
▁soul	-6983
▁distinct	-6984
▁stuck	-6985
▁outcome	-6986
▁Services	-6987
▁stead	-6988
].	-6989
▁Hot	-6990
▁colon	-6991
▁Foreign	-6992
▁6,	-6993
▁Have	-6994
▁continuing	-6995
mont	-6996
▁brew	-6997
earing	-6998
],	-6999
▁solutions	-7000
-7	-7001
:4	-7002
▁perfectly	-7003
▁rival	-7004
▁demands	-7005
▁rig	-7006
▁apartment	-7007
▁Following	-7008
emen	-7009
▁Bowl	-7010
iscal	-7011
▁employment	-7012
-10	-7013
▁Make	-7014
▁Major	-7015
▁informed	-7016
▁weird	-7017
▁clients	-7018
han	-7019
▁Full	-7020
▁Greg	-7021
▁nobody	-7022
▁mayor	-7023
apes	-7024
▁tied	-7025
▁imper	-7026
▁narrative	-7027
▁dollar	-7028
▁crucial	-7029
▁assistance	-7030
▁(200	-7031
▁ticket	-7032
car	-7033
icken	-7034
▁rating	-7035
▁drinking	-7036
▁Southern	-7037
▁murd	-7038
2)	-7039
▁Roman	-7040
▁assistant	-7041
ilarly	-7042
▁atmosphere	-7043
▁situations	-7044
▁programming	-7045
lights	-7046
▁writers	-7047
esy	-7048
▁Start	-7049
▁fields	-7050
▁compens	-7051
▁penalty	-7052
▁accurate	-7053
▁Saf	-7054
▁concluded	-7055
▁conspir	-7056
▁routine	-7057
▁generate	-7058
▁reporter	-7059
anchester	-7060
mo	-7061
▁newly	-7062
▁bitcoin	-7063
▁components	-7064
regon	-7065
▁mixed	-7066
▁Live	-7067
▁enthus	-7068
▁Global	-7069
▁IT	-7070
▁Sever	-7071
▁represented	-7072
lder	-7073
▁raising	-7074
▁consumption	-7075
▁Food	-7076
▁anticip	-7077
▁angry	-7078
▁Balt	-7079
▁aggressive	-7080
vy	-7081
▁gro	-7082
rates	-7083
▁Judge	-7084
▁Constitution	-7085
▁Alab	-7086
Bl	-7087
rehens	-7088
▁Series	-7089
▁contem	-7090
▁incredibly	-7091
UR	-7092
▁phones	-7093
idency	-7094
▁automatically	-7095
▁conven	-7096
▁Ray	-7097
▁Kent	-7098
▁innoc	-7099
▁category	-7100
▁complaint	-7101
▁gaming	-7102
▁returning	-7103
%)	-7104
▁root	-7105
icer	-7106
▁Fred	-7107
▁controls	-7108
▁rus	-7109
▁capture	-7110
▁terrible	-7111
▁machines	-7112
inding	-7113
▁explanation	-7114
otten	-7115
▁therap	-7116
▁Jason	-7117
▁unp	-7118
▁signal	-7119
Pro	-7120
▁habit	-7121
▁letters	-7122
cr	-7123
▁Snow	-7124
onsin	-7125
▁manip	-7126
▁granted	-7127
▁infect	-7128
▁chances	-7129
▁satell	-7130
▁nut	-7131
▁techniques	-7132
iana	-7133
isconsin	-7134
▁Nob	-7135
▁Nation	-7136
▁organized	-7137
▁paint	-7138
▁Data	-7139
▁Hard	-7140
▁proved	-7141
▁enemies	-7142
▁estate	-7143
ifer	-7144
.00	-7145
▁excess	-7146
▁Coast	-7147
▁survive	-7148
▁Ash	-7149
▁lawmakers	-7150
85	-7151
there	-7152
▁Lo	-7153
▁McG	-7154
▁Pacific	-7155
▁installed	-7156
▁Zeal	-7157
▁tall	-7158
▁Iowa	-7159
▁veteran	-7160
▁ads	-7161
▁Rand	-7162
▁feedback	-7163
▁Greek	-7164
gorith	-7165
▁Mid	-7166
▁taught	-7167
▁conclusion	-7168
▁complicated	-7169
▁privile	-7170
▁teaching	-7171
▁audio	-7172
etary	-7173
▁roster	-7174
acked	-7175
▁Hom	-7176
ima	-7177
ali	-7178
imp	-7179
▁worker	-7180
phia	-7181
▁cable	-7182
ifications	-7183
▁attended	-7184
actions	-7185
▁personnel	-7186
ba	-7187
HS	-7188
inity	-7189
▁Northern	-7190
▁recovery	-7191
▁AS	-7192
▁Development	-7193
itar	-7194
▁FC	-7195
▁shares	-7196
▁pilot	-7197
▁titles	-7198
aron	-7199
▁Ger	-7200
▁plastic	-7201
On	-7202
elect	-7203
rific	-7204
▁2013.	-7205
lers	-7206
▁magic	-7207
▁conscious	-7208
▁academic	-7209
▁Manchester	-7210
▁engaged	-7211
▁degrees	-7212
▁Does	-7213
▁Henry	-7214
▁enable	-7215
▁monit	-7216
ker	-7217
▁Oak	-7218
itals	-7219
▁myth	-7220
month	-7221
▁successfully	-7222
29	-7223
▁List	-7224
▁recording	-7225
▁regardless	-7226
▁Avenue	-7227
▁solve	-7228
▁sympt	-7229
▁Eastern	-7230
hips	-7231
rating	-7232
anny	-7233
▁ok	-7234
▁LGBT	-7235
▁Jac	-7236
▁collected	-7237
▁scenes	-7238
ser	-7239
▁Oregon	-7240
adelphia	-7241
aed	-7242
▁Bry	-7243
LC	-7244
▁Moscow	-7245
▁ru	-7246
▁troub	-7247
▁Viet	-7248
▁fake	-7249
▁permanent	-7250
▁entit	-7251
▁Alabama	-7252
▁county	-7253
▁Report	-7254
▁downtown	-7255
sell	-7256
fr	-7257
▁warming	-7258
hent	-7259
▁iron	-7260
▁Mu	-7261
▁western	-7262
’,	-7263
aturally	-7264
▁apolog	-7265
mod	-7266
▁operate	-7267
▁valuable	-7268
%.	-7269
▁SP	-7270
▁phr	-7271
▁aimed	-7272
▁taxpay	-7273
▁depending	-7274
▁Det	-7275
▁Through	-7276
▁equivalent	-7277
▁afraid	-7278
▁extension	-7279
▁Wisconsin	-7280
▁browser	-7281
lan	-7282
uan	-7283
quarters	-7284
▁pin	-7285
chain	-7286
▁advis	-7287
▁uncertain	-7288
▁44	-7289
▁pace	-7290
▁cameras	-7291
▁150	-7292
▁extrem	-7293
▁inspir	-7294
▁overse	-7295
▁vulnerable	-7296
ez	-7297
▁pounds	-7298
▁Bull	-7299
Donald	-7300
▁Moh	-7301
▁2004	-7302
▁taste	-7303
ibilities	-7304
▁extract	-7305
cus	-7306
▁index	-7307
▁intense	-7308
▁surgery	-7309
▁compete	-7310
▁negotiations	-7311
▁corruption	-7312
bal	-7313
Photo	-7314
▁blocks	-7315
▁firms	-7316
▁bes	-7317
▁Hor	-7318
▁enjoyed	-7319
rete	-7320
▁mail	-7321
▁spr	-7322
▁Professor	-7323
▁prominent	-7324
▁OK	-7325
▁passes	-7326
▁hidden	-7327
▁marked	-7328
▁Lind	-7329
▁comic	-7330
▁Royal	-7331
▁mainly	-7332
▁Sometimes	-7333
▁’	-7334
▁7,	-7335
▁Without	-7336
▁advertising	-7337
▁elite	-7338
gun	-7339
scape	-7340
▁tracks	-7341
▁duty	-7342
▁Fair	-7343
##	-7344
▁64	-7345
▁VR	-7346
▁fought	-7347
rell	-7348
▁describes	-7349
▁defence	-7350
▁Hay	-7351
▁sufficient	-7352
▁reputation	-7353
▁gall	-7354
▁emerged	-7355
▁championship	-7356
▁accomp	-7357
▁portion	-7358
▁Video	-7359
▁contracts	-7360
▁cited	-7361
▁lawyers	-7362
▁Reuters	-7363
▁visited	-7364
▁ESP	-7365
▁bom	-7366
▁Using	-7367
▁principles	-7368
▁Philadelphia	-7369
▁Kurd	-7370
▁disaster	-7371
cles	-7372
▁Mir	-7373
▁funny	-7374
ye	-7375
▁Harry	-7376
An	-7377
sm	-7378
prise	-7379
▁rarely	-7380
▁Music	-7381
uine	-7382
▁dict	-7383
▁thin	-7384
▁blind	-7385
▁resulted	-7386
At	-7387
▁enorm	-7388
▁sanctions	-7389
▁brut	-7390
▁wing	-7391
ashes	-7392
▁finance	-7393
▁everywhere	-7394
▁Premier	-7395
ilton	-7396
37	-7397
▁busy	-7398
bro	-7399
viously	-7400
▁feelings	-7401
athy	-7402
▁Amendment	-7403
▁Kir	-7404
▁cup	-7405
istent	-7406
▁exposure	-7407
ni	-7408
ras	-7409
ikes	-7410
▁Fund	-7411
▁racial	-7412
CE	-7413
▁cyber	-7414
▁Ros	-7415
▁strict	-7416
▁Ra	-7417
▁Scient	-7418
▁Education	-7419
▁lights	-7420
▁Zealand	-7421
mal	-7422
▁crypt	-7423
▁unusual	-7424
▁Mayor	-7425
ria	-7426
▁Policy	-7427
▁2012.	-7428
▁recru	-7429
▁medium	-7430
▁Atlanta	-7431
▁inev	-7432
▁processes	-7433
▁Mars	-7434
rently	-7435
▁bridge	-7436
▁Point	-7437
▁shortly	-7438
rypt	-7439
mann	-7440
▁founded	-7441
upid	-7442
▁Given	-7443
▁acceler	-7444
iro	-7445
▁clubs	-7446
ules	-7447
▁grant	-7448
▁propag	-7449
▁Rose	-7450
ifies	-7451
rep	-7452
▁losses	-7453
▁discipl	-7454
wr	-7455
▁sharp	-7456
fall	-7457
▁tur	-7458
▁Season	-7459
▁hadn	-7460
▁generated	-7461
▁engineering	-7462
▁Navy	-7463
▁Arm	-7464
36	-7465
▁permission	-7466
▁implementation	-7467
▁Several	-7468
▁possession	-7469
orough	-7470
▁CH	-7471
▁Use	-7472
▁laid	-7473
idelines	-7474
▁counsel	-7475
▁plug	-7476
▁elev	-7477
▁Independ	-7478
MP	-7479
profit	-7480
▁Nic	-7481
▁adopted	-7482
front	-7483
▁loud	-7484
igg	-7485
▁Little	-7486
▁dozens	-7487
▁65	-7488
▁manufacturing	-7489
▁scenario	-7490
star	-7491
▁uncom	-7492
▁ho	-7493
▁computers	-7494
▁55	-7495
ogether	-7496
▁Es	-7497
▁thick	-7498
▁minority	-7499
iler	-7500
world	-7501
▁expectations	-7502
▁Build	-7503
inder	-7504
▁1,000	-7505
azz	-7506
▁10,	-7507
▁Turkish	-7508
▁stations	-7509
athered	-7510
mate	-7511
▁ridic	-7512
▁mel	-7513
▁explicit	-7514
olis	-7515
▁McCain	-7516
▁www	-7517
▁2009,	-7518
▁participate	-7519
▁veget	-7520
inking	-7521
▁sup	-7522
▁recip	-7523
▁cycl	-7524
▁algorith	-7525
▁Market	-7526
▁priority	-7527
writ	-7528
▁neighb	-7529
umer	-7530
Un	-7531
▁strikes	-7532
34	-7533
▁Hit	-7534
izon	-7535
osexual	-7536
▁pump	-7537
▁rely	-7538
active	-7539
▁relief	-7540
▁1960	-7541
▁crop	-7542
▁yield	-7543
▁Pen	-7544
rative	-7545
▁hang	-7546
▁patterns	-7547
▁visible	-7548
obs	-7549
▁creates	-7550
▁Fed	-7551
▁fee	-7552
▁fault	-7553
▁Pack	-7554
▁8,	-7555
▁tag	-7556
▁Diego	-7557
da	-7558
▁Ext	-7559
▁airport	-7560
antic	-7561
olt	-7562
▁producer	-7563
▁scoring	-7564
▁flaw	-7565
▁gained	-7566
she	-7567
▁photograph	-7568
▁Bernie	-7569
▁Luc	-7570
▁Whether	-7571
▁obst	-7572
▁basketball	-7573
-9	-7574
▁NC	-7575
▁Cre	-7576
▁interface	-7577
▁affili	-7578
▁headed	-7579
▁$7	-7580
▁cannabis	-7581
▁journalist	-7582
found	-7583
ounced	-7584
making	-7585
▁ju	-7586
▁dinner	-7587
3)	-7588
▁historic	-7589
weet	-7590
▁saved	-7591
▁wonderful	-7592
▁doors	-7593
▁Sir	-7594
asion	-7595
▁Head	-7596
▁banned	-7597
rators	-7598
▁formal	-7599
▁component	-7600
▁%	-7601
▁Gov	-7602
▁Patrick	-7603
▁SH	-7604
▁Radio	-7605
aska	-7606
▁stab	-7607
ded	-7608
text	-7609
▁stadium	-7610
▁indicate	-7611
▁uniform	-7612
▁Stat	-7613
▁ven	-7614
▁gonna	-7615
▁tor	-7616
▁Matthew	-7617
▁Ha	-7618
pread	-7619
log	-7620
eman	-7621
▁behalf	-7622
▁thousand	-7623
50,000	-7624
uer	-7625
▁magn	-7626
interest	-7627
▁Email	-7628
▁profession	-7629
▁shock	-7630
▁Ont	-7631
▁Sat	-7632
▁Administration	-7633
▁hole	-7634
▁struggling	-7635
88	-7636
▁deliber	-7637
▁philosophy	-7638
orne	-7639
▁Field	-7640
▁agric	-7641
▁footage	-7642
▁aver	-7643
▁beliefs	-7644
▁toler	-7645
▁backed	-7646
▁nominee	-7647
21	-7648
▁roles	-7649
▁episodes	-7650
▁ABC	-7651
▁Related	-7652
▁establishment	-7653
MS	-7654
Oh	-7655
amber	-7656
who	-7657
oen	-7658
imore	-7659
▁legend	-7660
▁stable	-7661
ilipp	-7662
tes	-7663
▁WH	-7664
▁Ly	-7665
▁spark	-7666
▁wheel	-7667
▁Centre	-7668
igen	-7669
▁Cameron	-7670
▁Conference	-7671
▁tackle	-7672
▁Jay	-7673
▁Hell	-7674
rous	-7675
▁challenging	-7676
▁Ice	-7677
▁ships	-7678
▁genuine	-7679
▁Rus	-7680
▁foundation	-7681
▁Mah	-7682
▁neutral	-7683
▁drawing	-7684
▁Academy	-7685
▁convicted	-7686
▁2008,	-7687
▁Conservative	-7688
▁river	-7689
▁Battle	-7690
▁cha	-7691
oured	-7692
▁principle	-7693
eland	-7694
▁Anthony	-7695
bell	-7696
▁Cook	-7697
▁Pot	-7698
▁outr	-7699
▁tickets	-7700
▁Kansas	-7701
idespread	-7702
core	-7703
▁UFC	-7704
lete	-7705
▁finger	-7706
▁withdraw	-7707
▁achieved	-7708
ja	-7709
▁bath	-7710
▁Medical	-7711
▁destruction	-7712
▁interviews	-7713
htt	-7714
▁plate	-7715
▁languages	-7716
%,	-7717
▁2017.	-7718
enth	-7719
▁Former	-7720
▁(6	-7721
▁exception	-7722
▁incent	-7723
EA	-7724
▁Kingdom	-7725
▁Kat	-7726
▁structures	-7727
Ex	-7728
ked	-7729
ogen	-7730
▁deputy	-7731
ami	-7732
▁farmers	-7733
etime	-7734
▁entering	-7735
CS	-7736
▁Christians	-7737
▁recognized	-7738
▁Information	-7739
xic	-7740
▁delivery	-7741
abinet	-7742
sylv	-7743
etts	-7744
▁Albert	-7745
▁proven	-7746
▁Division	-7747
▁Tenn	-7748
▁containing	-7749
teen	-7750
▁ESPN	-7751
portion	-7752
▁Link	-7753
▁walls	-7754
olen	-7755
aching	-7756
ATE	-7757
▁retired	-7758
▁liked	-7759
▁indicated	-7760
RS	-7761
▁Having	-7762
▁CBS	-7763
▁movements	-7764
▁discrimination	-7765
▁CO	-7766
▁Walker	-7767
▁convin	-7768
▁Family	-7769
/11	-7770
77	-7771
▁Tri	-7772
▁Circ	-7773
▁hired	-7774
▁ocean	-7775
▁Community	-7776
▁gift	-7777
▁producing	-7778
▁reduction	-7779
▁campaigns	-7780
▁unex	-7781
▁Arabia	-7782
▁contribute	-7783
▁39	-7784
▁synt	-7785
▁contained	-7786
▁technique	-7787
▁corporations	-7788
▁bra	-7789
▁Brew	-7790
▁edition	-7791
TH	-7792
Be	-7793
yard	-7794
▁ham	-7795
▁suggesting	-7796
▁barely	-7797
▁reviews	-7798
▁Latin	-7799
▁borrow	-7800
▁websites	-7801
ouver	-7802
usted	-7803
▁listening	-7804
abs	-7805
iti	-7806
▁reaching	-7807
away	-7808
▁arrange	-7809
▁bail	-7810
▁Allen	-7811
▁unemployment	-7812
▁Pennsylv	-7813
▁processing	-7814
▁hitting	-7815
▁grass	-7816
▁involvement	-7817
lay	-7818
▁Earlier	-7819
▁unclear	-7820
riers	-7821
this	-7822
▁Xbox	-7823
▁Anton	-7824
uce	-7825
▁reducing	-7826
veland	-7827
▁smooth	-7828
▁Ale	-7829
▁exclusive	-7830
▁NAT	-7831
One	-7832
usive	-7833
▁Beach	-7834
▁->	-7835
ystem	-7836
ulating	-7837
▁util	-7838
▁overwhelming	-7839
▁Aud	-7840
iel	-7841
ington	-7842
▁settlement	-7843
▁terrorists	-7844
umes	-7845
burgh	-7846
senal	-7847
▁Later	-7848
appy	-7849
▁representative	-7850
ferences	-7851
▁recognition	-7852
▁rose	-7853
▁robot	-7854
BO	-7855
▁tail	-7856
▁fiscal	-7857
▁failing	-7858
▁upset	-7859
thon	-7860
cription	-7861
▁fiction	-7862
arrass	-7863
▁viewers	-7864
▁Stone	-7865
▁thrown	-7866
▁prepare	-7867
rical	-7868
▁Action	-7869
from	-7870
▁frag	-7871
▁flash	-7872
▁deeper	-7873
lessly	-7874
▁notion	-7875
▁widespread	-7876
iy	-7877
▁forever	-7878
38	-7879
ca	-7880
owing	-7881
▁intellectual	-7882
ancouver	-7883
▁progressive	-7884
▁normally	-7885
▁racist	-7886
sa	-7887
▁Anderson	-7888
▁Set	-7889
▁Pennsylvania	-7890
▁Pop	-7891
sels	-7892
▁Spring	-7893
▁luck	-7894
bn	-7895
▁attacking	-7896
▁restrictions	-7897
▁equally	-7898
▁Update	-7899
▁Was	-7900
▁rapidly	-7901
▁Golden	-7902
▁Core	-7903
▁branch	-7904
Man	-7905
▁Bad	-7906
▁Pass	-7907
▁Sus	-7908
▁Keep	-7909
▁Roy	-7910
▁Square	-7911
▁sugar	-7912
▁electronic	-7913
▁Ball	-7914
▁touchdown	-7915
▁Environment	-7916
enny	-7917
▁Bab	-7918
▁asks	-7919
▁lists	-7920
unior	-7921
▁Ross	-7922
▁loyal	-7923
▁ren	-7924
▁begun	-7925
▁Harris	-7926
▁perpet	-7927
▁0.0	-7928
▁Pent	-7929
▁milk	-7930
▁invent	-7931
▁11,	-7932
▁peak	-7933
▁Person	-7934
▁friendly	-7935
icket	-7936
bec	-7937
▁hook	-7938
anna	-7939
▁exceed	-7940
▁ON	-7941
▁SS	-7942
▁ethnic	-7943
ologists	-7944
▁description	-7945
heast	-7946
▁array	-7947
▁overt	-7948
▁convinced	-7949
▁Ott	-7950
amsung	-7951
▁improvements	-7952
▁sensitive	-7953
▁association	-7954
▁hide	-7955
dem	-7956
ione	-7957
▁NSA	-7958
▁devast	-7959
/1	-7960
▁hardly	-7961
PG	-7962
▁invited	-7963
UL	-7964
▁joining	-7965
ouch	-7966
worth	-7967
▁Santa	-7968
▁controversy	-7969
▁42	-7970
▁roads	-7971
▁Sony	-7972
▁gathered	-7973
achus	-7974
▁Cost	-7975
▁jury	-7976
▁Philipp	-7977
▁Lim	-7978
uties	-7979
▁investigate	-7980
▁respectively	-7981
▁anybody	-7982
▁recover	-7983
▁external	-7984
")	-7985
▁tip	-7986
▁Ren	-7987
rolled	-7988
▁statistics	-7989
▁collapse	-7990
allel	-7991
▁Greece	-7992
▁scholars	-7993
▁featuring	-7994
ho	-7995
▁Town	-7996
▁MORE	-7997
▁Prince	-7998
▁Baltimore	-7999
PM	-8000
▁citizen	-8001
tering	-8002
▁elig	-8003
▁illness	-8004
▁initiative	-8005
▁serves	-8006
▁Brother	-8007
iversary	-8008
▁alien	-8009
▁Ministry	-8010
▁connections	-8011
▁ownership	-8012
lad	-8013
▁Plus	-8014
▁scream	-8015
fare	-8016
▁Connect	-8017
▁carefully	-8018
then	-8019
▁suffer	-8020
________________	-8021
▁”	-8022
▁menu	-8023
▁handful	-8024
▁rural	-8025
▁~	-8026
▁Gun	-8027
jo	-8028
▁Austin	-8029
▁Broad	-8030
rik	-8031
▁independence	-8032
aret	-8033
▁minds	-8034
▁inject	-8035
▁46	-8036
igrant	-8037
▁Museum	-8038
▁register	-8039
▁constitutional	-8040
uma	-8041
▁6.	-8042
▁Vancouver	-8043
▁accus	-8044
▁complaints	-8045
▁(0	-8046
▁remem	-8047
▁versus	-8048
▁neighbour	-8049
▁vary	-8050
▁welf	-8051
▁lobby	-8052
▁Ap	-8053
phones	-8054
▁discovery	-8055
rator	-8056
▁Cleveland	-8057
Pe	-8058
imm	-8059
▁Lewis	-8060
▁Dave	-8061
▁tweeted	-8062
▁scandal	-8063
▁Bon	-8064
▁wages	-8065
▁logic	-8066
ifest	-8067
aun	-8068
▁vital	-8069
including	-8070
▁wine	-8071
▁implemented	-8072
▁III	-8073
▁theat	-8074
▁welfare	-8075
▁trem	-8076
▁scores	-8077
▁HD	-8078
uros	-8079
▁anger	-8080
nedy	-8081
▁Guardian	-8082
▁fantasy	-8083
▁heading	-8084
aning	-8085
▁strategic	-8086
aus	-8087
inois	-8088
achusetts	-8089
wo	-8090
▁?	-8091
▁tone	-8092
▁attempting	-8093
▁platforms	-8094
▁Hospital	-8095
▁Liver	-8096
▁remarks	-8097
▁Columbia	-8098
▁€	-8099
▁9,	-8100
▁cos	-8101
engers	-8102
▁incorpor	-8103
pload	-8104
udes	-8105
▁brill	-8106
▁ranked	-8107
ecut	-8108
▁expanded	-8109
▁Expl	-8110
hour	-8111
▁AND	-8112
angel	-8113
▁casual	-8114
▁practical	-8115
▁behaviour	-8116
▁fab	-8117
▁framework	-8118
▁Queen	-8119
▁Death	-8120
▁sin	-8121
":	-8122
▁Samsung	-8123
▁soph	-8124
gener	-8125
▁sorry	-8126
▁holiday	-8127
▁Ho	-8128
▁outs	-8129
▁Vegas	-8130
▁reprodu	-8131
▁smoke	-8132
▁ingred	-8133
ihad	-8134
▁Tro	-8135
▁noise	-8136
▁comprehens	-8137
case	-8138
▁democratic	-8139
▁transgender	-8140
▁Six	-8141
▁opinions	-8142
▁reven	-8143
▁screens	-8144
▁Gaza	-8145
▁activist	-8146
een	-8147
xit	-8148
▁captain	-8149
▁conspiracy	-8150
▁prosec	-8151
▁NOT	-8152
xx	-8153
▁investigating	-8154
▁Po	-8155
▁define	-8156
▁discussions	-8157
▁stake	-8158
▁trained	-8159
▁wars	-8160
▁ignore	-8161
▁Chair	-8162
▁licens	-8163
▁shit	-8164
▁spaces	-8165
▁Chel	-8166
▁awareness	-8167
▁recommended	-8168
mary	-8169
▁190	-8170
▁2017,	-8171
Getty	-8172
▁purchased	-8173
▁Massachusetts	-8174
▁temporary	-8175
.[4	-8176
▁publication	-8177
▁iP	-8178
▁Adv	-8179
▁affairs	-8180
icking	-8181
▁enormous	-8182
▁Jam	-8183
▁iOS	-8184
itionally	-8185
▁Exper	-8186
▁400	-8187
▁depends	-8188
▁testim	-8189
▁mo	-8190
▁suspected	-8191
▁Engine	-8192
▁stupid	-8193
▁regulation	-8194
▁Intelligence	-8195
▁Bang	-8196
▁Copy	-8197
▁Form	-8198
▁Tour	-8199
▁visitors	-8200
▁coaches	-8201
▁referring	-8202
▁tasks	-8203
▁attached	-8204
▁WW	-8205
▁providers	-8206
▁47	-8207
▁fears	-8208
▁jur	-8209
▁celeb	-8210
aka	-8211
▁resign	-8212
▁Revolution	-8213
▁15,	-8214
▁amid	-8215
▁Price	-8216
▁estimate	-8217
osit	-8218
▁tomorrow	-8219
▁cro	-8220
▁entertainment	-8221
ndum	-8222
repre	-8223
▁grounds	-8224
▁factory	-8225
▁disagree	-8226
▁dramatic	-8227
page	-8228
▁gear	-8229
▁2003	-8230
▁layer	-8231
▁Las	-8232
▁UC	-8233
▁Ast	-8234
▁Below	-8235
ictions	-8236
▁Stadium	-8237
▁races	-8238
▁Kennedy	-8239
▁seemingly	-8240
▁lowest	-8241
▁Freedom	-8242
▁API	-8243
▁Iranian	-8244
▁eastern	-8245
▁embarrass	-8246
▁humanity	-8247
▁ultimate	-8248
▁civilians	-8249
▁Sure	-8250
▁legs	-8251
▁Control	-8252
▁Prov	-8253
▁settings	-8254
▁recall	-8255
▁petition	-8256
▁admit	-8257
AF	-8258
▁horse	-8259
▁Lyn	-8260
▁symptoms	-8261
▁addressed	-8262
arry	-8263
▁Denver	-8264
▁covers	-8265
dy	-8266
▁Pitt	-8267
▁bureau	-8268
EG	-8269
▁Football	-8270
acon	-8271
▁absence	-8272
▁Illinois	-8273
▁rook	-8274
Every	-8275
▁actors	-8276
oval	-8277
▁Low	-8278
▁Mill	-8279
reprene	-8280
▁involves	-8281
▁1:	-8282
▁colors	-8283
agg	-8284
oding	-8285
▁Yeah	-8286
▁Credit	-8287
▁Abb	-8288
▁collective	-8289
▁consistently	-8290
▁investigators	-8291
▁intervention	-8292
▁Sarah	-8293
▁clothes	-8294
▁Main	-8295
▁dynamic	-8296
PC	-8297
dri	-8298
▁Ba	-8299
▁suspended	-8300
▁liquid	-8301
▁throwing	-8302
▁Buff	-8303
▁Unlike	-8304
arms	-8305
▁brothers	-8306
vard	-8307
rison	-8308
▁raw	-8309
▁inflation	-8310
▁20,	-8311
intendo	-8312
▁genetic	-8313
mad	-8314
▁transportation	-8315
hot	-8316
▁mos	-8317
▁loans	-8318
▁Norm	-8319
▁rational	-8320
ordon	-8321
ammed	-8322
cific	-8323
▁foss	-8324
▁fulf	-8325
▁43	-8326
ipal	-8327
▁inquir	-8328
▁neck	-8329
▁disrupt	-8330
▁Unt	-8331
▁advocates	-8332
▁steel	-8333
inch	-8334
yer	-8335
Script	-8336
▁surf	-8337
▁papers	-8338
With	-8339
▁Sel	-8340
▁resource	-8341
▁Howard	-8342
▁portray	-8343
▁ranks	-8344
▁missile	-8345
▁stayed	-8346
▁entr	-8347
iability	-8348
▁diversity	-8349
!)	-8350
▁displ	-8351
RC	-8352
▁Patri	-8353
▁contributions	-8354
▁bars	-8355
plete	-8356
▁fallen	-8357
▁preced	-8358
▁Design	-8359
otype	-8360
esh	-8361
cience	-8362
▁noting	-8363
lah	-8364
geon	-8365
▁reads	-8366
▁forest	-8367
▁handed	-8368
65	-8369
▁Age	-8370
▁drew	-8371
▁rhet	-8372
▁Ted	-8373
▁offices	-8374
▁substantial	-8375
▁extend	-8376
▁improvement	-8377
eding	-8378
▁chapter	-8379
▁guest	-8380
cover	-8381
▁closing	-8382
▁Creat	-8383
▁mad	-8384
▁spoken	-8385
▁gam	-8386
▁conversations	-8387
amac	-8388
▁Run	-8389
▁Event	-8390
▁Portland	-8391
▁mountain	-8392
▁Front	-8393
▁swing	-8394
▁Iraqi	-8395
▁salary	-8396
▁Justin	-8397
▁subjects	-8398
▁Prop	-8399
ultural	-8400
▁virtually	-8401
▁voter	-8402
▁monitor	-8403
▁personality	-8404
pat	-8405
▁12,	-8406
▁samples	-8407
▁photograp	-8408
▁Fall	-8409
▁porn	-8410
'.	-8411
▁hypot	-8412
▁shr	-8413
▁legitimate	-8414
▁lucky	-8415
▁fantastic	-8416
▁2011.	-8417
▁judges	-8418
ivals	-8419
▁poly	-8420
▁Five	-8421
ila	-8422
▁Rather	-8423
EE	-8424
▁Short	-8425
iences	-8426
ective	-8427
▁handling	-8428
▁improving	-8429
▁encouraged	-8430
AG	-8431
▁fruit	-8432
▁careful	-8433
keep	-8434
ommod	-8435
▁Line	-8436
▁mic	-8437
▁viewed	-8438
flix	-8439
fund	-8440
▁reader	-8441
umin	-8442
ropri	-8443
▁lands	-8444
▁marks	-8445
</	-8446
▁Mexican	-8447
▁ballot	-8448
▁profits	-8449
▁attitude	-8450
▁lying	-8451
▁Budd	-8452
▁Common	-8453
▁10.	-8454
▁authent	-8455
maker	-8456
▁mining	-8457
▁Associated	-8458
▁horror	-8459
▁warrant	-8460
▁medicine	-8461
▁AI	-8462
▁gal	-8463
▁Getty	-8464
▁speaks	-8465
▁overs	-8466
▁appreciate	-8467
itage	-8468
▁incidents	-8469
▁divided	-8470
claim	-8471
87	-8472
▁Ur	-8473
▁Corpor	-8474
▁festival	-8475
▁km	-8476
Im	-8477
▁cust	-8478
▁Marsh	-8479
▁console	-8480
▁Base	-8481
▁Technology	-8482
▁boat	-8483
▁chat	-8484
▁tries	-8485
▁presum	-8486
▁Ontario	-8487
▁cogn	-8488
▁Mrs	-8489
▁Master	-8490
serv	-8491
▁shoulder	-8492
yo	-8493
▁coc	-8494
▁Eag	-8495
▁midfield	-8496
▁Beck	-8497
▁protecting	-8498
EST	-8499
▁Hind	-8500
▁Marvel	-8501
▁Jonathan	-8502
::	-8503
▁Hon	-8504
))	-8505
▁promises	-8506
▁spokesperson	-8507
amacare	-8508
inction	-8509
unes	-8510
rient	-8511
▁conce	-8512
aval	-8513
▁Nintendo	-8514
▁dance	-8515
▁astron	-8516
▁tea	-8517
▁Speaking	-8518
plate	-8519
▁Graham	-8520
▁blast	-8521
▁Liverpool	-8522
▁7.	-8523
▁Warren	-8524
▁guarantee	-8525
▁compe	-8526
▁gains	-8527
▁premium	-8528
RI	-8529
▁wrest	-8530
▁referendum	-8531
▁joke	-8532
▁maps	-8533
▁grav	-8534
▁musical	-8535
▁Ever	-8536
aping	-8537
▁Utah	-8538
heim	-8539
rets	-8540
▁Indiana	-8541
39	-8542
▁covering	-8543
▁bub	-8544
▁shout	-8545
▁insist	-8546
PP	-8547
▁NATO	-8548
bi	-8549
▁temperatures	-8550
▁hint	-8551
▁grid	-8552
▁abst	-8553
▁locked	-8554
▁distributed	-8555
66	-8556
uted	-8557
▁2001	-8558
ported	-8559
▁brown	-8560
inf	-8561
▁Kong	-8562
▁innovation	-8563
▁je	-8564
▁subsequent	-8565
▁Final	-8566
▁(“	-8567
▁yellow	-8568
uction	-8569
des	-8570
abeth	-8571
▁auto	-8572
▁Bron	-8573
▁revel	-8574
▁threw	-8575
▁Alexander	-8576
wered	-8577
▁inner	-8578
▁funded	-8579
▁spiritual	-8580
uits	-8581
▁protocol	-8582
raph	-8583
▁Tes	-8584
Not	-8585
▁Moon	-8586
▁acknowledged	-8587
▁dump	-8588
zed	-8589
▁Hur	-8590
ounce	-8591
▁beauty	-8592
▁depression	-8593
▁41	-8594
▁Ruby	-8595
▁Girl	-8596
▁Kar	-8597
▁rom	-8598
itter	-8599
backs	-8600
▁symp	-8601
▁accommod	-8602
▁Deb	-8603
▁LA	-8604
ijing	-8605
▁nomination	-8606
▁conservatives	-8607
▁Hold	-8608
▁2:	-8609
▁Bra	-8610
▁30,	-8611
▁Tech	-8612
▁16,	-8613
▁moon	-8614
▁silver	-8615
▁naturally	-8616
▁Trib	-8617
▁Award	-8618
▁replacement	-8619
▁programme	-8620
▁diverse	-8621
oded	-8622
▁skept	-8623
▁Cooper	-8624
▁criticized	-8625
▁monitoring	-8626
assador	-8627
▁arrive	-8628
▁Code	-8629
▁Ten	-8630
scale	-8631
▁march	-8632
▁assessment	-8633
pled	-8634
▁Mach	-8635
▁Roberts	-8636
▁Bloom	-8637
▁stolen	-8638
▁Pict	-8639
▁legacy	-8640
esty	-8641
▁virus	-8642
▁Les	-8643
ctic	-8644
++	-8645
▁checks	-8646
These	-8647
▁acquired	-8648
▁equality	-8649
▁18,	-8650
▁mistakes	-8651
▁Equ	-8652
▁racism	-8653
▁Chelsea	-8654
▁instrument	-8655
annels	-8656
▁tracking	-8657
▁bacter	-8658
▁Article	-8659
▁Vill	-8660
▁headquarters	-8661
▁stages	-8662
▁ec	-8663
▁comedy	-8664
argo	-8665
▁efficiency	-8666
▁joy	-8667
▁Dream	-8668
▁Mun	-8669
▁Left	-8670
▁lets	-8671
ogs	-8672
▁dismissed	-8673
▁deficit	-8674
erted	-8675
▁Olympic	-8676
▁buff	-8677
▁soil	-8678
▁landscape	-8679
▁performing	-8680
ixed	-8681
▁drama	-8682
▁sty	-8683
acket	-8684
▁2020	-8685
▁Bureau	-8686
▁tie	-8687
▁extraord	-8688
▁literature	-8689
▁presidency	-8690
▁trave	-8691
▁breaks	-8692
▁waters	-8693
▁studied	-8694
▁DO	-8695
▁tape	-8696
▁spokeswoman	-8697
84	-8698
aeda	-8699
▁commonly	-8700
▁demonstrated	-8701
WS	-8702
▁cance	-8703
cut	-8704
▁Lear	-8705
▁Edward	-8706
▁Empire	-8707
▁rescue	-8708
ieties	-8709
▁transactions	-8710
▁shopping	-8711
▁targeting	-8712
▁Non	-8713
▁Atlantic	-8714
▁Ak	-8715
▁plain	-8716
▁inequ	-8717
▁3-	-8718
▁Hu	-8719
high	-8720
▁clock	-8721
▁scope	-8722
▁homeless	-8723
▁responses	-8724
▁capabilities	-8725
▁barrel	-8726
▁Sweden	-8727
▁ramp	-8728
▁Everyone	-8729
▁forecast	-8730
▁hung	-8731
▁supplies	-8732
▁introduction	-8733
▁Cro	-8734
type	-8735
▁guitar	-8736
▁universities	-8737
Well	-8738
▁replied	-8739
lahoma	-8740
made	-8741
▁Liberal	-8742
▁insisted	-8743
▁falls	-8744
eries	-8745
▁Beijing	-8746
▁exit	-8747
-19	-8748
▁politically	-8749
▁entitled	-8750
olph	-8751
▁Eliz	-8752
▁trigger	-8753
UN	-8754
▁upgrade	-8755
▁rear	-8756
▁letting	-8757
▁representing	-8758
irts	-8759
▁Early	-8760
▁ordinary	-8761
▁abandoned	-8762
▁protein	-8763
▁warn	-8764
▁rif	-8765
▁10-	-8766
▁distract	-8767
▁Silver	-8768
▁McK	-8769
▁Jere	-8770
▁conventional	-8771
▁counts	-8772
▁fro	-8773
▁Figure	-8774
▁Netflix	-8775
▁ignored	-8776
▁accomplish	-8777
▁Wolf	-8778
ais	-8779
▁margin	-8780
8)	-8781
89	-8782
pie	-8783
▁render	-8784
▁dust	-8785
▁abroad	-8786
archy	-8787
▁burden	-8788
▁cig	-8789
comes	-8790
itary	-8791
▁usage	-8792
▁dub	-8793
▁rocket	-8794
▁partnership	-8795
erts	-8796
▁Uber	-8797
▁assert	-8798
▁receiver	-8799
iley	-8800
▁tips	-8801
▁helpful	-8802
▁appointed	-8803
▁veterans	-8804
▁Ali	-8805
Trump	-8806
bridge	-8807
▁measured	-8808
ref	-8809
▁hyper	-8810
▁Cow	-8811
▁salt	-8812
▁urged	-8813
RL	-8814
▁visiting	-8815
ira	-8816
iate	-8817
▁Harvard	-8818
▁reliable	-8819
▁Bud	-8820
▁blocked	-8821
▁transit	-8822
fol	-8823
▁scan	-8824
▁wider	-8825
aware	-8826
▁hoped	-8827
▁21,	-8828
▁Tele	-8829
▁ratio	-8830
arring	-8831
▁patch	-8832
▁Children	-8833
▁Reddit	-8834
▁Governor	-8835
▁Maryland	-8836
ika	-8837
▁Carter	-8838
emed	-8839
▁stone	-8840
▁populations	-8841
▁shadow	-8842
▁Belg	-8843
▁passengers	-8844
▁brilliant	-8845
▁Galaxy	-8846
App	-8847
encing	-8848
▁quote	-8849
▁None	-8850
▁Sean	-8851
▁Hamilton	-8852
▁Anna	-8853
shire	-8854
▁copies	-8855
▁Wr	-8856
▁dad	-8857
hesis	-8858
▁actively	-8859
ught	-8860
▁Priv	-8861
▁Bible	-8862
through	-8863
iano	-8864
▁clar	-8865
▁Der	-8866
▁Eth	-8867
▁Som	-8868
▁soccer	-8869
theless	-8870
▁Represent	-8871
▁classified	-8872
▁Cho	-8873
▁smartphone	-8874
isk	-8875
rec	-8876
dney	-8877
▁mun	-8878
ested	-8879
▁Oklahoma	-8880
zing	-8881
▁Roll	-8882
▁2002	-8883
▁absor	-8884
enez	-8885
▁Bruce	-8886
har	-8887
▁domain	-8888
▁drove	-8889
▁Obamacare	-8890
▁les	-8891
▁predicted	-8892
▁Hope	-8893
ecutive	-8894
▁banking	-8895
isons	-8896
▁Would	-8897
▁hockey	-8898
========	-8899
▁compare	-8900
ped	-8901
▁parallel	-8902
▁violation	-8903
▁centers	-8904
▁assign	-8905
▁fool	-8906
▁Tai	-8907
▁exch	-8908
▁dates	-8909
▁wedd	-8910
▁approached	-8911
▁ves	-8912
rooms	-8913
▁Custom	-8914
▁firing	-8915
▁congressional	-8916
omes	-8917
————	-8918
conf	-8919
▁reforms	-8920
▁concrete	-8921
atar	-8922
▁rush	-8923
▁senator	-8924
▁mathem	-8925
TT	-8926
▁twenty	-8927
▁retirement	-8928
▁entreprene	-8929
.[5	-8930
opher	-8931
▁objective	-8932
▁Mess	-8933
▁1.5	-8934
▁documentary	-8935
mony	-8936
▁requested	-8937
▁popularity	-8938
irlf	-8939
only	-8940
▁whenever	-8941
elson	-8942
▁mini	-8943
▁Crime	-8944
▁forcing	-8945
▁ax	-8946
▁unions	-8947
pton	-8948
▁survival	-8949
▁cul	-8950
▁Gary	-8951
▁loose	-8952
▁satellite	-8953
ompson	-8954
▁unpre	-8955
plus	-8956
▁Friend	-8957
▁monthly	-8958
▁museum	-8959
irlfriend	-8960
▁Bridge	-8961
▁mac	-8962
orous	-8963
held	-8964
▁CL	-8965
▁Boe	-8966
▁Vietnam	-8967
▁testimony	-8968
▁Eff	-8969
▁hosp	-8970
▁servers	-8971
▁13,	-8972
▁Vice	-8973
▁mole	-8974
▁swim	-8975
eters	-8976
▁Andre	-8977
▁shame	-8978
▁prisoners	-8979
aga	-8980
crib	-8981
▁Trade	-8982
usalem	-8983
▁14,	-8984
▁(199	-8985
▁lunch	-8986
ultane	-8987
▁persons	-8988
▁Leon	-8989
▁Scottish	-8990
▁bread	-8991
▁weigh	-8992
▁19,	-8993
▁universal	-8994
▁phenomenon	-8995
▁appearances	-8996
acco	-8997
ennis	-8998
rapped	-8999
▁Tennes	-9000
▁Lam	-9001
▁phrase	-9002
▁Hong	-9003
▁17,	-9004
▁Mult	-9005
jud	-9006
▁broader	-9007
▁proposals	-9008
▁restaurants	-9009
▁membership	-9010
▁quoted	-9011
ederation	-9012
door	-9013
▁stability	-9014
▁surely	-9015
▁Sab	-9016
▁95	-9017
▁settled	-9018
▁tens	-9019
scribe	-9020
▁Dutch	-9021
▁Indust	-9022
▁reveals	-9023
▁pursue	-9024
ocument	-9025
ounding	-9026
▁Iron	-9027
▁argues	-9028
▁analyst	-9029
▁anxiety	-9030
▁prepar	-9031
▁scientist	-9032
▁Brexit	-9033
▁childhood	-9034
▁Cra	-9035
▁neuro	-9036
▁wealthy	-9037
ois	-9038
▁Fal	-9039
▁graduate	-9040
apolis	-9041
olves	-9042
▁artific	-9043
▁investigations	-9044
▁sequence	-9045
▁discour	-9046
icism	-9047
uper	-9048
oenix	-9049
▁abilities	-9050
▁focusing	-9051
onder	-9052
▁legislative	-9053
▁demanding	-9054
▁Much	-9055
▁contrad	-9056
▁overseas	-9057
▁Bi	-9058
▁introduce	-9059
Do	-9060
FA	-9061
press	-9062
▁newsletter	-9063
▁8.	-9064
▁Being	-9065
▁tactics	-9066
▁Marx	-9067
▁employed	-9068
▁encounter	-9069
44	-9070
▁cream	-9071
▁Gulf	-9072
▁tonight	-9073
mers	-9074
▁saving	-9075
▁unexpected	-9076
iamond	-9077
▁releases	-9078
▁Instagram	-9079
▁Support	-9080
▁Magic	-9081
bow	-9082
minute	-9083
▁burning	-9084
▁PD	-9085
ouri	-9086
▁keys	-9087
▁Comey	-9088
afe	-9089
UST	-9090
▁PH	-9091
▁anniversary	-9092
ji	-9093
ela	-9094
▁$20	-9095
mat	-9096
ctr	-9097
▁Ark	-9098
▁adventure	-9099
aver	-9100
mans	-9101
▁struggled	-9102
▁importantly	-9103
▁designs	-9104
itol	-9105
▁fate	-9106
▁thorough	-9107
▁experiments	-9108
▁provision	-9109
▁differently	-9110
oret	-9111
▁savings	-9112
▁athletes	-9113
▁butt	-9114
▁representatives	-9115
sl	-9116
▁tab	-9117
▁Sound	-9118
▁Metro	-9119
▁smell	-9120
hop	-9121
duction	-9122
▁breath	-9123
VE	-9124
rection	-9125
berry	-9126
▁okay	-9127
▁Batman	-9128
▁celebrate	-9129
▁24,	-9130
asury	-9131
▁Az	-9132
▁consent	-9133
▁hydro	-9134
▁deserve	-9135
asant	-9136
▁dying	-9137
▁CS	-9138
asty	-9139
▁22,	-9140
▁Opp	-9141
▁trillion	-9142
▁Store	-9143
▁Oakland	-9144
▁producers	-9145
▁prosecutors	-9146
▁healthcare	-9147
▁PA	-9148
▁innocent	-9149
▁pron	-9150
▁suspects	-9151
trans	-9152
▁ages	-9153
▁Palestinians	-9154
hatt	-9155
▁Nev	-9156
▁Tok	-9157
▁bias	-9158
▁roof	-9159
▁striking	-9160
▁Others	-9161
▁gent	-9162
▁toxic	-9163
▁Gordon	-9164
▁Festival	-9165
▁persu	-9166
▁mit	-9167
▁Thompson	-9168
▁Gre	-9169
▁Jerusalem	-9170
▁Therefore	-9171
▁Est	-9172
▁fing	-9173
▁drone	-9174
▁rooms	-9175
▁kilomet	-9176
▁Moreover	-9177
▁channels	-9178
▁threatening	-9179
pa	-9180
▁flags	-9181
▁odds	-9182
▁Clark	-9183
▁Capital	-9184
▁Official	-9185
iev	-9186
abet	-9187
▁Simon	-9188
▁fighter	-9189
▁Bal	-9190
▁delic	-9191
▁Berlin	-9192
▁meaningful	-9193
▁rounds	-9194
ahu	-9195
▁deny	-9196
▁acid	-9197
ses	-9198
▁preparing	-9199
▁sorts	-9200
▁generations	-9201
▁aer	-9202
Why	-9203
▁Yemen	-9204
▁civilian	-9205
▁promising	-9206
▁perm	-9207
▁Quest	-9208
▁Sydney	-9209
▁pointing	-9210
▁sear	-9211
tenance	-9212
▁Leader	-9213
▁Morgan	-9214
▁picks	-9215
▁pig	-9216
▁intim	-9217
mind	-9218
People	-9219
▁spots	-9220
▁Elizabeth	-9221
▁Crit	-9222
▁consideration	-9223
▁Wel	-9224
cedented	-9225
55	-9226
▁alarm	-9227
▁deadly	-9228
▁errors	-9229
▁arguing	-9230
▁demonstrate	-9231
BM	-9232
yes	-9233
break	-9234
▁bonus	-9235
▁affordable	-9236
▁Gil	-9237
▁mortg	-9238
▁rookie	-9239
▁Michel	-9240
▁outrage	-9241
VD	-9242
▁cow	-9243
▁Assembly	-9244
▁pipeline	-9245
▁Lt	-9246
,000.	-9247
▁titled	-9248
▁exha	-9249
igious	-9250
▁weekly	-9251
▁staying	-9252
▁100%	-9253
▁stored	-9254
▁competing	-9255
▁Should	-9256
▁2007,	-9257
lee	-9258
aved	-9259
bered	-9260
▁comprehensive	-9261
▁_	-9262
▁opens	-9263
▁tremend	-9264
don	-9265
▁Kick	-9266
▁Management	-9267
▁instructions	-9268
ocolate	-9269
▁lapt	-9270
orious	-9271
▁playoffs	-9272
▁propaganda	-9273
ito	-9274
▁Total	-9275
▁drives	-9276
▁54	-9277
▁questioned	-9278
▁contribution	-9279
▁YOU	-9280
isa	-9281
▁25,	-9282
▁puzz	-9283
▁Until	-9284
igate	-9285
▁Online	-9286
▁promoting	-9287
Star	-9288
alia	-9289
▁inches	-9290
agh	-9291
▁Son	-9292
▁secondary	-9293
▁ratings	-9294
▁maintained	-9295
▁Think	-9296
▁Murray	-9297
▁torture	-9298
.-	-9299
enter	-9300
▁endorse	-9301
▁stepped	-9302
▁ele	-9303
▁fundra	-9304
▁Could	-9305
▁smoking	-9306
▁Remember	-9307
omed	-9308
acts	-9309
▁harassment	-9310
▁dispute	-9311
▁wounded	-9312
▁23,	-9313
▁MLS	-9314
▁awarded	-9315
▁defeated	-9316
▁sevent	-9317
▁assumed	-9318
▁highlights	-9319
they	-9320
king	-9321
▁reverse	-9322
▁birds	-9323
▁openly	-9324
▁chest	-9325
▁Jean	-9326
▁Local	-9327
▁bin	-9328
▁Hart	-9329
▁voices	-9330
▁landing	-9331
▁26,	-9332
FF	-9333
▁custody	-9334
▁Li	-9335
▁Capt	-9336
▁Charlie	-9337
▁Station	-9338
▁wanting	-9339
▁Tennessee	-9340
▁gif	-9341
▁pocket	-9342
▁27,	-9343
▁coinc	-9344
▁silence	-9345
holders	-9346
▁possess	-9347
▁frequency	-9348
▁emerging	-9349
▁Jenn	-9350
▁Harper	-9351
***	-9352
▁precisely	-9353
ethe	-9354
76	-9355
▁GT	-9356
▁circle	-9357
▁Download	-9358
▁fur	-9359
▁lux	-9360
▁streaming	-9361
even	-9362
▁categories	-9363
7)	-9364
▁Sa	-9365
▁Occ	-9366
▁disorder	-9367
▁gross	-9368
▁Access	-9369
▁memories	-9370
bury	-9371
▁Holl	-9372
▁calm	-9373
▁judgment	-9374
▁relax	-9375
akh	-9376
▁spell	-9377
ishop	-9378
▁hosted	-9379
▁terr	-9380
ierce	-9381
walk	-9382
▁Tax	-9383
▁memo	-9384
▁distingu	-9385
umble	-9386
▁aged	-9387
▁ease	-9388
▁implications	-9389
▁Affairs	-9390
▁ministry	-9391
▁hal	-9392
▁semi	-9393
orable	-9394
▁Pentagon	-9395
▁investments	-9396
lined	-9397
portation	-9398
cest	-9399
▁battles	-9400
▁windows	-9401
▁ceremony	-9402
bits	-9403
▁Digital	-9404
▁Libya	-9405
▁participation	-9406
▁Arsenal	-9407
4)	-9408
▁120	-9409
▁2010.	-9410
iffs	-9411
▁fossil	-9412
▁waves	-9413
▁dating	-9414
▁discount	-9415
▁strategies	-9416
▁assigned	-9417
olds	-9418
▁28,	-9419
▁knee	-9420
▁repeat	-9421
▁greatly	-9422
▁backing	-9423
EP	-9424
▁borders	-9425
atern	-9426
▁guidelines	-9427
etch	-9428
▁Staff	-9429
▁shipping	-9430
▁presentation	-9431
pha	-9432
▁stem	-9433
▁autonom	-9434
▁dialogue	-9435
week	-9436
▁execution	-9437
▁Page	-9438
▁assass	-9439
▁addresses	-9440
▁physically	-9441
▁trials	-9442
sect	-9443
▁Things	-9444
bu	-9445
ceptions	-9446
▁cooperation	-9447
step	-9448
▁Sud	-9449
annon	-9450
izer	-9451
▁remarkable	-9452
aria	-9453
▁simultane	-9454
▁consensus	-9455
▁therapy	-9456
▁architecture	-9457
▁Had	-9458
▁revers	-9459
▁Additionally	-9460
▁vig	-9461
icity	-9462
▁Intel	-9463
▁Hand	-9464
▁superior	-9465
▁legally	-9466
▁difficulty	-9467
▁Vik	-9468
▁nerv	-9469
▁grade	-9470
▁riding	-9471
▁managing	-9472
▁clothing	-9473
▁contacted	-9474
▁charity	-9475
▁bow	-9476
▁inspect	-9477
▁transaction	-9478
31	-9479
▁surviv	-9480
▁IC	-9481
aders	-9482
▁dish	-9483
inator	-9484
▁Bow	-9485
▁tap	-9486
organ	-9487
assy	-9488
orship	-9489
▁chicken	-9490
party	-9491
▁Captain	-9492
▁Box	-9493
igenous	-9494
▁picking	-9495
▁submitted	-9496
herent	-9497
vertisements	-9498
▁tables	-9499
▁Executive	-9500
▁Stew	-9501
Sp	-9502
was	-9503
▁Know	-9504
▁accessible	-9505
acher	-9506
▁Kentucky	-9507
omy	-9508
▁recipe	-9509
▁damaged	-9510
▁fled	-9511
▁alter	-9512
ds	-9513
▁mood	-9514
▁divor	-9515
▁recruit	-9516
▁expanding	-9517
▁procedure	-9518
iki	-9519
▁racing	-9520
▁perceived	-9521
▁Mit	-9522
▁whereas	-9523
▁clinical	-9524
gered	-9525
▁crus	-9526
▁Photos	-9527
math	-9528
ova	-9529
▁smile	-9530
▁Editor	-9531
▁passage	-9532
▁studying	-9533
stal	-9534
▁defending	-9535
▁executives	-9536
after	-9537
izza	-9538
▁Wales	-9539
▁stops	-9540
9)	-9541
odox	-9542
gence	-9543
▁eligible	-9544
▁arrival	-9545
gus	-9546
aki	-9547
riors	-9548
▁enthusi	-9549
AY	-9550
lando	-9551
lla	-9552
▁hip	-9553
▁capitalism	-9554
hard	-9555
▁rhetoric	-9556
▁intr	-9557
oln	-9558
▁Hal	-9559
Hz	-9560
▁51	-9561
aration	-9562
▁regulatory	-9563
▁Dod	-9564
▁nin	-9565
▁Alan	-9566
▁kitchen	-9567
▁spectrum	-9568
▁donations	-9569
▁Ku	-9570
▁CON	-9571
▁muscle	-9572
▁hopefully	-9573
die	-9574
ylum	-9575
▁Imm	-9576
▁GO	-9577
▁manifest	-9578
▁educational	-9579
▁Yan	-9580
▁CA	-9581
▁sed	-9582
achel	-9583
▁Assad	-9584
▁module	-9585
alysis	-9586
▁underlying	-9587
▁$8	-9588
▁Phill	-9589
▁obsc	-9590
▁tired	-9591
rif	-9592
▁("	-9593
▁industries	-9594
▁graphics	-9595
▁theories	-9596
▁Disc	-9597
▁Dur	-9598
▁Ref	-9599
▁Rest	-9600
▁bowl	-9601
▁organic	-9602
▁punishment	-9603
▁Third	-9604
▁coaching	-9605
author	-9606
ailed	-9607
▁shell	-9608
▁insult	-9609
▁arbit	-9610
licop	-9611
▁$100	-9612
▁sentenced	-9613
▁acknowledge	-9614
▁followers	-9615
▁tut	-9616
▁pill	-9617
▁centuries	-9618
▁ans	-9619
▁Cole	-9620
▁sixth	-9621
▁hire	-9622
▁formation	-9623
▁counterpart	-9624
▁Case	-9625
▁Ox	-9626
▁eager	-9627
▁merch	-9628
▁trends	-9629
▁Player	-9630
▁Furthermore	-9631
▁EPA	-9632
▁52	-9633
itual	-9634
▁Burn	-9635
▁enhance	-9636
▁indicates	-9637
▁roy	-9638
▁bot	-9639
js	-9640
▁Pers	-9641
▁pharm	-9642
▁echo	-9643
▁signature	-9644
▁engineers	-9645
arre	-9646
▁unfair	-9647
▁blank	-9648
▁impression	-9649
▁Fant	-9650
▁info	-9651
vision	-9652
▁seed	-9653
▁stance	-9654
▁Delhi	-9655
▁Hawai	-9656
▁Phoenix	-9657
▁preferred	-9658
uten	-9659
cosystem	-9660
▁gig	-9661
▁nic	-9662
▁rend	-9663
ogy	-9664
▁Khan	-9665
▁gate	-9666
▁Russell	-9667
▁arr	-9668
enezuel	-9669
▁helicop	-9670
▁billions	-9671
▁beings	-9672
▁substance	-9673
agic	-9674
AND	-9675
child	-9676
▁stere	-9677
▁rebels	-9678
▁speaker	-9679
oz	-9680
▁sovere	-9681
▁Aaron	-9682
▁Psych	-9683
▁shield	-9684
▁Ban	-9685
▁badly	-9686
▁hospitals	-9687
▁managers	-9688
▁tons	-9689
▁recre	-9690
Go	-9691
van	-9692
▁Economic	-9693
▁talented	-9694
▁Bol	-9695
▁gathering	-9696
▁searching	-9697
▁Ze	-9698
▁foods	-9699
▁principal	-9700
▁compensation	-9701
base	-9702
atively	-9703
▁CC	-9704
▁ridiculous	-9705
▁GDP	-9706
▁Writ	-9707
▁scrut	-9708
▁poison	-9709
iture	-9710
▁diseases	-9711
▁bottle	-9712
.[10	-9713
▁unprecedented	-9714
Os	-9715
ateral	-9716
▁facilit	-9717
market	-9718
▁beating	-9719
▁dies	-9720
alties	-9721
▁rolling	-9722
▁everyday	-9723
▁instances	-9724
eria	-9725
TER	-9726
osa	-9727
▁periods	-9728
▁unve	-9729
ributes	-9730
▁timing	-9731
▁escal	-9732
▁explaining	-9733
▁Dragon	-9734
player	-9735
ptions	-9736
▁discussing	-9737
watch	-9738
olving	-9739
▁creatures	-9740
▁economics	-9741
▁56	-9742
▁Pitts	-9743
/10	-9744
roph	-9745
96	-9746
▁Montreal	-9747
▁tiss	-9748
▁engineer	-9749
▁parad	-9750
▁JavaScript	-9751
emic	-9752
▁Sav	-9753
▁BM	-9754
html	-9755
▁glad	-9756
▁adviser	-9757
ls	-9758
▁undert	-9759
▁na	-9760
▁beach	-9761
▁lineup	-9762
▁neighbors	-9763
▁Doctor	-9764
▁collaps	-9765
▁dominant	-9766
▁perception	-9767
▁encouraging	-9768
-12	-9769
▁Move	-9770
arts	-9771
▁Log	-9772
▁pulling	-9773
▁constitu	-9774
▁homosexual	-9775
Can	-9776
▁removal	-9777
▁butter	-9778
▁pollution	-9779
kee	-9780
▁grap	-9781
▁SU	-9782
▁2.0	-9783
▁arts	-9784
▁lad	-9785
owski	-9786
▁requiring	-9787
▁dramatically	-9788
▁Gill	-9789
▁math	-9790
▁requirement	-9791
▁lect	-9792
arency	-9793
▁Everything	-9794
▁Andy	-9795
▁loves	-9796
▁missions	-9797
▁setup	-9798
▁concepts	-9799
▁Ven	-9800
eared	-9801
▁coup	-9802
▁shoes	-9803
▁colour	-9804
istol	-9805
▁Jeremy	-9806
▁Continue	-9807
rac	-9808
agger	-9809
▁Barb	-9810
▁Gro	-9811
▁institution	-9812
pd	-9813
▁permit	-9814
********	-9815
▁Venezuel	-9816
▁Argent	-9817
▁posting	-9818
▁Independent	-9819
▁blockchain	-9820
▁procedures	-9821
▁citing	-9822
▁topics	-9823
ixture	-9824
▁deadline	-9825
check	-9826
▁Marine	-9827
eness	-9828
▁Antonio	-9829
▁outlets	-9830
▁utility	-9831
▁convince	-9832
▁overcome	-9833
▁loop	-9834
▁tweets	-9835
▁publishing	-9836
▁1950	-9837
/4	-9838
▁weakness	-9839
rowing	-9840
Reuters	-9841
opp	-9842
▁cler	-9843
▁Nothing	-9844
▁Find	-9845
▁commander	-9846
▁prospects	-9847
alling	-9848
▁10,000	-9849
left	-9850
▁Near	-9851
necess	-9852
▁Nevada	-9853
▁comics	-9854
▁sections	-9855
Now	-9856
ele	-9857
▁Dick	-9858
▁sheet	-9859
▁Bul	-9860
▁export	-9861
▁inequality	-9862
▁upload	-9863
▁analysts	-9864
▁traveling	-9865
▁arc	-9866
▁bold	-9867
▁elder	-9868
▁Orlando	-9869
iban	-9870
iac	-9871
▁cheaper	-9872
78	-9873
▁eliminate	-9874
▁Ocean	-9875
▁deployed	-9876
▁migrants	-9877
▁Publ	-9878
▁Perry	-9879
▁compat	-9880
oting	-9881
▁fatal	-9882
▁roots	-9883
▁Order	-9884
▁signals	-9885
fit	-9886
▁lift	-9887
▁sits	-9888
▁occurs	-9889
▁insight	-9890
▁frequent	-9891
▁interviewed	-9892
▁gene	-9893
NS	-9894
▁Tesla	-9895
▁Brooklyn	-9896
brid	-9897
▁segment	-9898
▁maintenance	-9899
▁Steel	-9900
▁girlfriend	-9901
▁psychological	-9902
sub	-9903
▁approaches	-9904
oca	-9905
▁eggs	-9906
▁designer	-9907
mic	-9908
▁85	-9909
▁owns	-9910
itudes	-9911
▁pm	-9912
▁53	-9913
icipal	-9914
▁disappointed	-9915
▁Future	-9916
▁answered	-9917
??	-9918
▁attractive	-9919
▁fo	-9920
const	-9921
▁Sheriff	-9922
▁Capitol	-9923
▁IM	-9924
ighth	-9925
▁notable	-9926
section	-9927
▁ecosystem	-9928
▁performances	-9929
▁Christopher	-9930
amps	-9931
▁shocked	-9932
▁recommendations	-9933
▁associate	-9934
▁violations	-9935
onz	-9936
▁labour	-9937
▁Han	-9938
▁fabric	-9939
▁emp	-9940
▁employers	-9941
▁span	-9942
▁genre	-9943
▁demanded	-9944
▁2019	-9945
▁invasion	-9946
▁manufacturers	-9947
▁Authority	-9948
▁cock	-9949
▁ET	-9950
.[1]	-9951
▁mask	-9952
▁variable	-9953
angle	-9954
▁Reagan	-9955
▁statist	-9956
▁Library	-9957
grade	-9958
▁Raj	-9959
▁dreams	-9960
▁Subscribe	-9961
aya	-9962
▁29,	-9963
▁inquiry	-9964
▁Trust	-9965
▁seized	-9966
screen	-9967
▁prize	-9968
▁Standard	-9969
▁aims	-9970
▁partly	-9971
▁Missouri	-9972
▁creature	-9973
▁moderate	-9974
▁representation	-9975
▁carries	-9976
▁communicate	-9977
▁Coal	-9978
incoln	-9979
▁Portug	-9980
▁pregnant	-9981
▁exclud	-9982
▁instant	-9983
▁mystery	-9984
▁vend	-9985
▁amendment	-9986
▁militants	-9987
oli	-9988
▁Indones	-9989
human	-9990
▁Table	-9991
▁couples	-9992
▁nose	-9993
▁Craig	-9994
▁guests	-9995
▁interaction	-9996
▁NS	-9997
▁bullet	-9998
▁libr	-9999
▁imposed	-10000
▁Reserve	-10001
▁ingredients	-10002
▁relation	-10003
▁buck	-10004
▁adopt	-10005
instein	-10006
▁explosion	-10007
apore	-10008
▁Climate	-10009
▁corrupt	-10010
▁integration	-10011
▁adequ	-10012
▁biological	-10013
cott	-10014
lly	-10015
▁genes	-10016
▁Officer	-10017
olar	-10018
▁3:	-10019
▁lessons	-10020
▁Comb	-10021
▁Change	-10022
▁logo	-10023
▁interior	-10024
▁Buy	-10025
▁Word	-10026
▁vocal	-10027
▁vert	-10028
hattan	-10029
▁correctly	-10030
▁drunk	-10031
▁knock	-10032
▁oppose	-10033
▁camps	-10034
build	-10035
oga	-10036
▁CB	-10037
ulty	-10038
leans	-10039
▁Convention	-10040
▁gest	-10041
▁hanging	-10042
VP	-10043
hr	-10044
▁Type	-10045
▁constitution	-10046
appropri	-10047
▁Tel	-10048
▁recon	-10049
▁00	-10050
▁Gab	-10051
▁Model	-10052
▁refuse	-10053
arted	-10054
▁diplomatic	-10055
▁cens	-10056
CA	-10057
news	-10058
wich	-10059
isdom	-10060
▁Hung	-10061
▁bands	-10062
▁tempor	-10063
▁Film	-10064
▁meal	-10065
▁Rs	-10066
▁Warner	-10067
▁reserved	-10068
umph	-10069
▁Mail	-10070
▁Pope	-10071
▁defender	-10072
▁extraordinary	-10073
▁maintaining	-10074
▁lesson	-10075
▁wedding	-10076
rix	-10077
▁choosing	-10078
▁Leban	-10079
5)	-10080
▁professionals	-10081
▁jihad	-10082
▁Oil	-10083
▁Pant	-10084
election	-10085
▁Channel	-10086
▁birthday	-10087
vi	-10088
▁Bes	-10089
▁punch	-10090
▁speakers	-10091
▁nurs	-10092
▁swit	-10093
▁Copyright	-10094
▁sustainable	-10095
▁suspic	-10096
quest	-10097
▁advocate	-10098
▁pa	-10099
▁Cars	-10100
▁euro	-10101
▁collaboration	-10102
LY	-10103
ials	-10104
netic	-10105
▁Duke	-10106
▁Stewart	-10107
▁Treasury	-10108
▁Band	-10109
▁Wright	-10110
▁Gh	-10111
agen	-10112
▁subscribe	-10113
▁jer	-10114
ricane	-10115
▁landed	-10116
▁volunteers	-10117
tra	-10118
▁towns	-10119
▁heroes	-10120
arget	-10121
estyle	-10122
▁shirt	-10123
▁Orleans	-10124
▁occasional	-10125
▁Ts	-10126
▁TR	-10127
iens	-10128
wa	-10129
▁Within	-10130
ipedia	-10131
▁distur	-10132
▁jumped	-10133
▁mice	-10134
▁contemporary	-10135
▁57	-10136
▁lifetime	-10137
Ob	-10138
▁desperate	-10139
▁occasionally	-10140
will	-10141
▁clip	-10142
▁stro	-10143
▁subsc	-10144
▁Robinson	-10145
▁Bor	-10146
▁probe	-10147
▁anonymous	-10148
▁20-	-10149
▁pleased	-10150
▁).	-10151
▁podcast	-10152
▁DE	-10153
300	-10154
▁accum	-10155
▁traged	-10156
▁intellig	-10157
erg	-10158
▁resolve	-10159
▁accompan	-10160
▁modified	-10161
gets	-10162
▁CR	-10163
▁opposing	-10164
▁prompted	-10165
▁Area	-10166
DR	-10167
▁robust	-10168
cor	-10169
endar	-10170
▁breast	-10171
▁compromise	-10172
▁Eve	-10173
throp	-10174
unity	-10175
▁Giants	-10176
▁Mother	-10177
▁desktop	-10178
▁Adams	-10179
Station	-10180
starter	-10181
▁electoral	-10182
▁irre	-10183
▁Hitler	-10184
▁Interest	-10185
▁expenses	-10186
▁sne	-10187
security	-10188
▁functional	-10189
▁Studies	-10190
▁Protection	-10191
▁annoy	-10192
▁stimul	-10193
▁sessions	-10194
cour	-10195
ixon	-10196
▁Looking	-10197
▁minimal	-10198
▁nervous	-10199
▁embrace	-10200
▁brutal	-10201
vernment	-10202
▁Jerry	-10203
▁Father	-10204
div	-10205
▁9.	-10206
owned	-10207
▁holes	-10208
▁confused	-10209
▁Marg	-10210
▁Rome	-10211
▁Ottawa	-10212
▁guid	-10213
▁ancest	-10214
▁donors	-10215
▁USB	-10216
▁summit	-10217
ibl	-10218
▁fleet	-10219
▁Manhattan	-10220
mir	-10221
▁Drug	-10222
▁submit	-10223
istle	-10224
acles	-10225
rying	-10226
▁journalism	-10227
Qu	-10228
▁flour	-10229
▁concerning	-10230
▁considerable	-10231
▁Lincoln	-10232
▁2009.	-10233
▁recalled	-10234
▁Pittsburgh	-10235
Yes	-10236
▁forum	-10237
▁harsh	-10238
▁Mountain	-10239
▁struggles	-10240
▁speculation	-10241
▁=>	-10242
▁displayed	-10243
▁boxes	-10244
▁silent	-10245
▁emotions	-10246
▁flee	-10247
▁Singapore	-10248
▁ideology	-10249
▁surrounded	-10250
race	-10251
▁Ukrainian	-10252
▁Resp	-10253
income	-10254
">	-10255
▁2.5	-10256
▁Vlad	-10257
▁cabinet	-10258
▁inspiration	-10259
▁cognitive	-10260
books	-10261
isition	-10262
orge	-10263
▁Griff	-10264
▁athe	-10265
De	-10266
dr	-10267
▁Holy	-10268
inally	-10269
▁asset	-10270
▁underground	-10271
apper	-10272
▁Poll	-10273
▁configuration	-10274
▁fel	-10275
▁compr	-10276
▁bankrupt	-10277
▁survived	-10278
▁artificial	-10279
▁quit	-10280
▁Univers	-10281
▁isolated	-10282
ocated	-10283
▁consciousness	-10284
▁steady	-10285
otte	-10286
▁repair	-10287
▁integrity	-10288
bourne	-10289
▁#1	-10290
▁Place	-10291
▁deemed	-10292
▁dominated	-10293
ikh	-10294
awks	-10295
▁fights	-10296
▁Taliban	-10297
▁yell	-10298
▁patri	-10299
▁Tam	-10300
▁subur	-10301
▁buried	-10302
▁describing	-10303
acre	-10304
▁FA	-10305
inge	-10306
▁MPs	-10307
▁Based	-10308
▁Product	-10309
▁soldier	-10310
->	-10311
▁gameplay	-10312
hire	-10313
▁2006,	-10314
▁Hamp	-10315
.[11	-10316
▁obser	-10317
▁challenged	-10318
Fi	-10319
▁Var	-10320
▁Nether	-10321
▁promotion	-10322
▁Grant	-10323
imize	-10324
▁registration	-10325
aa	-10326
▁Russians	-10327
▁witnesses	-10328
▁Kl	-10329
▁knife	-10330
▁Sche	-10331
▁executed	-10332
▁Vo	-10333
oker	-10334
▁refugee	-10335
▁flights	-10336
▁nod	-10337
▁Marc	-10338
▁yeah	-10339
▁refers	-10340
▁Round	-10341
ateful	-10342
▁closest	-10343
▁attracted	-10344
good	-10345
▁convert	-10346
▁keyboard	-10347
QL	-10348
▁NO	-10349
▁utter	-10350
resident	-10351
▁briefly	-10352
▁disappear	-10353
▁interpretation	-10354
vo	-10355
rics	-10356
isd	-10357
▁existed	-10358
▁removing	-10359
▁99	-10360
▁spo	-10361
▁brands	-10362
▁packed	-10363
▁thro	-10364
▁bombs	-10365
▁routes	-10366
▁Aren	-10367
▁void	-10368
▁Kings	-10369
▁organisation	-10370
elle	-10371
father	-10372
dam	-10373
▁Name	-10374
▁asylum	-10375
JP	-10376
▁Ni	-10377
Some	-10378
▁Nazi	-10379
▁credits	-10380
▁chaos	-10381
▁Mario	-10382
▁Poland	-10383
▁Eb	-10384
▁chip	-10385
▁profound	-10386
Ind	-10387
▁impacts	-10388
▁taxpayers	-10389
▁kicked	-10390
▁Mississ	-10391
▁concert	-10392
adesh	-10393
chell	-10394
▁Chairman	-10395
lihood	-10396
▁contrary	-10397
▁Mind	-10398
istant	-10399
▁peaceful	-10400
▁Gib	-10401
▁Emer	-10402
tarian	-10403
oub	-10404
some	-10405
▁agreements	-10406
has	-10407
▁gri	-10408
▁cheese	-10409
▁Alliance	-10410
▁dual	-10411
▁leaked	-10412
▁justify	-10413
▁confusion	-10414
ester	-10415
attered	-10416
enh	-10417
pack	-10418
▁stating	-10419
gate	-10420
▁Jane	-10421
▁Hamas	-10422
▁charging	-10423
▁exclusively	-10424
▁Ent	-10425
▁references	-10426
▁bird	-10427
▁hiring	-10428
▁lobb	-10429
▁sophistic	-10430
▁Edit	-10431
utter	-10432
strong	-10433
▁Sin	-10434
▁Entertain	-10435
▁chips	-10436
▁engagement	-10437
▁mile	-10438
stop	-10439
▁Egyptian	-10440
▁acceptable	-10441
▁Dal	-10442
▁hosts	-10443
▁alert	-10444
▁cinem	-10445
▁teammates	-10446
▁tremendous	-10447
anim	-10448
graph	-10449
▁epic	-10450
▁Snowden	-10451
▁Queens	-10452
▁Stanford	-10453
▁guards	-10454
▁loaded	-10455
▁printed	-10456
hist	-10457
▁31,	-10458
▁bits	-10459
▁Command	-10460
▁Hug	-10461
▁insur	-10462
▁prost	-10463
▁Nelson	-10464
▁courtesy	-10465
▁tear	-10466
irates	-10467
▁babies	-10468
▁expense	-10469
▁households	-10470
▁delight	-10471
▁certific	-10472
▁checking	-10473
▁los	-10474
▁Rangers	-10475
▁curious	-10476
▁editorial	-10477
▁Level	-10478
▁Medicare	-10479
▁attending	-10480
aro	-10481
▁FR	-10482
hero	-10483
orneys	-10484
▁Ub	-10485
Just	-10486
▁Soft	-10487
▁revolutionary	-10488
ping	-10489
▁wondering	-10490
▁subsequently	-10491
▁Kr	-10492
▁SN	-10493
▁assemb	-10494
▁endors	-10495
▁engaging	-10496
▁politician	-10497
▁enabled	-10498
.[2]	-10499
▁proportion	-10500
▁Ka	-10501
▁Osc	-10502
▁shops	-10503
▁criminals	-10504
▁Dak	-10505
▁Map	-10506
TML	-10507
▁BC	-10508
elve	-10509
▁bombing	-10510
▁Pa	-10511
▁physics	-10512
▁sexually	-10513
▁Gard	-10514
▁evac	-10515
▁Blake	-10516
eling	-10517
▁recovered	-10518
▁monster	-10519
▁assembly	-10520
bound	-10521
▁Financial	-10522
▁expecting	-10523
▁0.1	-10524
▁reserv	-10525
▁strengthen	-10526
nie	-10527
ophob	-10528
▁embed	-10529
▁Nash	-10530
▁produces	-10531
▁junior	-10532
▁OR	-10533
▁desp	-10534
▁scar	-10535
▁abstract	-10536
TON	-10537
reck	-10538
uter	-10539
▁Rubio	-10540
▁oxy	-10541
▁guaranteed	-10542
cop	-10543
Cont	-10544
▁Bir	-10545
74	-10546
▁Hans	-10547
fish	-10548
.[6	-10549
▁Wi	-10550
izarre	-10551
▁defended	-10552
▁suspension	-10553
▁CPU	-10554
▁True	-10555
▁integrated	-10556
bes	-10557
▁1999	-10558
ishers	-10559
▁stack	-10560
▁developments	-10561
▁Da	-10562
6)	-10563
▁inher	-10564
▁Louisiana	-10565
▁ministers	-10566
▁boom	-10567
▁EC	-10568
▁caps	-10569
oned	-10570
▁Flash	-10571
▁!	-10572
lynn	-10573
thodox	-10574
nan	-10575
▁ED	-10576
▁Tan	-10577
▁evident	-10578
▁teeth	-10579
▁outcomes	-10580
▁Modi	-10581
▁Jimmy	-10582
▁expects	-10583
▁ranking	-10584
▁districts	-10585
▁PlayStation	-10586
vas	-10587
mble	-10588
▁balls	-10589
ifier	-10590
thood	-10591
omic	-10592
▁Jun	-10593
▁Spir	-10594
▁momentum	-10595
▁Stock	-10596
▁Victoria	-10597
low	-10598
▁Cas	-10599
▁backs	-10600
▁fingers	-10601
By	-10602
▁Niger	-10603
▁Zim	-10604
▁figured	-10605
▁enact	-10606
▁hub	-10607
▁continu	-10608
▁occupied	-10609
SL	-10610
zone	-10611
▁Tokyo	-10612
▁SD	-10613
▁Deep	-10614
▁volunt	-10615
▁avo	-10616
▁Larry	-10617
▁rebuild	-10618
▁barg	-10619
▁fert	-10620
▁Citiz	-10621
▁scared	-10622
▁Tower	-10623
▁pride	-10624
OK	-10625
600	-10626
▁blocking	-10627
dict	-10628
▁2008.	-10629
▁Modern	-10630
▁electron	-10631
▁hunting	-10632
uke	-10633
▁dropping	-10634
rank	-10635
▁characteristics	-10636
▁telephone	-10637
user	-10638
▁raises	-10639
▁nowhere	-10640
800	-10641
▁Sport	-10642
▁releasing	-10643
▁Abd	-10644
▁belt	-10645
may	-10646
▁180	-10647
▁Winter	-10648
iere	-10649
▁(1)	-10650
▁singer	-10651
▁examine	-10652
▁Alaska	-10653
▁courage	-10654
grad	-10655
▁repeal	-10656
▁Ronald	-10657
AB	-10658
ernand	-10659
terror	-10660
rock	-10661
▁Nich	-10662
▁ignor	-10663
▁mirror	-10664
▁unnecess	-10665
▁1)	-10666
▁Prom	-10667
▁venture	-10668
▁Entertainment	-10669
cal	-10670
▁Phys	-10671
▁orient	-10672
▁chronic	-10673
▁packages	-10674
wind	-10675
▁transferred	-10676
▁publish	-10677
▁qualified	-10678
white	-10679
▁Commer	-10680
▁intimid	-10681
▁blamed	-10682
▁Canadians	-10683
▁Talk	-10684
▁tower	-10685
▁handled	-10686
▁departure	-10687
▁Blood	-10688
▁killer	-10689
▁animation	-10690
UC	-10691
▁accuracy	-10692
▁productive	-10693
ATCH	-10694
atics	-10695
▁fails	-10696
▁burned	-10697
▁wet	-10698
▁Forest	-10699
▁Overall	-10700
▁promoted	-10701
▁passenger	-10702
ouses	-10703
▁diver	-10704
▁presents	-10705
bian	-10706
limited	-10707
▁simultaneously	-10708
▁flav	-10709
▁organis	-10710
▁motivated	-10711
▁Netherlands	-10712
▁250	-10713
amous	-10714
▁slot	-10715
▁vent	-10716
▁Posted	-10717
-15	-10718
▁Wy	-10719
NBC	-10720
via	-10721
▁Sad	-10722
▁solo	-10723
▁lane	-10724
http	-10725
▁Medicaid	-10726
▁Luke	-10727
▁McDonald	-10728
▁50%	-10729
▁surprisingly	-10730
▁FOR	-10731
▁Fact	-10732
cap	-10733
gged	-10734
orate	-10735
▁Abu	-10736
▁formula	-10737
▁bacteria	-10738
Me	-10739
▁reass	-10740
▁evolved	-10741
▁ally	-10742
▁Nature	-10743
erald	-10744
inst	-10745
▁Roger	-10746
looking	-10747
▁Python	-10748
▁Small	-10749
▁occasion	-10750
atus	-10751
▁Block	-10752
▁accepting	-10753
reshold	-10754
▁conflicts	-10755
▁functionality	-10756
ahoo	-10757
▁Summer	-10758
▁Pinterest	-10759
mented	-10760
▁flavor	-10761
aste	-10762
▁sake	-10763
rition	-10764
▁inbox	-10765
▁Wiki	-10766
ippi	-10767
▁Building	-10768
ardo	-10769
▁Reds	-10770
▁mart	-10771
▁tanks	-10772
ressing	-10773
▁researcher	-10774
▁destination	-10775
uz	-10776
olid	-10777
▁Wayne	-10778
▁screw	-10779
▁nationwide	-10780
▁projected	-10781
▁uncomfort	-10782
▁>>	-10783
▁rolled	-10784
▁prosecutor	-10785
▁uncertainty	-10786
uating	-10787
▁consecut	-10788
▁Mand	-10789
▁accord	-10790
▁investigated	-10791
▁ric	-10792
▁leak	-10793
▁reluct	-10794
imir	-10795
▁complained	-10796
▁preserve	-10797
leep	-10798
▁solely	-10799
▁Laur	-10800
▁mandate	-10801
▁decrease	-10802
94	-10803
▁luxury	-10804
▁inevitable	-10805
iar	-10806
▁alliance	-10807
▁forgotten	-10808
▁Fight	-10809
▁pleasure	-10810
▁engines	-10811
▁58	-10812
▁da	-10813
▁Fif	-10814
leading	-10815
▁Nik	-10816
ILL	-10817
▁inaug	-10818
▁100,000	-10819
▁voc	-10820
▁lens	-10821
▁restore	-10822
▁password	-10823
▁infection	-10824
▁gym	-10825
▁wireless	-10826
▁$15	-10827
▁jet	-10828
▁9/11	-10829
offs	-10830
▁checked	-10831
▁Taiwan	-10832
▁Progress	-10833
▁realistic	-10834
▁dressed	-10835
▁imprison	-10836
▁correl	-10837
▁Manning	-10838
▁transparency	-10839
▁Section	-10840
ollar	-10841
▁invested	-10842
ulse	-10843
icked	-10844
reek	-10845
breaking	-10846
▁entrance	-10847
▁painting	-10848
onduct	-10849
▁Steam	-10850
▁advent	-10851
▁algorithm	-10852
dog	-10853
ampa	-10854
▁polling	-10855
▁py	-10856
▁earthqu	-10857
ixel	-10858
large	-10859
▁stats	-10860
▁launching	-10861
.]	-10862
▁inex	-10863
▁Environmental	-10864
gly	-10865
▁gut	-10866
▁Singh	-10867
▁theft	-10868
▁static	-10869
▁variables	-10870
▁lin	-10871
▁reck	-10872
▁Cloud	-10873
▁detention	-10874
erent	-10875
▁dependent	-10876
).[	-10877
▁Smart	-10878
▁males	-10879
▁Murphy	-10880
▁lifestyle	-10881
▁HIV	-10882
▁Cold	-10883
▁Drive	-10884
▁similarly	-10885
▁explicitly	-10886
▁Very	-10887
▁SEC	-10888
▁McCon	-10889
citation	-10890
friendly	-10891
▁Edition	-10892
ilation	-10893
▁Corporation	-10894
▁Organization	-10895
▁1.0	-10896
▁vit	-10897
▁Morm	-10898
▁Trek	-10899
▁kiss	-10900
▁dimin	-10901
▁Pod	-10902
▁Reid	-10903
▁bother	-10904
▁colleg	-10905
▁Between	-10906
▁Collins	-10907
▁recession	-10908
gal	-10909
▁modest	-10910
▁patent	-10911
Se	-10912
▁Toy	-10913
izations	-10914
pen	-10915
▁kidn	-10916
}}	-10917
cur	-10918
▁privilege	-10919
?’	-10920
▁excuse	-10921
▁visits	-10922
GE	-10923
▁bol	-10924
keley	-10925
▁Olympics	-10926
▁provider	-10927
▁angle	-10928
400	-10929
uther	-10930
▁settle	-10931
▁Beh	-10932
▁influenced	-10933
▁bases	-10934
▁radiation	-10935
("	-10936
▁Corp	-10937
▁Philippines	-10938
▁emphasis	-10939
▁identical	-10940
▁Whit	-10941
▁poet	-10942
▁Chron	-10943
ERE	-10944
▁Inn	-10945
▁trailer	-10946
non	-10947
oft	-10948
▁Qual	-10949
▁iPad	-10950
▁innovative	-10951
IE	-10952
rah	-10953
ucker	-10954
▁cooking	-10955
ante	-10956
▁bicy	-10957
million	-10958
▁analys	-10959
▁renewable	-10960
▁Lad	-10961
▁garden	-10962
▁headlines	-10963
▁1998	-10964
▁surge	-10965
▁senators	-10966
etheless	-10967
▁compelling	-10968
BN	-10969
▁Less	-10970
▁trains	-10971
thur	-10972
▁pose	-10973
▁assists	-10974
▁painful	-10975
▁Hampshire	-10976
▁30-	-10977
usting	-10978
▁Champions	-10979
wall	-10980
▁guidance	-10981
▁Dor	-10982
forward	-10983
▁Fle	-10984
iden	-10985
▁filing	-10986
▁Against	-10987
▁strip	-10988
▁FO	-10989
▁Kal	-10990
▁Pear	-10991
▁destro	-10992
▁documented	-10993
▁jurisd	-10994
▁surre	-10995
bitious	-10996
itement	-10997
▁criteria	-10998
▁neighborhoods	-10999
▁Benn	-11000
▁bone	-11001
▁lean	-11002
riminal	-11003
▁meters	-11004
▁tension	-11005
ige	-11006
▁tent	-11007
▁</	-11008
▁Commons	-11009
▁consists	-11010
▁provisions	-11011
Int	-11012
inite	-11013
▁adap	-11014
▁Malays	-11015
being	-11016
▁Madrid	-11017
ailable	-11018
▁coin	-11019
anguage	-11020
Ne	-11021
▁influential	-11022
▁ought	-11023
▁$500	-11024
▁sustained	-11025
aco	-11026
ista	-11027
▁Yang	-11028
about	-11029
▁fishing	-11030
▁accusations	-11031
▁concentration	-11032
words	-11033
vation	-11034
▁Asked	-11035
▁consecutive	-11036
ilst	-11037
▁Quebec	-11038
▁oldest	-11039
▁elabor	-11040
agine	-11041
▁Beyond	-11042
▁distribut	-11043
▁occasions	-11044
enz	-11045
agu	-11046
▁Native	-11047
ormal	-11048
▁operated	-11049
▁bulk	-11050
▁dealt	-11051
▁Comput	-11052
▁container	-11053
oup	-11054
▁golf	-11055
▁viewing	-11056
▁newsletters	-11057
▁documentation	-11058
tery	-11059
town	-11060
▁hosting	-11061
PL	-11062
wed	-11063
such	-11064
▁conviction	-11065
▁Swedish	-11066
▁72	-11067
celona	-11068
urches	-11069
▁awards	-11070
▁Dean	-11071
▁Stanley	-11072
▁SE	-11073
untu	-11074
▁Anti	-11075
▁suck	-11076
▁chocolate	-11077
▁prosecution	-11078
bled	-11079
olas	-11080
ugby	-11081
dep	-11082
leted	-11083
▁Vin	-11084
▁tears	-11085
▁beaten	-11086
▁applies	-11087
▁supposedly	-11088
▁participating	-11089
boys	-11090
”)	-11091
rifice	-11092
▁automatic	-11093
vironments	-11094
▁favourite	-11095
Let	-11096
▁antib	-11097
achment	-11098
▁subtle	-11099
▁Kurdish	-11100
▁boards	-11101
▁reviewed	-11102
▁AFP	-11103
▁keen	-11104
▁impressed	-11105
▁Na	-11106
▁absurd	-11107
▁circuit	-11108
cling	-11109
▁Print	-11110
▁regarded	-11111
▁hes	-11112
▁66	-11113
▁Knight	-11114
▁awful	-11115
▁(10	-11116
▁Side	-11117
▁orbit	-11118
▁poster	-11119
▁resemb	-11120
beat	-11121
▁Date	-11122
▁polar	-11123
▁possibilities	-11124
century	-11125
bus	-11126
▁Ay	-11127
▁Ian	-11128
▁backup	-11129
▁inhab	-11130
winning	-11131
▁RT	-11132
incial	-11133
▁theater	-11134
▁Patriots	-11135
▁Rh	-11136
overs	-11137
▁cops	-11138
▁Along	-11139
▁outstanding	-11140
laim	-11141
▁secular	-11142
▁theoret	-11143
▁Row	-11144
▁advertisement	-11145
vol	-11146
▁Cry	-11147
▁synd	-11148
▁praised	-11149
▁Dom	-11150
▁wise	-11151
▁filter	-11152
▁bizarre	-11153
▁preventing	-11154
olitan	-11155
▁iconic	-11156
▁addressing	-11157
▁eru	-11158
▁Ow	-11159
▁Imp	-11160
▁speeds	-11161
May	-11162
▁crossed	-11163
▁Blu	-11164
▁600	-11165
▁Peace	-11166
▁wore	-11167
▁immune	-11168
▁spotted	-11169
▁missiles	-11170
▁photographs	-11171
lu	-11172
llor	-11173
▁Pur	-11174
▁entity	-11175
▁infant	-11176
▁Say	-11177
▁enfor	-11178
?)	-11179
▁5-	-11180
▁operator	-11181
▁Gene	-11182
▁globe	-11183
▁Pel	-11184
oning	-11185
▁traded	-11186
▁Lions	-11187
▁Jess	-11188
FS	-11189
rons	-11190
ppers	-11191
track	-11192
▁reflects	-11193
▁IV	-11194
▁Nap	-11195
▁bump	-11196
▁Jen	-11197
▁Flynn	-11198
▁Sessions	-11199
▁residential	-11200
▁disabled	-11201
▁Bloomberg	-11202
▁Tell	-11203
▁tragedy	-11204
ART	-11205
oop	-11206
idal	-11207
79	-11208
▁bags	-11209
▁controller	-11210
▁Kas	-11211
▁unl	-11212
▁finishing	-11213
▁libraries	-11214
▁DVD	-11215
▁Mas	-11216
▁fed	-11217
▁Players	-11218
▁converted	-11219
▁Mississippi	-11220
Ps	-11221
card	-11222
▁fut	-11223
▁rhy	-11224
▁beneath	-11225
▁revenues	-11226
▁availability	-11227
▁creator	-11228
▁administrative	-11229
▁toss	-11230
mart	-11231
▁corn	-11232
▁panels	-11233
▁Ward	-11234
▁rivals	-11235
▁meets	-11236
▁graphic	-11237
assion	-11238
▁Eagles	-11239
ding	-11240
function	-11241
▁Mitchell	-11242
▁accompanied	-11243
▁experimental	-11244
▁anch	-11245
▁shelter	-11246
armed	-11247
▁Posts	-11248
▁examined	-11249
irs	-11250
uels	-11251
UM	-11252
▁rebel	-11253
pg	-11254
TR	-11255
▁nu	-11256
amine	-11257
▁Hann	-11258
▁seeks	-11259
accept	-11260
aments	-11261
▁liberty	-11262
▁2)	-11263
▁Lady	-11264
▁Orange	-11265
▁wisdom	-11266
▁reflected	-11267
▁winners	-11268
▁192	-11269
iper	-11270
▁Hunter	-11271
▁earnings	-11272
▁crossing	-11273
▁indication	-11274
una	-11275
arded	-11276
▁trips	-11277
▁Beat	-11278
▁lady	-11279
▁Sac	-11280
▁riders	-11281
thal	-11282
▁Fun	-11283
▁fer	-11284
▁collecting	-11285
▁neur	-11286
seless	-11287
▁manual	-11288
▁cleared	-11289
▁HTML	-11290
▁catast	-11291
▁fucking	-11292
▁Lawrence	-11293
▁devastating	-11294
comp	-11295
▁longtime	-11296
named	-11297
▁safely	-11298
▁Domin	-11299
iox	-11300
▁Draft	-11301
▁59	-11302
▁torn	-11303
▁mouse	-11304
▁steal	-11305
▁predec	-11306
▁earning	-11307
▁quietly	-11308
▁newspapers	-11309
▁constructed	-11310
▁12-	-11311
▁Bah	-11312
▁equipped	-11313
opt	-11314
isive	-11315
▁Ga	-11316
iated	-11317
▁Brandon	-11318
▁ranging	-11319
▁360	-11320
▁iter	-11321
▁ther	-11322
anyahu	-11323
▁mothers	-11324
▁relie	-11325
▁robots	-11326
▁arrests	-11327
EMENT	-11328
▁ensuring	-11329
itty	-11330
▁intrig	-11331
▁SM	-11332
▁fits	-11333
▁slide	-11334
▁Safety	-11335
▁calculated	-11336
▁Heat	-11337
▁Storm	-11338
neg	-11339
▁environments	-11340
uably	-11341
▁beta	-11342
▁Brand	-11343
▁laptop	-11344
block	-11345
▁operators	-11346
▁Fergus	-11347
shore	-11348
▁Jacob	-11349
▁Christianity	-11350
▁tu	-11351
▁Speaker	-11352
▁delayed	-11353
▁ambitious	-11354
▁reserve	-11355
▁Baker	-11356
▁Heart	-11357
▁displays	-11358
▁bubble	-11359
▁uncomfortable	-11360
.[12	-11361
▁Cuba	-11362
▁Barcelona	-11363
▁offseason	-11364
▁replacing	-11365
.[3]	-11366
▁Soon	-11367
▁Currently	-11368
burn	-11369
mons	-11370
▁significance	-11371
▁resort	-11372
▁competitors	-11373
..."	-11374
ques	-11375
▁Huff	-11376
▁nights	-11377
▁meanwhile	-11378
ects	-11379
iors	-11380
avery	-11381
▁regret	-11382
▁rewards	-11383
▁sleeping	-11384
48	-11385
▁mm	-11386
▁align	-11387
▁seeds	-11388
▁stopping	-11389
▁mysterious	-11390
▁10%	-11391
▁Campbell	-11392
▁2,000	-11393
▁burst	-11394
▁spray	-11395
▁amongst	-11396
Or	-11397
icating	-11398
▁exploit	-11399
▁exploring	-11400
▁coins	-11401
▁hiding	-11402
▁pregnancy	-11403
iah	-11404
▁bip	-11405
▁Watson	-11406
▁detained	-11407
XX	-11408
▁layers	-11409
▁pension	-11410
▁76	-11411
arios	-11412
▁deserves	-11413
▁occupation	-11414
▁unfortunately	-11415
▁pour	-11416
▁affects	-11417
bery	-11418
▁tale	-11419
▁pricing	-11420
▁adoption	-11421
▁chamber	-11422
▁Marshall	-11423
stra	-11424
▁demo	-11425
▁Kickstarter	-11426
▁Express	-11427
▁attorneys	-11428
fers	-11429
▁appearing	-11430
▁0.5	-11431
first	-11432
▁Motor	-11433
encer	-11434
▁Mitt	-11435
▁2005,	-11436
▁Stein	-11437
government	-11438
▁Lie	-11439
isms	-11440
obby	-11441
▁Mobile	-11442
▁Manager	-11443
▁relatives	-11444
KE	-11445
otion	-11446
▁cous	-11447
▁ambassador	-11448
▁Advertisements	-11449
▁Len	-11450
▁toug	-11451
▁Berkeley	-11452
▁Todd	-11453
▁Ky	-11454
▁productivity	-11455
▁Cos	-11456
▁gradually	-11457
owder	-11458
▁cruel	-11459
▁celebrated	-11460
bin	-11461
founder	-11462
▁Magazine	-11463
▁chemicals	-11464
▁drum	-11465
▁departments	-11466
▁convenient	-11467
▁preparation	-11468
HT	-11469
▁DJ	-11470
▁Ry	-11471
arer	-11472
isting	-11473
▁questioning	-11474
former	-11475
▁drops	-11476
▁demonstration	-11477
gov	-11478
ailing	-11479
▁Prior	-11480
▁dirty	-11481
▁threshold	-11482
rencies	-11483
▁themes	-11484
adi	-11485
▁pledge	-11486
▁Federation	-11487
▁1000	-11488
▁Corps	-11489
profile	-11490
▁Vladimir	-11491
▁Chall	-11492
▁anonym	-11493
▁violated	-11494
▁Mom	-11495
▁Beng	-11496
▁Occup	-11497
▁pending	-11498
▁interven	-11499
bles	-11500
▁walks	-11501
missions	-11502
▁debates	-11503
▁BL	-11504
ocur	-11505
▁mortgage	-11506
▁Congressional	-11507
cular	-11508
▁Blog	-11509
▁Rice	-11510
▁viable	-11511
▁happiness	-11512
▁interactions	-11513
DC	-11514
▁acted	-11515
▁cease	-11516
/3	-11517
▁Airport	-11518
▁caution	-11519
▁sophisticated	-11520
▁courses	-11521
▁notably	-11522
▁remembered	-11523
▁suggestions	-11524
ATED	-11525
▁sizes	-11526
▁delivering	-11527
GA	-11528
▁Swit	-11529
▁prol	-11530
▁summary	-11531
▁scrutiny	-11532
Leaks	-11533
▁publisher	-11534
jan	-11535
...”	-11536
▁oxygen	-11537
fi	-11538
▁murdered	-11539
▁separated	-11540
acies	-11541
▁Song	-11542
▁alike	-11543
▁reign	-11544
▁commod	-11545
▁Netanyahu	-11546
▁fundament	-11547
▁Awards	-11548
▁gentle	-11549
▁horrible	-11550
▁intelligent	-11551
▁Benj	-11552
▁Kyle	-11553
arently	-11554
▁disappeared	-11555
err	-11556
▁1.2	-11557
▁Karl	-11558
▁hunt	-11559
▁startup	-11560
kward	-11561
▁orange	-11562
▁Melbourne	-11563
▁beef	-11564
appropriate	-11565
▁sons	-11566
▁venue	-11567
ected	-11568
isode	-11569
▁Regard	-11570
▁firearms	-11571
▁prevented	-11572
▁limitations	-11573
athon	-11574
▁doctr	-11575
▁delegates	-11576
▁Want	-11577
▁parameters	-11578
▁Similarly	-11579
▁highlighted	-11580
▁builds	-11581
▁Coalition	-11582
▁Rap	-11583
▁duties	-11584
▁Parker	-11585
▁honestly	-11586
▁Obviously	-11587
▁Money	-11588
▁endless	-11589
▁Election	-11590
▁bonds	-11591
▁carrier	-11592
▁desert	-11593
▁Ess	-11594
▁Forces	-11595
arians	-11596
▁ethics	-11597
▁advocacy	-11598
▁municipal	-11599
emit	-11600
▁Amb	-11601
▁Chrome	-11602
▁prayer	-11603
▁countless	-11604
▁translation	-11605
ols	-11606
▁tablet	-11607
▁Alberta	-11608
cat	-11609
test	-11610
▁Hus	-11611
uates	-11612
▁shake	-11613
▁weaken	-11614
bably	-11615
▁misc	-11616
▁verify	-11617
▁witnessed	-11618
▁employer	-11619
▁discipline	-11620
▁restricted	-11621
cre	-11622
▁worlds	-11623
udeau	-11624
▁comed	-11625
UD	-11626
▁indu	-11627
outing	-11628
▁Saint	-11629
▁Naz	-11630
▁commentary	-11631
▁Sep	-11632
▁(7	-11633
gments	-11634
▁67	-11635
alid	-11636
▁psychiat	-11637
▁Hop	-11638
▁McM	-11639
▁Nat	-11640
▁impose	-11641
▁McConnell	-11642
bie	-11643
▁planes	-11644
▁actress	-11645
▁Ferguson	-11646
IO	-11647
▁FCC	-11648
▁WAS	-11649
▁abund	-11650
.),	-11651
▁conced	-11652
▁scratch	-11653
quer	-11654
rior	-11655
▁Fro	-11656
aucus	-11657
▁frank	-11658
oyd	-11659
▁4:	-11660
charg	-11661
▁Maine	-11662
▁circles	-11663
▁faculty	-11664
▁overnight	-11665
▁Hum	-11666
▁Oxford	-11667
▁hearts	-11668
▁complexity	-11669
▁Anyone	-11670
▁investing	-11671
polit	-11672
▁curve	-11673
▁singing	-11674
▁pressing	-11675
▁combine	-11676
Ad	-11677
ttes	-11678
▁supporter	-11679
ims	-11680
asted	-11681
▁migration	-11682
▁Cut	-11683
ching	-11684
▁Need	-11685
▁Raid	-11686
rin	-11687
▁Roc	-11688
▁sentences	-11689
Ass	-11690
▁damn	-11691
▁Political	-11692
▁);	-11693
▁Doug	-11694
▁6-	-11695
▁Swiss	-11696
▁radar	-11697
▁Senior	-11698
▁protections	-11699
ESS	-11700
▁UI	-11701
▁Hond	-11702
▁preview	-11703
▁fascinating	-11704
rot	-11705
▁Emb	-11706
omach	-11707
▁Text	-11708
▁Morris	-11709
▁Ta	-11710
▁Campaign	-11711
▁Arts	-11712
▁Something	-11713
▁Farm	-11714
▁audiences	-11715
▁Ca	-11716
▁ritual	-11717
▁marginal	-11718
▁stressed	-11719
▁Dog	-11720
▁tob	-11721
oples	-11722
▁Philip	-11723
kind	-11724
▁Bart	-11725
orical	-11726
emin	-11727
▁800	-11728
▁anarch	-11729
▁commands	-11730
▁''	-11731
flow	-11732
omer	-11733
▁Terry	-11734
▁Abbott	-11735
▁epid	-11736
▁furn	-11737
▁decor	-11738
▁altogether	-11739
two	-11740
atoes	-11741
▁tempt	-11742
▁tends	-11743
▁praise	-11744
49	-11745
▁Deputy	-11746
▁Natural	-11747
ierre	-11748
▁rice	-11749
▁arena	-11750
▁technological	-11751
▁electrical	-11752
▁historically	-11753
▁drinks	-11754
uez	-11755
▁poorly	-11756
▁styles	-11757
▁trucks	-11758
▁Investig	-11759
▁monetary	-11760
▁EX	-11761
▁mechanisms	-11762
▁Alt	-11763
▁forb	-11764
▁grants	-11765
▁shooter	-11766
▁Nevertheless	-11767
▁accomplished	-11768
fs	-11769
▁toll	-11770
▁advised	-11771
TIS	-11772
rc	-11773
▁greet	-11774
▁annually	-11775
▁observations	-11776
ui	-11777
atre	-11778
▁Notes	-11779
▁sauce	-11780
▁golden	-11781
▁complain	-11782
▁tum	-11783
ocial	-11784
▁Legisl	-11785
▁stunning	-11786
ologically	-11787
News	-11788
▁Pok	-11789
HA	-11790
link	-11791
▁Kerry	-11792
▁celebration	-11793
▁Brus	-11794
▁starter	-11795
▁directors	-11796
TE	-11797
▁breach	-11798
▁tissue	-11799
▁arguably	-11800
pot	-11801
▁Tampa	-11802
▁mandatory	-11803
▁mountains	-11804
▁crops	-11805
▁makers	-11806
▁instantly	-11807
▁Conservatives	-11808
Of	-11809
▁$9	-11810
▁COM	-11811
▁capability	-11812
DAY	-11813
▁Barry	-11814
▁Around	-11815
▁logical	-11816
▁ash	-11817
▁Hispan	-11818
▁devoted	-11819
▁aspir	-11820
▁supplement	-11821
▁confirmation	-11822
▁Ped	-11823
▁fet	-11824
▁cats	-11825
commun	-11826
▁focuses	-11827
open	-11828
▁drones	-11829
formance	-11830
▁spy	-11831
▁1997	-11832
▁wound	-11833
▁buyers	-11834
shot	-11835
▁whis	-11836
▁boundaries	-11837
▁MA	-11838
▁adj	-11839
▁Arena	-11840
▁grave	-11841
orer	-11842
▁lyr	-11843
▁Trudeau	-11844
bet	-11845
▁designated	-11846
▁Lock	-11847
▁bathroom	-11848
pling	-11849
▁Dakota	-11850
▁exploration	-11851
▁$50	-11852
▁Keith	-11853
▁Je	-11854
▁hacking	-11855
▁cultures	-11856
▁63	-11857
▁Chap	-11858
▁cave	-11859
▁stir	-11860
▁climb	-11861
▁humanitarian	-11862
uj	-11863
▁Laure	-11864
▁powered	-11865
▁entities	-11866
▁frustration	-11867
▁Whatever	-11868
▁Kit	-11869
▁contents	-11870
ortunate	-11871
piece	-11872
▁essay	-11873
▁permitted	-11874
▁appointment	-11875
▁flew	-11876
▁vague	-11877
urities	-11878
▁penalties	-11879
ocus	-11880
▁fires	-11881
▁lighting	-11882
rait	-11883
▁token	-11884
▁suprem	-11885
aughters	-11886
▁interrupt	-11887
ugs	-11888
▁Susan	-11889
▁Hawaii	-11890
68	-11891
itate	-11892
uerto	-11893
▁bugs	-11894
umbled	-11895
▁agriculture	-11896
▁Benjamin	-11897
MAN	-11898
▁Saints	-11899
▁Tun	-11900
▁Hotel	-11901
▁Treat	-11902
▁prosper	-11903
▁lineback	-11904
▁drafted	-11905
.[7	-11906
▁0.2	-11907
▁node	-11908
gary	-11909
▁Hey	-11910
▁partially	-11911
ersion	-11912
▁Commissioner	-11913
ND	-11914
hill	-11915
▁Mov	-11916
▁sod	-11917
▁WATCH	-11918
▁citizenship	-11919
▁Tea	-11920
▁hostile	-11921
mid	-11922
▁longest	-11923
▁tobacco	-11924
▁unnecessary	-11925
nor	-11926
rike	-11927
anches	-11928
istance	-11929
▁transmission	-11930
▁ghost	-11931
verning	-11932
liminary	-11933
▁vaccine	-11934
▁Members	-11935
▁quantum	-11936
▁seventh	-11937
▁yard	-11938
▁depos	-11939
▁incorrect	-11940
▁contributing	-11941
▁1996	-11942
▁grocer	-11943
▁recept	-11944
▁2-	-11945
arma	-11946
▁Maria	-11947
▁Chance	-11948
▁enterprise	-11949
handed	-11950
▁fract	-11951
▁Wikipedia	-11952
▁earl	-11953
▁pressed	-11954
▁Gray	-11955
▁orientation	-11956
▁ineff	-11957
▁insane	-11958
▁Buffalo	-11959
▁awkward	-11960
▁peer	-11961
formed	-11962
connect	-11963
▁enjoying	-11964
ICE	-11965
uto	-11966
onia	-11967
▁parks	-11968
▁installation	-11969
rup	-11970
speed	-11971
▁Fried	-11972
▁crown	-11973
▁responding	-11974
▁ES	-11975
▁Due	-11976
▁tar	-11977
mother	-11978
▁mechanics	-11979
▁distinction	-11980
▁cake	-11981
▁Firef	-11982
▁addiction	-11983
▁suggestion	-11984
uy	-11985
▁UPD	-11986
▁Evans	-11987
▁sacrifice	-11988
▁metaph	-11989
▁derived	-11990
TO	-11991
abe	-11992
▁LS	-11993
▁Almost	-11994
▁patrol	-11995
▁Records	-11996
▁sentiment	-11997
▁peers	-11998
▁placing	-11999
▁particles	-12000
▁cultiv	-12001
▁frustrated	-12002
▁coordinator	-12003
byn	-12004
▁Hend	-12005
▁tune	-12006
▁Lynch	-12007
▁Neil	-12008
▁tutorial	-12009
mn	-12010
count	-12011
zerland	-12012
▁greenhouse	-12013
▁Dougl	-12014
▁Arctic	-12015
▁feminist	-12016
▁expertise	-12017
▁revealing	-12018
▁BE	-12019
▁MD	-12020
eller	-12021
▁Krist	-12022
▁pione	-12023
▁Medicine	-12024
▁experiencing	-12025
▁12.	-12026
▁bund	-12027
▁Temple	-12028
47	-12029
natural	-12030
13]	-12031
▁Robin	-12032
▁illegally	-12033
▁reactions	-12034
Image	-12035
uming	-12036
▁resur	-12037
▁haz	-12038
▁Indians	-12039
▁Christie	-12040
▁Weiss	-12041
▁bones	-12042
▁Inside	-12043
While	-12044
▁Kirk	-12045
oj	-12046
▁bears	-12047
▁initiatives	-12048
▁fastest	-12049
▁dil	-12050
storm	-12051
▁priest	-12052
▁Eventually	-12053
▁applying	-12054
▁Dub	-12055
icut	-12056
▁Nav	-12057
ernel	-12058
▁painted	-12059
▁calendar	-12060
▁printing	-12061
▁reserves	-12062
▁prototype	-12063
After	-12064
▁transformation	-12065
▁distant	-12066
▁formally	-12067
ryption	-12068
▁understands	-12069
acer	-12070
▁Number	-12071
▁secured	-12072
▁motivation	-12073
ori	-12074
aman	-12075
think	-12076
▁Reading	-12077
▁grateful	-12078
▁WikiLeaks	-12079
uh	-12080
idth	-12081
requ	-12082
▁Rio	-12083
▁buzz	-12084
▁Yahoo	-12085
▁emerge	-12086
▁reaches	-12087
▁directions	-12088
▁Luck	-12089
outheast	-12090
▁acquisition	-12091
▁pays	-12092
▁Neither	-12093
kes	-12094
FO	-12095
valid	-12096
borne	-12097
▁intensity	-12098
▁residence	-12099
▁manufacturer	-12100
▁Aw	-12101
▁READ	-12102
▁treating	-12103
▁scenarios	-12104
▁strongest	-12105
▁Bund	-12106
▁resigned	-12107
▁computing	-12108
acular	-12109
▁popul	-12110
▁conversion	-12111
▁Rogers	-12112
▁condemned	-12113
.[4]	-12114
▁worship	-12115
▁tensions	-12116
Co	-12117
▁lone	-12118
▁Puerto	-12119
mare	-12120
▁1.1	-12121
▁Prin	-12122
▁stomach	-12123
map	-12124
▁68	-12125
▁IRS	-12126
econom	-12127
▁Fantasy	-12128
▁Scar	-12129
▁exem	-12130
▁Select	-12131
▁shorter	-12132
▁Cohen	-12133
sk	-12134
zes	-12135
▁imperial	-12136
because	-12137
▁philosoph	-12138
ivan	-12139
oria	-12140
▁till	-12141
▁worthy	-12142
▁Franklin	-12143
▁counties	-12144
icts	-12145
▁Jets	-12146
▁highway	-12147
▁bitter	-12148
▁qualify	-12149
▁quotes	-12150
▁Holland	-12151
▁Rodrig	-12152
▁NCAA	-12153
matic	-12154
▁traveled	-12155
▁62	-12156
▁Bond	-12157
▁pink	-12158
boards	-12159
▁condemn	-12160
▁oversight	-12161
▁flexibility	-12162
UTERS	-12163
▁duration	-12164
▁operational	-12165
▁receives	-12166
▁crowds	-12167
('	-12168
atile	-12169
▁Corn	-12170
▁Partners	-12171
▁subsidies	-12172
▁AB	-12173
otypes	-12174
▁lung	-12175
▁overd	-12176
▁slavery	-12177
67	-12178
stan	-12179
▁meth	-12180
▁infring	-12181
▁assumption	-12182
▁Switzerland	-12183
▁Charlotte	-12184
▁dispar	-12185
▁Must	-12186
▁Speed	-12187
western	-12188
▁rumors	-12189
▁References	-12190
ulpt	-12191
vious	-12192
abling	-12193
▁incomp	-12194
▁islands	-12195
▁heritage	-12196
▁nonprofit	-12197
▁respective	-12198
sur	-12199
comed	-12200
▁Buck	-12201
▁stun	-12202
minded	-12203
iciary	-12204
▁fright	-12205
▁Consider	-12206
▁por	-12207
▁Dri	-12208
▁divide	-12209
▁Columbus	-12210
▁composition	-12211
?'	-12212
guard	-12213
▁mild	-12214
written	-12215
▁touched	-12216
ridge	-12217
▁dign	-12218
▁Military	-12219
▁Try	-12220
▁Arkansas	-12221
▁Venezuela	-12222
incinn	-12223
▁throws	-12224
▁operates	-12225
lesh	-12226
uccess	-12227
▁explosive	-12228
▁achievement	-12229
▁alternatives	-12230
▁cam	-12231
▁safer	-12232
▁triggered	-12233
auc	-12234
orient	-12235
mun	-12236
bart	-12237
▁lanes	-12238
▁heaven	-12239
km	-12240
▁Friends	-12241
half	-12242
rint	-12243
arettes	-12244
▁editors	-12245
oa	-12246
▁tel	-12247
▁Diff	-12248
▁Shan	-12249
iments	-12250
▁AMD	-12251
▁Guy	-12252
▁2004,	-12253
▁appeals	-12254
Res	-12255
▁Pap	-12256
atical	-12257
▁Harvey	-12258
▁gaining	-12259
▁Thunder	-12260
▁ideological	-12261
▁viral	-12262
▁contam	-12263
▁completion	-12264
Mus	-12265
Name	-12266
▁density	-12267
▁anticipated	-12268
itably	-12269
product	-12270
version	-12271
pace	-12272
▁Chuck	-12273
initely	-12274
▁approve	-12275
▁churches	-12276
▁conservation	-12277
roc	-12278
brew	-12279
ipher	-12280
▁rall	-12281
VERTIS	-12282
▁conclusions	-12283
▁BR	-12284
file	-12285
▁desired	-12286
▁difficulties	-12287
▁Corbyn	-12288
▁habits	-12289
▁vel	-12290
idding	-12291
▁jokes	-12292
▁panic	-12293
▁incons	-12294
ults	-12295
igers	-12296
▁Contact	-12297
LS	-12298
▁Fat	-12299
story	-12300
▁Clar	-12301
▁Besides	-12302
▁Tyler	-12303
▁crude	-12304
▁sword	-12305
▁Oscar	-12306
incinnati	-12307
▁$30	-12308
▁Phone	-12309
Col	-12310
bling	-12311
▁HP	-12312
▁affair	-12313
erer	-12314
▁raid	-12315
second	-12316
▁pedest	-12317
14]	-12318
▁whistle	-12319
▁GPU	-12320
▁Pred	-12321
▁Norway	-12322
▁ugly	-12323
▁respected	-12324
▁Cass	-12325
▁Stre	-12326
▁posed	-12327
▁scary	-12328
▁shocking	-12329
▁hier	-12330
▁participated	-12331
▁Ju	-12332
▁toile	-12333
▁filling	-12334
▁clicking	-12335
▁deliberately	-12336
prot	-12337
ockets	-12338
lli	-12339
drop	-12340
▁sher	-12341
▁instinct	-12342
eu	-12343
pin	-12344
sized	-12345
itivity	-12346
▁consequence	-12347
inging	-12348
usters	-12349
▁Bears	-12350
▁Danny	-12351
▁acceptance	-12352
Rep	-12353
▁Works	-12354
▁exped	-12355
▁ADVERTIS	-12356
▁Erd	-12357
▁Rain	-12358
string	-12359
▁Fisher	-12360
▁Liberty	-12361
▁floating	-12362
▁priorities	-12363
▁technically	-12364
sky	-12365
▁1930	-12366
▁grasp	-12367
gi	-12368
▁mamm	-12369
▁wings	-12370
▁Warriors	-12371
▁agricultural	-12372
dev	-12373
▁Stars	-12374
▁Turner	-12375
▁volunteer	-12376
▁excitement	-12377
▁Fixed	-12378
▁Carson	-12379
▁respondents	-12380
▁Solar	-12381
▁elderly	-12382
▁shifted	-12383
▁identifying	-12384
▁hopeful	-12385
▁refusing	-12386
▁lun	-12387
▁Bradley	-12388
▁conj	-12389
▁spreading	-12390
▁Mission	-12391
▁wrapped	-12392
▁animated	-12393
zb	-12394
▁abol	-12395
▁ears	-12396
▁knocked	-12397
data	-12398
▁harvest	-12399
▁resolved	-12400
▁Bh	-12401
▁naked	-12402
▁disclosure	-12403
▁parliamentary	-12404
▁earliest	-12405
▁cryptocur	-12406
▁defenders	-12407
▁chap	-12408
▁Brussels	-12409
▁McL	-12410
▁overl	-12411
▁rifle	-12412
▁interf	-12413
GM	-12414
las	-12415
▁rehab	-12416
▁tunnel	-12417
▁ceiling	-12418
▁pledged	-12419
chi	-12420
llers	-12421
▁survivors	-12422
▁dispos	-12423
▁innings	-12424
▁balanced	-12425
-11	-12426
▁Century	-12427
▁flexible	-12428
▁attendance	-12429
▁imagination	-12430
▁Ath	-12431
orses	-12432
▁Rank	-12433
▁Lucas	-12434
▁Morning	-12435
Russ	-12436
▁Cand	-12437
▁Glass	-12438
▁acquire	-12439
▁Ja	-12440
▁Wiz	-12441
keeper	-12442
▁Raven	-12443
▁Rail	-12444
▁fare	-12445
▁Studio	-12446
▁Bou	-12447
asting	-12448
▁sends	-12449
ilateral	-12450
▁Country	-12451
▁(2)	-12452
▁bio	-12453
▁Brady	-12454
▁laser	-12455
▁Chapter	-12456
chron	-12457
▁exchanges	-12458
▁optimistic	-12459
▁MM	-12460
▁vegan	-12461
▁Circuit	-12462
▁constrain	-12463
▁designers	-12464
azy	-12465
▁mechanical	-12466
▁legislature	-12467
▁equity	-12468
▁provincial	-12469
▁harmful	-12470
▁Connecticut	-12471
▁Salt	-12472
▁assured	-12473
.[5]	-12474
▁freely	-12475
▁assuming	-12476
▁spacecraft	-12477
lash	-12478
▁Oliver	-12479
▁declare	-12480
▁Cincinnati	-12481
▁disturbing	-12482
▁Profile	-12483
▁legendary	-12484
▁magical	-12485
▁trusted	-12486
▁RC	-12487
charge	-12488
▁reply	-12489
▁Resear	-12490
▁Vermont	-12491
▁declaration	-12492
dec	-12493
beit	-12494
▁Books	-12495
▁avoided	-12496
▁teenager	-12497
▁traditionally	-12498
▁Guide	-12499
▁hatred	-12500
▁aest	-12501
▁turb	-12502
▁conducting	-12503
▁reson	-12504
▁trapped	-12505
oard	-12506
▁Room	-12507
▁disg	-12508
▁Nort	-12509
▁absent	-12510
▁detected	-12511
▁waited	-12512
▁Verizon	-12513
▁announcing	-12514
▁EV	-12515
ATION	-12516
▁Elsa	-12517
▁Caption	-12518
▁unfortunate	-12519
▁$25	-12520
▁texts	-12521
nered	-12522
▁horm	-12523
▁tong	-12524
▁portfol	-12525
bage	-12526
▁Past	-12527
powered	-12528
iary	-12529
size	-12530
▁scrap	-12531
crat	-12532
▁Tob	-12533
▁clever	-12534
▁rushed	-12535
▁preserv	-12536
();	-12537
owell	-12538
somet	-12539
▁REUTERS	-12540
▁interrog	-12541
▁Crown	-12542
▁squee	-12543
quality	-12544
▁editing	-12545
sign	-12546
▁subt	-12547
rust	-12548
▁bass	-12549
▁Living	-12550
▁serial	-12551
▁stocks	-12552
aby	-12553
best	-12554
▁fluid	-12555
▁reminded	-12556
ocate	-12557
▁1995	-12558
▁socialist	-12559
▁1/2	-12560
▁Fel	-12561
abetes	-12562
▁composed	-12563
utt	-12564
amped	-12565
▁judicial	-12566
▁rocks	-12567
▁colleges	-12568
▁economies	-12569
▁trop	-12570
hess	-12571
rane	-12572
▁Princ	-12573
▁mutual	-12574
▁planets	-12575
▁deciding	-12576
▁controlling	-12577
▁excessive	-12578
▁advantages	-12579
15]	-12580
▁::	-12581
▁Better	-12582
▁Islands	-12583
Sc	-12584
wal	-12585
atin	-12586
▁Getting	-12587
▁lifted	-12588
▁Jake	-12589
▁humor	-12590
▁welcomed	-12591
▁20%	-12592
prising	-12593
▁Current	-12594
gree	-12595
▁Fab	-12596
ighed	-12597
▁fest	-12598
▁recy	-12599
▁tang	-12600
▁grabbed	-12601
▁Imagine	-12602
▁attributed	-12603
seud	-12604
izable	-12605
▁zones	-12606
▁suitable	-12607
▁Anim	-12608
▁pizza	-12609
▁wondered	-12610
98	-12611
▁Merkel	-12612
▁whites	-12613
▁retreat	-12614
▁meantime	-12615
never	-12616
▁Universal	-12617
specific	-12618
PI	-12619
anded	-12620
▁Pence	-12621
▁Seven	-12622
▁counting	-12623
rained	-12624
▁divorce	-12625
mi	-12626
uri	-12627
▁Nin	-12628
urned	-12629
▁sparked	-12630
code	-12631
▁mixture	-12632
▁vertical	-12633
▁Indonesia	-12634
▁WR	-12635
▁Prize	-12636
▁headline	-12637
▁deployment	-12638
▁sequel	-12639
▁structural	-12640
▁Madison	-12641
▁compliance	-12642
gs	-12643
backed	-12644
acent	-12645
▁nons	-12646
▁infected	-12647
▁tendency	-12648
▁barrier	-12649
▁beloved	-12650
olk	-12651
stock	-12652
▁preval	-12653
▁accountable	-12654
▁decides	-12655
▁donation	-12656
▁Communist	-12657
▁15-	-12658
▁verdict	-12659
wau	-12660
▁hybrid	-12661
▁economist	-12662
▁passionate	-12663
▁NEW	-12664
▁aftermath	-12665
▁Hi	-12666
▁PAC	-12667
▁intentions	-12668
▁temporarily	-12669
▁Load	-12670
▁steep	-12671
▁Updated	-12672
▁governing	-12673
Mar	-12674
▁Years	-12675
▁bless	-12676
▁feeding	-12677
▁rotation	-12678
46	-12679
school	-12680
▁WWE	-12681
▁undermine	-12682
▁61	-12683
▁buttons	-12684
▁satisfied	-12685
▁null	-12686
▁minorities	-12687
▁Communications	-12688
▁breakfast	-12689
▁instruments	-12690
▁CM	-12691
leton	-12692
▁Jefferson	-12693
▁fru	-12694
▁Gonz	-12695
▁Poké	-12696
▁grip	-12697
ousing	-12698
▁Glenn	-12699
▁unity	-12700
odge	-12701
▁grows	-12702
▁wallet	-12703
▁fraction	-12704
▁Photograph	-12705
dale	-12706
▁permits	-12707
owners	-12708
▁immense	-12709
di	-12710
▁77	-12711
▁creep	-12712
▁Collect	-12713
▁Ec	-12714
estone	-12715
▁wishes	-12716
▁Celt	-12717
▁Save	-12718
ECT	-12719
▁BY	-12720
▁ft	-12721
▁Joy	-12722
▁Kam	-12723
▁lake	-12724
▁Coach	-12725
▁empire	-12726
▁tragic	-12727
tics	-12728
▁Hunt	-12729
▁beers	-12730
▁comply	-12731
▁lasted	-12732
▁donated	-12733
▁exports	-12734
▁suppose	-12735
when	-12736
▁11.	-12737
ropolitan	-12738
▁warnings	-12739
▁3.5	-12740
▁Bos	-12741
▁Dest	-12742
▁pursuit	-12743
▁undermin	-12744
▁indicating	-12745
▁unh	-12746
around	-12747
▁embedded	-12748
▁template	-12749
▁vibr	-12750
▁brains	-12751
▁Record	-12752
▁Gallery	-12753
▁barriers	-12754
▁aggreg	-12755
▁FDA	-12756
▁transparent	-12757
NG	-12758
▁Hub	-12759
▁flip	-12760
agraph	-12761
▁Pakistani	-12762
▁urge	-12763
▁Garden	-12764
▁neglect	-12765
▁Il	-12766
▁fitness	-12767
▁champions	-12768
supp	-12769
acceptable	-12770
itbart	-12771
▁edited	-12772
▁licensed	-12773
▁tourists	-12774
orph	-12775
▁Anne	-12776
arents	-12777
▁Altern	-12778
▁recount	-12779
En	-12780
main	-12781
▁Meet	-12782
▁ethical	-12783
otton	-12784
▁females	-12785
▁hackers	-12786
▁liberals	-12787
▁retailers	-12788
▁nick	-12789
▁essence	-12790
▁colleague	-12791
▁economists	-12792
CO	-12793
group	-12794
fil	-12795
oons	-12796
▁silly	-12797
▁slave	-12798
Ty	-12799
abl	-12800
abil	-12801
▁Fast	-12802
▁Advent	-12803
▁auction	-12804
path	-12805
unct	-12806
▁URL	-12807
▁sacrific	-12808
▁believing	-12809
▁cub	-12810
▁dys	-12811
waukee	-12812
▁financing	-12813
▁processor	-12814
▁demol	-12815
▁millenn	-12816
▁generous	-12817
▁pursuing	-12818
▁armor	-12819
▁lobbying	-12820
whe	-12821
▁Douglas	-12822
▁Theatre	-12823
CD	-12824
▁thereby	-12825
▁continuous	-12826
▁Thor	-12827
▁destroying	-12828
▁DA	-12829
▁Rams	-12830
▁Employ	-12831
▁69	-12832
▁Cambridge	-12833
▁sensor	-12834
▁helicopter	-12835
▁recruiting	-12836
afi	-12837
▁bell	-12838
▁reminder	-12839
Pl	-12840
irable	-12841
▁casting	-12842
▁mock	-12843
▁Islamist	-12844
▁capitalist	-12845
-16	-12846
▁draws	-12847
angelical	-12848
▁700	-12849
▁suspicion	-12850
▁approaching	-12851
▁identification	-12852
haul	-12853
tail	-12854
▁damaging	-12855
iph	-12856
▁Mort	-12857
▁outer	-12858
▁cartoon	-12859
▁Half	-12860
▁Imper	-12861
▁screening	-12862
▁ADVERTISEMENT	-12863
▁Pi	-12864
▁1994	-12865
▁boring	-12866
▁creators	-12867
▁immigrant	-12868
▁preference	-12869
▁Nobody	-12870
▁expend	-12871
▁frozen	-12872
▁workforce	-12873
▁exempt	-12874
▁Zh	-12875
▁eleph	-12876
▁Sciences	-12877
▁slower	-12878
▁tenure	-12879
▁advances	-12880
▁considers	-12881
▁awa	-12882
▁lib	-12883
▁villages	-12884
▁Od	-12885
▁User	-12886
▁winds	-12887
Fig	-12888
9.99	-12889
fold	-12890
tech	-12891
▁arriving	-12892
arenthood	-12893
▁presumably	-12894
idays	-12895
▁zomb	-12896
▁shar	-12897
forcement	-12898
▁succeeded	-12899
▁Making	-12900
▁detain	-12901
▁Universe	-12902
▁conclude	-12903
▁Cher	-12904
▁strain	-12905
fig	-12906
▁taxpayer	-12907
▁SW	-12908
▁athletic	-12909
▁incentives	-12910
▁Muham	-12911
▁bottles	-12912
▁daughters	-12913
eor	-12914
imens	-12915
▁Ghost	-12916
▁honey	-12917
▁Belgium	-12918
Pal	-12919
▁Ubuntu	-12920
▁admits	-12921
▁cheer	-12922
▁ultra	-12923
▁Memorial	-12924
▁0.	-12925
▁farms	-12926
▁Mormon	-12927
▁unders	-12928
▁warfare	-12929
orig	-12930
ationally	-12931
▁leverage	-12932
▁societies	-12933
dig	-12934
▁JS	-12935
▁Arthur	-12936
▁Hindu	-12937
▁Veter	-12938
▁sooner	-12939
▁execute	-12940
▁Leaf	-12941
▁Walter	-12942
▁masses	-12943
oni	-12944
▁DR	-12945
▁Garc	-12946
inates	-12947
▁insect	-12948
coins	-12949
actor	-12950
giving	-12951
▁(8	-12952
▁DNC	-12953
▁Kle	-12954
▁Finance	-12955
▁pir	-12956
▁grace	-12957
▁kingdom	-12958
2:	-12959
olo	-12960
▁Rosen	-12961
▁collapsed	-12962
▁organisations	-12963
▁$1,	-12964
▁denial	-12965
▁Officials	-12966
▁inclusion	-12967
▁regulators	-12968
pop	-12969
▁BJP	-12970
▁romantic	-12971
▁fundraising	-12972
cha	-12973
source	-12974
▁emotion	-12975
▁Cu	-12976
▁batteries	-12977
▁TD	-12978
resa	-12979
▁24-	-12980
▁Cond	-12981
▁enhanced	-12982
▁78	-12983
▁feared	-12984
▁doubled	-12985
▁founding	-12986
points	-12987
▁cleaning	-12988
▁gravity	-12989
iva	-12990
▁fence	-12991
▁purely	-12992
SE	-12993
▁74	-12994
▁Hills	-12995
▁Peters	-12996
▁Argentina	-12997
▁aired	-12998
▁observation	-12999
feld	-13000
▁Wonder	-13001
16]	-13002
ski	-13003
▁Amy	-13004
▁Joh	-13005
▁monop	-13006
ALL	-13007
peror	-13008
▁reun	-13009
roller	-13010
▁aging	-13011
▁accurately	-13012
▁probability	-13013
és	-13014
▁Till	-13015
▁unrest	-13016
cker	-13017
advant	-13018
▁Palin	-13019
▁Cowboys	-13020
▁suspicious	-13021
IVE	-13022
ella	-13023
▁gifts	-13024
▁dubbed	-13025
▁Michelle	-13026
▁wildlife	-13027
▁Bash	-13028
▁Sach	-13029
▁corresponding	-13030
live	-13031
▁Return	-13032
▁lyrics	-13033
▁Lebanon	-13034
▁secrets	-13035
vals	-13036
▁Carr	-13037
▁Virt	-13038
▁Johnny	-13039
▁Students	-13040
▁introducing	-13041
▁diagnosed	-13042
▁Rah	-13043
▁Ebola	-13044
▁Polish	-13045
▁unveiled	-13046
▁isolation	-13047
oler	-13048
▁NPR	-13049
▁shed	-13050
▁jumping	-13051
▁sectors	-13052
astically	-13053
▁masc	-13054
▁Qaeda	-13055
▁breakdown	-13056
▁disappointing	-13057
▁Kind	-13058
▁firef	-13059
▁variation	-13060
▁midfielder	-13061
gt	-13062
From	-13063
start	-13064
ructive	-13065
▁contacts	-13066
▁boyfriend	-13067
▁civilization	-13068
hol	-13069
▁5,000	-13070
▁penet	-13071
▁gamers	-13072
esis	-13073
media	-13074
▁Viol	-13075
▁Nixon	-13076
▁comparing	-13077
▁purchases	-13078
700	-13079
tha	-13080
anka	-13081
five	-13082
oner	-13083
▁trace	-13084
▁width	-13085
▁offset	-13086
big	-13087
.[6]	-13088
▁sued	-13089
note	-13090
▁Isa	-13091
▁lacking	-13092
▁4-	-13093
▁lau	-13094
utical	-13095
▁Member	-13096
reach	-13097
▁indict	-13098
▁Jennifer	-13099
enna	-13100
▁justified	-13101
gian	-13102
mouth	-13103
▁bust	-13104
▁encount	-13105
▁failures	-13106
▁(9	-13107
▁credibility	-13108
ahl	-13109
▁“[	-13110
▁Woman	-13111
isers	-13112
▁dose	-13113
▁Armen	-13114
ulative	-13115
umm	-13116
▁DM	-13117
plan	-13118
▁traits	-13119
▁encountered	-13120
▁preliminary	-13121
asm	-13122
####	-13123
▁finan	-13124
▁fierce	-13125
▁careers	-13126
▁evaluate	-13127
▁visa	-13128
▁acres	-13129
▁invite	-13130
ools	-13131
▁Sor	-13132
▁streak	-13133
▁adequate	-13134
▁organizing	-13135
lie	-13136
plex	-13137
direct	-13138
▁grain	-13139
▁Working	-13140
NT	-13141
▁Brun	-13142
▁Serge	-13143
▁cricket	-13144
▁negotiate	-13145
▁eliminated	-13146
▁MC	-13147
▁Sox	-13148
ussion	-13149
▁rhyth	-13150
▁Carlos	-13151
essional	-13152
▁attitudes	-13153
▁Alf	-13154
▁layout	-13155
▁median	-13156
▁dece	-13157
▁Title	-13158
▁agrees	-13159
▁convinc	-13160
▁regards	-13161
store	-13162
▁teenage	-13163
▁font	-13164
▁decreased	-13165
▁3,000	-13166
▁cents	-13167
▁UPDATE	-13168
▁stabil	-13169
▁nan	-13170
urred	-13171
cend	-13172
▁celebrity	-13173
▁indigenous	-13174
▁rushing	-13175
▁avoiding	-13176
▁mentally	-13177
▁separation	-13178
▁touchdowns	-13179
▁delays	-13180
▁observe	-13181
▁Bros	-13182
▁cluster	-13183
▁institutional	-13184
Net	-13185
rape	-13186
visor	-13187
▁Close	-13188
▁appealing	-13189
▁()	-13190
▁2007.	-13191
claimed	-13192
iots	-13193
▁snaps	-13194
▁Gay	-13195
▁ampl	-13196
master	-13197
▁inhib	-13198
▁urging	-13199
ACK	-13200
▁pilots	-13201
▁terminal	-13202
adows	-13203
▁climbing	-13204
▁wrestling	-13205
HING	-13206
▁wheels	-13207
▁solidarity	-13208
▁genet	-13209
▁likelihood	-13210
▁codes	-13211
▁trash	-13212
▁dispro	-13213
▁compiled	-13214
▁outright	-13215
▁Milwaukee	-13216
▁magnitude	-13217
writer	-13218
▁marine	-13219
▁Brazilian	-13220
▁workplace	-13221
▁authorized	-13222
▁beneficial	-13223
▁metab	-13224
aley	-13225
ugged	-13226
cribed	-13227
OG	-13228
▁BB	-13229
ocity	-13230
▁Lisa	-13231
▁glob	-13232
▁vacation	-13233
Hey	-13234
IST	-13235
▁compos	-13236
aux	-13237
illo	-13238
▁Either	-13239
▁Shadow	-13240
▁sculpt	-13241
▁educated	-13242
arest	-13243
▁treaty	-13244
▁exceptions	-13245
rien	-13246
▁Pick	-13247
▁hill	-13248
▁Mason	-13249
▁divid	-13250
▁smugg	-13251
date	-13252
eded	-13253
▁Sent	-13254
▁Movement	-13255
▁PL	-13256
▁meals	-13257
▁determination	-13258
ivic	-13259
▁0.00	-13260
ollah	-13261
stage	-13262
▁peoples	-13263
▁Aqu	-13264
▁Too	-13265
▁Legend	-13266
▁literary	-13267
▁cod	-13268
▁Budget	-13269
▁funeral	-13270
days	-13271
▁lip	-13272
ifting	-13273
▁filming	-13274
▁Representatives	-13275
etta	-13276
▁steam	-13277
▁endorsed	-13278
▁1920	-13279
urable	-13280
ordable	-13281
▁invented	-13282
▁Inv	-13283
raham	-13284
driven	-13285
▁Brooks	-13286
DB	-13287
▁Jar	-13288
-200	-13289
▁Bernard	-13290
▁fict	-13291
normal	-13292
▁Search	-13293
▁crying	-13294
▁Rat	-13295
▁intu	-13296
▁sail	-13297
▁Marco	-13298
.[8	-13299
hal	-13300
▁Own	-13301
▁Lane	-13302
▁Dennis	-13303
▁connecting	-13304
▁resignation	-13305
▁interference	-13306
▁Buzz	-13307
▁dirt	-13308
▁Episode	-13309
▁psychology	-13310
▁0.3	-13311
▁labels	-13312
▁Studios	-13313
▁routinely	-13314
heric	-13315
▁proceedings	-13316
▁transformed	-13317
ellar	-13318
▁wooden	-13319
▁Cob	-13320
▁dumb	-13321
acious	-13322
▁Relations	-13323
▁affecting	-13324
▁treatments	-13325
▁entrepreneurs	-13326
iasm	-13327
▁shifts	-13328
▁compound	-13329
▁lawsuits	-13330
▁breathing	-13331
▁2003,	-13332
▁Spirit	-13333
▁translated	-13334
0,	-13335
1:	-13336
▁NA	-13337
▁pleaded	-13338
▁Ald	-13339
▁paths	-13340
▁reconst	-13341
▁Hat	-13342
▁Added	-13343
▁inappropriate	-13344
▁amend	-13345
▁disorders	-13346
▁instruction	-13347
iang	-13348
▁Liberals	-13349
▁Colomb	-13350
▁unst	-13351
▁Impro	-13352
▁monsters	-13353
▁toy	-13354
▁novels	-13355
▁sensors	-13356
▁matching	-13357
issa	-13358
▁Spider	-13359
▁precious	-13360
▁willingness	-13361
▁royal	-13362
▁betray	-13363
▁partial	-13364
▁plaint	-13365
▁inmates	-13366
py	-13367
ppy	-13368
▁fib	-13369
▁enables	-13370
▁licensing	-13371
▁Merc	-13372
olphins	-13373
▁statistical	-13374
2-	-13375
▁org	-13376
itative	-13377
▁counted	-13378
▁Denmark	-13379
▁broadband	-13380
▁folk	-13381
▁Gates	-13382
▁maker	-13383
▁damages	-13384
▁triumph	-13385
▁shoulders	-13386
aha	-13387
urse	-13388
ctive	-13389
umbling	-13390
▁Joined	-13391
▁corners	-13392
▁Seah	-13393
aceutical	-13394
▁wherever	-13395
▁commissioner	-13396
▁sheer	-13397
▁twist	-13398
▁certificate	-13399
▁photographer	-13400
▁iT	-13401
▁Stay	-13402
▁pepper	-13403
▁averaged	-13404
have	-13405
isible	-13406
▁Scientists	-13407
bull	-13408
▁hij	-13409
▁Blues	-13410
▁attacker	-13411
▁Mi	-13412
▁Bennett	-13413
▁Goldman	-13414
ello	-13415
ocker	-13416
▁Join	-13417
▁diox	-13418
▁Highway	-13419
▁directory	-13420
-17	-13421
▁Workers	-13422
▁branches	-13423
▁comparable	-13424
▁Researchers	-13425
iop	-13426
▁Ave	-13427
▁rib	-13428
▁2001,	-13429
▁Palestine	-13430
▁sponsored	-13431
▁prohibited	-13432
▁QB	-13433
▁esp	-13434
wart	-13435
▁Charg	-13436
▁Spencer	-13437
▁traditions	-13438
▁Calgary	-13439
alog	-13440
,000,	-13441
actic	-13442
iking	-13443
▁File	-13444
▁Self	-13445
▁slaves	-13446
▁lengthy	-13447
▁incentive	-13448
▁screaming	-13449
▁trafficking	-13450
rer	-13451
ueller	-13452
ublin	-13453
▁Reed	-13454
▁cort	-13455
opard	-13456
▁brave	-13457
▁Superman	-13458
▁commented	-13459
▁arrangement	-13460
▁insists	-13461
▁Software	-13462
▁mobil	-13463
▁Nearly	-13464
▁renewed	-13465
▁rankings	-13466
▁counterparts	-13467
affe	-13468
▁inch	-13469
▁healing	-13470
▁lecture	-13471
▁Breitbart	-13472
▁smartphones	-13473
▁ye	-13474
eches	-13475
▁Upon	-13476
▁Bryant	-13477
▁locally	-13478
▁frustrating	-13479
▁73	-13480
▁divers	-13481
▁ox	-13482
▁Jamie	-13483
▁teens	-13484
▁unanim	-13485
▁exercises	-13486
▁consultant	-13487
▁Hem	-13488
▁NDP	-13489
Am	-13490
▁Pas	-13491
▁Mack	-13492
▁Method	-13493
▁specialist	-13494
viol	-13495
ector	-13496
iosity	-13497
▁Server	-13498
bean	-13499
▁Tory	-13500
▁Raiders	-13501
▁kills	-13502
▁Introdu	-13503
Sec	-13504
▁GR	-13505
▁Edwards	-13506
umbl	-13507
▁cra	-13508
▁skilled	-13509
▁darkness	-13510
▁creativity	-13511
▁cycling	-13512
▁pupp	-13513
▁unch	-13514
▁NG	-13515
▁Rush	-13516
▁Race	-13517
ugging	-13518
▁Activ	-13519
zech	-13520
▁von	-13521
rowth	-13522
▁investor	-13523
▁Ide	-13524
▁Shah	-13525
▁rated	-13526
▁realm	-13527
ambling	-13528
▁triple	-13529
▁Operation	-13530
▁thirty	-13531
▁$2.	-13532
controlled	-13533
▁leagues	-13534
▁interactive	-13535
NET	-13536
ride	-13537
▁spare	-13538
▁indirect	-13539
elta	-13540
▁gray	-13541
▁riot	-13542
Any	-13543
▁==	-13544
ateur	-13545
▁spawn	-13546
▁charts	-13547
▁Harrison	-13548
▁establishing	-13549
▁implementing	-13550
▁hungry	-13551
▁aggression	-13552
olan	-13553
team	-13554
▁***	-13555
▁Init	-13556
inance	-13557
▁Broncos	-13558
▁earthquake	-13559
▁Iss	-13560
▁embassy	-13561
▁Electric	-13562
▁Muhammad	-13563
▁admission	-13564
▁pub	-13565
▁Gear	-13566
▁$0	-13567
▁hence	-13568
▁alternate	-13569
kees	-13570
lude	-13571
▁Stop	-13572
▁Defence	-13573
ulent	-13574
▁Planned	-13575
▁threaten	-13576
▁generating	-13577
▁MO	-13578
▁Juan	-13579
▁infer	-13580
▁descript	-13581
▁compassion	-13582
▁problematic	-13583
69	-13584
anto	-13585
▁Gas	-13586
▁gods	-13587
-14	-13588
▁Study	-13589
▁Hockey	-13590
▁drought	-13591
ulum	-13592
▁marry	-13593
▁firmly	-13594
▁farming	-13595
▁underway	-13596
cules	-13597
▁demon	-13598
▁afterwards	-13599
▁decks	-13600
▁laughing	-13601
▁practically	-13602
17]	-13603
▁__	-13604
▁LED	-13605
neath	-13606
▁Fitz	-13607
▁buses	-13608
▁Object	-13609
▁statue	-13610
atherine	-13611
▁intercept	-13612
▁vulnerability	-13613
health	-13614
▁Urban	-13615
-18	-13616
ooting	-13617
▁bankruptcy	-13618
pse	-13619
▁Eight	-13620
▁airline	-13621
Te	-13622
▁holy	-13623
oubted	-13624
▁recalls	-13625
▁classroom	-13626
▁dism	-13627
selling	-13628
addy	-13629
aghd	-13630
▁motorcy	-13631
erences	-13632
▁Griffin	-13633
▁Systems	-13634
▁VA	-13635
▁origins	-13636
asi	-13637
▁tradem	-13638
▁Iceland	-13639
▁shootings	-13640
▁purchasing	-13641
▁Original	-13642
▁Apparently	-13643
arthy	-13644
▁edges	-13645
▁locals	-13646
▁1.3	-13647
▁GPS	-13648
▁Creek	-13649
▁resume	-13650
▁leather	-13651
/5	-13652
▁Certain	-13653
uru	-13654
width	-13655
▁overlook	-13656
▁evaluation	-13657
▁tatt	-13658
▁mph	-13659
ailand	-13660
wealth	-13661
▁tackles	-13662
▁testified	-13663
▁jew	-13664
▁worn	-13665
▁Pokémon	-13666
▁assumptions	-13667
▁swimming	-13668
▁sheriff	-13669
▁independently	-13670
CR	-13671
▁crashed	-13672
auer	-13673
▁Shel	-13674
gel	-13675
▁Nex	-13676
▁veto	-13677
iberal	-13678
▁abused	-13679
▁temple	-13680
▁Marl	-13681
▁folder	-13682
▁Resources	-13683
▁supportive	-13684
▁transcript	-13685
▁Transportation	-13686
ocaly	-13687
▁sink	-13688
▁Incre	-13689
▁Recently	-13690
▁Pere	-13691
▁Unit	-13692
▁Fourth	-13693
▁killings	-13694
nik	-13695
▁Spot	-13696
▁Analy	-13697
▁audit	-13698
▁impress	-13699
aku	-13700
▁HTT	-13701
idges	-13702
▁severely	-13703
Id	-13704
▁Gand	-13705
▁wreck	-13706
▁accompany	-13707
▁encryption	-13708
pur	-13709
▁Ric	-13710
▁Terror	-13711
▁albums	-13712
▁cocaine	-13713
izont	-13714
outube	-13715
▁thoroughly	-13716
Time	-13717
ignt	-13718
▁modes	-13719
iliation	-13720
llo	-13721
▁republic	-13722
▁subscription	-13723
aws	-13724
▁88	-13725
▁fuels	-13726
▁Parenthood	-13727
▁Blair	-13728
▁Homeland	-13729
▁accounting	-13730
▁withdrawal	-13731
▁1940	-13732
▁Shar	-13733
▁Account	-13734
▁Germans	-13735
▁musicians	-13736
▁shore	-13737
zo	-13738
Book	-13739
▁obligation	-13740
rose	-13741
▁Visit	-13742
▁Comics	-13743
▁observers	-13744
~~	-13745
hner	-13746
DE	-13747
uum	-13748
▁16-	-13749
▁Truth	-13750
▁offshore	-13751
▁continent	-13752
OST	-13753
home	-13754
▁1993	-13755
▁merc	-13756
itated	-13757
▁Bulls	-13758
▁Qatar	-13759
▁Exchange	-13760
▁shifting	-13761
cca	-13762
▁PT	-13763
▁Exam	-13764
▁fame	-13765
funded	-13766
▁gallery	-13767
orns	-13768
anium	-13769
▁Travel	-13770
▁powder	-13771
▁magnetic	-13772
▁Snap	-13773
▁escaped	-13774
abad	-13775
ovic	-13776
esity	-13777
▁trap	-13778
pelled	-13779
▁Billy	-13780
▁Laura	-13781
▁intend	-13782
▁uncons	-13783
▁sisters	-13784
73	-13785
▁anime	-13786
▁blacks	-13787
▁tribal	-13788
▁Silicon	-13789
engu	-13790
four	-13791
▁query	-13792
closure	-13793
▁lesser	-13794
▁misleading	-13795
▁Lost	-13796
▁leaf	-13797
▁adaptation	-13798
▁corporation	-13799
▁Arn	-13800
▁Hero	-13801
▁ignoring	-13802
▁imagined	-13803
▁limiting	-13804
▁inevitably	-13805
▁desperately	-13806
▁sounded	-13807
▁Agr	-13808
table	-13809
▁halt	-13810
▁slip	-13811
▁shaped	-13812
▁Wallace	-13813
▁switched	-13814
cs	-13815
len	-13816
▁sie	-13817
▁privately	-13818
▁Rachel	-13819
▁Tribune	-13820
▁bedroom	-13821
igma	-13822
▁Rico	-13823
▁2000,	-13824
▁vegetables	-13825
▁lap	-13826
▁2018.	-13827
▁archae	-13828
▁Seahawks	-13829
▁consolid	-13830
▁consumed	-13831
▁autonomous	-13832
▁hypothesis	-13833
▁ACL	-13834
▁Hud	-13835
▁Cart	-13836
▁exhaust	-13837
uki	-13838
UE	-13839
▁Koch	-13840
▁forming	-13841
lib	-13842
▁prest	-13843
▁Village	-13844
▁flowers	-13845
▁detection	-13846
1-	-13847
▁Give	-13848
▁diabetes	-13849
uced	-13850
▁costly	-13851
▁whilst	-13852
munition	-13853
.25	-13854
▁Bangl	-13855
▁swift	-13856
▁Ib	-13857
▁horses	-13858
ocumented	-13859
1/	-13860
inos	-13861
▁Mul	-13862
▁garbage	-13863
kh	-13864
▁bite	-13865
▁forums	-13866
▁apology	-13867
▁listing	-13868
IDS	-13869
▁Iv	-13870
onge	-13871
▁Richmond	-13872
▁measurements	-13873
gro	-13874
letter	-13875
▁disadvant	-13876
▁Days	-13877
▁sacred	-13878
▁5:	-13879
value	-13880
▁Zero	-13881
ullivan	-13882
▁rebell	-13883
▁consume	-13884
▁timeline	-13885
▁nominated	-13886
▁Hide	-13887
▁grey	-13888
people	-13889
▁dioxide	-13890
▁colonial	-13891
▁HBO	-13892
▁nuts	-13893
▁unfold	-13894
▁reception	-13895
▁publishers	-13896
Per	-13897
▁Dublin	-13898
▁Analysis	-13899
▁searches	-13900
▁diagnosis	-13901
▁algorithms	-13902
▁laboratory	-13903
rus	-13904
levant	-13905
▁pseud	-13906
▁infamous	-13907
Even	-13908
▁demographic	-13909
▁iTunes	-13910
................	-13911
▁prox	-13912
▁classical	-13913
▁Bryan	-13914
▁Survey	-13915
▁reflection	-13916
▁EM	-13917
▁Fly	-13918
▁orche	-13919
▁dealers	-13920
▁matched	-13921
▁outbreak	-13922
▁specified	-13923
than	-13924
▁Barbara	-13925
his	-13926
▁Fame	-13927
▁volumes	-13928
▁enthusiasm	-13929
▁territories	-13930
▁Prim	-13931
▁pants	-13932
▁Thailand	-13933
▁Hurricane	-13934
▁mortality	-13935
▁reasoning	-13936
px	-13937
▁Auto	-13938
▁Soul	-13939
▁Starting	-13940
▁relating	-13941
ocide	-13942
▁Spurs	-13943
▁predictions	-13944
ayer	-13945
▁midst	-13946
▁doctrine	-13947
.5%	-13948
▁Si	-13949
▁REL	-13950
ignty	-13951
▁hood	-13952
▁adjusted	-13953
▁portfolio	-13954
▁effectiveness	-13955
20]	-13956
irk	-13957
blem	-13958
qual	-13959
artisan	-13960
▁organize	-13961
▁Assistant	-13962
▁delicious	-13963
kg	-13964
▁quad	-13965
▁Target	-13966
▁photography	-13967
feed	-13968
▁loses	-13969
▁suits	-13970
▁loving	-13971
oubtedly	-13972
▁striker	-13973
ppo	-13974
issance	-13975
▁RAM	-13976
▁Butler	-13977
▁clinic	-13978
▁demonstrations	-13979
See	-13980
▁une	-13981
▁chains	-13982
▁convey	-13983
icers	-13984
▁Greens	-13985
▁MMA	-13986
▁cher	-13987
▁neat	-13988
▁Tib	-13989
▁unre	-13990
▁Mueller	-13991
ioned	-13992
pered	-13993
▁Gate	-13994
ickets	-13995
▁Double	-13996
▁Invalid	-13997
▁elaborate	-13998
nesty	-13999
▁newest	-14000
▁Additional	-14001
▁mounted	-14002
▁Pros	-14003
▁Marcus	-14004
▁closure	-14005
▁celebrating	-14006
▁Linked	-14007
.[7]	-14008
▁Webs	-14009
▁Create	-14010
▁eighth	-14011
▁labeled	-14012
▁restored	-14013
▁teenagers	-14014
▁expressing	-14015
wer	-14016
▁ports	-14017
▁regulate	-14018
bul	-14019
▁GMT	-14020
▁bikes	-14021
▁dated	-14022
▁disclose	-14023
▁superhero	-14024
othy	-14025
roots	-14026
▁heter	-14027
olutions	-14028
▁deleted	-14029
▁Git	-14030
▁variations	-14031
tic	-14032
azed	-14033
▁Bobby	-14034
▁exagger	-14035
abul	-14036
chair	-14037
▁dash	-14038
▁compatible	-14039
▁aide	-14040
▁Phillips	-14041
▁straightforward	-14042
Mod	-14043
▁MB	-14044
▁Pad	-14045
aters	-14046
▁1992	-14047
▁fancy	-14048
▁skull	-14049
▁CBC	-14050
▁tub	-14051
▁presidents	-14052
ango	-14053
▁Kel	-14054
▁carriers	-14055
▁fundamentally	-14056
▁tuned	-14057
▁Soccer	-14058
oline	-14059
▁Zion	-14060
▁Planet	-14061
▁analyses	-14062
▁Cant	-14063
▁insure	-14064
▁IBM	-14065
▁cm	-14066
▁Ele	-14067
▁MLB	-14068
CL	-14069
acker	-14070
▁differ	-14071
▁linebacker	-14072
▁Ot	-14073
▁3.0	-14074
▁Agree	-14075
▁leaks	-14076
▁Clean	-14077
▁dispens	-14078
▁Teh	-14079
semble	-14080
▁Colon	-14081
▁solved	-14082
▁belongs	-14083
▁occurring	-14084
Ed	-14085
▁Help	-14086
▁formerly	-14087
fits	-14088
itis	-14089
▁meg	-14090
▁Clay	-14091
▁Surv	-14092
iology	-14093
▁Forum	-14094
▁arranged	-14095
▁maintains	-14096
▁SA	-14097
▁Chile	-14098
▁Czech	-14099
▁spill	-14100
clusion	-14101
▁18-	-14102
▁MIT	-14103
▁hed	-14104
▁Learn	-14105
writing	-14106
gregation	-14107
airo	-14108
▁185	-14109
▁Drag	-14110
▁expose	-14111
▁Confeder	-14112
Cal	-14113
▁191	-14114
▁prejud	-14115
enc	-14116
▁shy	-14117
▁Beer	-14118
shirt	-14119
▁relate	-14120
▁trauma	-14121
72	-14122
airy	-14123
▁Tigers	-14124
▁namely	-14125
▁McCarthy	-14126
▁premiere	-14127
puted	-14128
manuel	-14129
▁Quick	-14130
▁Bannon	-14131
▁strings	-14132
▁tribute	-14133
▁twin	-14134
▁militant	-14135
▁examination	-14136
black	-14137
entials	-14138
▁unlimited	-14139
degree	-14140
▁raped	-14141
wear	-14142
▁Jav	-14143
▁Ltd	-14144
Semit	-14145
▁foul	-14146
▁Happy	-14147
▁schemes	-14148
▁monument	-14149
▁friendship	-14150
▁15.	-14151
▁bloody	-14152
ieval	-14153
▁Dawn	-14154
▁locker	-14155
▁Packers	-14156
▁entries	-14157
▁Ultimately	-14158
▁Bed	-14159
▁Fran	-14160
▁nodes	-14161
▁risen	-14162
▁automated	-14163
ulu	-14164
rament	-14165
▁athlete	-14166
▁shutdown	-14167
▁declining	-14168
▁CSS	-14169
▁unacceptable	-14170
▁boats	-14171
▁shapes	-14172
▁Vikings	-14173
▁organizers	-14174
je	-14175
▁Fish	-14176
respons	-14177
▁Daw	-14178
illery	-14179
▁memorial	-14180
remlin	-14181
▁fiber	-14182
▁rubber	-14183
represent	-14184
▁briefing	-14185
▁playback	-14186
ogg	-14187
▁Sunni	-14188
▁pitcher	-14189
▁Fan	-14190
agged	-14191
▁freshman	-14192
riel	-14193
▁Arc	-14194
▁Sens	-14195
▁Austria	-14196
▁Baseball	-14197
▁accommodate	-14198
42	-14199
▁Nar	-14200
proof	-14201
▁loyalty	-14202
▁thumb	-14203
▁metres	-14204
▁ammunition	-14205
▁Stra	-14206
▁fulfill	-14207
▁exhibition	-14208
▁Cab	-14209
▁quo	-14210
▁Regional	-14211
▁speeches	-14212
▁spectacular	-14213
ften	-14214
▁Lev	-14215
▁Rou	-14216
▁Kate	-14217
▁Break	-14218
rolling	-14219
▁filmed	-14220
▁twitter	-14221
▁cancelled	-14222
▁exceptional	-14223
▁Abs	-14224
lies	-14225
▁toys	-14226
▁vigil	-14227
▁denying	-14228
▁fines	-14229
uv	-14230
ahn	-14231
▁Nashville	-14232
cup	-14233
uting	-14234
▁bind	-14235
Christ	-14236
▁skeptical	-14237
oday	-14238
aires	-14239
▁linear	-14240
▁relies	-14241
▁texture	-14242
▁paragraph	-14243
ittees	-14244
▁reduces	-14245
▁Malaysia	-14246
▁midnight	-14247
▁Pun	-14248
▁Pete	-14249
▁chase	-14250
▁inhabit	-14251
▁outlined	-14252
rone	-14253
lation	-14254
▁Julian	-14255
▁vessel	-14256
▁scram	-14257
▁manages	-14258
▁disk	-14259
arette	-14260
▁yours	-14261
Up	-14262
▁felony	-14263
▁wounds	-14264
▁governance	-14265
Who	-14266
▁oh	-14267
▁medal	-14268
▁spotlight	-14269
▁0.4	-14270
▁grat	-14271
national	-14272
▁processed	-14273
▁qualities	-14274
▁Occupy	-14275
▁partisan	-14276
alin	-14277
▁unle	-14278
▁streams	-14279
▁Continued	-14280
▁divisions	-14281
▁medication	-14282
▁Sandy	-14283
▁pretend	-14284
▁permanently	-14285
fly	-14286
▁stays	-14287
▁advers	-14288
▁lasting	-14289
Us	-14290
▁frankly	-14291
▁revised	-14292
▁Politics	-14293
lett	-14294
▁seiz	-14295
▁artic	-14296
▁Browns	-14297
▁Panthers	-14298
▁portrayed	-14299
lem	-14300
prom	-14301
▁luc	-14302
▁130	-14303
▁finals	-14304
▁besides	-14305
▁defining	-14306
▁Gam	-14307
oping	-14308
▁Kill	-14309
▁kernel	-14310
also	-14311
▁plea	-14312
▁rede	-14313
▁historian	-14314
=”	-14315
keys	-14316
▁Roth	-14317
▁rings	-14318
▁Applic	-14319
▁underneath	-14320
Com	-14321
▁2002,	-14322
▁Animal	-14323
▁Palace	-14324
▁corrid	-14325
▁predomin	-14326
▁accountability	-14327
ocaust	-14328
ository	-14329
▁considerably	-14330
▁chemistry	-14331
▁confusing	-14332
▁incoming	-14333
▁reasonably	-14334
▁victories	-14335
▁Kath	-14336
▁Poly	-14337
insula	-14338
▁Sources	-14339
▁140	-14340
▁Moz	-14341
▁nit	-14342
▁leap	-14343
ortions	-14344
▁spirits	-14345
{\	-14346
▁Nathan	-14347
▁battlefield	-14348
▁obligations	-14349
▁RO	-14350
https	-14351
▁sect	-14352
▁substantially	-14353
spr	-14354
▁pipe	-14355
omatic	-14356
▁accidentally	-14357
ITY	-14358
wick	-14359
▁189	-14360
▁garage	-14361
▁dangers	-14362
▁Together	-14363
▁grocery	-14364
▁reinfor	-14365
▁preseason	-14366
List	-14367
▁billionaire	-14368
▁Jesse	-14369
▁extends	-14370
▁sexuality	-14371
▁attributes	-14372
tor	-14373
▁0.7	-14374
▁Cuban	-14375
▁Diamond	-14376
▁overhaul	-14377
▁79	-14378
▁Tar	-14379
▁Joel	-14380
▁exhibit	-14381
▁84	-14382
▁$40	-14383
▁202	-14384
▁Maj	-14385
marks	-14386
rones	-14387
▁wand	-14388
▁achieving	-14389
▁genuinely	-14390
▁piv	-14391
▁proc	-14392
▁tongue	-14393
ст	-14394
▁McD	-14395
▁blown	-14396
▁Bishop	-14397
▁spite	-14398
▁heroin	-14399
▁modules	-14400
▁translate	-14401
▁Batt	-14402
▁empower	-14403
▁backlash	-14404
▁travelling	-14405
working	-14406
▁FL	-14407
image	-14408
heimer	-14409
runner	-14410
▁mentions	-14411
▁behaviors	-14412
▁marketplace	-14413
HD	-14414
UI	-14415
mile	-14416
▁rage	-14417
▁contractors	-14418
▁negotiating	-14419
▁186	-14420
▁pile	-14421
▁tube	-14422
ulsion	-14423
.[8]	-14424
thirds	-14425
▁spends	-14426
aton	-14427
forming	-14428
▁Machine	-14429
▁strictly	-14430
ipt	-14431
thereum	-14432
mination	-14433
▁juice	-14434
▁Shield	-14435
▁Throughout	-14436
View	-14437
▁Nag	-14438
▁Chen	-14439
mingham	-14440
▁outlet	-14441
▁Orthodox	-14442
▁Pictures	-14443
▁subscribing	-14444
▁Hait	-14445
▁Biden	-14446
▁hydrogen	-14447
▁consistency	-14448
▁GB	-14449
ashi	-14450
▁Cou	-14451
▁MVP	-14452
▁Sem	-14453
▁Mall	-14454
▁artif	-14455
▁shipped	-14456
▁Commerce	-14457
▁tolerance	-14458
▁Lang	-14459
▁discon	-14460
▁clarity	-14461
▁firearm	-14462
▁malware	-14463
▁110	-14464
▁160	-14465
▁Kaz	-14466
▁flows	-14467
▁aboard	-14468
▁premier	-14469
zi	-14470
▁VP	-14471
NE	-14472
▁cargo	-14473
▁sells	-14474
▁Chronicle	-14475
▁lined	-14476
opes	-14477
▁incumb	-14478
▁symbols	-14479
▁melt	-14480
▁Really	-14481
▁anonymity	-14482
▁slic	-14483
olutely	-14484
▁Holmes	-14485
▁cousin	-14486
▁demonstrates	-14487
isy	-14488
▁intens	-14489
▁Chamber	-14490
▁Ax	-14491
Qaeda	-14492
▁united	-14493
▁adapted	-14494
▁vessels	-14495
▁signatures	-14496
▁Trav	-14497
agging	-14498
▁Firefox	-14499
▁USD	-14500
▁Legal	-14501
▁convincing	-14502
▁BP	-14503
▁1.4	-14504
Israel	-14505
retion	-14506
▁Shaw	-14507
▁outdoor	-14508
▁Wade	-14509
▁Sudan	-14510
ben	-14511
John	-14512
▁specify	-14513
▁Mitch	-14514
▁dense	-14515
▁dancing	-14516
Yeah	-14517
ripp	-14518
▁Dra	-14519
▁2018,	-14520
...]	-14521
▁Mode	-14522
▁tier	-14523
▁stroke	-14524
▁binding	-14525
hole	-14526
uity	-14527
▁Nancy	-14528
▁Someone	-14529
▁generic	-14530
▁prescription	-14531
▁publications	-14532
▁Wire	-14533
Because	-14534
amy	-14535
eren	-14536
▁Rud	-14537
▁String	-14538
▁coastal	-14539
oust	-14540
space	-14541
▁Late	-14542
▁Mans	-14543
▁shortage	-14544
ucc	-14545
▁Jobs	-14546
▁Chand	-14547
▁wip	-14548
▁donate	-14549
▁3)	-14550
▁Tru	-14551
▁clouds	-14552
▁IG	-14553
▁Vi	-14554
▁LLC	-14555
▁Pin	-14556
write	-14557
▁nort	-14558
▁Duncan	-14559
▁drilling	-14560
▁attackers	-14561
borough	-14562
lementary	-14563
▁completing	-14564
▁Quinn	-14565
▁successor	-14566
.:	-14567
▁н	-14568
18]	-14569
umblr	-14570
▁admin	-14571
▁honour	-14572
usterity	-14573
▁insights	-14574
▁lovely	-14575
”—	-14576
!!!	-14577
▁{\	-14578
▁hash	-14579
▁mature	-14580
Press	-14581
ulator	-14582
▁Luther	-14583
▁astronaut	-14584
VA	-14585
aba	-14586
talk	-14587
▁Okay	-14588
▁retro	-14589
▁voluntary	-14590
/8	-14591
rawl	-14592
▁embraced	-14593
▁wrap	-14594
▁pound	-14595
▁mosque	-14596
▁reiter	-14597
▁necessity	-14598
▁14.	-14599
▁taxi	-14600
▁ware	-14601
closed	-14602
▁Nobel	-14603
▁muscles	-14604
▁facilitate	-14605
▁legislators	-14606
▁Path	-14607
riages	-14608
▁rolls	-14609
▁bearing	-14610
▁settlements	-14611
▁alumin	-14612
accur	-14613
pless	-14614
▁Deal	-14615
▁Titan	-14616
▁utterly	-14617
INE	-14618
iga	-14619
▁10:	-14620
holder	-14621
Fr	-14622
sis	-14623
▁cab	-14624
▁snap	-14625
Ab	-14626
▁VM	-14627
▁adverse	-14628
▁catching	-14629
▁mistaken	-14630
▁troubled	-14631
▁Brothers	-14632
▁libertarian	-14633
umns	-14634
▁puzzle	-14635
▁stepping	-14636
ths	-14637
ranean	-14638
▁retrie	-14639
▁useless	-14640
▁Imperial	-14641
▁artistic	-14642
▁sweeping	-14643
▁defendants	-14644
▁endorsement	-14645
ungle	-14646
▁Edge	-14647
▁dive	-14648
▁mate	-14649
iri	-14650
aneous	-14651
▁altered	-14652
▁theoretical	-14653
▁breakthrough	-14654
Men	-14655
▁Index	-14656
▁Minor	-14657
▁newer	-14658
▁fortun	-14659
osi	-14660
▁mall	-14661
▁glory	-14662
▁fisher	-14663
▁misconduct	-14664
▁HE	-14665
▁ALL	-14666
▁propri	-14667
▁Citizens	-14668
▁assembled	-14669
▁inability	-14670
▁96	-14671
vised	-14672
▁Classic	-14673
▁salaries	-14674
▁rendering	-14675
▁Regardless	-14676
fix	-14677
.[9]	-14678
cill	-14679
▁13.	-14680
▁guilt	-14681
▁genius	-14682
▁concess	-14683
▁disability	-14684
var	-14685
▁indef	-14686
▁Castle	-14687
▁financially	-14688
▁sovereignty	-14689
▁SO	-14690
▁Few	-14691
▁Assange	-14692
▁tourism	-14693
istically	-14694
▁antibiot	-14695
▁bureaucrat	-14696
▁1-	-14697
▁MI	-14698
abel	-14699
▁coat	-14700
▁heal	-14701
▁hunger	-14702
▁sporting	-14703
rod	-14704
▁Bear	-14705
▁casualties	-14706
sche	-14707
▁jack	-14708
▁airpl	-14709
▁sweep	-14710
▁Reform	-14711
MB	-14712
ahan	-14713
▁Lem	-14714
▁defic	-14715
▁Garcia	-14716
▁aliens	-14717
▁murders	-14718
▁functioning	-14719
▁Indianapolis	-14720
▁confidential	-14721
▁Pil	-14722
▁Ferr	-14723
▁erupt	-14724
oriented	-14725
▁overtime	-14726
▁determining	-14727
1][	-14728
▁Kos	-14729
▁pale	-14730
▁Armed	-14731
▁drill	-14732
▁charter	-14733
ggle	-14734
arcer	-14735
ostal	-14736
▁navigate	-14737
urring	-14738
▁blogs	-14739
▁Flight	-14740
▁Foster	-14741
▁parade	-14742
-13	-14743
omi	-14744
▁SF	-14745
▁gard	-14746
headed	-14747
▁cares	-14748
▁beside	-14749
▁electronics	-14750
▁vet	-14751
lickr	-14752
▁Clarke	-14753
▁Raw	-14754
▁Going	-14755
▁rental	-14756
▁licenses	-14757
▁stealing	-14758
▁disclosed	-14759
▁reviewing	-14760
edge	-14761
▁impe	-14762
entions	-14763
▁bipartisan	-14764
del	-14765
▁Shi	-14766
▁tribe	-14767
▁refusal	-14768
▁revelations	-14769
▁Horn	-14770
▁TODAY	-14771
economic	-14772
▁Computer	-14773
▁recommendation	-14774
▁Wells	-14775
▁straw	-14776
▁submar	-14777
IFA	-14778
▁Montana	-14779
▁deterior	-14780
SC	-14781
▁Wii	-14782
Muslim	-14783
▁Baghd	-14784
▁doubts	-14785
▁predecessor	-14786
azines	-14787
▁vowed	-14788
?!	-14789
names	-14790
▁Zach	-14791
▁rect	-14792
▁tricks	-14793
▁listened	-14794
▁batch	-14795
▁encrypt	-14796
▁stimulus	-14797
▁Rodriguez	-14798
apor	-14799
▁Lot	-14800
atican	-14801
aughed	-14802
▁nightmare	-14803
▁pp	-14804
Look	-14805
▁flesh	-14806
▁sanct	-14807
▁glasses	-14808
▁declaring	-14809
▁identities	-14810
ido	-14811
yang	-14812
inery	-14813
▁poses	-14814
▁backers	-14815
▁drown	-14816
pit	-14817
pection	-14818
bad	-14819
bank	-14820
ierra	-14821
▁businessman	-14822
▁LG	-14823
▁Hopefully	-14824
▁subjected	-14825
BL	-14826
▁hearings	-14827
▁jurisdiction	-14828
fam	-14829
respect	-14830
▁Content	-14831
▁tourist	-14832
▁Cardinals	-14833
▁migr	-14834
▁hardest	-14835
▁surpass	-14836
▁surveys	-14837
▁vendors	-14838
▁Birmingham	-14839
▁Enterprise	-14840
▁arrangements	-14841
▁Sex	-14842
especially	-14843
▁prevention	-14844
VR	-14845
▁cu	-14846
▁dot	-14847
▁sponsors	-14848
▁definitive	-14849
jar	-14850
▁Martine	-14851
▁recipes	-14852
ufficient	-14853
▁undoubtedly	-14854
aky	-14855
▁Got	-14856
▁Bott	-14857
▁laying	-14858
▁objectives	-14859
▁ende	-14860
▁readily	-14861
▁flooding	-14862
nex	-14863
oween	-14864
▁descend	-14865
▁forests	-14866
▁sponsor	-14867
▁characterized	-14868
▁spells	-14869
▁famously	-14870
▁invisible	-14871
▁neutrality	-14872
ICK	-14873
▁cute	-14874
▁fond	-14875
▁hind	-14876
▁Border	-14877
▁autism	-14878
▁Specific	-14879
ARD	-14880
▁lacks	-14881
▁petro	-14882
▁patience	-14883
▁expectation	-14884
▁aston	-14885
▁Boeing	-14886
▁galaxy	-14887
▁accusing	-14888
▁od	-14889
orus	-14890
Islam	-14891
▁Compan	-14892
▁Protest	-14893
▁Welcome	-14894
▁credible	-14895
aho	-14896
▁Nep	-14897
▁lately	-14898
▁Agricult	-14899
▁globally	-14900
▁syndrome	-14901
▁25-	-14902
▁ram	-14903
▁2006.	-14904
▁Catal	-14905
▁Trail	-14906
▁fortune	-14907
▁legitim	-14908
▁referen	-14909
▁villain	-14910
▁laughed	-14911
ITH	-14912
▁HR	-14913
▁1.6	-14914
▁Joint	-14915
▁Picture	-14916
▁barrels	-14917
▁entrepreneur	-14918
El	-14919
▁Kor	-14920
▁NHS	-14921
▁Cape	-14922
▁eleg	-14923
ambers	-14924
▁artwork	-14925
▁86	-14926
▁Hig	-14927
▁lighter	-14928
▁Spect	-14929
amation	-14930
Are	-14931
kens	-14932
aying	-14933
▁Sold	-14934
▁Samuel	-14935
▁binary	-14936
▁urgent	-14937
▁violating	-14938
19]	-14939
▁Affordable	-14940
▁intersection	-14941
anti	-14942
▁cooling	-14943
▁confronted	-14944
constitutional	-14945
far	-14946
▁0.8	-14947
▁Winn	-14948
▁Large	-14949
▁handy	-14950
▁proving	-14951
▁Mohammed	-14952
▁Fortunately	-14953
▁twelve	-14954
▁Rodgers	-14955
pic	-14956
▁Crow	-14957
▁Shin	-14958
▁proport	-14959
kar	-14960
▁Bird	-14961
▁rats	-14962
▁ward	-14963
▁Angela	-14964
▁interim	-14965
▁Alb	-14966
▁Observ	-14967
▁Student	-14968
▁varying	-14969
▁inherent	-14970
▁treasure	-14971
▁switching	-14972
▁pronounced	-14973
▁protective	-14974
mos	-14975
omo	-14976
inis	-14977
▁Dim	-14978
fight	-14979
▁liability	-14980
▁memorable	-14981
▁Immigration	-14982
▁preferences	-14983
▁seam	-14984
control	-14985
▁Newton	-14986
▁credited	-14987
▁apologize	-14988
▁"[	-14989
▁ME	-14990
▁Ru	-14991
▁oral	-14992
fulness	-14993
▁biology	-14994
---	-14995
▁Taking	-14996
ernandez	-14997
▁bicycle	-14998
▁persist	-14999
▁pistol	-15000
▁extending	-15001
▁physician	-15002
▁jam	-15003
▁Pink	-15004
▁foster	-15005
▁relent	-15006
▁Jessica	-15007
▁profitable	-15008
43	-15009
His	-15010
▁gau	-15011
castle	-15012
▁Alice	-15013
▁risky	-15014
official	-15015
▁dignity	-15016
▁Actually	-15017
▁sometime	-15018
▁exploitation	-15019
ospel	-15020
produ	-15021
angered	-15022
▁enabling	-15023
▁Portugal	-15024
unks	-15025
irmed	-15026
▁Barn	-15027
▁GA	-15028
▁Girls	-15029
▁heated	-15030
▁committing	-15031
uns	-15032
Post	-15033
▁Hispanic	-15034
▁Peterson	-15035
▁unsuccess	-15036
WA	-15037
▁GP	-15038
▁persistent	-15039
outed	-15040
▁acute	-15041
▁analyze	-15042
83	-15043
OO	-15044
nut	-15045
▁memor	-15046
▁contractor	-15047
▁cure	-15048
▁stark	-15049
▁Aleppo	-15050
▁oversee	-15051
▁recreational	-15052
REE	-15053
▁40%	-15054
▁misunder	-15055
▁fart	-15056
achers	-15057
terior	-15058
▁banner	-15059
▁analyzed	-15060
▁reluctant	-15061
▁tournaments	-15062
▁philosophical	-15063
▁mast	-15064
▁inspire	-15065
▁malicious	-15066
▁dread	-15067
▁albeit	-15068
▁redist	-15069
▁Boehner	-15070
▁Kremlin	-15071
▁TE	-15072
three	-15073
▁Cool	-15074
[...]
