<unk>	0
<s>	0
</s>	0
▁t	-0
▁a	-1
he	-2
in	-3
re	-4
▁the	-5
on	-6
er	-7
▁s	-8
▁w	-9
at	-10
▁o	-11
en	-12
▁c	-13
it	-14
is	-15
an	-16
or	-17
▁b	-18
es	-19
ed	-20
▁f	-21
ing	-22
▁p	-23
ou	-24
▁an	-25
▁to	-26
al	-27
ar	-28
▁m	-29
▁in	-30
▁of	-31
▁h	-32
▁d	-33
as	-34
ic	-35
▁and	-36
▁th	-37
le	-38
om	-39
ion	-40
ll	-41
ent	-42
▁T	-43
▁n	-44
▁l	-45
▁re	-46
st	-47
ve	-48
ly	-49
▁e	-50
ro	-51
▁be	-52
▁g	-53
id	-54
▁I	-55
ut	-56
ac	-57
▁S	-58
ot	-59
▁A	-60
▁that	-61
▁on	-62
ay	-63
▁is	-64
et	-65
im	-66
am	-67
ad	-68
ow	-69
ig	-70
se	-71
▁for	-72
▁C	-73
ver	-74
ur	-75
ld	-76
ct	-77
▁u	-78
▁st	-79
▁y	-80
▁M	-81
▁it	-82
▁he	-83
ir	-84
ation	-85
ith	-86
▁B	-87
▁wh	-88
ce	-89
▁The	-90
ter	-91
▁we	-92
ol	-93
il	-94
▁with	-95
▁as	-96
▁P	-97
ch	-98
ill	-99
▁W	-100
nd	-101
▁was	-102
ers	-103
▁you	-104
ke	-105
▁H	-106
▁con	-107
▁de	-108
▁r	-109
her	-110
▁D	-111
if	-112
ate	-113
▁at	-114
ag	-115
▁R	-116
▁ha	-117
▁se	-118
▁F	-119
ore	-120
▁pro	-121
ul	-122
pp	-123
ment	-124
▁1	-125
ri	-126
▁are	-127
est	-128
▁com	-129
us	-130
ist	-131
and	-132
op	-133
ain	-134
▁2	-135
▁N	-136
igh	-137
rom	-138
▁(	-139
ort	-140
▁ne	-141
od	-142
▁“	-143
▁ex	-144
um	-145
un	-146
▁G	-147
res	-148
ab	-149
▁not	-150
▁v	-151
▁L	-152
▁have	-153
ess	-154
ity	-155
ould	-156
▁or	-157
em	-158
▁by	-159
th	-160
os	-161
ant	-162
ive	-163
▁from	-164
▁al	-165
el	-166
▁E	-167
▁su	-168
art	-169
oc	-170
▁sh	-171
▁this	-172
nt	-173
▁O	-174
qu	-175
ight	-176
pe	-177
ust	-178
▁le	-179
▁"	-180
ies	-181
▁J	-182
▁sa	-183
end	-184
▁ch	-185
out	-186
▁ab	-187
all	-188
ie	-189
ack	-190
red	-191
▁has	-192
ally	-193
▁pl	-194
00	-195
▁go	-196
ard	-197
▁his	-198
ome	-199
iv	-200
ost	-201
ear	-202
gh	-203
ap	-204
our	-205
▁tr	-206
ast	-207
▁j	-208
ak	-209
▁U	-210
ud	-211
▁do	-212
▁they	-213
▁but	-214
▁wor	-215
▁said	-216
▁will	-217
rou	-218
▁can	-219
ge	-220
▁whe	-221
ich	-222
▁k	-223
ok	-224
▁all	-225
▁who	-226
ide	-227
▁int	-228
ame	-229
ans	-230
ther	-231
ial	-232
▁out	-233
▁their	-234
▁Th	-235
ff	-236
ong	-237
▁In	-238
ice	-239
pl	-240
ect	-241
ure	-242
pt	-243
▁more	-244
one	-245
age	-246
ions	-247
ike	-248
act	-249
▁up	-250
▁me	-251
ous	-252
▁ad	-253
ine	-254
▁K	-255
▁about	-256
ated	-257
ber	-258
ra	-259
▁one	-260
▁were	-261
▁so	-262
▁us	-263
og	-264
ime	-265
▁St	-266
ep	-267
▁had	-268
are	-269
ia	-270
ub	-271
▁20	-272
cc	-273
▁would	-274
▁cl	-275
▁im	-276
▁which	-277
ind	-278
ake	-279
ue	-280
▁cont	-281
▁ag	-282
very	-283
iz	-284
▁te	-285
▁off	-286
▁comp	-287
▁been	-288
▁un	-289
so	-290
▁en	-291
ign	-292
per	-293
au	-294
▁year	-295
ace	-296
ary	-297
ew	-298
ip	-299
▁like	-300
ere	-301
ven	-302
ook	-303
▁inc	-304
▁It	-305
ays	-306
▁man	-307
▁pe	-308
ry	-309
ose	-310
..	-311
▁per	-312
▁res	-313
ite	-314
able	-315
ord	-316
▁sp	-317
ass	-318
▁other	-319
ire	-320
mer	-321
▁Y	-322
ile	-323
▁some	-324
▁201	-325
ence	-326
ople	-327
ib	-328
ks	-329
▁over	-330
ations	-331
▁there	-332
ical	-333
▁new	-334
▁dis	-335
ress	-336
▁Ch	-337
▁also	-338
ult	-339
int	-340
▁than	-341
own	-342
▁ar	-343
▁bec	-344
▁them	-345
ough	-346
ount	-347
ance	-348
ru	-349
▁app	-350
port	-351
▁your	-352
ail	-353
▁part	-354
▁when	-355
▁what	-356
ree	-357
▁V	-358
fter	-359
▁people	-360
▁sc	-361
ond	-362
orm	-363
▁qu	-364
ase	-365
av	-366
▁just	-367
▁any	-368
▁its	-369
▁3	-370
ach	-371
▁time	-372
▁kn	-373
▁her	-374
▁rec	-375
lic	-376
.”	-377
▁He	-378
▁get	-379
ens	-380
reat	-381
▁my	-382
▁if	-383
▁work	-384
▁into	-385
ian	-386
▁tw	-387
irst	-388
ound	-389
vel	-390
du	-391
▁no	-392
ction	-393
ings	-394
ory	-395
▁our	-396
ident	-397
ick	-398
ors	-399
ition	-400
▁-	-401
ob	-402
▁pre	-403
ove	-404
▁play	-405
ang	-406
ink	-407
wn	-408
ause	-409
ade	-410
itt	-411
hing	-412
ates	-413
ark	-414
▁pol	-415
▁ro	-416
amp	-417
▁she	-418
,”	-419
vers	-420
▁co	-421
▁after	-422
▁first	-423
▁how	-424
▁19	-425
ne	-426
▁could	-427
▁acc	-428
ious	-429
nder	-430
▁him	-431
aw	-432
ons	-433
ild	-434
▁po	-435
▁We	-436
▁fe	-437
▁only	-438
▁att	-439
ict	-440
▁But	-441
hed	-442
▁pr	-443
▁two	-444
ov	-445
ish	-446
▁comm	-447
▁spe	-448
form	-449
▁ser	-450
▁act	-451
we	-452
▁Wh	-453
▁bl	-454
▁This	-455
ft	-456
▁bet	-457
▁dec	-458
."	-459
ning	-460
▁–	-461
▁back	-462
▁most	-463
ces	-464
te	-465
▁And	-466
ood	-467
▁4	-468
ck	-469
oy	-470
▁am	-471
▁did	-472
rough	-473
iff	-474
▁—	-475
round	-476
▁again	-477
ater	-478
day	-479
▁want	-480
ise	-481
ual	-482
▁des	-483
▁under	-484
▁$	-485
▁cons	-486
sel	-487
rit	-488
ull	-489
▁because	-490
▁now	-491
lud	-492
▁years	-493
ents	-494
ublic	-495
▁need	-496
man	-497
▁even	-498
tern	-499
▁inv	-500
ec	-501
iss	-502
▁As	-503
▁Un	-504
▁know	-505
▁add	-506
▁see	-507
ments	-508
ced	-509
old	-510
▁ind	-511
▁sec	-512
▁5	-513
,"	-514
fore	-515
▁every	-516
uch	-517
▁supp	-518
urn	-519
▁make	-520
▁em	-521
pect	-522
▁Tr	-523
▁these	-524
ock	-525
oll	-526
▁where	-527
ject	-528
vern	-529
ational	-530
xt	-531
▁look	-532
▁bu	-533
▁don	-534
ump	-535
oss	-536
▁way	-537
▁[	-538
ating	-539
▁ev	-540
▁being	-541
▁rem	-542
▁right	-543
ily	-544
ng	-545
row	-546
ason	-547
▁may	-548
▁many	-549
▁then	-550
lect	-551
▁def	-552
▁diff	-553
iew	-554
▁call	-555
▁rel	-556
▁includ	-557
ased	-558
aking	-559
▁think	-560
ont	-561
meric	-562
ied	-563
les	-564
▁reg	-565
▁imp	-566
▁through	-567
ited	-568
rib	-569
▁last	-570
▁say	-571
ath	-572
▁pres	-573
▁fl	-574
▁should	-575
uring	-576
).	-577
▁sy	-578
▁those	-579
The	-580
ower	-581
▁very	-582
other	-583
▁much	-584
▁state	-585
ities	-586
▁show	-587
ific	-588
ative	-589
▁br	-590
▁New	-591
arg	-592
▁Re	-593
hen	-594
ty	-595
▁well	-596
▁count	-597
▁ph	-598
oth	-599
und	-600
ved	-601
ting	-602
als	-603
▁does	-604
ics	-605
ell	-606
▁Americ	-607
▁end	-608
▁down	-609
▁own	-610
▁bel	-611
arly	-612
▁200	-613
▁use	-614
▁ass	-615
ange	-616
ters	-617
▁long	-618
ince	-619
▁govern	-620
▁before	-621
gr	-622
ward	-623
omet	-624
▁mon	-625
▁report	-626
▁start	-627
ues	-628
ible	-629
▁ke	-630
up	-631
▁team	-632
ts	-633
▁fin	-634
▁made	-635
ble	-636
ife	-637
olog	-638
▁Al	-639
oun	-640
ren	-641
▁such	-642
ener	-643
▁going	-644
ek	-645
ix	-646
▁sm	-647
erson	-648
▁hel	-649
▁world	-650
ful	-651
),	-652
▁You	-653
ility	-654
▁stud	-655
ists	-656
ually	-657
ism	-658
▁good	-659
▁ac	-660
▁6	-661
tain	-662
com	-663
▁against	-664
▁sub	-665
▁sur	-666
▁eff	-667
▁game	-668
...	-669
▁set	-670
ork	-671
▁point	-672
its	-673
▁gu	-674
gan	-675
▁ent	-676
▁If	-677
ys	-678
ars	-679
illion	-680
▁still	-681
▁help	-682
▁while	-683
ier	-684
roup	-685
▁lead	-686
stem	-687
000	-688
▁says	-689
ween	-690
▁min	-691
ving	-692
▁produ	-693
imes	-694
alk	-695
ax	-696
▁gr	-697
ank	-698
ms	-699
cy	-700
▁ob	-701
▁inst	-702
cess	-703
▁str	-704
▁sim	-705
▁conf	-706
▁inter	-707
▁take	-708
▁col	-709
▁For	-710
io	-711
self	-712
▁offic	-713
ures	-714
▁though	-715
▁between	-716
▁same	-717
▁differe	-718
▁cr	-719
▁ed	-720
ollow	-721
ool	-722
▁Ar	-723
land	-724
arch	-725
▁disc	-726
▁prov	-727
uss	-728
ever	-729
▁op	-730
▁law	-731
▁government	-732
ution	-733
▁num	-734
▁high	-735
▁sign	-736
hes	-737
read	-738
ah	-739
air	-740
way	-741
▁De	-742
▁An	-743
gg	-744
ner	-745
any	-746
hip	-747
▁They	-748
cent	-749
ros	-750
led	-751
ames	-752
atch	-753
▁Le	-754
▁Com	-755
▁ter	-756
▁somet	-757
velop	-758
▁Sh	-759
▁ref	-760
▁trans	-761
▁ins	-762
--	-763
▁run	-764
▁Is	-765
▁10	-766
▁med	-767
▁three	-768
▁mem	-769
▁around	-770
ives	-771
ather	-772
▁found	-773
ave	-774
▁Trump	-775
▁here	-776
ouse	-777
▁real	-778
▁Se	-779
▁7	-780
oot	-781
▁used	-782
az	-783
▁exp	-784
▁really	-785
ves	-786
cept	-787
▁system	-788
▁group	-789
▁cour	-790
▁support	-791
▁That	-792
cer	-793
ci	-794
con	-795
▁mod	-796
ets	-797
▁public	-798
▁Cl	-799
▁ret	-800
ins	-801
,000	-802
▁hand	-803
ale	-804
▁There	-805
▁spec	-806
ying	-807
.[	-808
▁great	-809
ph	-810
▁cur	-811
▁sl	-812
ense	-813
pr	-814
▁fam	-815
▁car	-816
▁ext	-817
▁wom	-818
alth	-819
irect	-820
ton	-821
▁happ	-822
▁exper	-823
▁fr	-824
▁cap	-825
▁fact	-826
▁both	-827
▁find	-828
▁day	-829
▁read	-830
ices	-831
ines	-832
▁rep	-833
▁det	-834
ular	-835
uth	-836
ered	-837
oh	-838
▁8	-839
▁during	-840
▁big	-841
▁cre	-842
▁month	-843
ivers	-844
▁'	-845
▁told	-846
▁develop	-847
▁since	-848
min	-849
▁iss	-850
▁On	-851
▁So	-852
ision	-853
akes	-854
▁person	-855
▁follow	-856
▁week	-857
ared	-858
ically	-859
ording	-860
med	-861
▁war	-862
▁few	-863
▁polit	-864
ages	-865
▁cent	-866
▁leg	-867
att	-868
orth	-869
▁Ad	-870
aj	-871
get	-872
▁9	-873
▁expl	-874
ash	-875
ef	-876
▁Fr	-877
▁lot	-878
▁belie	-879
▁too	-880
▁gener	-881
▁fil	-882
▁contin	-883
▁opp	-884
rent	-885
ric	-886
anc	-887
▁prot	-888
der	-889
▁At	-890
bers	-891
▁put	-892
▁requ	-893
iet	-894
ata	-895
▁cle	-896
▁‘	-897
ention	-898
▁another	-899
▁resp	-900
▁How	-901
ex	-902
chool	-903
ized	-904
ness	-905
▁Pro	-906
▁different	-907
▁something	-908
▁loc	-909
▁invest	-910
▁inf	-911
▁soc	-912
▁power	-913
▁cor	-914
▁commun	-915
ute	-916
▁art	-917
▁rele	-918
uc	-919
▁plan	-920
▁pass	-921
▁head	-922
ience	-923
ned	-924
arl	-925
▁camp	-926
▁vot	-927
▁life	-928
▁far	-929
thing	-930
the	-931
▁things	-932
ik	-933
▁poss	-934
erest	-935
ross	-936
▁Rep	-937
ody	-938
▁che	-939
▁met	-940
▁bo	-941
ants	-942
▁might	-943
iness	-944
▁ask	-945
view	-946
arge	-947
▁dep	-948
ret	-949
▁next	-950
▁each	-951
ient	-952
▁child	-953
ize	-954
▁adv	-955
▁never	-956
▁come	-957
▁quest	-958
▁bus	-959
▁mark	-960
▁second	-961
ield	-962
▁dem	-963
▁0	-964
▁US	-965
▁got	-966
▁best	-967
▁open	-968
▁Bl	-969
▁allow	-970
▁percent	-971
ital	-972
▁post	-973
ee	-974
ittle	-975
son	-976
▁seem	-977
▁.	-978
▁feel	-979
gram	-980
▁pri	-981
ple	-982
▁home	-983
▁direct	-984
rat	-985
▁wr	-986
ired	-987
ten	-988
▁incre	-989
ug	-990
▁dist	-991
erv	-992
cl	-993
osed	-994
▁contro	-995
orn	-996
▁million	-997
▁care	-998
▁hard	-999
▁result	-1000
▁import	-1001
ately	-1002
conom	-1003
▁comple	-1004
▁including	-1005
▁place	-1006
less	-1007
▁inform	-1008
chn	-1009
▁without	-1010
▁top	-1011
▁Ind	-1012
▁av	-1013
▁She	-1014
▁proble	-1015
ama	-1016
▁country	-1017
▁ide	-1018
▁hum	-1019
▁number	-1020
▁build	-1021
aim	-1022
gy	-1023
oney	-1024
riend	-1025
▁four	-1026
▁gl	-1027
▁recent	-1028
▁stand	-1029
ished	-1030
20	-1031
▁season	-1032
ably	-1033
co	-1034
▁better	-1035
ral	-1036
▁When	-1037
▁Z	-1038
▁mov	-1039
▁el	-1040
▁let	-1041
ways	-1042
▁interest	-1043
ration	-1044
▁tri	-1045
▁partic	-1046
We	-1047
▁little	-1048
▁less	-1049
▁mil	-1050
▁bro	-1051
▁called	-1052
▁Q	-1053
▁appro	-1054
▁turn	-1055
ised	-1056
line	-1057
▁beh	-1058
▁Be	-1059
ract	-1060
▁case	-1061
▁dr	-1062
▁ann	-1063
▁Ph	-1064
▁rest	-1065
▁attack	-1066
app	-1067
▁pop	-1068
ency	-1069
▁left	-1070
▁move	-1071
ling	-1072
▁keep	-1073
ina	-1074
leg	-1075
▁didn	-1076
▁serv	-1077
ering	-1078
▁full	-1079
ajor	-1080
▁main	-1081
▁What	-1082
▁program	-1083
▁prev	-1084
uro	-1085
inal	-1086
▁fun	-1087
▁pay	-1088
ode	-1089
ted	-1090
▁test	-1091
rem	-1092
ature	-1093
▁effect	-1094
▁econom	-1095
▁using	-1096
▁police	-1097
▁news	-1098
▁American	-1099
▁val	-1100
be	-1101
▁form	-1102
▁pos	-1103
▁data	-1104
▁win	-1105
▁Ob	-1106
iving	-1107
ready	-1108
ains	-1109
▁school	-1110
ined	-1111
▁char	-1112
__	-1113
▁list	-1114
▁small	-1115
ploy	-1116
▁level	-1117
ology	-1118
uck	-1119
ger	-1120
▁Go	-1121
to	-1122
ided	-1123
▁women	-1124
▁change	-1125
▁process	-1126
▁eas	-1127
▁Can	-1128
ird	-1129
▁company	-1130
▁rece	-1131
▁president	-1132
▁prom	-1133
▁current	-1134
nce	-1135
▁United	-1136
▁hist	-1137
ians	-1138
reen	-1139
used	-1140
▁dri	-1141
▁already	-1142
iver	-1143
ohn	-1144
▁why	-1145
▁Chr	-1146
▁All	-1147
▁ty	-1148
▁bre	-1149
▁official	-1150
ruct	-1151
▁expect	-1152
rap	-1153
▁unt	-1154
▁techn	-1155
▁job	-1156
▁business	-1157
▁project	-1158
▁later	-1159
▁sol	-1160
▁money	-1161
▁Sp	-1162
▁organ	-1163
▁--	-1164
▁always	-1165
▁mat	-1166
iversity	-1167
wit	-1168
aign	-1169
▁claim	-1170
▁book	-1171
▁information	-1172
stand	-1173
▁prof	-1174
▁talk	-1175
▁thing	-1176
▁class	-1177
ards	-1178
▁major	-1179
It	-1180
aff	-1181
lection	-1182
ases	-1183
▁story	-1184
▁design	-1185
▁health	-1186
▁chang	-1187
▁able	-1188
▁past	-1189
▁vis	-1190
▁free	-1191
▁rese	-1192
urs	-1193
ead	-1194
▁One	-1195
iven	-1196
ertain	-1197
▁Mr	-1198
10	-1199
▁Pres	-1200
▁oper	-1201
outh	-1202
▁city	-1203
▁away	-1204
▁Sc	-1205
▁Pl	-1206
ior	-1207
▁18	-1208
ption	-1209
▁edit	-1210
▁happen	-1211
▁To	-1212
urity	-1213
▁must	-1214
ending	-1215
▁John	-1216
ural	-1217
here	-1218
ample	-1219
▁important	-1220
▁doesn	-1221
uthor	-1222
▁grow	-1223
▁least	-1224
acy	-1225
▁Mar	-1226
ured	-1227
ury	-1228
▁12	-1229
▁old	-1230
ission	-1231
▁cost	-1232
▁sk	-1233
▁kill	-1234
▁est	-1235
ney	-1236
▁tell	-1237
▁pat	-1238
▁campaign	-1239
ained	-1240
▁hop	-1241
▁var	-1242
▁Br	-1243
ott	-1244
▁men	-1245
ides	-1246
▁Con	-1247
▁came	-1248
▁days	-1249
els	-1250
▁stre	-1251
ox	-1252
▁const	-1253
▁aff	-1254
▁Or	-1255
▁making	-1256
▁Republic	-1257
ider	-1258
▁kind	-1259
▁enough	-1260
▁record	-1261
▁view	-1262
ccess	-1263
side	-1264
▁tax	-1265
▁friend	-1266
▁family	-1267
▁elect	-1268
▁polic	-1269
▁Comm	-1270
▁15	-1271
ern	-1272
eral	-1273
sc	-1274
▁mar	-1275
▁large	-1276
ley	-1277
▁vide	-1278
ush	-1279
ional	-1280
▁sit	-1281
▁political	-1282
ising	-1283
oad	-1284
pped	-1285
▁No	-1286
▁Mc	-1287
▁deb	-1288
▁deal	-1289
▁until	-1290
ality	-1291
ror	-1292
ued	-1293
▁working	-1294
ived	-1295
ator	-1296
ified	-1297
alf	-1298
augh	-1299
ries	-1300
▁ve	-1301
▁took	-1302
▁line	-1303
arent	-1304
▁Dem	-1305
▁del	-1306
tt	-1307
ister	-1308
▁fore	-1309
aps	-1310
▁air	-1311
▁May	-1312
▁es	-1313
▁intern	-1314
bs	-1315
▁become	-1316
ocrat	-1317
▁Russ	-1318
aining	-1319
▁fund	-1320
▁actually	-1321
iol	-1322
ony	-1323
▁President	-1324
▁Euro	-1325
ember	-1326
▁Sy	-1327
▁former	-1328
ane	-1329
work	-1330
▁mean	-1331
▁according	-1332
ware	-1333
year	-1334
▁often	-1335
▁won	-1336
▁With	-1337
▁ever	-1338
▁give	-1339
▁games	-1340
most	-1341
oint	-1342
-1	-1343
▁bas	-1344
ison	-1345
eng	-1346
aring	-1347
ization	-1348
▁return	-1349
▁Am	-1350
ann	-1351
by	-1352
▁word	-1353
▁times	-1354
▁order	-1355
▁human	-1356
gin	-1357
▁=	-1358
▁sever	-1359
▁bit	-1360
wh	-1361
▁dev	-1362
uture	-1363
iber	-1364
▁name	-1365
icle	-1366
ither	-1367
▁Col	-1368
▁market	-1369
▁perform	-1370
▁night	-1371
ron	-1372
raft	-1373
▁fac	-1374
▁players	-1375
▁charac	-1376
▁After	-1377
▁sing	-1378
▁11	-1379
▁doing	-1380
▁ra	-1381
▁appear	-1382
▁199	-1383
▁media	-1384
▁today	-1385
▁seen	-1386
▁lear	-1387
iqu	-1388
iam	-1389
ched	-1390
aken	-1391
▁la	-1392
for	-1393
▁social	-1394
idd	-1395
▁having	-1396
▁early	-1397
▁crit	-1398
▁event	-1399
rop	-1400
▁whether	-1401
▁meet	-1402
▁several	-1403
▁children	-1404
artment	-1405
▁Im	-1406
▁milit	-1407
▁pot	-1408
▁five	-1409
▁young	-1410
▁press	-1411
Th	-1412
▁Te	-1413
▁went	-1414
▁control	-1415
▁Obama	-1416
mber	-1417
▁prop	-1418
ium	-1419
▁likely	-1420
idence	-1421
ories	-1422
iously	-1423
une	-1424
▁sure	-1425
▁Europe	-1426
let	-1427
▁question	-1428
▁equ	-1429
sh	-1430
▁members	-1431
▁York	-1432
ene	-1433
ands	-1434
▁eng	-1435
▁done	-1436
▁water	-1437
▁certain	-1438
▁example	-1439
ots	-1440
▁arg	-1441
br	-1442
▁occ	-1443
vert	-1444
▁vers	-1445
enn	-1446
▁along	-1447
ball	-1448
▁side	-1449
▁invol	-1450
▁Not	-1451
ended	-1452
▁States	-1453
▁success	-1454
▁short	-1455
▁ant	-1456
ubl	-1457
▁months	-1458
ially	-1459
▁Ex	-1460
ER	-1461
ential	-1462
empt	-1463
ague	-1464
▁course	-1465
▁hour	-1466
▁,	-1467
50	-1468
▁among	-1469
▁Co	-1470
▁desc	-1471
ats	-1472
▁within	-1473
▁fight	-1474
▁sex	-1475
▁investig	-1476
▁State	-1477
▁future	-1478
▁]	-1479
imate	-1480
ster	-1481
iting	-1482
urch	-1483
rew	-1484
▁concer	-1485
ortun	-1486
▁activ	-1487
uff	-1488
▁once	-1489
▁cho	-1490
▁possible	-1491
ones	-1492
▁priv	-1493
lf	-1494
ulation	-1495
▁Pol	-1496
nect	-1497
▁problem	-1498
▁product	-1499
▁means	-1500
▁understand	-1501
ggest	-1502
▁viol	-1503
▁author	-1504
▁thought	-1505
▁known	-1506
▁avail	-1507
ourn	-1508
▁#	-1509
▁community	-1510
▁across	-1511
▁However	-1512
▁fail	-1513
▁protect	-1514
gress	-1515
itive	-1516
▁hold	-1517
verage	-1518
ivid	-1519
▁writ	-1520
▁local	-1521
▁yet	-1522
oci	-1523
▁non	-1524
▁House	-1525
▁2016	-1526
▁i	-1527
ald	-1528
▁orig	-1529
book	-1530
▁suggest	-1531
▁reason	-1532
ler	-1533
▁$1	-1534
▁makes	-1535
ederal	-1536
▁Christ	-1537
▁video	-1538
ensive	-1539
back	-1540
▁asked	-1541
▁reported	-1542
inc	-1543
por	-1544
▁Sen	-1545
▁mus	-1546
orld	-1547
aged	-1548
▁others	-1549
▁/	-1550
arm	-1551
▁believe	-1552
▁While	-1553
▁getting	-1554
▁given	-1555
▁strong	-1556
▁ben	-1557
not	-1558
▁announ	-1559
▁&	-1560
▁prob	-1561
▁Fl	-1562
▁University	-1563
ances	-1564
▁light	-1565
▁Min	-1566
▁Democrat	-1567
▁30	-1568
▁X	-1569
▁cut	-1570
ober	-1571
▁ident	-1572
▁Pr	-1573
iron	-1574
itions	-1575
▁sent	-1576
ored	-1577
▁ca	-1578
▁lim	-1579
iety	-1580
▁sour	-1581
▁Don	-1582
▁cond	-1583
urther	-1584
▁creat	-1585
ashing	-1586
my	-1587
▁net	-1588
▁national	-1589
lement	-1590
▁saf	-1591
▁Cent	-1592
▁2015	-1593
▁started	-1594
rest	-1595
----	-1596
▁indust	-1597
▁account	-1598
▁(1	-1599
▁close	-1600
▁issue	-1601
▁available	-1602
▁love	-1603
▁hig	-1604
▁land	-1605
▁employ	-1606
▁based	-1607
▁America	-1608
▁death	-1609
▁history	-1610
▁low	-1611
▁party	-1612
▁following	-1613
▁series	-1614
▁mom	-1615
▁ago	-1616
▁comes	-1617
aster	-1618
orts	-1619
selves	-1620
uly	-1621
▁trying	-1622
▁almost	-1623
▁access	-1624
.5	-1625
use	-1626
▁Sec	-1627
▁par	-1628
utes	-1629
ument	-1630
ability	-1631
hers	-1632
.,	-1633
ief	-1634
▁foc	-1635
▁idea	-1636
▁toget	-1637
▁together	-1638
▁Canad	-1639
reed	-1640
▁isn	-1641
▁film	-1642
ination	-1643
▁impro	-1644
ilar	-1645
▁2014	-1646
itional	-1647
▁added	-1648
▁clear	-1649
ails	-1650
▁trad	-1651
▁16	-1652
of	-1653
resent	-1654
▁pract	-1655
▁experience	-1656
▁rul	-1657
erence	-1658
ged	-1659
▁Ne	-1660
ustom	-1661
▁six	-1662
▁Gr	-1663
▁live	-1664
though	-1665
ream	-1666
▁half	-1667
▁looking	-1668
pro	-1669
▁Bro	-1670
unch	-1671
witter	-1672
minist	-1673
ograp	-1674
▁anything	-1675
ien	-1676
▁fav	-1677
▁...	-1678
af	-1679
rict	-1680
rael	-1681
▁Eng	-1682
▁Man	-1683
▁bill	-1684
▁area	-1685
▁complete	-1686
▁miss	-1687
ividual	-1688
▁anal	-1689
erman	-1690
nes	-1691
30	-1692
inton	-1693
ring	-1694
▁ris	-1695
▁saying	-1696
▁court	-1697
.1	-1698
▁Su	-1699
cially	-1700
uge	-1701
▁War	-1702
▁North	-1703
▁phot	-1704
▁vict	-1705
aid	-1706
ators	-1707
rug	-1708
▁present	-1709
▁bad	-1710
▁taken	-1711
▁Now	-1712
▁Car	-1713
eb	-1714
ows	-1715
▁compet	-1716
ert	-1717
▁aut	-1718
▁14	-1719
▁mor	-1720
▁entire	-1721
ai	-1722
▁try	-1723
.0	-1724
▁military	-1725
▁security	-1726
AT	-1727
▁behind	-1728
▁Bar	-1729
▁Af	-1730
raw	-1731
▁Just	-1732
▁mult	-1733
▁face	-1734
▁Dep	-1735
wards	-1736
▁discuss	-1737
▁publ	-1738
▁Brit	-1739
▁er	-1740
▁near	-1741
▁Ab	-1742
osp	-1743
play	-1744
▁threat	-1745
▁proper	-1746
▁Cal	-1747
▁rather	-1748
▁quick	-1749
▁z	-1750
▁policy	-1751
▁tot	-1752
▁individual	-1753
▁single	-1754
▁wanted	-1755
▁study	-1756
sy	-1757
▁mind	-1758
lling	-1759
▁National	-1760
aper	-1761
▁App	-1762
▁fall	-1763
ales	-1764
▁Inst	-1765
▁mess	-1766
▁special	-1767
▁Clinton	-1768
▁Israel	-1769
▁food	-1770
irc	-1771
▁By	-1772
▁Res	-1773
▁Har	-1774
▁His	-1775
▁Ed	-1776
▁cult	-1777
▁compan	-1778
▁17	-1779
▁Aust	-1780
ids	-1781
▁black	-1782
▁someone	-1783
▁key	-1784
▁bring	-1785
▁Some	-1786
▁attempt	-1787
▁player	-1788
▁redu	-1789
▁sum	-1790
off	-1791
▁World	-1792
▁13	-1793
▁These	-1794
▁My	-1795
▁foot	-1796
atic	-1797
▁Dav	-1798
▁City	-1799
ply	-1800
par	-1801
▁pret	-1802
▁taking	-1803
▁comb	-1804
viron	-1805
▁Ge	-1806
ify	-1807
ashington	-1808
elt	-1809
▁Me	-1810
▁cou	-1811
▁coming	-1812
▁jo	-1813
▁front	-1814
▁space	-1815
▁probably	-1816
▁Part	-1817
rote	-1818
icult	-1819
ming	-1820
▁else	-1821
olution	-1822
▁nothing	-1823
▁research	-1824
▁body	-1825
amed	-1826
ches	-1827
.)	-1828
▁points	-1829
go	-1830
▁benef	-1831
▁connect	-1832
cing	-1833
▁Gu	-1834
▁sw	-1835
▁describ	-1836
reme	-1837
▁similar	-1838
1,	-1839
▁however	-1840
▁decision	-1841
▁Washington	-1842
//	-1843
2,	-1844
▁coun	-1845
▁ear	-1846
▁imm	-1847
▁targ	-1848
▁feat	-1849
aces	-1850
ps	-1851
▁Jan	-1852
▁sus	-1853
▁either	-1854
▁exist	-1855
ully	-1856
▁mass	-1857
▁service	-1858
▁Do	-1859
▁2013	-1860
▁signific	-1861
▁doc	-1862
▁enc	-1863
▁conv	-1864
IN	-1865
▁create	-1866
irl	-1867
ault	-1868
▁rights	-1869
▁house	-1870
▁further	-1871
▁ban	-1872
▁South	-1873
asing	-1874
▁fig	-1875
▁wa	-1876
hy	-1877
▁chall	-1878
▁third	-1879
▁repl	-1880
▁wrote	-1881
▁Acc	-1882
▁hit	-1883
▁fire	-1884
▁compl	-1885
▁stop	-1886
▁issues	-1887
ON	-1888
ively	-1889
▁Med	-1890
ana	-1891
▁federal	-1892
▁pick	-1893
yn	-1894
▁step	-1895
ung	-1896
over	-1897
▁companies	-1898
pping	-1899
▁whole	-1900
▁exec	-1901
now	-1902
▁begin	-1903
▁field	-1904
▁cand	-1905
pite	-1906
pecially	-1907
▁relations	-1908
ried	-1909
▁released	-1910
▁seems	-1911
▁leaders	-1912
ently	-1913
▁super	-1914
▁everything	-1915
iday	-1916
sw	-1917
▁Ass	-1918
▁officials	-1919
▁students	-1920
▁lab	-1921
attle	-1922
▁custom	-1923
mb	-1924
▁states	-1925
itted	-1926
▁meas	-1927
▁tra	-1928
uation	-1929
▁watch	-1930
▁due	-1931
▁role	-1932
ilt	-1933
▁Intern	-1934
▁stri	-1935
ivil	-1936
aul	-1937
▁China	-1938
▁infl	-1939
▁tre	-1940
ape	-1941
▁2017	-1942
head	-1943
▁sound	-1944
▁ey	-1945
ibility	-1946
▁Dr	-1947
://	-1948
▁statement	-1949
▁dam	-1950
▁room	-1951
▁:	-1952
▁Ir	-1953
oon	-1954
amer	-1955
obal	-1956
rodu	-1957
▁final	-1958
▁ener	-1959
▁began	-1960
▁position	-1961
vironment	-1962
ery	-1963
▁provide	-1964
▁self	-1965
.2	-1966
▁development	-1967
▁opt	-1968
IS	-1969
▁dou	-1970
▁matter	-1971
arlier	-1972
▁outside	-1973
▁character	-1974
ades	-1975
ender	-1976
▁break	-1977
▁himself	-1978
▁office	-1979
▁treat	-1980
▁continue	-1981
▁init	-1982
sec	-1983
▁gun	-1984
▁amount	-1985
▁larg	-1986
▁action	-1987
▁stat	-1988
▁above	-1989
▁itself	-1990
▁German	-1991
like	-1992
▁Face	-1993
▁Will	-1994
▁themselves	-1995
▁represent	-1996
▁hours	-1997
aced	-1998
▁198	-1999
lim	-2000
▁countries	-2001
▁specific	-2002
▁address	-2003
▁25	-2004
▁neg	-2005
arter	-2006
▁general	-2007
▁100	-2008
▁News	-2009
▁became	-2010
iod	-2011
ww	-2012
lish	-2013
▁simply	-2014
▁administ	-2015
▁wasn	-2016
▁running	-2017
▁Twitter	-2018
▁profess	-2019
ask	-2020
▁interview	-2021
umb	-2022
▁ground	-2023
▁significant	-2024
reg	-2025
▁version	-2026
ogle	-2027
▁true	-2028
▁difficult	-2029
▁appe	-2030
BC	-2031
ili	-2032
▁groups	-2033
▁red	-2034
▁En	-2035
eks	-2036
ogn	-2037
▁bar	-2038
▁woman	-2039
▁needs	-2040
▁evidence	-2041
▁cop	-2042
AN	-2043
oid	-2044
▁agree	-2045
▁music	-2046
▁everyone	-2047
▁rad	-2048
▁inj	-2049
▁needed	-2050
▁typ	-2051
▁lat	-2052
▁building	-2053
▁shows	-2054
▁below	-2055
▁drug	-2056
angu	-2057
▁respons	-2058
▁ball	-2059
▁Ke	-2060
iddle	-2061
▁release	-2062
**	-2063
▁common	-2064
▁dom	-2065
▁Mus	-2066
▁tem	-2067
ournal	-2068
▁West	-2069
▁dest	-2070
▁include	-2071
▁Pe	-2072
▁pretty	-2073
lam	-2074
▁exc	-2075
▁saw	-2076
right	-2077
▁White	-2078
▁industry	-2079
▁Facebook	-2080
ribut	-2081
ift	-2082
▁Ste	-2083
▁candid	-2084
▁playing	-2085
▁50	-2086
▁played	-2087
AR	-2088
▁ap	-2089
▁energy	-2090
▁charg	-2091
11	-2092
▁friends	-2093
atur	-2094
▁mot	-2095
▁billion	-2096
▁deep	-2097
isc	-2098
ival	-2099
▁quite	-2100
▁legal	-2101
▁late	-2102
▁white	-2103
ote	-2104
▁sense	-2105
▁mag	-2106
ser	-2107
▁Oct	-2108
▁alleg	-2109
▁Mich	-2110
body	-2111
▁lost	-2112
▁Cong	-2113
▁especially	-2114
▁phys	-2115
▁host	-2116
osing	-2117
yle	-2118
▁instead	-2119
▁election	-2120
▁recently	-2121
▁Per	-2122
▁gen	-2123
lev	-2124
▁)	-2125
▁forward	-2126
me	-2127
ager	-2128
▁vote	-2129
▁track	-2130
▁weeks	-2131
▁anim	-2132
▁ple	-2133
bo	-2134
▁abs	-2135
oring	-2136
istic	-2137
▁value	-2138
▁hom	-2139
▁Sept	-2140
▁suff	-2141
▁Sm	-2142
▁opportun	-2143
where	-2144
OR	-2145
▁jud	-2146
epend	-2147
▁pain	-2148
irt	-2149
▁changes	-2150
▁ep	-2151
▁deter	-2152
▁economic	-2153
▁lo	-2154
▁Google	-2155
medi	-2156
time	-2157
▁March	-2158
▁longer	-2159
▁Republican	-2160
▁More	-2161
▁object	-2162
▁period	-2163
ij	-2164
▁According	-2165
▁shoot	-2166
▁site	-2167
ript	-2168
▁Department	-2169
▁hope	-2170
2.	-2171
▁soon	-2172
ached	-2173
▁consum	-2174
▁accept	-2175
oke	-2176
▁Here	-2177
▁decl	-2178
▁moment	-2179
itting	-2180
▁Syri	-2181
▁wrong	-2182
▁check	-2183
▁tit	-2184
▁share	-2185
▁block	-2186
irm	-2187
▁webs	-2188
ights	-2189
▁June	-2190
▁online	-2191
▁pie	-2192
duct	-2193
▁educ	-2194
▁relig	-2195
▁htt	-2196
▁held	-2197
▁El	-2198
▁Em	-2199
ancial	-2200
▁Aug	-2201
▁focus	-2202
hod	-2203
▁24	-2204
▁cred	-2205
lege	-2206
alt	-2207
▁higher	-2208
▁potential	-2209
den	-2210
▁|	-2211
overed	-2212
▁led	-2213
ners	-2214
▁works	-2215
oe	-2216
▁stay	-2217
ns	-2218
cial	-2219
ament	-2220
▁circ	-2221
▁reve	-2222
▁contract	-2223
hel	-2224
ique	-2225
iding	-2226
AS	-2227
arc	-2228
onse	-2229
▁consider	-2230
key	-2231
ES	-2232
▁Red	-2233
▁Off	-2234
ularly	-2235
▁pred	-2236
fer	-2237
▁walk	-2238
▁article	-2239
▁stru	-2240
▁di	-2241
val	-2242
▁parent	-2243
lt	-2244
▁services	-2245
▁Act	-2246
▁words	-2247
▁ce	-2248
▁laws	-2249
▁aud	-2250
____	-2251
cil	-2252
lear	-2253
▁July	-2254
▁review	-2255
▁Apr	-2256
▁rev	-2257
fect	-2258
asons	-2259
▁applic	-2260
uary	-2261
▁wind	-2262
▁Mond	-2263
▁results	-2264
▁sold	-2265
▁ste	-2266
ients	-2267
▁personal	-2268
▁upd	-2269
▁favor	-2270
▁code	-2271
▁anyone	-2272
▁risk	-2273
ees	-2274
▁minutes	-2275
▁total	-2276
▁function	-2277
▁target	-2278
▁age	-2279
▁technology	-2280
aut	-2281
omm	-2282
ham	-2283
▁rate	-2284
ilities	-2285
▁prim	-2286
▁Congress	-2287
▁popular	-2288
▁Des	-2289
anger	-2290
isl	-2291
▁den	-2292
▁Austral	-2293
▁answ	-2294
itution	-2295
▁goal	-2296
▁earlier	-2297
▁environment	-2298
haps	-2299
ule	-2300
▁necess	-2301
apan	-2302
uel	-2303
▁Hill	-2304
aging	-2305
▁surpr	-2306
▁comment	-2307
▁respect	-2308
▁comput	-2309
▁dead	-2310
ateg	-2311
▁private	-2312
▁created	-2313
▁expected	-2314
▁Friday	-2315
▁problems	-2316
▁received	-2317
▁increase	-2318
ude	-2319
▁express	-2320
reet	-2321
ole	-2322
▁easy	-2323
▁questions	-2324
▁announced	-2325
▁@	-2326
▁anti	-2327
▁ways	-2328
ends	-2329
▁pack	-2330
▁hy	-2331
▁scient	-2332
▁shot	-2333
99	-2334
▁port	-2335
rel	-2336
▁God	-2337
iple	-2338
▁base	-2339
iter	-2340
▁impact	-2341
▁{	-2342
▁force	-2343
put	-2344
▁April	-2345
ittee	-2346
▁Monday	-2347
na	-2348
▁Ag	-2349
▁Tues	-2350
atives	-2351
▁vol	-2352
ples	-2353
eter	-2354
aving	-2355
▁Cour	-2356
▁Cont	-2357
▁langu	-2358
▁involved	-2359
▁pur	-2360
▁cannot	-2361
aterial	-2362
▁execut	-2363
itiz	-2364
▁+	-2365
itten	-2366
▁div	-2367
▁nearly	-2368
▁197	-2369
hern	-2370
action	-2371
okes	-2372
▁staff	-2373
▁model	-2374
▁Tuesday	-2375
60	-2376
▁exact	-2377
▁sen	-2378
▁speak	-2379
lex	-2380
.3	-2381
hood	-2382
▁civil	-2383
▁Even	-2384
▁content	-2385
▁terror	-2386
St	-2387
▁Count	-2388
▁type	-2389
▁fans	-2390
▁original	-2391
▁Russia	-2392
▁Pal	-2393
▁David	-2394
ires	-2395
▁capt	-2396
de	-2397
▁cases	-2398
▁relationship	-2399
▁inside	-2400
▁leave	-2401
icro	-2402
▁arrest	-2403
8,	-2404
ray	-2405
▁ur	-2406
▁Wed	-2407
▁club	-2408
▁Japan	-2409
▁average	-2410
ams	-2411
▁Americans	-2412
ises	-2413
▁2010	-2414
bor	-2415
▁reports	-2416
▁response	-2417
ites	-2418
▁*	-2419
▁nation	-2420
▁coll	-2421
▁Geor	-2422
▁broad	-2423
▁international	-2424
In	-2425
cast	-2426
This	-2427
▁Qu	-2428
lled	-2429
▁Gl	-2430
▁worked	-2431
▁users	-2432
▁worth	-2433
ips	-2434
▁killed	-2435
▁First	-2436
▁becom	-2437
▁San	-2438
▁living	-2439
▁source	-2440
▁Cor	-2441
▁Paul	-2442
▁global	-2443
▁immedi	-2444
omb	-2445
che	-2446
▁Sund	-2447
joy	-2448
▁published	-2449
▁et	-2450
▁estab	-2451
▁heart	-2452
▁Calif	-2453
▁soft	-2454
ellig	-2455
ky	-2456
▁director	-2457
atural	-2458
▁respond	-2459
bit	-2460
▁chance	-2461
▁adm	-2462
oto	-2463
▁price	-2464
ael	-2465
ging	-2466
▁workers	-2467
eed	-2468
rought	-2469
ops	-2470
▁takes	-2471
ctor	-2472
▁oil	-2473
-2	-2474
▁ability	-2475
▁road	-2476
izing	-2477
▁request	-2478
▁Her	-2479
onst	-2480
▁decided	-2481
.4	-2482
▁financial	-2483
▁cal	-2484
▁subject	-2485
▁mid	-2486
▁weap	-2487
▁tou	-2488
▁collect	-2489
▁Post	-2490
ze	-2491
▁terms	-2492
▁Spe	-2493
▁store	-2494
▁squ	-2495
▁40	-2496
▁emer	-2497
▁associ	-2498
▁gave	-2499
▁buy	-2500
unt	-2501
▁defin	-2502
vertise	-2503
▁January	-2504
▁<	-2505
▁log	-2506
▁phone	-2507
EN	-2508
▁happened	-2509
▁mother	-2510
▁cell	-2511
ological	-2512
ovember	-2513
▁Feb	-2514
▁Sch	-2515
▁foreign	-2516
▁lack	-2517
▁whose	-2518
▁influ	-2519
▁currently	-2520
▁offer	-2521
▁girl	-2522
osition	-2523
▁lives	-2524
clus	-2525
▁September	-2526
▁Wednes	-2527
▁situation	-2528
▁capital	-2529
aled	-2530
".	-2531
▁require	-2532
▁Thurs	-2533
▁member	-2534
▁plans	-2535
▁goes	-2536
▁meeting	-2537
rain	-2538
▁teams	-2539
▁network	-2540
▁Ang	-2541
▁tal	-2542
based	-2543
▁Tw	-2544
▁fem	-2545
▁pict	-2546
▁material	-2547
▁TV	-2548
▁Wednesday	-2549
ought	-2550
▁Islam	-2551
▁bur	-2552
oved	-2553
He	-2554
mon	-2555
▁ill	-2556
▁arri	-2557
▁Thursday	-2558
▁bank	-2559
▁events	-2560
▁November	-2561
▁affect	-2562
▁areas	-2563
▁introdu	-2564
▁huge	-2565
ruction	-2566
▁recogn	-2567
▁indic	-2568
order	-2569
▁email	-2570
ino	-2571
ese	-2572
▁simple	-2573
▁method	-2574
▁turned	-2575
fully	-2576
▁particip	-2577
▁tool	-2578
▁couple	-2579
▁career	-2580
▁Court	-2581
▁page	-2582
▁Afric	-2583
9,	-2584
▁European	-2585
▁administration	-2586
▁cy	-2587
▁approach	-2588
ctions	-2589
▁via	-2590
▁norm	-2591
▁Sunday	-2592
▁regard	-2593
▁21	-2594
▁felt	-2595
▁Canada	-2596
▁race	-2597
▁improve	-2598
▁numbers	-2599
▁August	-2600
ety	-2601
▁performance	-2602
face	-2603
aur	-2604
▁quickly	-2605
▁text	-2606
▁October	-2607
aily	-2608
oor	-2609
oud	-2610
ills	-2611
▁mis	-2612
3,	-2613
▁Californ	-2614
▁hon	-2615
rown	-2616
▁round	-2617
▁Of	-2618
istan	-2619
▁loss	-2620
▁website	-2621
▁victim	-2622
....	-2623
▁British	-2624
▁built	-2625
▁legisl	-2626
▁engine	-2627
”.	-2628
▁dig	-2629
▁father	-2630
load	-2631
ett	-2632
chie	-2633
▁economy	-2634
▁secret	-2635
ructure	-2636
▁pull	-2637
oo	-2638
▁heard	-2639
▁boy	-2640
▁wants	-2641
▁production	-2642
▁enjoy	-2643
ume	-2644
▁fre	-2645
▁repe	-2646
▁Then	-2647
avy	-2648
▁spent	-2649
▁cover	-2650
▁poll	-2651
▁hands	-2652
7,	-2653
orters	-2654
▁pers	-2655
fl	-2656
▁thous	-2657
down	-2658
▁Black	-2659
▁board	-2660
6,	-2661
▁allowed	-2662
bl	-2663
▁travel	-2664
▁match	-2665
▁lower	-2666
▁included	-2667
▁wide	-2668
You	-2669
▁Pat	-2670
▁IS	-2671
atory	-2672
iment	-2673
▁trade	-2674
▁Sw	-2675
▁neigh	-2676
15	-2677
cember	-2678
▁knew	-2679
▁California	-2680
▁Russian	-2681
▁town	-2682
iction	-2683
▁ord	-2684
▁behav	-2685
▁visit	-2686
ences	-2687
▁forces	-2688
▁perfect	-2689
12	-2690
gest	-2691
▁UK	-2692
ech	-2693
▁tried	-2694
▁movement	-2695
agement	-2696
ened	-2697
uses	-2698
Wh	-2699
▁separ	-2700
▁gets	-2701
▁Kore	-2702
estern	-2703
apt	-2704
ession	-2705
▁Mark	-2706
ishing	-2707
?”	-2708
anks	-2709
▁ens	-2710
▁bud	-2711
force	-2712
idents	-2713
▁Fin	-2714
▁Par	-2715
▁growth	-2716
▁attention	-2717
vil	-2718
▁bi	-2719
▁Int	-2720
▁looks	-2721
aker	-2722
▁brought	-2723
▁particular	-2724
▁vo	-2725
▁From	-2726
▁various	-2727
▁December	-2728
rect	-2729
][	-2730
hic	-2731
ceed	-2732
urd	-2733
▁cause	-2734
▁previous	-2735
ibly	-2736
▁fear	-2737
vent	-2738
▁morning	-2739
ening	-2740
▁reach	-2741
▁Senate	-2742
oph	-2743
lin	-2744
▁Park	-2745
40	-2746
▁image	-2747
arily	-2748
field	-2749
▁population	-2750
",	-2751
▁}	-2752
▁fair	-2753
▁rac	-2754
alled	-2755
▁fell	-2756
▁India	-2757
idered	-2758
cle	-2759
▁progress	-2760
▁mention	-2761
▁sett	-2762
▁link	-2763
▁Che	-2764
▁leader	-2765
sequ	-2766
▁rules	-2767
▁training	-2768
ris	-2769
▁Street	-2770
▁hot	-2771
▁coach	-2772
undred	-2773
.7	-2774
ED	-2775
hold	-2776
▁citiz	-2777
▁demand	-2778
raz	-2779
▁contact	-2780
yond	-2781
uk	-2782
▁latest	-2783
▁ess	-2784
▁Cons	-2785
▁size	-2786
▁Tex	-2787
cies	-2788
▁hor	-2789
▁fast	-2790
▁search	-2791
▁King	-2792
▁1,	-2793
▁prep	-2794
ecause	-2795
uments	-2796
▁liber	-2797
▁Satur	-2798
ground	-2799
▁Times	-2800
▁independ	-2801
.6	-2802
▁strugg	-2803
▁song	-2804
▁Party	-2805
▁Iran	-2806
▁features	-2807
come	-2808
▁reb	-2809
iers	-2810
ny	-2811
ledge	-2812
inks	-2813
▁Police	-2814
▁talking	-2815
ondon	-2816
▁(2	-2817
▁Rom	-2818
ma	-2819
▁Donald	-2820
ification	-2821
ges	-2822
▁addition	-2823
▁wond	-2824
▁Center	-2825
▁investigation	-2826
▁upon	-2827
▁star	-2828
het	-2829
▁speed	-2830
▁critic	-2831
▁medical	-2832
▁considered	-2833
aries	-2834
arth	-2835
▁sn	-2836
▁Up	-2837
iant	-2838
▁County	-2839
▁und	-2840
▁exam	-2841
▁Sand	-2842
elligence	-2843
▁McC	-2844
▁slow	-2845
▁card	-2846
raq	-2847
imately	-2848
==	-2849
unk	-2850
▁achie	-2851
▁box	-2852
▁Saturday	-2853
▁Jew	-2854
▁language	-2855
▁spokes	-2856
▁conduct	-2857
▁levels	-2858
▁jobs	-2859
bed	-2860
▁safe	-2861
▁Tur	-2862
▁prior	-2863
ani	-2864
atform	-2865
▁paper	-2866
▁TH	-2867
▁mach	-2868
.8	-2869
▁document	-2870
▁written	-2871
sych	-2872
▁pen	-2873
▁Muslim	-2874
▁conserv	-2875
▁sort	-2876
▁Lab	-2877
▁doll	-2878
);	-2879
▁prevent	-2880
igr	-2881
imin	-2882
▁sexual	-2883
▁Let	-2884
AC	-2885
▁systems	-2886
▁2011	-2887
▁parents	-2888
▁increasing	-2889
asc	-2890
pir	-2891
▁effort	-2892
▁Net	-2893
AL	-2894
ope	-2895
▁seven	-2896
▁Iraq	-2897
▁seek	-2898
OS	-2899
uf	-2900
uit	-2901
idge	-2902
▁learn	-2903
▁hear	-2904
▁London	-2905
ysis	-2906
ruary	-2907
▁serious	-2908
If	-2909
▁Read	-2910
▁extreme	-2911
▁inn	-2912
▁Michael	-2913
▁eight	-2914
▁Mor	-2915
▁regul	-2916
▁screen	-2917
▁draw	-2918
▁$2	-2919
rast	-2920
▁conc	-2921
▁Other	-2922
vertisement	-2923
▁despite	-2924
▁son	-2925
ining	-2926
▁violence	-2927
rench	-2928
▁surve	-2929
itch	-2930
▁bott	-2931
▁opportunity	-2932
▁resour	-2933
room	-2934
reedom	-2935
▁Soc	-2936
▁completely	-2937
▁protest	-2938
▁Sim	-2939
14	-2940
▁East	-2941
▁claims	-2942
▁Most	-2943
▁sens	-2944
▁journal	-2945
▁2012	-2946
▁Gener	-2947
▁attacks	-2948
▁obv	-2949
▁majority	-2950
▁doub	-2951
▁interesting	-2952
▁Play	-2953
atter	-2954
ico	-2955
▁particularly	-2956
▁range	-2957
▁James	-2958
▁exactly	-2959
▁biggest	-2960
▁Republicans	-2961
eff	-2962
5,	-2963
▁guy	-2964
▁quarter	-2965
anced	-2966
IT	-2967
ibr	-2968
▁climate	-2969
entially	-2970
▁message	-2971
▁carry	-2972
▁Bill	-2973
▁science	-2974
▁extra	-2975
▁Ser	-2976
▁experien	-2977
▁answer	-2978
▁aren	-2979
▁February	-2980
▁paid	-2981
▁society	-2982
▁movie	-2983
inese	-2984
OP	-2985
▁officers	-2986
aming	-2987
▁practice	-2988
▁stories	-2989
There	-2990
▁defense	-2991
set	-2992
uclear	-2993
ux	-2994
light	-2995
▁modern	-2996
▁products	-2997
▁communic	-2998
▁cross	-2999
▁required	-3000
▁certainly	-3001
16	-3002
▁remain	-3003
▁looked	-3004
▁natural	-3005
isions	-3006
▁Why	-3007
▁prison	-3008
▁dro	-3009
▁hundred	-3010
▁finally	-3011
▁except	-3012
▁sometimes	-3013
▁user	-3014
▁histor	-3015
▁Since	-3016
▁middle	-3017
akers	-3018
▁starting	-3019
▁gas	-3020
ension	-3021
utions	-3022
lying	-3023
▁convers	-3024
▁surv	-3025
▁imag	-3026
▁Coun	-3027
ospital	-3028
▁costs	-3029
oses	-3030
pper	-3031
▁details	-3032
▁quality	-3033
aves	-3034
▁leading	-3035
anch	-3036
▁Democratic	-3037
▁aw	-3038
ha	-3039
ously	-3040
▁rout	-3041
▁term	-3042
▁ones	-3043
▁table	-3044
illed	-3045
▁named	-3046
▁lay	-3047
▁changed	-3048
nces	-3049
▁summer	-3050
icks	-3051
▁comments	-3052
▁chief	-3053
▁described	-3054
▁showed	-3055
IC	-3056
uing	-3057
▁Rec	-3058
▁giving	-3059
▁stuff	-3060
▁pan	-3061
80	-3062
tr	-3063
aught	-3064
▁remains	-3065
coin	-3066
▁region	-3067
hib	-3068
▁Many	-3069
▁ult	-3070
▁Texas	-3071
ari	-3072
▁education	-3073
▁occur	-3074
▁danger	-3075
▁Jack	-3076
▁multiple	-3077
▁Mon	-3078
▁growing	-3079
▁blood	-3080
▁Dis	-3081
▁Last	-3082
▁Every	-3083
▁provided	-3084
eth	-3085
▁mob	-3086
▁continued	-3087
▁Chinese	-3088
erc	-3089
enge	-3090
▁thinking	-3091
▁path	-3092
▁writing	-3093
▁Apple	-3094
▁League	-3095
mit	-3096
ida	-3097
▁wouldn	-3098
▁ment	-3099
▁poor	-3100
4,	-3101
▁demonst	-3102
fort	-3103
▁died	-3104
▁parts	-3105
urt	-3106
mp	-3107
▁assist	-3108
▁purch	-3109
▁ready	-3110
▁fix	-3111
.9	-3112
▁culture	-3113
arr	-3114
▁maintain	-3115
▁calls	-3116
▁Rich	-3117
▁voters	-3118
▁(@	-3119
▁football	-3120
▁efforts	-3121
▁purp	-3122
ban	-3123
US	-3124
inary	-3125
▁file	-3126
▁camer	-3127
▁reading	-3128
▁mill	-3129
▁platform	-3130
13	-3131
▁Green	-3132
▁cele	-3133
iminal	-3134
▁implement	-3135
▁William	-3136
▁increased	-3137
▁write	-3138
--------	-3139
▁Cr	-3140
▁spot	-3141
▁damage	-3142
ago	-3143
aly	-3144
▁perhaps	-3145
oul	-3146
▁usually	-3147
oper	-3148
▁Get	-3149
▁Bo	-3150
▁kids	-3151
▁hous	-3152
▁towards	-3153
ables	-3154
FL	-3155
▁directly	-3156
▁Indian	-3157
▁Over	-3158
arian	-3159
omp	-3160
▁avoid	-3161
-0	-3162
▁although	-3163
▁standard	-3164
zz	-3165
▁Bel	-3166
▁http	-3167
▁select	-3168
▁reality	-3169
▁couldn	-3170
using	-3171
▁speech	-3172
▁guys	-3173
▁includes	-3174
▁epis	-3175
▁student	-3176
▁item	-3177
▁Rober	-3178
▁center	-3179
▁immediately	-3180
▁consist	-3181
icated	-3182
▁beyond	-3183
▁scene	-3184
▁alone	-3185
▁Comp	-3186
ara	-3187
rowd	-3188
▁challeng	-3189
▁Mart	-3190
▁Democrats	-3191
▁complex	-3192
▁additional	-3193
▁tro	-3194
▁throughout	-3195
▁unf	-3196
▁clos	-3197
▁Super	-3198
▁il	-3199
17	-3200
▁debate	-3201
ford	-3202
▁Ben	-3203
itute	-3204
▁rob	-3205
▁subst	-3206
▁effects	-3207
▁Our	-3208
▁Minister	-3209
▁agency	-3210
▁safety	-3211
▁designed	-3212
▁22	-3213
▁recomm	-3214
▁researc	-3215
▁Well	-3216
egr	-3217
hest	-3218
▁gone	-3219
▁officer	-3220
▁ahead	-3221
▁wife	-3222
▁choice	-3223
iles	-3224
▁corpor	-3225
ilies	-3226
▁Associ	-3227
▁remember	-3228
▁receive	-3229
itor	-3230
▁concept	-3231
▁ten	-3232
▁opin	-3233
▁figure	-3234
▁ver	-3235
▁Add	-3236
▁blog	-3237
▁cast	-3238
▁sell	-3239
▁software	-3240
▁toward	-3241
▁23	-3242
aches	-3243
ampions	-3244
▁Day	-3245
icient	-3246
▁piece	-3247
▁sil	-3248
bur	-3249
rupt	-3250
▁French	-3251
▁letter	-3252
▁sle	-3253
astic	-3254
▁pressure	-3255
wise	-3256
▁thousands	-3257
▁brain	-3258
▁counter	-3259
▁passed	-3260
▁swe	-3261
▁II	-3262
omen	-3263
▁organization	-3264
▁helped	-3265
▁relative	-3266
▁option	-3267
▁launch	-3268
atever	-3269
▁twe	-3270
ports	-3271
ston	-3272
Ph	-3273
▁Like	-3274
▁Val	-3275
▁appears	-3276
adem	-3277
▁Tor	-3278
▁moved	-3279
▁stage	-3280
▁budget	-3281
▁cris	-3282
aph	-3283
▁ut	-3284
BI	-3285
▁tour	-3286
▁disapp	-3287
irth	-3288
▁dog	-3289
sp	-3290
▁Star	-3291
▁prec	-3292
imum	-3293
airs	-3294
rief	-3295
▁clean	-3296
▁property	-3297
▁device	-3298
▁alleged	-3299
▁Wind	-3300
▁moving	-3301
▁suspect	-3302
▁touch	-3303
▁failed	-3304
▁park	-3305
▁reasons	-3306
▁aim	-3307
▁Although	-3308
▁ign	-3309
agon	-3310
roy	-3311
▁happy	-3312
ression	-3313
▁English	-3314
urning	-3315
▁drive	-3316
▁difference	-3317
olute	-3318
▁encour	-3319
itness	-3320
▁conditions	-3321
▁Sci	-3322
iny	-3323
▁rock	-3324
▁nuclear	-3325
berg	-3326
▁60	-3327
▁Serv	-3328
itation	-3329
▁characters	-3330
▁meaning	-3331
▁date	-3332
▁nom	-3333
just	-3334
▁Advertisement	-3335
yan	-3336
▁Ham	-3337
▁maybe	-3338
wood	-3339
▁deg	-3340
▁copy	-3341
ocked	-3342
▁title	-3343
▁nature	-3344
▁sat	-3345
▁score	-3346
▁dark	-3347
▁fan	-3348
▁league	-3349
ivity	-3350
▁Syria	-3351
aughter	-3352
▁beginning	-3353
▁Air	-3354
▁college	-3355
▁battle	-3356
men	-3357
▁computer	-3358
▁Because	-3359
▁Govern	-3360
new	-3361
▁spending	-3362
▁myself	-3363
more	-3364
▁contribut	-3365
▁powerful	-3366
▁positive	-3367
▁sche	-3368
▁command	-3369
lease	-3370
?"	-3371
▁century	-3372
▁largest	-3373
▁La	-3374
▁candidate	-3375
▁stra	-3376
add	-3377
chan	-3378
▁yes	-3379
▁forced	-3380
▁citizens	-3381
▁bal	-3382
▁Tom	-3383
▁band	-3384
▁Cap	-3385
aling	-3386
▁compared	-3387
igration	-3388
▁estim	-3389
▁refer	-3390
▁conference	-3391
▁presidential	-3392
▁High	-3393
▁shown	-3394
▁books	-3395
▁arch	-3396
▁necessary	-3397
▁wall	-3398
aint	-3399
▁sal	-3400
▁limited	-3401
▁schools	-3402
erve	-3403
▁aware	-3404
▁executive	-3405
iable	-3406
orks	-3407
▁families	-3408
▁draft	-3409
▁disp	-3410
ufact	-3411
▁Def	-3412
▁x	-3413
▁confir	-3414
▁feature	-3415
▁religious	-3416
▁Reg	-3417
They	-3418
▁trust	-3419
venue	-3420
▁illeg	-3421
enty	-3422
▁mix	-3423
▁Mex	-3424
ares	-3425
▁throw	-3426
▁Australia	-3427
ext	-3428
▁Tod	-3429
▁crowd	-3430
AM	-3431
▁George	-3432
EC	-3433
▁People	-3434
▁Image	-3435
orney	-3436
▁autom	-3437
▁meant	-3438
▁note	-3439
▁followed	-3440
▁origin	-3441
▁grad	-3442
▁firm	-3443
▁eyes	-3444
▁analysis	-3445
▁During	-3446
▁pus	-3447
▁gives	-3448
▁Ant	-3449
▁eventually	-3450
▁yourself	-3451
▁International	-3452
▁Smith	-3453
▁cat	-3454
▁politics	-3455
▁Jer	-3456
▁Rob	-3457
▁streng	-3458
▁feed	-3459
▁actions	-3460
▁allows	-3461
band	-3462
▁cool	-3463
▁196	-3464
▁overall	-3465
▁smart	-3466
OT	-3467
▁Bre	-3468
▁physical	-3469
▁esc	-3470
bum	-3471
▁easily	-3472
▁senior	-3473
▁susp	-3474
ero	-3475
board	-3476
▁analy	-3477
▁income	-3478
etro	-3479
▁School	-3480
▁EU	-3481
rated	-3482
▁appeared	-3483
ube	-3484
▁detail	-3485
iring	-3486
▁decades	-3487
ken	-3488
ressed	-3489
▁promot	-3490
▁£	-3491
▁Angel	-3492
▁treatment	-3493
▁Germany	-3494
▁signed	-3495
▁uses	-3496
▁weapons	-3497
▁central	-3498
-3	-3499
▁benefits	-3500
▁Brown	-3501
▁display	-3502
▁continues	-3503
▁credit	-3504
▁sales	-3505
▁ang	-3506
urance	-3507
cul	-3508
▁ideas	-3509
▁Oh	-3510
▁har	-3511
▁goals	-3512
ev	-3513
▁crime	-3514
▁Ber	-3515
▁General	-3516
▁conflic	-3517
uty	-3518
encies	-3519
ville	-3520
craft	-3521
▁lif	-3522
resh	-3523
▁crisis	-3524
▁noted	-3525
19	-3526
▁customers	-3527
▁>	-3528
▁Bu	-3529
▁Union	-3530
iance	-3531
▁unique	-3532
▁Flor	-3533
▁nice	-3534
▁frequ	-3535
▁Gold	-3536
▁Earth	-3537
▁Christian	-3538
▁Art	-3539
▁projects	-3540
▁•	-3541
▁Mac	-3542
lements	-3543
▁manager	-3544
▁Franc	-3545
▁27	-3546
▁altern	-3547
▁beaut	-3548
▁developed	-3549
riage	-3550
▁Two	-3551
▁mist	-3552
▁door	-3553
onents	-3554
▁emb	-3555
itely	-3556
▁Trans	-3557
▁charge	-3558
▁Arab	-3559
aud	-3560
▁drop	-3561
▁predict	-3562
box	-3563
1]	-3564
oti	-3565
AP	-3566
▁challenge	-3567
▁Council	-3568
▁rates	-3569
▁related	-3570
▁psych	-3571
▁lic	-3572
oes	-3573
▁rule	-3574
change	-3575
▁individuals	-3576
▁Scott	-3577
▁dise	-3578
▁successful	-3579
▁previously	-3580
▁sto	-3581
▁Internet	-3582
▁Alex	-3583
dd	-3584
▁lines	-3585
▁larger	-3586
▁apparent	-3587
▁Another	-3588
ram	-3589
▁peace	-3590
▁2008	-3591
nown	-3592
▁truth	-3593
▁Also	-3594
▁straight	-3595
▁Follow	-3596
▁intelligence	-3597
EL	-3598
▁expand	-3599
▁brother	-3600
▁rap	-3601
▁highly	-3602
part	-3603
▁web	-3604
▁fully	-3605
▁reform	-3606
▁advant	-3607
▁clearly	-3608
▁primary	-3609
▁attract	-3610
▁Yes	-3611
orter	-3612
mar	-3613
▁minor	-3614
pre	-3615
▁incident	-3616
ET	-3617
As	-3618
▁programs	-3619
▁Law	-3620
▁traff	-3621
▁favorite	-3622
ID	-3623
▁measure	-3624
▁criminal	-3625
▁resources	-3626
while	-3627
▁reached	-3628
secut	-3629
ounds	-3630
▁save	-3631
owers	-3632
IA	-3633
vin	-3634
9.	-3635
▁greater	-3636
▁seemed	-3637
ategy	-3638
ki	-3639
yl	-3640
▁rare	-3641
▁spread	-3642
▁correct	-3643
▁Mo	-3644
▁prem	-3645
antly	-3646
sey	-3647
25	-3648
▁Stud	-3649
▁Your	-3650
▁Mag	-3651
▁places	-3652
olic	-3653
OM	-3654
▁shooting	-3655
levision	-3656
ota	-3657
wide	-3658
▁knows	-3659
▁England	-3660
▁sources	-3661
▁Matt	-3662
▁emot	-3663
iders	-3664
▁knowledge	-3665
▁kept	-3666
▁regular	-3667
bon	-3668
▁feet	-3669
▁spend	-3670
▁laun	-3671
osh	-3672
▁color	-3673
▁owners	-3674
▁claimed	-3675
▁rise	-3676
▁Sam	-3677
▁manufact	-3678
iced	-3679
▁organiz	-3680
▁spir	-3681
▁AP	-3682
net	-3683
term	-3684
▁prices	-3685
dom	-3686
▁send	-3687
▁Hillary	-3688
▁26	-3689
▁fine	-3690
icit	-3691
▁voice	-3692
▁studies	-3693
▁ended	-3694
▁uns	-3695
aith	-3696
▁calling	-3697
▁liter	-3698
▁status	-3699
▁activity	-3700
▁Mod	-3701
▁Phil	-3702
▁arm	-3703
▁cities	-3704
EO	-3705
▁fighting	-3706
ado	-3707
▁integr	-3708
”,	-3709
▁caused	-3710
▁pun	-3711
▁28	-3712
ifying	-3713
▁options	-3714
▁Op	-3715
lick	-3716
▁print	-3717
onent	-3718
▁haven	-3719
▁normal	-3720
ocks	-3721
ingly	-3722
usion	-3723
▁adding	-3724
18	-3725
▁Florida	-3726
▁employees	-3727
iled	-3728
▁album	-3729
▁concerns	-3730
▁policies	-3731
▁researchers	-3732
▁Chic	-3733
):	-3734
▁happens	-3735
▁charges	-3736
▁virt	-3737
iverse	-3738
roll	-3739
▁supposed	-3740
▁Bay	-3741
2]	-3742
▁raised	-3743
▁shut	-3744
que	-3745
▁names	-3746
▁reflect	-3747
▁funding	-3748
▁enem	-3749
▁Sun	-3750
▁female	-3751
▁Pre	-3752
▁minister	-3753
▁lik	-3754
▁basic	-3755
▁trou	-3756
▁France	-3757
▁hospital	-3758
▁creating	-3759
▁authorities	-3760
▁Mike	-3761
▁pros	-3762
▁grand	-3763
▁acqu	-3764
▁commer	-3765
▁traditional	-3766
▁Port	-3767
▁leaving	-3768
ona	-3769
ength	-3770
▁jump	-3771
▁green	-3772
▁Bit	-3773
▁posted	-3774
▁patients	-3775
▁plant	-3776
▁scen	-3777
▁beat	-3778
oles	-3779
▁slight	-3780
▁freedom	-3781
roid	-3782
rol	-3783
uana	-3784
▁seeing	-3785
rs	-3786
vere	-3787
ribution	-3788
▁style	-3789
▁Sl	-3790
▁Health	-3791
inger	-3792
.’	-3793
▁absolute	-3794
▁offered	-3795
▁Att	-3796
▁wait	-3797
▁$3	-3798
▁cry	-3799
▁Wall	-3800
▁eye	-3801
▁weight	-3802
▁Secret	-3803
▁Chicago	-3804
▁weekend	-3805
uman	-3806
▁revealed	-3807
▁agreement	-3808
▁Micro	-3809
▁station	-3810
▁push	-3811
▁ir	-3812
▁beg	-3813
see	-3814
▁rank	-3815
▁ensure	-3816
▁mer	-3817
▁propos	-3818
ica	-3819
▁impl	-3820
▁Mil	-3821
ipp	-3822
▁behavior	-3823
▁Lou	-3824
▁Instead	-3825
▁install	-3826
▁Once	-3827
▁mechan	-3828
ipped	-3829
arliam	-3830
▁actual	-3831
▁application	-3832
acing	-3833
▁mostly	-3834
▁Step	-3835
▁eth	-3836
▁lawy	-3837
▁brief	-3838
mark	-3839
▁willing	-3840
▁adop	-3841
▁Del	-3842
▁picture	-3843
rian	-3844
▁birth	-3845
▁appl	-3846
ya	-3847
▁vac	-3848
ijuana	-3849
▁Sub	-3850
▁establ	-3851
SA	-3852
.'	-3853
▁gold	-3854
gen	-3855
▁adult	-3856
▁perm	-3857
▁Mal	-3858
▁obser	-3859
▁Bush	-3860
istry	-3861
▁Rel	-3862
▁learned	-3863
soft	-3864
▁strategy	-3865
▁enforce	-3866
▁Press	-3867
▁massive	-3868
▁choose	-3869
▁Are	-3870
▁mount	-3871
itude	-3872
▁records	-3873
▁determin	-3874
ING	-3875
▁arrested	-3876
▁wild	-3877
▁Johnson	-3878
▁wonder	-3879
▁Liber	-3880
▁cars	-3881
earch	-3882
▁Under	-3883
▁border	-3884
▁whatever	-3885
▁street	-3886
500	-3887
ront	-3888
arliament	-3889
▁believed	-3890
▁qual	-3891
▁devices	-3892
▁operations	-3893
cher	-3894
▁residents	-3895
igned	-3896
▁Big	-3897
▁values	-3898
▁confirmed	-3899
▁assault	-3900
▁parties	-3901
3]	-3902
org	-3903
inated	-3904
▁dire	-3905
▁negoti	-3906
alse	-3907
aby	-3908
▁debt	-3909
▁lose	-3910
▁Commission	-3911
▁Justice	-3912
▁asking	-3913
orial	-3914
▁Photo	-3915
▁produce	-3916
▁wat	-3917
▁feeling	-3918
▁judge	-3919
▁commit	-3920
▁influence	-3921
ented	-3922
▁critical	-3923
▁images	-3924
▁celebr	-3925
▁Inc	-3926
pri	-3927
▁drink	-3928
▁teac	-3929
Ch	-3930
▁provides	-3931
ection	-3932
▁produced	-3933
▁district	-3934
▁Ter	-3935
inn	-3936
But	-3937
▁enter	-3938
estic	-3939
▁mission	-3940
ste	-3941
▁whom	-3942
point	-3943
ugg	-3944
▁Us	-3945
▁cru	-3946
icial	-3947
▁dream	-3948
▁Palest	-3949
▁tend	-3950
▁Committee	-3951
▁fat	-3952
▁Security	-3953
aked	-3954
▁opposition	-3955
▁Great	-3956
▁showing	-3957
▁temper	-3958
▁Francis	-3959
▁defend	-3960
▁Sanders	-3961
▁Western	-3962
▁Pri	-3963
▁runs	-3964
▁Korea	-3965
vest	-3966
▁advoc	-3967
▁independent	-3968
70	-3969
▁brand	-3970
▁digital	-3971
RE	-3972
▁etc	-3973
ags	-3974
▁vill	-3975
ae	-3976
▁interested	-3977
▁hero	-3978
▁worse	-3979
▁Those	-3980
▁Found	-3981
▁Mad	-3982
abor	-3983
▁solution	-3984
▁offers	-3985
▁unc	-3986
▁core	-3987
▁agreed	-3988
▁replace	-3989
▁responsible	-3990
AD	-3991
▁Windows	-3992
amb	-3993
no	-3994
▁highest	-3995
▁tick	-3996
cell	-3997
▁effective	-3998
www	-3999
▁benefit	-4000
▁2,	-4001
▁Cup	-4002
▁Any	-4003
ords	-4004
ograph	-4005
icians	-4006
mine	-4007
ties	-4008
ription	-4009
gency	-4010
ipe	-4011
▁opening	-4012
▁NFL	-4013
▁Game	-4014
▁Ty	-4015
▁chair	-4016
▁daily	-4017
▁television	-4018
▁explained	-4019
▁Office	-4020
▁proposed	-4021
▁Chris	-4022
ocr	-4023
▁dollars	-4024
▁learning	-4025
hicle	-4026
▁Uk	-4027
▁investment	-4028
What	-4029
▁train	-4030
▁restrict	-4031
▁Commun	-4032
▁occas	-4033
▁memory	-4034
▁pattern	-4035
IL	-4036
▁millions	-4037
illing	-4038
▁chem	-4039
▁See	-4040
▁opinion	-4041
▁section	-4042
▁photo	-4043
▁join	-4044
uries	-4045
▁types	-4046
▁80	-4047
4]	-4048
coming	-4049
▁mur	-4050
▁kick	-4051
▁basis	-4052
▁miles	-4053
rial	-4054
▁fit	-4055
▁condition	-4056
▁onto	-4057
5.	-4058
That	-4059
▁marriage	-4060
▁Dist	-4061
▁defe	-4062
▁trial	-4063
▁Fox	-4064
▁Vir	-4065
OU	-4066
▁Wil	-4067
▁legislation	-4068
▁heavy	-4069
▁Canadian	-4070
▁opened	-4071
▁partners	-4072
rav	-4073
▁announce	-4074
iation	-4075
▁generally	-4076
▁hundreds	-4077
aks	-4078
azing	-4079
▁becomes	-4080
▁management	-4081
▁accused	-4082
▁Both	-4083
icip	-4084
▁theory	-4085
▁controvers	-4086
▁Today	-4087
outhern	-4088
▁der	-4089
▁Jud	-4090
eline	-4091
▁reject	-4092
CC	-4093
▁achieve	-4094
▁Cle	-4095
▁surround	-4096
▁advantage	-4097
▁coal	-4098
▁Direct	-4099
▁Robert	-4100
oly	-4101
▁documents	-4102
▁Despite	-4103
▁frame	-4104
▁Islamic	-4105
rate	-4106
▁professional	-4107
▁obtain	-4108
ander	-4109
▁illegal	-4110
▁becoming	-4111
▁location	-4112
▁male	-4113
BA	-4114
▁neighbor	-4115
▁Tre	-4116
oom	-4117
▁easier	-4118
well	-4119
▁assum	-4120
▁load	-4121
▁destroy	-4122
▁scientists	-4123
▁Hall	-4124
▁electric	-4125
And	-4126
▁limit	-4127
▁map	-4128
▁Out	-4129
▁served	-4130
/2	-4131
▁nine	-4132
▁born	-4133
known	-4134
ference	-4135
▁incred	-4136
▁understanding	-4137
▁serve	-4138
▁double	-4139
▁harm	-4140
▁Ac	-4141
▁camera	-4142
▁associated	-4143
▁ice	-4144
▁ship	-4145
1.	-4146
▁Britain	-4147
▁Jim	-4148
▁spl	-4149
▁Please	-4150
▁THE	-4151
BS	-4152
▁reduce	-4153
▁strik	-4154
▁sleep	-4155
▁Thom	-4156
▁shared	-4157
olf	-4158
witch	-4159
▁unlike	-4160
▁audience	-4161
▁bottom	-4162
________	-4163
▁thus	-4164
orthern	-4165
▁coverage	-4166
▁initial	-4167
▁active	-4168
▁vs	-4169
▁leadership	-4170
▁department	-4171
▁internet	-4172
▁bed	-4173
za	-4174
▁species	-4175
▁wealth	-4176
▁Bank	-4177
▁victory	-4178
▁church	-4179
▁Jones	-4180
ortunately	-4181
▁Mer	-4182
atically	-4183
▁Prof	-4184
▁solid	-4185
▁existing	-4186
▁winning	-4187
▁notice	-4188
▁90	-4189
FC	-4190
▁rat	-4191
▁returned	-4192
▁extremely	-4193
bert	-4194
▁negative	-4195
iful	-4196
▁victims	-4197
▁die	-4198
▁explain	-4199
house	-4200
▁ge	-4201
▁UN	-4202
▁episode	-4203
orrow	-4204
▁comfort	-4205
▁purpose	-4206
▁Ver	-4207
lant	-4208
ears	-4209
▁communities	-4210
▁mobile	-4211
▁resist	-4212
▁fresh	-4213
▁faith	-4214
▁Los	-4215
lands	-4216
▁Carol	-4217
▁machine	-4218
▁belief	-4219
GB	-4220
odes	-4221
▁putting	-4222
▁issued	-4223
▁bomb	-4224
▁watching	-4225
scrib	-4226
▁argument	-4227
▁ran	-4228
▁Their	-4229
▁committee	-4230
▁Microsoft	-4231
▁conservative	-4232
▁amb	-4233
▁1.	-4234
▁FBI	-4235
▁instance	-4236
▁purs	-4237
▁Sil	-4238
▁launched	-4239
▁Que	-4240
miss	-4241
90	-4242
▁Yet	-4243
▁doubt	-4244
▁AM	-4245
ghan	-4246
▁marijuana	-4247
▁definitely	-4248
▁Leg	-4249
▁supporters	-4250
ih	-4251
ios	-4252
▁Ken	-4253
▁teach	-4254
▁hearing	-4255
▁Jeff	-4256
met	-4257
asy	-4258
▁separate	-4259
▁Tim	-4260
▁competition	-4261
▁notes	-4262
▁Israeli	-4263
▁Miss	-4264
▁floor	-4265
iller	-4266
▁views	-4267
▁trend	-4268
ography	-4269
▁background	-4270
works	-4271
ario	-4272
istics	-4273
45	-4274
going	-4275
▁Frank	-4276
equ	-4277
▁labor	-4278
▁restaur	-4279
▁dangerous	-4280
▁Institute	-4281
▁commercial	-4282
▁Church	-4283
▁Bur	-4284
▁novel	-4285
▁vehicle	-4286
zen	-4287
▁Ukrain	-4288
▁repeated	-4289
▁suggested	-4290
▁Inter	-4291
cont	-4292
ampionship	-4293
▁traffic	-4294
resp	-4295
▁decade	-4296
▁drugs	-4297
▁hack	-4298
acity	-4299
how	-4300
▁Back	-4301
iliar	-4302
▁Sur	-4303
▁Ryan	-4304
▁charged	-4305
▁Who	-4306
▁Fore	-4307
rad	-4308
gers	-4309
▁closed	-4310
anted	-4311
▁tools	-4312
▁direction	-4313
▁refere	-4314
▁structure	-4315
▁radio	-4316
▁Good	-4317
icy	-4318
▁cards	-4319
PA	-4320
▁sites	-4321
▁hus	-4322
▁worst	-4323
▁spoke	-4324
▁react	-4325
inct	-4326
▁contain	-4327
▁telling	-4328
▁north	-4329
▁Gree	-4330
PS	-4331
▁driving	-4332
semb	-4333
▁discovered	-4334
▁gay	-4335
▁Char	-4336
vention	-4337
▁stated	-4338
▁transfer	-4339
▁cash	-4340
which	-4341
6]	-4342
bing	-4343
andom	-4344
do	-4345
▁smaller	-4346
▁Sup	-4347
▁ded	-4348
ribute	-4349
▁Cur	-4350
la	-4351
▁finding	-4352
▁entirely	-4353
ctors	-4354
▁transport	-4355
▁nor	-4356
▁Met	-4357
▁items	-4358
▁daughter	-4359
▁concerned	-4360
▁task	-4361
gu	-4362
azon	-4363
▁Pak	-4364
▁supported	-4365
▁animals	-4366
▁candidates	-4367
ici	-4368
▁annual	-4369
▁max	-4370
▁sun	-4371
annel	-4372
▁insurance	-4373
andon	-4374
ga	-4375
▁wel	-4376
ulated	-4377
▁caught	-4378
!”	-4379
▁driver	-4380
iling	-4381
▁Ev	-4382
▁Const	-4383
phone	-4384
▁70	-4385
▁businesses	-4386
overy	-4387
▁plays	-4388
▁please	-4389
▁testing	-4390
kins	-4391
iest	-4392
▁false	-4393
▁fuel	-4394
▁raise	-4395
▁requires	-4396
▁generation	-4397
▁experiment	-4398
oyal	-4399
ulf	-4400
4.	-4401
▁aspect	-4402
oman	-4403
▁exerc	-4404
hem	-4405
▁disease	-4406
▁Jo	-4407
▁older	-4408
▁largely	-4409
▁surface	-4410
▁allowing	-4411
▁farm	-4412
NN	-4413
▁believes	-4414
night	-4415
▁compar	-4416
▁categ	-4417
▁consequ	-4418
▁2009	-4419
ancy	-4420
arant	-4421
▁Richard	-4422
▁strateg	-4423
ibrary	-4424
▁construction	-4425
▁Nor	-4426
igrants	-4427
▁afford	-4428
▁truly	-4429
▁PC	-4430
▁Association	-4431
rey	-4432
▁GOP	-4433
▁strength	-4434
ource	-4435
▁Afghan	-4436
izes	-4437
▁African	-4438
▁activities	-4439
tered	-4440
▁justice	-4441
gl	-4442
▁concern	-4443
▁planning	-4444
▁holding	-4445
▁murder	-4446
rick	-4447
▁context	-4448
▁spokesman	-4449
ait	-4450
ossible	-4451
▁Dec	-4452
▁Kh	-4453
ius	-4454
▁Group	-4455
▁deliver	-4456
▁Rem	-4457
▁witness	-4458
▁decisions	-4459
itable	-4460
▁stock	-4461
▁presence	-4462
▁refuge	-4463
bre	-4464
▁;	-4465
anging	-4466
▁Sal	-4467
▁Holl	-4468
▁Virgin	-4469
ception	-4470
▁Africa	-4471
▁san	-4472
▁blue	-4473
▁catch	-4474
▁Fe	-4475
▁Android	-4476
7]	-4477
▁hasn	-4478
▁Rock	-4479
win	-4480
▁conflict	-4481
ava	-4482
▁accur	-4483
▁establish	-4484
▁rough	-4485
cript	-4486
▁tells	-4487
but	-4488
▁Joe	-4489
▁placed	-4490
▁Louis	-4491
cknow	-4492
ada	-4493
▁Jewish	-4494
▁29	-4495
▁phil	-4496
udd	-4497
▁banks	-4498
▁update	-4499
▁attend	-4500
▁introduced	-4501
▁waiting	-4502
▁Palestin	-4503
pective	-4504
▁CEO	-4505
▁Angeles	-4506
▁joined	-4507
▁guess	-4508
▁Pakistan	-4509
▁tim	-4510
▁Government	-4511
osure	-4512
▁unit	-4513
▁enforcement	-4514
▁initi	-4515
▁kid	-4516
▁offensive	-4517
▁Martin	-4518
▁Japanese	-4519
nel	-4520
!!	-4521
▁interests	-4522
OL	-4523
▁Pet	-4524
▁Mont	-4525
▁fourth	-4526
▁established	-4527
▁injury	-4528
▁missing	-4529
▁download	-4530
bour	-4531
▁providing	-4532
azine	-4533
ocracy	-4534
▁scale	-4535
▁mentioned	-4536
▁length	-4537
season	-4538
isation	-4539
▁eat	-4540
▁newsp	-4541
▁conversation	-4542
▁recommend	-4543
▁removed	-4544
▁Mexico	-4545
▁Jose	-4546
▁cook	-4547
▁fant	-4548
▁Jon	-4549
▁abuse	-4550
▁Fire	-4551
cient	-4552
vant	-4553
NA	-4554
▁homes	-4555
▁2.	-4556
▁veter	-4557
6.	-4558
ula	-4559
serv	-4560
onto	-4561
itz	-4562
▁35	-4563
-4	-4564
onym	-4565
▁transl	-4566
▁obvious	-4567
▁stopped	-4568
▁sports	-4569
▁sequ	-4570
▁useful	-4571
ady	-4572
▁figures	-4573
7.	-4574
▁bul	-4575
igan	-4576
▁Supreme	-4577
▁stick	-4578
▁Thomas	-4579
▁south	-4580
ests	-4581
▁housing	-4582
▁files	-4583
▁discussion	-4584
owl	-4585
AA	-4586
icles	-4587
ications	-4588
inter	-4589
▁click	-4590
icon	-4591
oted	-4592
▁exclus	-4593
▁tough	-4594
▁models	-4595
▁managed	-4596
cks	-4597
8]	-4598
▁assess	-4599
oms	-4600
▁girls	-4601
▁measures	-4602
▁cancer	-4603
▁arrived	-4604
3.	-4605
▁focused	-4606
▁setting	-4607
▁Web	-4608
▁funds	-4609
formation	-4610
▁Army	-4611
▁occup	-4612
▁identified	-4613
ups	-4614
ulate	-4615
▁operation	-4616
▁feels	-4617
rim	-4618
▁committed	-4619
▁cells	-4620
▁prefer	-4621
▁keeping	-4622
▁finished	-4623
▁Peter	-4624
▁exchange	-4625
EM	-4626
ading	-4627
▁skills	-4628
▁ST	-4629
what	-4630
Don	-4631
outs	-4632
▁partner	-4633
▁conclud	-4634
▁MP	-4635
real	-4636
▁Mary	-4637
▁acknow	-4638
▁identity	-4639
kin	-4640
▁Time	-4641
▁tweet	-4642
umn	-4643
▁Bern	-4644
▁hair	-4645
▁defensive	-4646
anda	-4647
▁owner	-4648
▁relatively	-4649
spe	-4650
▁Team	-4651
▁Research	-4652
▁appropri	-4653
place	-4654
▁steps	-4655
▁Put	-4656
▁photos	-4657
▁trip	-4658
▁husband	-4659
▁therefore	-4660
lig	-4661
▁survey	-4662
enses	-4663
8.	-4664
ication	-4665
▁collection	-4666
prof	-4667
ano	-4668
makers	-4669
hi	-4670
apped	-4671
verse	-4672
wing	-4673
▁spirit	-4674
▁slightly	-4675
▁connection	-4676
itutional	-4677
▁commission	-4678
▁Den	-4679
▁otherwise	-4680
agn	-4681
▁2000	-4682
gar	-4683
▁strike	-4684
ka	-4685
Re	-4686
▁earth	-4687
▁Secretary	-4688
hedul	-4689
rency	-4690
icide	-4691
▁bigger	-4692
ronic	-4693
▁Bitcoin	-4694
▁Public	-4695
ania	-4696
dden	-4697
▁circum	-4698
ocal	-4699
▁32	-4700
——	-4701
▁protection	-4702
iser	-4703
▁gender	-4704
.[2	-4705
ighter	-4706
isf	-4707
SP	-4708
▁sust	-4709
▁https	-4710
▁sides	-4711
▁Prime	-4712
▁aggress	-4713
▁elements	-4714
▁corner	-4715
▁beer	-4716
▁taxes	-4717
uct	-4718
stream	-4719
▁detect	-4720
▁killing	-4721
▁remind	-4722
▁(3	-4723
▁failure	-4724
ancing	-4725
▁College	-4726
▁planned	-4727
▁Lu	-4728
▁organizations	-4729
▁pet	-4730
adium	-4731
▁none	-4732
rig	-4733
mas	-4734
▁Atlant	-4735
hens	-4736
▁appoint	-4737
▁amazing	-4738
uate	-4739
▁Er	-4740
ucky	-4741
▁starts	-4742
▁speaking	-4743
▁depend	-4744
▁supply	-4745
▁happening	-4746
▁weak	-4747
▁thanks	-4748
idering	-4749
▁fle	-4750
▁roll	-4751
▁micro	-4752
▁suggests	-4753
▁Syrian	-4754
▁Media	-4755
▁wish	-4756
▁immigration	-4757
▁Amazon	-4758
▁mere	-4759
▁spect	-4760
▁talks	-4761
iot	-4762
▁struct	-4763
▁guard	-4764
upp	-4765
▁regist	-4766
▁award	-4767
eah	-4768
▁gain	-4769
TC	-4770
▁decide	-4771
▁army	-4772
▁sudden	-4773
▁dat	-4774
▁Ari	-4775
▁helping	-4776
▁hate	-4777
▁environmental	-4778
rees	-4779
▁Sol	-4780
▁familiar	-4781
▁mental	-4782
▁filed	-4783
DA	-4784
eless	-4785
lor	-4786
▁Prot	-4787
▁union	-4788
▁standing	-4789
▁Mean	-4790
▁Mos	-4791
uters	-4792
▁(19	-4793
oston	-4794
▁script	-4795
▁planet	-4796
▁accounts	-4797
amm	-4798
ST	-4799
▁Camp	-4800
agues	-4801
▁Plan	-4802
▁Toronto	-4803
9]	-4804
▁domestic	-4805
odies	-4806
When	-4807
ynam	-4808
▁revolution	-4809
▁multi	-4810
▁batter	-4811
▁territ	-4812
▁Mars	-4813
▁markets	-4814
gypt	-4815
▁window	-4816
▁standards	-4817
▁professor	-4818
HL	-4819
▁sch	-4820
▁tack	-4821
▁dropped	-4822
▁carried	-4823
▁operating	-4824
▁variety	-4825
arks	-4826
▁194	-4827
▁scientific	-4828
▁vul	-4829
▁neighborhood	-4830
range	-4831
RA	-4832
▁Mur	-4833
▁possibly	-4834
▁Bob	-4835
▁univers	-4836
▁balance	-4837
ocol	-4838
▁que	-4839
▁academ	-4840
▁crew	-4841
▁Service	-4842
▁worry	-4843
▁developers	-4844
aren	-4845
vis	-4846
ipping	-4847
▁increasingly	-4848
▁Before	-4849
imal	-4850
▁fellow	-4851
▁cuts	-4852
▁Social	-4853
▁paying	-4854
illa	-4855
▁votes	-4856
▁seconds	-4857
▁Central	-4858
▁turns	-4859
▁Dan	-4860
▁degree	-4861
erous	-4862
▁interact	-4863
▁twice	-4864
▁Rub	-4865
▁Images	-4866
gn	-4867
itect	-4868
▁Bet	-4869
▁changing	-4870
aded	-4871
rastructure	-4872
ola	-4873
▁pair	-4874
▁lived	-4875
▁losing	-4876
▁impossible	-4877
▁colle	-4878
▁Jes	-4879
▁schedul	-4880
▁appre	-4881
acks	-4882
aven	-4883
▁philos	-4884
run	-4885
▁apply	-4886
▁apparently	-4887
▁Open	-4888
▁rich	-4889
▁Chief	-4890
▁apart	-4891
▁healthy	-4892
▁innov	-4893
▁server	-4894
Is	-4895
▁Carolina	-4896
▁Foundation	-4897
▁Free	-4898
▁honest	-4899
awn	-4900
▁possibility	-4901
▁alternative	-4902
▁cold	-4903
▁tests	-4904
▁equip	-4905
▁closer	-4906
▁yards	-4907
▁AN	-4908
roud	-4909
▁beautiful	-4910
ruit	-4911
ias	-4912
▁Second	-4913
▁Whe	-4914
icted	-4915
▁Mass	-4916
▁writer	-4917
▁ath	-4918
▁princ	-4919
▁experts	-4920
aine	-4921
▁religion	-4922
5]	-4923
▁sounds	-4924
▁Middle	-4925
fe	-4926
ansion	-4927
▁regarding	-4928
▁Ro	-4929
▁agencies	-4930
▁ultimately	-4931
stein	-4932
▁District	-4933
▁deploy	-4934
▁corporate	-4935
▁Ve	-4936
with	-4937
ashed	-4938
▁absolutely	-4939
▁units	-4940
▁IN	-4941
hicles	-4942
▁Boston	-4943
▁Lat	-4944
▁Sign	-4945
▁soldiers	-4946
▁imagine	-4947
▁Federal	-4948
pm	-4949
▁Egypt	-4950
▁expensive	-4951
▁Mel	-4952
▁sea	-4953
▁developing	-4954
▁vast	-4955
▁applications	-4956
look	-4957
▁Steve	-4958
ores	-4959
▁authority	-4960
▁flight	-4961
▁university	-4962
▁seeking	-4963
▁elections	-4964
▁pit	-4965
▁tast	-4966
▁famous	-4967
▁fundament	-4968
▁Lee	-4969
▁Gal	-4970
▁Mem	-4971
!"	-4972
▁Cru	-4973
▁Conserv	-4974
▁Francisco	-4975
▁RE	-4976
coh	-4977
▁solar	-4978
▁adjust	-4979
▁covered	-4980
▁skin	-4981
▁Though	-4982
▁Ze	-4983
▁lob	-4984
:00	-4985
▁humans	-4986
oving	-4987
▁Watch	-4988
▁pil	-4989
▁unless	-4990
▁rid	-4991
▁Sant	-4992
cious	-4993
▁gar	-4994
▁capacity	-4995
No	-4996
▁sitting	-4997
▁earn	-4998
▁Cath	-4999
▁USA	-5000
atures	-5001
enced	-5002
▁trail	-5003
▁Sing	-5004
▁internal	-5005
lets	-5006
sen	-5007
▁Each	-5008
▁responsibility	-5009
▁Top	-5010
osen	-5011
▁heat	-5012
pire	-5013
state	-5014
▁odd	-5015
related	-5016
▁vision	-5017
▁Ms	-5018
apers	-5019
▁arms	-5020
ologies	-5021
▁animal	-5022
▁sport	-5023
▁Spr	-5024
isted	-5025
▁surprise	-5026
▁attorney	-5027
▁Williams	-5028
▁Virginia	-5029
▁Book	-5030
▁helps	-5031
▁guarant	-5032
Americ	-5033
▁vir	-5034
▁Only	-5035
▁Journal	-5036
porary	-5037
rie	-5038
ortion	-5039
▁fif	-5040
rible	-5041
terday	-5042
▁Charl	-5043
▁Still	-5044
▁broken	-5045
▁convention	-5046
uster	-5047
▁Hist	-5048
▁troops	-5049
▁error	-5050
▁195	-5051
▁symb	-5052
▁Power	-5053
▁fol	-5054
och	-5055
▁Color	-5056
anche	-5057
▁expert	-5058
▁instit	-5059
hand	-5060
▁occurred	-5061
▁consult	-5062
▁mut	-5063
▁fired	-5064
▁streets	-5065
▁45	-5066
▁tight	-5067
▁teen	-5068
▁presented	-5069
▁3,	-5070
▁determine	-5071
▁council	-5072
▁estimated	-5073
▁Australian	-5074
▁seasons	-5075
▁ton	-5076
▁intended	-5077
person	-5078
▁Guard	-5079
▁forms	-5080
▁ruling	-5081
▁offering	-5082
▁Saud	-5083
▁3.	-5084
====	-5085
ayer	-5086
▁prepared	-5087
alls	-5088
orage	-5089
cel	-5090
ressive	-5091
useum	-5092
▁proposal	-5093
▁River	-5094
▁stars	-5095
▁Paris	-5096
▁vehicles	-5097
▁Rad	-5098
▁selling	-5099
▁governments	-5100
▁flow	-5101
▁heav	-5102
▁stress	-5103
▁domin	-5104
xual	-5105
▁equipment	-5106
pret	-5107
▁refused	-5108
▁jail	-5109
▁specifically	-5110
▁vulner	-5111
▁plenty	-5112
▁pieces	-5113
idden	-5114
▁potentially	-5115
▁boost	-5116
▁About	-5117
▁located	-5118
▁prove	-5119
▁Show	-5120
▁Tra	-5121
▁clim	-5122
▁dram	-5123
▁faster	-5124
▁bringing	-5125
▁prosecut	-5126
CH	-5127
▁sector	-5128
under	-5129
eds	-5130
▁baby	-5131
▁infrastructure	-5132
▁rapid	-5133
mes	-5134
phas	-5135
▁criticism	-5136
▁random	-5137
eder	-5138
▁breat	-5139
▁$4	-5140
For	-5141
▁Medic	-5142
▁2014,	-5143
▁elected	-5144
yr	-5145
▁2015,	-5146
▁brow	-5147
uration	-5148
inent	-5149
▁broke	-5150
vey	-5151
endment	-5152
▁nar	-5153
▁Work	-5154
▁challenges	-5155
▁hyp	-5156
ureau	-5157
▁conclus	-5158
▁clot	-5159
ocking	-5160
▁Ok	-5161
▁voted	-5162
▁$5	-5163
00,000	-5164
ader	-5165
▁prime	-5166
▁era	-5167
isher	-5168
▁NAS	-5169
▁retail	-5170
▁secure	-5171
▁Nov	-5172
▁Project	-5173
▁Andrew	-5174
IV	-5175
▁combat	-5176
▁Island	-5177
oty	-5178
▁equal	-5179
▁voting	-5180
▁originally	-5181
****	-5182
IP	-5183
cean	-5184
▁Jackson	-5185
▁bought	-5186
issions	-5187
▁finish	-5188
noon	-5189
▁carbon	-5190
▁youth	-5191
▁BBC	-5192
▁Haw	-5193
▁remove	-5194
▁conducted	-5195
mail	-5196
▁pointed	-5197
lyn	-5198
▁Pac	-5199
▁positions	-5200
▁Sum	-5201
▁Meanwhile	-5202
▁remained	-5203
DP	-5204
▁Force	-5205
road	-5206
pired	-5207
▁methods	-5208
▁expressed	-5209
▁percentage	-5210
▁trig	-5211
▁sale	-5212
war	-5213
▁greatest	-5214
▁Hol	-5215
▁facing	-5216
▁PM	-5217
▁clin	-5218
▁rent	-5219
▁Daily	-5220
▁cultural	-5221
▁appearance	-5222
ils	-5223
▁din	-5224
▁factors	-5225
▁weren	-5226
▁tourn	-5227
▁hurt	-5228
▁Labour	-5229
▁chemical	-5230
ENT	-5231
▁Dou	-5232
▁tele	-5233
▁Where	-5234
▁signs	-5235
ours	-5236
▁involve	-5237
ss	-5238
▁affected	-5239
reens	-5240
ean	-5241
▁regime	-5242
ION	-5243
IM	-5244
olved	-5245
ighters	-5246
▁weapon	-5247
▁stret	-5248
lymp	-5249
▁supporting	-5250
▁Space	-5251
▁argued	-5252
▁minimum	-5253
onom	-5254
▁shall	-5255
▁significantly	-5256
▁politicians	-5257
▁indeed	-5258
▁films	-5259
▁tact	-5260
ashion	-5261
▁plus	-5262
olit	-5263
ordin	-5264
▁shape	-5265
▁marg	-5266
ownt	-5267
▁thr	-5268
▁grew	-5269
▁iPh	-5270
,'	-5271
ini	-5272
standing	-5273
▁thank	-5274
▁surprising	-5275
▁considering	-5276
▁remaining	-5277
▁excited	-5278
▁1990	-5279
▁reduced	-5280
ey	-5281
▁wood	-5282
▁handle	-5283
▁consumers	-5284
rier	-5285
-20	-5286
▁depart	-5287
▁determined	-5288
▁master	-5289
▁wearing	-5290
▁recorded	-5291
▁herself	-5292
▁AT	-5293
▁hun	-5294
▁Human	-5295
▁Ron	-5296
▁Maybe	-5297
▁Turkey	-5298
▁shift	-5299
▁revenue	-5300
▁Supp	-5301
essions	-5302
▁videos	-5303
▁experienced	-5304
▁Hy	-5305
▁switch	-5306
▁leads	-5307
▁Wal	-5308
▁Look	-5309
▁Av	-5310
▁Rod	-5311
▁Road	-5312
▁purchase	-5313
▁subs	-5314
▁basically	-5315
▁aid	-5316
etic	-5317
▁agent	-5318
▁Develop	-5319
▁seriously	-5320
▁obviously	-5321
OW	-5322
▁identify	-5323
▁minute	-5324
▁turning	-5325
:30	-5326
▁31	-5327
ht	-5328
▁Ma	-5329
▁opportunities	-5330
mm	-5331
arp	-5332
▁apps	-5333
rog	-5334
▁prospect	-5335
▁glass	-5336
▁panel	-5337
▁pulled	-5338
▁package	-5339
▁contrast	-5340
▁belong	-5341
life	-5342
▁cas	-5343
▁aircraft	-5344
ruption	-5345
▁Penn	-5346
▁completed	-5347
▁Olymp	-5348
▁appreci	-5349
▁Director	-5350
▁emergency	-5351
▁listen	-5352
▁afternoon	-5353
plom	-5354
hered	-5355
gment	-5356
▁Squ	-5357
▁privacy	-5358
▁visual	-5359
hab	-5360
ller	-5361
▁hopes	-5362
▁Ohio	-5363
▁evening	-5364
▁accident	-5365
▁zone	-5366
▁seat	-5367
32	-5368
/20	-5369
▁mode	-5370
▁proced	-5371
▁Down	-5372
▁spring	-5373
▁explos	-5374
▁treated	-5375
ran	-5376
▁bound	-5377
▁ends	-5378
▁Phot	-5379
ogue	-5380
▁lots	-5381
▁opposed	-5382
cohol	-5383
class	-5384
▁Sher	-5385
oral	-5386
▁mort	-5387
▁plants	-5388
▁struggle	-5389
▁Techn	-5390
uts	-5391
▁ast	-5392
▁reporters	-5393
apping	-5394
▁talked	-5395
▁suit	-5396
▁passing	-5397
▁Ol	-5398
▁Somet	-5399
ket	-5400
▁widely	-5401
ucks	-5402
▁concent	-5403
▁Vict	-5404
▁discl	-5405
▁suppl	-5406
▁//	-5407
▁powers	-5408
-5	-5409
▁attempts	-5410
▁Wood	-5411
▁Fer	-5412
▁dismiss	-5413
▁differences	-5414
()	-5415
ita	-5416
▁advance	-5417
▁copyright	-5418
LE	-5419
▁tun	-5420
nell	-5421
ensions	-5422
▁sad	-5423
▁renew	-5424
▁motiv	-5425
▁Lin	-5426
osite	-5427
▁proceed	-5428
ato	-5429
▁pages	-5430
▁liberal	-5431
gent	-5432
UT	-5433
▁collabor	-5434
lo	-5435
▁Bus	-5436
asp	-5437
▁writes	-5438
rawn	-5439
ivered	-5440
estival	-5441
▁default	-5442
▁Scot	-5443
sts	-5444
pet	-5445
▁caption	-5446
▁Again	-5447
mond	-5448
▁element	-5449
▁storm	-5450
top	-5451
ributed	-5452
▁Kim	-5453
uous	-5454
▁Thank	-5455
▁valid	-5456
abilities	-5457
raud	-5458
▁upgr	-5459
▁disappoint	-5460
▁mal	-5461
lines	-5462
▁cart	-5463
aints	-5464
▁appeal	-5465
▁combined	-5466
▁instruct	-5467
▁2007	-5468
▁Seattle	-5469
that	-5470
▁frust	-5471
▁construct	-5472
▁Gen	-5473
▁batt	-5474
▁trouble	-5475
▁hol	-5476
▁Science	-5477
▁AC	-5478
▁reaction	-5479
▁Jul	-5480
▁Grand	-5481
▁typically	-5482
▁Dani	-5483
erved	-5484
▁factor	-5485
▁Its	-5486
employ	-5487
▁Week	-5488
▁burn	-5489
ffee	-5490
▁enemy	-5491
▁responded	-5492
▁pitch	-5493
▁confident	-5494
▁grab	-5495
▁quant	-5496
▁Ire	-5497
care	-5498
oking	-5499
▁prompt	-5500
▁explo	-5501
▁capable	-5502
▁weather	-5503
▁gra	-5504
▁Braz	-5505
PD	-5506
▁id	-5507
▁Four	-5508
ache	-5509
▁approved	-5510
▁denied	-5511
▁broadcast	-5512
▁Hen	-5513
▁Afghanistan	-5514
idel	-5515
esters	-5516
ompl	-5517
▁matters	-5518
▁mand	-5519
elly	-5520
free	-5521
▁CNN	-5522
▁Best	-5523
col	-5524
▁entertain	-5525
▁Ill	-5526
My	-5527
▁advert	-5528
▁Life	-5529
▁calcul	-5530
▁institutions	-5531
75	-5532
Tr	-5533
▁sets	-5534
▁distance	-5535
▁sac	-5536
▁elimin	-5537
▁quiet	-5538
zer	-5539
▁Vol	-5540
▁Rev	-5541
▁2013,	-5542
▁ongoing	-5543
▁creation	-5544
▁Right	-5545
mosp	-5546
▁reference	-5547
abin	-5548
▁optim	-5549
▁ML	-5550
▁reportedly	-5551
▁tradition	-5552
▁stands	-5553
apter	-5554
▁craft	-5555
aped	-5556
▁System	-5557
anged	-5558
▁severe	-5559
▁(20	-5560
urb	-5561
▁ordered	-5562
respond	-5563
▁Thanks	-5564
▁pictures	-5565
oken	-5566
▁Saudi	-5567
▁Note	-5568
▁coast	-5569
▁transition	-5570
▁messages	-5571
isters	-5572
▁Far	-5573
ternal	-5574
▁proud	-5575
razy	-5576
35	-5577
unte	-5578
▁faces	-5579
▁explains	-5580
▁cloud	-5581
▁advice	-5582
▁perspective	-5583
ym	-5584
▁reporting	-5585
22	-5586
obe	-5587
▁updates	-5588
▁AD	-5589
▁newspaper	-5590
adow	-5591
▁diss	-5592
▁flag	-5593
▁satisf	-5594
▁violent	-5595
▁bull	-5596
▁crimes	-5597
▁movies	-5598
▁Long	-5599
▁suffered	-5600
rd	-5601
▁experiences	-5602
▁declined	-5603
ilty	-5604
▁fly	-5605
Sh	-5606
▁numerous	-5607
▁bodies	-5608
="	-5609
▁unable	-5610
▁Christmas	-5611
▁approx	-5612
▁declared	-5613
▁lit	-5614
▁loved	-5615
▁forget	-5616
,’	-5617
▁route	-5618
▁Romney	-5619
IG	-5620
▁substant	-5621
rum	-5622
▁cooper	-5623
▁Ukraine	-5624
▁injured	-5625
▁shouldn	-5626
ishes	-5627
▁giant	-5628
▁editor	-5629
▁Stan	-5630
▁thoughts	-5631
▁emails	-5632
▁van	-5633
▁gather	-5634
▁guns	-5635
gia	-5636
▁36	-5637
▁Upd	-5638
astern	-5639
▁confidence	-5640
▁rail	-5641
▁admitted	-5642
▁technical	-5643
▁circumst	-5644
rant	-5645
▁Hel	-5646
0000	-5647
▁prin	-5648
dule	-5649
▁Carl	-5650
▁publicly	-5651
▁delay	-5652
▁accompl	-5653
▁drivers	-5654
▁excell	-5655
▁Michigan	-5656
▁terrorist	-5657
▁Muslims	-5658
pass	-5659
▁2012,	-5660
▁delivered	-5661
▁architect	-5662
nergy	-5663
enda	-5664
ionally	-5665
▁Gar	-5666
▁forg	-5667
▁quarterback	-5668
▁Walk	-5669
cos	-5670
▁auth	-5671
▁picked	-5672
▁lawyer	-5673
▁cann	-5674
▁findings	-5675
li	-5676
oves	-5677
ulations	-5678
▁connected	-5679
▁iPhone	-5680
rist	-5681
▁Prem	-5682
can	-5683
called	-5684
▁married	-5685
PR	-5686
host	-5687
ooth	-5688
▁leaves	-5689
▁perman	-5690
angers	-5691
ansas	-5692
uations	-5693
▁Ireland	-5694
fere	-5695
▁ourselves	-5696
▁eval	-5697
▁readers	-5698
▁Str	-5699
▁\	-5700
▁emphas	-5701
▁tech	-5702
▁appropriate	-5703
▁realize	-5704
:0	-5705
▁argue	-5706
▁Cop	-5707
▁Mount	-5708
▁activists	-5709
▁GM	-5710
▁Sov	-5711
▁Blue	-5712
▁debut	-5713
▁allegations	-5714
▁transform	-5715
▁pool	-5716
▁secretary	-5717
▁1980	-5718
long	-5719
hew	-5720
ampion	-5721
▁statements	-5722
▁rot	-5723
▁Lake	-5724
▁confirm	-5725
▁PR	-5726
▁armed	-5727
▁session	-5728
mates	-5729
▁examples	-5730
▁injuries	-5731
rid	-5732
▁franch	-5733
enture	-5734
,[	-5735
So	-5736
▁dynam	-5737
abled	-5738
▁contains	-5739
▁Three	-5740
essor	-5741
▁walking	-5742
▁dial	-5743
▁diplom	-5744
▁500	-5745
resents	-5746
ellow	-5747
▁effectively	-5748
▁Hou	-5749
▁Lib	-5750
▁centre	-5751
▁tree	-5752
▁patient	-5753
▁Exp	-5754
▁buildings	-5755
▁talent	-5756
▁agents	-5757
▁missed	-5758
▁legit	-5759
▁essentially	-5760
▁ID	-5761
▁Swed	-5762
▁ISIS	-5763
▁practices	-5764
▁exercise	-5765
agers	-5766
▁edge	-5767
▁Columb	-5768
▁god	-5769
unction	-5770
acter	-5771
▁scheduled	-5772
▁initially	-5773
▁wear	-5774
▁Ram	-5775
▁moral	-5776
▁2016,	-5777
▁Polit	-5778
▁Elect	-5779
▁graph	-5780
33	-5781
tion	-5782
▁motor	-5783
▁yesterday	-5784
Tube	-5785
▁Ann	-5786
enger	-5787
▁crack	-5788
asure	-5789
▁bond	-5790
▁label	-5791
▁expansion	-5792
▁View	-5793
▁governor	-5794
▁Barack	-5795
▁TO	-5796
▁magazine	-5797
▁Cub	-5798
edy	-5799
▁objects	-5800
▁filled	-5801
▁Year	-5802
orry	-5803
cons	-5804
▁Ariz	-5805
▁materials	-5806
64	-5807
ourney	-5808
arters	-5809
ounded	-5810
icing	-5811
▁Story	-5812
▁Brazil	-5813
▁Aff	-5814
24	-5815
ala	-5816
▁Aut	-5817
▁rain	-5818
▁announcement	-5819
aza	-5820
-8	-5821
▁Sar	-5822
orders	-5823
▁thinks	-5824
▁shop	-5825
▁advanced	-5826
▁client	-5827
ador	-5828
▁artist	-5829
▁causes	-5830
uls	-5831
▁warned	-5832
iat	-5833
▁suc	-5834
esome	-5835
▁pure	-5836
▁linked	-5837
▁performed	-5838
▁4,	-5839
▁flo	-5840
▁fish	-5841
sembly	-5842
▁subsequ	-5843
illance	-5844
uild	-5845
▁bare	-5846
▁radical	-5847
▁faced	-5848
▁nations	-5849
▁abandon	-5850
▁Home	-5851
▁Author	-5852
▁hell	-5853
▁facts	-5854
▁subscrib	-5855
▁Wik	-5856
ette	-5857
orse	-5858
▁Enter	-5859
▁athlet	-5860
▁playoff	-5861
▁desire	-5862
▁necessarily	-5863
▁Sky	-5864
▁everybody	-5865
▁datab	-5866
▁improved	-5867
▁ride	-5868
▁myster	-5869
▁listed	-5870
illy	-5871
▁Board	-5872
▁offense	-5873
▁sam	-5874
▁represents	-5875
▁AL	-5876
▁consequences	-5877
▁chart	-5878
▁Colorado	-5879
▁Men	-5880
IR	-5881
ilit	-5882
▁incor	-5883
word	-5884
▁Share	-5885
▁Next	-5886
▁4.	-5887
▁explan	-5888
▁threats	-5889
▁doctor	-5890
▁lawsuit	-5891
▁surprised	-5892
whel	-5893
▁Div	-5894
rip	-5895
▁accepted	-5896
▁joint	-5897
athan	-5898
▁restaurant	-5899
▁ing	-5900
▁Perhaps	-5901
water	-5902
▁trib	-5903
itors	-5904
▁pushed	-5905
▁Di	-5906
▁guilty	-5907
▁af	-5908
▁adds	-5909
▁remark	-5910
▁rein	-5911
▁Further	-5912
▁Card	-5913
▁receiving	-5914
▁brings	-5915
▁Young	-5916
▁warm	-5917
▁Brook	-5918
▁fort	-5919
▁neither	-5920
▁investors	-5921
▁row	-5922
law	-5923
▁spons	-5924
▁ske	-5925
▁follows	-5926
▁pra	-5927
▁democracy	-5928
▁config	-5929
▁Sports	-5930
Le	-5931
▁plane	-5932
▁Vide	-5933
TV	-5934
▁shots	-5935
otic	-5936
amin	-5937
▁stood	-5938
▁flood	-5939
▁increases	-5940
▁distribution	-5941
TM	-5942
TA	-5943
▁sought	-5944
▁NBA	-5945
▁Take	-5946
▁interpret	-5947
▁Korean	-5948
▁resolution	-5949
▁Fam	-5950
omin	-5951
▁Boy	-5952
▁Eric	-5953
▁Club	-5954
irty	-5955
▁$10	-5956
ywood	-5957
▁Econom	-5958
▁storage	-5959
▁nearby	-5960
level	-5961
▁existence	-5962
▁Gra	-5963
duc	-5964
▁parliament	-5965
▁begins	-5966
burg	-5967
▁moves	-5968
▁scr	-5969
▁alt	-5970
▁creative	-5971
▁heads	-5972
▁mir	-5973
▁applied	-5974
▁behavi	-5975
irds	-5976
▁consumer	-5977
▁Ell	-5978
▁rising	-5979
▁DC	-5980
▁atmosp	-5981
▁articles	-5982
▁philosop	-5983
▁resident	-5984
▁totally	-5985
▁fill	-5986
▁square	-5987
▁Mic	-5988
▁discussed	-5989
▁manufacture	-5990
alty	-5991
▁currency	-5992
II	-5993
▁alcohol	-5994
▁contest	-5995
▁Fil	-5996
▁Asia	-5997
▁YouTube	-5998
fortunately	-5999
▁songs	-6000
▁lock	-6001
▁heavily	-6002
▁colleagues	-6003
▁island	-6004
▁Mot	-6005
▁sav	-6006
▁33	-6007
▁bright	-6008
▁Old	-6009
▁phen	-6010
▁Du	-6011
▁roughly	-6012
▁succeed	-6013
▁Women	-6014
▁younger	-6015
▁campus	-6016
▁warning	-6017
▁decre	-6018
----------------	-6019
▁vari	-6020
▁native	-6021
▁library	-6022
▁scored	-6023
▁fairly	-6024
▁classes	-6025
▁historical	-6026
born	-6027
▁withd	-6028
acle	-6029
▁classic	-6030
▁rally	-6031
▁Games	-6032
▁unlikely	-6033
▁networks	-6034
▁Charles	-6035
▁household	-6036
▁entered	-6037
▁boss	-6038
icious	-6039
▁Davis	-6040
abb	-6041
stood	-6042
▁enh	-6043
▁resc	-6044
▁targets	-6045
▁split	-6046
▁marketing	-6047
▁combination	-6048
rich	-6049
iques	-6050
mitted	-6051
▁manage	-6052
▁Die	-6053
usal	-6054
▁boys	-6055
▁prohib	-6056
ERS	-6057
▁Houston	-6058
▁Ins	-6059
▁anywhere	-6060
▁Van	-6061
andal	-6062
▁Kevin	-6063
▁replaced	-6064
▁Wild	-6065
▁symbol	-6066
▁regulations	-6067
▁Putin	-6068
▁deaths	-6069
▁bike	-6070
▁Arizona	-6071
▁temperature	-6072
▁entry	-6073
▁output	-6074
arden	-6075
▁Rights	-6076
▁correspond	-6077
▁stores	-6078
▁breaking	-6079
▁sem	-6080
▁consistent	-6081
▁Cy	-6082
oked	-6083
▁highlight	-6084
MA	-6085
▁Jews	-6086
▁buying	-6087
▁importance	-6088
▁essential	-6089
▁customer	-6090
PU	-6091
▁lie	-6092
▁bag	-6093
▁metal	-6094
greg	-6095
▁favour	-6096
▁Child	-6097
hetic	-6098
▁snow	-6099
▁illust	-6100
▁Cruz	-6101
▁plot	-6102
▁Stephen	-6103
▁somewhat	-6104
▁links	-6105
▁Tit	-6106
▁shif	-6107
▁button	-6108
▁Fig	-6109
ican	-6110
▁downt	-6111
▁doctors	-6112
OD	-6113
▁laugh	-6114
▁confront	-6115
▁schol	-6116
▁Defense	-6117
▁allegedly	-6118
▁blow	-6119
inem	-6120
▁fewer	-6121
▁Tay	-6122
▁Max	-6123
▁Pan	-6124
▁tow	-6125
▁(4	-6126
▁fraud	-6127
▁motion	-6128
▁functions	-6129
▁IP	-6130
▁vice	-6131
▁Way	-6132
▁hoping	-6133
cho	-6134
etroit	-6135
▁waste	-6136
▁Brad	-6137
▁nav	-6138
uzz	-6139
▁Energy	-6140
▁hardware	-6141
▁moments	-6142
▁bug	-6143
▁expression	-6144
▁sym	-6145
west	-6146
▁defined	-6147
▁chain	-6148
▁cere	-6149
▁string	-6150
▁adults	-6151
▁promise	-6152
▁sees	-6153
▁Cast	-6154
▁Java	-6155
▁facility	-6156
▁sick	-6157
edd	-6158
▁protests	-6159
SS	-6160
▁tom	-6161
ensus	-6162
▁zero	-6163
▁holds	-6164
▁rum	-6165
ician	-6166
onna	-6167
▁Stand	-6168
pan	-6169
▁Valley	-6170
ena	-6171
▁division	-6172
ulous	-6173
▁versions	-6174
LA	-6175
▁Jord	-6176
▁opposite	-6177
olve	-6178
▁Catholic	-6179
▁Palestinian	-6180
▁Ital	-6181
▁closely	-6182
:5	-6183
▁harder	-6184
▁Mat	-6185
▁Wat	-6186
▁input	-6187
▁2006	-6188
▁returns	-6189
▁intention	-6190
▁Arch	-6191
agan	-6192
▁Tal	-6193
▁Lord	-6194
▁embr	-6195
▁Bat	-6196
▁opponent	-6197
erves	-6198
▁grown	-6199
▁volunte	-6200
▁acknowled	-6201
▁immigrants	-6202
▁hat	-6203
▁hur	-6204
▁2015.	-6205
twitter	-6206
▁carrying	-6207
▁suffering	-6208
.[3	-6209
▁isol	-6210
▁Camer	-6211
▁relevant	-6212
▁acts	-6213
▁Daniel	-6214
▁fashion	-6215
▁signing	-6216
▁emotional	-6217
ads	-6218
ologist	-6219
/0	-6220
erry	-6221
▁flu	-6222
▁flat	-6223
▁industrial	-6224
▁Soviet	-6225
oma	-6226
nam	-6227
▁empt	-6228
▁artists	-6229
hips	-6230
utch	-6231
▁efficient	-6232
▁circumstances	-6233
▁tiny	-6234
▁kinds	-6235
▁CIA	-6236
game	-6237
▁2011,	-6238
gas	-6239
▁Py	-6240
▁34	-6241
zy	-6242
friend	-6243
▁excellent	-6244
ockey	-6245
▁formed	-6246
▁subsid	-6247
▁immediate	-6248
▁unus	-6249
▁2018	-6250
▁Real	-6251
▁cycle	-6252
▁controversial	-6253
▁earned	-6254
▁featured	-6255
va	-6256
▁NY	-6257
kel	-6258
▁tournament	-6259
▁updated	-6260
▁upcoming	-6261
▁Invest	-6262
▁sharing	-6263
▁ancient	-6264
efully	-6265
▁detailed	-6266
certain	-6267
▁newslet	-6268
chers	-6269
▁Miller	-6270
xy	-6271
▁describe	-6272
atell	-6273
▁guide	-6274
▁Jesus	-6275
▁pip	-6276
▁2016.	-6277
▁authors	-6278
▁NASA	-6279
▁Contin	-6280
iger	-6281
iami	-6282
power	-6283
▁attempted	-6284
chen	-6285
▁Fort	-6286
▁mine	-6287
▁regional	-6288
▁extent	-6289
nic	-6290
▁urban	-6291
ocket	-6292
▁alongside	-6293
▁wire	-6294
▁decline	-6295
▁instru	-6296
▁syn	-6297
▁pushing	-6298
▁Span	-6299
▁comfortable	-6300
bar	-6301
TS	-6302
▁Finally	-6303
▁schedule	-6304
▁acting	-6305
▁termin	-6306
▁Did	-6307
▁Class	-6308
style	-6309
▁owned	-6310
▁competitive	-6311
▁wave	-6312
mission	-6313
▁Dam	-6314
▁SC	-6315
▁Detroit	-6316
▁repeatedly	-6317
ellect	-6318
▁wins	-6319
▁trick	-6320
▁hotel	-6321
▁evolution	-6322
▁crazy	-6323
▁mechanism	-6324
▁opponents	-6325
▁participants	-6326
▁referred	-6327
▁frequently	-6328
ographic	-6329
▁egg	-6330
▁lies	-6331
▁relationships	-6332
▁agenda	-6333
dis	-6334
▁Love	-6335
▁cheap	-6336
▁fundamental	-6337
▁Wilson	-6338
▁reput	-6339
1)	-6340
hus	-6341
▁realized	-6342
▁serving	-6343
▁du	-6344
▁End	-6345
▁Wars	-6346
▁pregn	-6347
def	-6348
▁bon	-6349
rome	-6350
▁universe	-6351
▁strange	-6352
Get	-6353
ocratic	-6354
▁meat	-6355
▁causing	-6356
▁basket	-6357
awa	-6358
ora	-6359
▁mouth	-6360
IF	-6361
▁Land	-6362
▁bat	-6363
▁targeted	-6364
▁sister	-6365
▁cert	-6366
▁protected	-6367
▁suicide	-6368
anes	-6369
▁inspired	-6370
▁Check	-6371
▁femin	-6372
▁mainstream	-6373
▁overwhel	-6374
▁channel	-6375
▁chairman	-6376
uated	-6377
▁unemploy	-6378
▁struck	-6379
bel	-6380
iveness	-6381
▁battery	-6382
-6	-6383
uable	-6384
▁Brian	-6385
▁2014.	-6386
▁manner	-6387
▁commitment	-6388
▁surveillance	-6389
▁teachers	-6390
ati	-6391
▁studio	-6392
▁column	-6393
▁congress	-6394
rive	-6395
▁Ford	-6396
▁dedicated	-6397
aze	-6398
weight	-6399
▁walked	-6400
▁kit	-6401
▁medic	-6402
▁coffee	-6403
▁assets	-6404
ta	-6405
foot	-6406
▁surrounding	-6407
▁Jr	-6408
▁aside	-6409
▁watched	-6410
▁virtual	-6411
▁Click	-6412
▁orders	-6413
▁desk	-6414
▁Bas	-6415
▁Inf	-6416
▁pled	-6417
▁PS	-6418
▁crash	-6419
▁Dun	-6420
▁latter	-6421
▁intent	-6422
▁sentence	-6423
▁liqu	-6424
adel	-6425
▁rape	-6426
▁posts	-6427
New	-6428
▁Organ	-6429
▁tort	-6430
luding	-6431
ko	-6432
▁fasc	-6433
▁sand	-6434
▁Among	-6435
rison	-6436
▁Disney	-6437
▁approval	-6438
▁communication	-6439
▁Adam	-6440
▁1970	-6441
▁Italy	-6442
▁depth	-6443
▁sending	-6444
azi	-6445
str	-6446
▁Ep	-6447
woman	-6448
▁simpl	-6449
ua	-6450
gor	-6451
iments	-6452
▁Miami	-6453
▁usual	-6454
▁deeply	-6455
dit	-6456
FP	-6457
▁explore	-6458
▁narr	-6459
phy	-6460
▁blame	-6461
She	-6462
▁properties	-6463
▁alive	-6464
▁Dar	-6465
▁territory	-6466
▁knowing	-6467
▁Rog	-6468
▁wal	-6469
',	-6470
▁Win	-6471
allas	-6472
▁promised	-6473
▁stream	-6474
▁journey	-6475
▁Hollywood	-6476
ugh	-6477
▁reward	-6478
▁attacked	-6479
ii	-6480
gery	-6481
▁passion	-6482
edia	-6483
▁folks	-6484
boy	-6485
acking	-6486
umber	-6487
▁west	-6488
▁franchise	-6489
▁ring	-6490
▁Georgia	-6491
▁noticed	-6492
▁Kn	-6493
▁exciting	-6494
▁fixed	-6495
▁eating	-6496
▁hall	-6497
▁wake	-6498
iciency	-6499
▁literally	-6500
▁refugees	-6501
▁observ	-6502
lock	-6503
▁precise	-6504
▁wage	-6505
▁Water	-6506
▁defeat	-6507
▁welcome	-6508
▁Administ	-6509
▁risks	-6510
▁Jordan	-6511
▁Sk	-6512
comm	-6513
▁dealing	-6514
▁Light	-6515
▁sustain	-6516
sex	-6517
▁49	-6518
▁gap	-6519
otal	-6520
▁Dig	-6521
verty	-6522
print	-6523
▁promote	-6524
23	-6525
OC	-6526
▁properly	-6527
▁remote	-6528
▁protesters	-6529
▁retire	-6530
▁locations	-6531
rors	-6532
ceived	-6533
▁sky	-6534
▁Labor	-6535
▁unknown	-6536
▁48	-6537
▁winter	-6538
▁Bell	-6539
▁anyway	-6540
ORE	-6541
▁Irish	-6542
▁approximately	-6543
acc	-6544
▁(5	-6545
ingu	-6546
▁Turn	-6547
avor	-6548
▁abortion	-6549
▁volume	-6550
▁Spanish	-6551
▁sho	-6552
▁Unfortunately	-6553
ether	-6554
▁puts	-6555
▁Special	-6556
▁selection	-6557
abis	-6558
▁Gall	-6559
▁fees	-6560
All	-6561
▁Turk	-6562
▁poverty	-6563
▁requirements	-6564
rence	-6565
▁king	-6566
’.	-6567
▁Call	-6568
▁neut	-6569
▁Cam	-6570
▁Steven	-6571
▁observed	-6572
▁teacher	-6573
▁exhib	-6574
Con	-6575
▁height	-6576
▁skill	-6577
▁destroyed	-6578
▁dry	-6579
lv	-6580
▁tested	-6581
rations	-6582
▁chose	-6583
▁Night	-6584
▁extended	-6585
ulture	-6586
▁impressive	-6587
▁disag	-6588
▁deals	-6589
▁narrow	-6590
▁300	-6591
ixt	-6592
▁forth	-6593
▁Company	-6594
pool	-6595
▁Bru	-6596
sole	-6597
▁Ah	-6598
▁discover	-6599
▁conver	-6600
▁shel	-6601
▁193	-6602
itarian	-6603
ensity	-6604
▁phenomen	-6605
▁theme	-6606
▁mistake	-6607
▁topic	-6608
▁Conf	-6609
▁sweet	-6610
▁worried	-6611
▁38	-6612
▁terrorism	-6613
▁Gi	-6614
▁5.	-6615
▁critics	-6616
▁Moore	-6617
▁suddenly	-6618
▁requests	-6619
▁Victor	-6620
▁involving	-6621
▁assume	-6622
apse	-6623
▁east	-6624
▁OF	-6625
▁selected	-6626
▁gang	-6627
▁facilities	-6628
▁likes	-6629
▁typical	-6630
▁Ut	-6631
American	-6632
▁diagn	-6633
▁Test	-6634
▁Ret	-6635
▁Attorney	-6636
▁diet	-6637
onymous	-6638
▁proof	-6639
▁moder	-6640
▁37	-6641
anges	-6642
▁supports	-6643
inson	-6644
▁NHL	-6645
▁Josh	-6646
▁Jersey	-6647
GBT	-6648
raid	-6649
oming	-6650
▁pic	-6651
▁oblig	-6652
▁Lew	-6653
▁license	-6654
▁scheme	-6655
▁pal	-6656
▁Vis	-6657
▁matches	-6658
▁Key	-6659
▁Agency	-6660
Ar	-6661
axy	-6662
redit	-6663
▁Cat	-6664
owered	-6665
▁sample	-6666
▁Coll	-6667
▁allies	-6668
▁Society	-6669
▁Scotland	-6670
To	-6671
▁nomine	-6672
▁slowly	-6673
esc	-6674
ums	-6675
alle	-6676
▁merely	-6677
▁northern	-6678
▁5,	-6679
stone	-6680
▁2010,	-6681
fire	-6682
▁2005	-6683
ogan	-6684
▁Which	-6685
ayers	-6686
▁village	-6687
asks	-6688
▁equival	-6689
po	-6690
▁wid	-6691
28	-6692
▁communications	-6693
tle	-6694
▁adapt	-6695
▁recognize	-6696
▁Senator	-6697
DS	-6698
oration	-6699
ml	-6700
▁arguments	-6701
How	-6702
ocation	-6703
▁Hun	-6704
oster	-6705
▁NE	-6706
▁maximum	-6707
▁format	-6708
▁Minnes	-6709
▁ped	-6710
ipl	-6711
▁Dark	-6712
▁understood	-6713
▁bunch	-6714
▁Nations	-6715
▁dress	-6716
▁Nick	-6717
celer	-6718
▁condem	-6719
aser	-6720
▁personally	-6721
▁Never	-6722
▁honor	-6723
gender	-6724
rimination	-6725
▁encourage	-6726
oric	-6727
▁drag	-6728
▁Network	-6729
▁strongly	-6730
▁squad	-6731
▁MS	-6732
▁prote	-6733
▁transp	-6734
▁polls	-6735
▁Asian	-6736
aire	-6737
▁meetings	-6738
sters	-6739
▁Business	-6740
arn	-6741
▁AR	-6742
▁somehow	-6743
▁Review	-6744
aug	-6745
▁bench	-6746
▁exposed	-6747
▁obtained	-6748
ao	-6749
▁deck	-6750
▁somewhere	-6751
▁Cross	-6752
▁constant	-6753
▁comparison	-6754
▁rub	-6755
▁profit	-6756
▁controlled	-6757
▁southern	-6758
alo	-6759
▁75	-6760
▁punish	-6761
▁Care	-6762
▁flex	-6763
▁Such	-6764
▁journalists	-6765
cers	-6766
cow	-6767
▁bid	-6768
▁deleg	-6769
▁winner	-6770
▁cutting	-6771
▁Joseph	-6772
▁Fre	-6773
obile	-6774
▁regions	-6775
▁emissions	-6776
▁limits	-6777
▁Civil	-6778
▁harass	-6779
▁Sn	-6780
orted	-6781
▁sole	-6782
▁employee	-6783
▁desper	-6784
65	-6785
▁champion	-6786
▁bear	-6787
list	-6788
▁Foreign	-6789
▁Sea	-6790
asts	-6791
▁CD	-6792
▁NBC	-6793
owa	-6794
200	-6795
▁Educ	-6796
▁OS	-6797
regon	-6798
dro	-6799
▁goods	-6800
▁inqu	-6801
▁gotten	-6802
▁truck	-6803
▁phase	-6804
▁falling	-6805
iform	-6806
▁finds	-6807
arity	-6808
you	-6809
▁Dallas	-6810
pected	-6811
▁claiming	-6812
ciples	-6813
▁Source	-6814
sea	-6815
zens	-6816
essed	-6817
▁database	-6818
intend	-6819
enders	-6820
▁pod	-6821
onic	-6822
▁trees	-6823
▁Thus	-6824
▁officially	-6825
▁resistance	-6826
▁electricity	-6827
▁Come	-6828
▁ending	-6829
eping	-6830
▁Minnesota	-6831
pes	-6832
osis	-6833
ems	-6834
▁Academ	-6835
han	-6836
▁rival	-6837
].	-6838
▁seats	-6839
asters	-6840
▁ties	-6841
▁fifth	-6842
▁fighters	-6843
:4	-6844
▁decent	-6845
▁anx	-6846
▁Oper	-6847
▁ruled	-6848
▁driven	-6849
VER	-6850
wan	-6851
lls	-6852
▁stronger	-6853
▁comprom	-6854
▁amounts	-6855
▁Taylor	-6856
▁payments	-6857
ivery	-6858
igation	-6859
▁developer	-6860
▁definition	-6861
▁Spain	-6862
▁unw	-6863
▁vacc	-6864
▁Program	-6865
▁directed	-6866
▁threatened	-6867
▁hits	-6868
▁Has	-6869
▁Kelly	-6870
▁brew	-6871
▁escape	-6872
▁Services	-6873
▁chosen	-6874
▁icon	-6875
▁fuck	-6876
▁parking	-6877
irms	-6878
Al	-6879
name	-6880
▁Run	-6881
▁evil	-6882
NC	-6883
▁Hot	-6884
▁drawn	-6885
▁Indeed	-6886
▁regularly	-6887
▁retain	-6888
▁courts	-6889
vy	-6890
▁reasonable	-6891
▁extensive	-6892
%)	-6893
▁reveal	-6894
▁answers	-6895
isan	-6896
▁stretch	-6897
▁Tem	-6898
▁Tony	-6899
▁Championship	-6900
▁anymore	-6901
rett	-6902
iner	-6903
▁profile	-6904
▁rejected	-6905
▁Anth	-6906
▁spin	-6907
▁solutions	-6908
▁ideal	-6909
Cl	-6910
icken	-6911
▁actor	-6912
-10	-6913
▁purposes	-6914
▁ble	-6915
▁trading	-6916
▁Southern	-6917
izz	-6918
▁incl	-6919
▁upper	-6920
rary	-6921
▁primarily	-6922
▁thread	-6923
▁choices	-6924
▁Dead	-6925
▁empty	-6926
▁constantly	-6927
▁dogs	-6928
▁colon	-6929
▁Italian	-6930
owed	-6931
▁Ult	-6932
▁somebody	-6933
▁stim	-6934
▁engage	-6935
Pro	-6936
▁employment	-6937
▁DNA	-6938
▁intellect	-6939
▁fold	-6940
▁Orig	-6941
post	-6942
▁contributed	-6943
▁kil	-6944
▁soul	-6945
▁encoun	-6946
ura	-6947
▁incredible	-6948
▁perfectly	-6949
-7	-6950
▁Os	-6951
▁rig	-6952
▁McG	-6953
▁Following	-6954
▁worldwide	-6955
▁awesome	-6956
▁distinct	-6957
▁payment	-6958
▁contem	-6959
▁apartment	-6960
▁narrative	-6961
▁houses	-6962
2)	-6963
▁estimates	-6964
▁weird	-6965
."[	-6966
▁aspects	-6967
cr	-6968
▁captured	-6969
▁fields	-6970
▁demands	-6971
▁History	-6972
▁province	-6973
▁boot	-6974
▁elsewhere	-6975
▁crucial	-6976
▁bills	-6977
rehens	-6978
95	-6979
▁technologies	-6980
▁Food	-6981
▁Oregon	-6982
▁Have	-6983
▁incredibly	-6984
27	-6985
▁baseball	-6986
▁loan	-6987
100	-6988
▁signal	-6989
▁returning	-6990
▁dozen	-6991
▁Full	-6992
▁coalition	-6993
aland	-6994
ali	-6995
▁Major	-6996
▁Sever	-6997
fast	-6998
▁Bowl	-6999
▁controls	-7000
▁unp	-7001
26	-7002
▁nobody	-7003
▁mixed	-7004
▁rus	-7005
▁founder	-7006
ilarly	-7007
▁Jason	-7008
▁clients	-7009
▁components	-7010
icer	-7011
▁resulting	-7012
▁assistant	-7013
▁Id	-7014
ship	-7015
inations	-7016
▁Constitution	-7017
▁flying	-7018
##	-7019
▁Make	-7020
▁Roman	-7021
▁situations	-7022
▁Foot	-7023
agram	-7024
▁roster	-7025
▁innoc	-7026
▁drinking	-7027
iscal	-7028
▁feedback	-7029
▁constit	-7030
UR	-7031
▁sight	-7032
▁registered	-7033
▁6,	-7034
▁mayor	-7035
],	-7036
▁informed	-7037
▁Pay	-7038
▁Rick	-7039
▁keeps	-7040
imp	-7041
▁excess	-7042
▁Nation	-7043
lder	-7044
▁reporter	-7045
▁programming	-7046
▁conven	-7047
▁Parliament	-7048
▁enemies	-7049
▁param	-7050
▁exists	-7051
▁Saf	-7052
Our	-7053
▁organized	-7054
▁compens	-7055
▁letters	-7056
▁stead	-7057
otes	-7058
emen	-7059
▁enthus	-7060
▁Start	-7061
rates	-7062
▁tank	-7063
▁Greg	-7064
rage	-7065
▁Global	-7066
iana	-7067
▁IT	-7068
mont	-7069
▁ticket	-7070
▁continuing	-7071
▁outcome	-7072
▁Lo	-7073
otten	-7074
oil	-7075
▁penalty	-7076
▁generate	-7077
▁chances	-7078
▁($	-7079
▁paint	-7080
▁tied	-7081
▁concluded	-7082
lights	-7083
▁complaint	-7084
▁Balt	-7085
▁angry	-7086
▁murd	-7087
adelph	-7088
acked	-7089
▁Henry	-7090
▁proved	-7091
▁accurate	-7092
era	-7093
Bl	-7094
▁raising	-7095
▁atmosphere	-7096
▁Ray	-7097
ras	-7098
▁manip	-7099
........	-7100
▁aggressive	-7101
earing	-7102
▁aimed	-7103
▁shares	-7104
anchester	-7105
▁terrible	-7106
▁bitcoin	-7107
▁recovery	-7108
▁dollar	-7109
▁techniques	-7110
▁veteran	-7111
▁stuck	-7112
▁FC	-7113
▁Live	-7114
▁granted	-7115
▁writers	-7116
▁newly	-7117
▁category	-7118
onsin	-7119
lers	-7120
▁tall	-7121
there	-7122
▁machines	-7123
▁routine	-7124
star	-7125
▁lawmakers	-7126
▁titles	-7127
isconsin	-7128
▁Moscow	-7129
▁gro	-7130
▁LGBT	-7131
▁infect	-7132
▁je	-7133
hent	-7134
▁Hom	-7135
▁conspir	-7136
38	-7137
▁(200	-7138
▁explanation	-7139
tes	-7140
adelphia	-7141
▁lawyers	-7142
▁estate	-7143
▁gaming	-7144
▁Pacific	-7145
▁anticip	-7146
actions	-7147
chain	-7148
▁nut	-7149
inity	-7150
▁conclusion	-7151
▁pilot	-7152
▁county	-7153
apes	-7154
▁complicated	-7155
sell	-7156
▁engaged	-7157
▁Viet	-7158
▁Mu	-7159
inding	-7160
▁audio	-7161
▁imper	-7162
ez	-7163
▁Linux	-7164
▁magic	-7165
▁myth	-7166
▁Alab	-7167
ifications	-7168
▁capture	-7169
▁represented	-7170
▁Judge	-7171
▁2013.	-7172
▁satell	-7173
▁Jac	-7174
gorith	-7175
▁successfully	-7176
▁therap	-7177
uan	-7178
▁ads	-7179
▁automatically	-7180
ifer	-7181
▁consumption	-7182
▁Bull	-7183
▁scenes	-7184
▁Data	-7185
▁Does	-7186
▁Ger	-7187
▁plastic	-7188
On	-7189
▁Kurd	-7190
▁worker	-7191
▁habit	-7192
itar	-7193
itals	-7194
▁afraid	-7195
.00	-7196
▁assistance	-7197
▁reputation	-7198
▁solve	-7199
▁permanent	-7200
sm	-7201
▁attended	-7202
elect	-7203
▁entit	-7204
▁Iowa	-7205
▁taught	-7206
▁vulnerable	-7207
▁Development	-7208
▁Ash	-7209
▁rating	-7210
▁operate	-7211
▁downtown	-7212
▁ru	-7213
▁Kent	-7214
▁Video	-7215
anny	-7216
ima	-7217
▁advis	-7218
▁phr	-7219
▁monit	-7220
ba	-7221
▁recording	-7222
▁Policy	-7223
▁sympt	-7224
▁phones	-7225
▁root	-7226
▁degrees	-7227
▁crypt	-7228
▁inspir	-7229
bal	-7230
▁championship	-7231
▁western	-7232
ye	-7233
▁Using	-7234
▁surgery	-7235
aron	-7236
▁Nob	-7237
rete	-7238
▁accomp	-7239
▁warming	-7240
▁Wisconsin	-7241
▁$6	-7242
▁Manchester	-7243
▁’	-7244
▁Philadelphia	-7245
▁fake	-7246
▁Report	-7247
▁Greek	-7248
▁teaching	-7249
▁Rand	-7250
▁150	-7251
▁Bry	-7252
▁blocks	-7253
▁Hor	-7254
HS	-7255
▁Through	-7256
▁comic	-7257
▁Snow	-7258
▁uncertain	-7259
▁academic	-7260
▁Coast	-7261
▁installed	-7262
▁pin	-7263
▁Eastern	-7264
▁mainly	-7265
▁extrem	-7266
▁Oak	-7267
An	-7268
▁survive	-7269
▁passes	-7270
▁regardless	-7271
ker	-7272
▁conscious	-7273
▁disaster	-7274
▁Northern	-7275
▁overse	-7276
▁bom	-7277
month	-7278
▁enable	-7279
▁privile	-7280
▁bes	-7281
▁pace	-7282
▁elite	-7283
mod	-7284
▁iron	-7285
▁troub	-7286
▁racial	-7287
▁Series	-7288
aed	-7289
rific	-7290
▁visited	-7291
▁Mid	-7292
▁valuable	-7293
idency	-7294
▁taste	-7295
car	-7296
▁equivalent	-7297
▁44	-7298
▁Fund	-7299
▁tracks	-7300
▁pounds	-7301
▁negotiations	-7302
▁Det	-7303
▁dict	-7304
▁enjoyed	-7305
inder	-7306
▁cable	-7307
▁principles	-7308
CE	-7309
▁duty	-7310
uine	-7311
▁Avenue	-7312
▁Alabama	-7313
▁emerged	-7314
▁resulted	-7315
▁7,	-7316
▁stations	-7317
▁cup	-7318
▁Moh	-7319
▁marked	-7320
rypt	-7321
▁generated	-7322
▁coordin	-7323
▁depending	-7324
cus	-7325
▁contracts	-7326
▁Harry	-7327
▁extract	-7328
rating	-7329
LC	-7330
▁index	-7331
lan	-7332
▁defence	-7333
▁elev	-7334
▁AS	-7335
▁portion	-7336
▁Hard	-7337
▁cited	-7338
▁sufficient	-7339
▁Mayor	-7340
▁hadn	-7341
▁apolog	-7342
▁Fred	-7343
▁personnel	-7344
▁grant	-7345
▁intense	-7346
Un	-7347
29	-7348
aun	-7349
▁Kir	-7350
▁prominent	-7351
▁hidden	-7352
▁rarely	-7353
▁unusual	-7354
▁ok	-7355
prise	-7356
▁browser	-7357
▁Without	-7358
▁possession	-7359
▁cameras	-7360
▁spr	-7361
▁collected	-7362
quarters	-7363
▁minority	-7364
’,	-7365
Donald	-7366
antic	-7367
▁funny	-7368
iro	-7369
▁Use	-7370
▁sanctions	-7371
▁thin	-7372
▁describes	-7373
▁busy	-7374
▁Professor	-7375
ashes	-7376
▁Zealand	-7377
▁firms	-7378
▁extension	-7379
%.	-7380
etary	-7381
ibilities	-7382
▁gall	-7383
37	-7384
gun	-7385
▁2004	-7386
At	-7387
▁taxp	-7388
▁processes	-7389
▁Several	-7390
fall	-7391
▁corruption	-7392
fr	-7393
▁10,	-7394
▁1,000	-7395
▁55	-7396
▁tag	-7397
▁recru	-7398
upid	-7399
▁Premier	-7400
cles	-7401
bro	-7402
▁Turkish	-7403
aturally	-7404
ules	-7405
ria	-7406
▁shortly	-7407
▁advertising	-7408
▁OK	-7409
▁Ros	-7410
rently	-7411
▁medium	-7412
▁expectations	-7413
▁compete	-7414
▁$7	-7415
▁ESP	-7416
▁brut	-7417
▁Point	-7418
MP	-7419
▁Sometimes	-7420
▁veget	-7421
▁permission	-7422
▁List	-7423
world	-7424
▁Given	-7425
▁adopted	-7426
▁priority	-7427
▁Arm	-7428
▁sharp	-7429
▁Atlanta	-7430
▁Build	-7431
writ	-7432
ikes	-7433
▁engineering	-7434
▁Hit	-7435
▁fought	-7436
▁64	-7437
▁finance	-7438
▁feelings	-7439
▁Navy	-7440
Photo	-7441
▁ven	-7442
▁Fair	-7443
ilton	-7444
▁2012.	-7445
▁inev	-7446
▁propag	-7447
▁sup	-7448
▁cyber	-7449
▁mail	-7450
scape	-7451
idelines	-7452
▁Reuters	-7453
85	-7454
▁strict	-7455
▁scenario	-7456
▁explicit	-7457
▁ridic	-7458
▁Education	-7459
▁enorm	-7460
▁discipl	-7461
▁basketball	-7462
▁Royal	-7463
athy	-7464
▁losses	-7465
▁Hay	-7466
▁Season	-7467
▁SP	-7468
ogether	-7469
▁Little	-7470
▁tur	-7471
rep	-7472
▁historic	-7473
▁NC	-7474
ni	-7475
istent	-7476
front	-7477
▁participate	-7478
da	-7479
▁mel	-7480
▁blind	-7481
▁fee	-7482
▁lights	-7483
viously	-7484
▁Sir	-7485
▁recip	-7486
aska	-7487
▁Link	-7488
▁laid	-7489
▁Market	-7490
▁acceler	-7491
▁exposure	-7492
34	-7493
▁bridge	-7494
orough	-7495
▁Amendment	-7496
▁ho	-7497
▁Scient	-7498
▁plug	-7499
▁Lind	-7500
weet	-7501
icate	-7502
▁CH	-7503
▁clubs	-7504
▁footage	-7505
▁Mir	-7506
▁Music	-7507
▁affili	-7508
▁Independ	-7509
▁Pen	-7510
eland	-7511
▁obst	-7512
▁episodes	-7513
▁thick	-7514
▁Gov	-7515
▁implementation	-7516
▁saved	-7517
▁wing	-7518
▁dim	-7519
mann	-7520
▁stab	-7521
▁airport	-7522
profit	-7523
htt	-7524
▁uncom	-7525
▁computers	-7526
▁everywhere	-7527
▁creates	-7528
▁ju	-7529
▁algorith	-7530
wr	-7531
▁Nic	-7532
▁patterns	-7533
▁counsel	-7534
rell	-7535
▁Luc	-7536
▁Rose	-7537
▁behalf	-7538
▁agric	-7539
▁strikes	-7540
▁dozens	-7541
umer	-7542
athered	-7543
▁photograph	-7544
▁fault	-7545
making	-7546
▁component	-7547
▁Stat	-7548
▁headed	-7549
▁Es	-7550
pread	-7551
mal	-7552
▁Ont	-7553
▁Pack	-7554
▁loud	-7555
▁65	-7556
▁stadium	-7557
ifies	-7558
▁wonderful	-7559
▁stun	-7560
▁stable	-7561
▁Ren	-7562
▁shock	-7563
▁banned	-7564
▁Administration	-7565
▁yield	-7566
▁2009,	-7567
▁McCain	-7568
▁visible	-7569
asion	-7570
found	-7571
▁tor	-7572
▁1960	-7573
izon	-7574
▁rely	-7575
▁Head	-7576
▁founded	-7577
▁%	-7578
olt	-7579
▁thousand	-7580
Oh	-7581
igg	-7582
▁genuine	-7583
▁Information	-7584
▁cycl	-7585
▁edition	-7586
▁uniform	-7587
▁profession	-7588
rative	-7589
▁VR	-7590
▁scoring	-7591
▁UFC	-7592
ilipp	-7593
-9	-7594
▁spark	-7595
xic	-7596
▁Rus	-7597
▁Kingdom	-7598
orne	-7599
▁toler	-7600
▁establishment	-7601
▁Bernie	-7602
▁pump	-7603
active	-7604
azz	-7605
▁principle	-7606
▁struggling	-7607
▁39	-7608
▁Conference	-7609
▁8,	-7610
▁ABC	-7611
▁Matthew	-7612
▁gained	-7613
▁formal	-7614
arsh	-7615
▁recognized	-7616
▁Cre	-7617
umin	-7618
▁Patrick	-7619
▁Diego	-7620
esy	-7621
▁journalist	-7622
imore	-7623
▁Whether	-7624
86	-7625
osexual	-7626
▁interface	-7627
▁Ice	-7628
▁borrow	-7629
▁cannabis	-7630
▁manufacturing	-7631
mate	-7632
▁backed	-7633
▁Radio	-7634
olis	-7635
oured	-7636
▁deliber	-7637
inking	-7638
bell	-7639
▁tackle	-7640
▁foundation	-7641
▁Medical	-7642
▁Circ	-7643
▁producer	-7644
▁relief	-7645
▁exception	-7646
▁Academy	-7647
▁Email	-7648
▁liked	-7649
MS	-7650
50,000	-7651
▁barely	-7652
▁interviews	-7653
▁Ext	-7654
▁Sat	-7655
amber	-7656
▁achieved	-7657
ounced	-7658
▁Related	-7659
▁Earlier	-7660
idespread	-7661
▁drawing	-7662
▁languages	-7663
▁crop	-7664
▁Ly	-7665
/11	-7666
▁philosophy	-7667
oen	-7668
▁cha	-7669
▁Centre	-7670
etts	-7671
lete	-7672
▁arrange	-7673
▁neutral	-7674
etime	-7675
▁gift	-7676
▁Field	-7677
aus	-7678
ded	-7679
▁SH	-7680
▁magn	-7681
rators	-7682
▁Anthony	-7683
▁plate	-7684
▁flaw	-7685
log	-7686
▁river	-7687
▁Cook	-7688
▁destruction	-7689
who	-7690
▁Former	-7691
▁Conservative	-7692
▁neighb	-7693
36	-7694
sylv	-7695
▁Fed	-7696
▁Cameron	-7697
▁NAT	-7698
21	-7699
▁hang	-7700
▁wheel	-7701
▁Hell	-7702
burgh	-7703
▁beliefs	-7704
core	-7705
▁legend	-7706
▁convin	-7707
▁hole	-7708
▁www	-7709
ATE	-7710
▁retired	-7711
▁Kansas	-7712
interest	-7713
▁entering	-7714
▁Mah	-7715
▁Kat	-7716
abs	-7717
▁ships	-7718
aching	-7719
▁indicate	-7720
ogen	-7721
▁Christians	-7722
▁WH	-7723
teen	-7724
3)	-7725
▁Community	-7726
▁doors	-7727
▁hired	-7728
▁movements	-7729
▁delivery	-7730
ked	-7731
▁challenging	-7732
▁Jay	-7733
▁2008,	-7734
▁nominee	-7735
▁bath	-7736
▁11,	-7737
/1	-7738
▁withdraw	-7739
▁discrimination	-7740
ami	-7741
▁ren	-7742
▁CO	-7743
eman	-7744
▁reviews	-7745
text	-7746
▁farmers	-7747
uer	-7748
▁Tenn	-7749
▁Battle	-7750
abinet	-7751
EA	-7752
igen	-7753
▁roles	-7754
▁aver	-7755
ologists	-7756
▁incent	-7757
she	-7758
enth	-7759
▁proven	-7760
imm	-7761
▁smooth	-7762
▁structures	-7763
▁Brew	-7764
▁(0	-7765
▁Set	-7766
iti	-7767
▁upset	-7768
▁2017.	-7769
▁flash	-7770
▁containing	-7771
▁finger	-7772
away	-7773
▁Walker	-7774
▁synt	-7775
lessly	-7776
▁hitting	-7777
ystem	-7778
▁Pennsylv	-7779
▁processing	-7780
▁bra	-7781
ulating	-7782
portion	-7783
▁convicted	-7784
▁Tri	-7785
▁walls	-7786
▁Pot	-7787
▁dinner	-7788
________________	-7789
▁restrictions	-7790
▁ham	-7791
▁Action	-7792
rous	-7793
▁gonna	-7794
uce	-7795
olen	-7796
▁exclusive	-7797
▁forever	-7798
▁producing	-7799
77	-7800
▁UC	-7801
▁Having	-7802
riers	-7803
▁electronic	-7804
▁ESPN	-7805
TH	-7806
▁websites	-7807
▁Ale	-7808
iel	-7809
▁loyal	-7810
Ex	-7811
▁asks	-7812
amsung	-7813
▁notion	-7814
▁technique	-7815
▁Person	-7816
this	-7817
▁Environment	-7818
▁corporations	-7819
▁unemployment	-7820
▁description	-7821
▁suggesting	-7822
rik	-7823
▁hide	-7824
▁begun	-7825
▁reduction	-7826
▁Ball	-7827
▁bail	-7828
▁NSA	-7829
▁ocean	-7830
▁unex	-7831
▁contained	-7832
%,	-7833
▁branch	-7834
▁Austin	-7835
▁contribute	-7836
▁robot	-7837
▁Ra	-7838
▁Division	-7839
yard	-7840
▁Anton	-7841
▁util	-7842
▁friendly	-7843
▁Pennsylvania	-7844
▁Family	-7845
▁0.0	-7846
▁Town	-7847
▁CBS	-7848
usive	-7849
▁scream	-7850
▁recognition	-7851
▁Pop	-7852
▁rose	-7853
▁widespread	-7854
ca	-7855
▁SS	-7856
▁Latin	-7857
▁Albert	-7858
ouver	-7859
arrass	-7860
ferences	-7861
▁racist	-7862
▁recover	-7863
▁normally	-7864
▁overwhelming	-7865
▁Ap	-7866
sa	-7867
▁rapidly	-7868
▁grass	-7869
One	-7870
▁Beach	-7871
▁Core	-7872
achus	-7873
obs	-7874
▁perpet	-7875
▁fiscal	-7876
▁featuring	-7877
then	-7878
▁Ministry	-7879
▁investigate	-7880
engers	-7881
BO	-7882
UL	-7883
▁intellectual	-7884
ho	-7885
▁indicated	-7886
▁Ross	-7887
▁prepare	-7888
▁joining	-7889
▁Philipp	-7890
RS	-7891
▁convinced	-7892
88	-7893
cription	-7894
▁Allen	-7895
▁external	-7896
ja	-7897
▁equally	-7898
▁viewers	-7899
▁reducing	-7900
▁campaigns	-7901
▁independence	-7902
Be	-7903
▁progressive	-7904
▁Adv	-7905
▁deputy	-7906
appy	-7907
▁collapse	-7908
▁illness	-7909
▁Pass	-7910
▁welf	-7911
ione	-7912
▁elig	-7913
▁complaints	-7914
▁menu	-7915
▁Greece	-7916
▁anger	-7917
pload	-7918
▁carefully	-7919
▁terrorists	-7920
▁initiative	-7921
bn	-7922
▁reaching	-7923
▁Arabia	-7924
▁Xbox	-7925
▁Stone	-7926
▁practical	-7927
▁Square	-7928
▁sugar	-7929
▁respectively	-7930
nedy	-7931
▁listening	-7932
▁representative	-7933
bec	-7934
▁thrown	-7935
▁Brother	-7936
▁tickets	-7937
▁devast	-7938
▁ON	-7939
▁Anderson	-7940
▁lobby	-7941
Man	-7942
▁welfare	-7943
▁Golden	-7944
▁touchdown	-7945
▁failing	-7946
uma	-7947
▁strategic	-7948
▁smoke	-7949
))	-7950
▁ethnic	-7951
▁association	-7952
adi	-7953
▁Roy	-7954
uties	-7955
▁settlement	-7956
▁Baltimore	-7957
ancouver	-7958
Getty	-7959
▁Keep	-7960
▁exceed	-7961
▁Samsung	-7962
enny	-7963
usted	-7964
▁hook	-7965
veland	-7966
▁Santa	-7967
▁fantasy	-7968
▁lists	-7969
▁Freedom	-7970
▁framework	-7971
igrant	-7972
▁invent	-7973
▁rural	-7974
▁mo	-7975
▁MORE	-7976
▁remarks	-7977
▁9,	-7978
▁discussions	-7979
▁Connect	-7980
▁scholars	-7981
▁hardly	-7982
▁involvement	-7983
▁tail	-7984
▁Bon	-7985
PG	-7986
▁(6	-7987
▁unclear	-7988
page	-7989
▁temporary	-7990
owing	-7991
achusetts	-7992
▁HD	-7993
▁Cost	-7994
▁screens	-7995
▁improvements	-7996
▁III	-7997
udes	-7998
rical	-7999
iversary	-8000
▁scandal	-8001
▁citizen	-8002
▁invited	-8003
▁Later	-8004
▁Museum	-8005
▁captain	-8006
een	-8007
rient	-8008
▁Spring	-8009
worth	-8010
▁Pent	-8011
▁remem	-8012
thon	-8013
▁frag	-8014
▁sensitive	-8015
▁behaviour	-8016
▁luck	-8017
▁Plus	-8018
rolled	-8019
▁roads	-8020
▁Howard	-8021
▁shit	-8022
▁discovery	-8023
▁WW	-8024
▁42	-8025
▁wars	-8026
▁disagree	-8027
▁wages	-8028
anna	-8029
▁Queen	-8030
▁connections	-8031
▁Gun	-8032
▁6.	-8033
▁Aud	-8034
▁400	-8035
▁wine	-8036
▁platforms	-8037
icket	-8038
▁Guardian	-8039
allel	-8040
▁Ho	-8041
▁jury	-8042
▁API	-8043
tering	-8044
▁deeper	-8045
▁licens	-8046
▁alien	-8047
sels	-8048
▁comprehens	-8049
▁Columbia	-8050
▁inject	-8051
▁spaces	-8052
Pe	-8053
▁Sony	-8054
▁serves	-8055
▁Was	-8056
heast	-8057
▁Liver	-8058
▁minds	-8059
ources	-8060
▁cos	-8061
unior	-8062
▁civilians	-8063
▁vary	-8064
.[4	-8065
osit	-8066
fare	-8067
▁constitutional	-8068
▁controversy	-8069
▁heading	-8070
▁Update	-8071
▁Chair	-8072
▁transgender	-8073
rator	-8074
umes	-8075
▁Dave	-8076
▁vital	-8077
▁Broad	-8078
▁overt	-8079
▁NOT	-8080
▁gathered	-8081
▁Massachusetts	-8082
▁AND	-8083
▁referring	-8084
▁collective	-8085
gener	-8086
lad	-8087
▁Prov	-8088
▁2017,	-8089
ifest	-8090
▁Dev	-8091
▁define	-8092
▁Kennedy	-8093
▁trained	-8094
▁->	-8095
▁theat	-8096
jo	-8097
▁Bad	-8098
▁Six	-8099
▁accus	-8100
▁Death	-8101
▁Main	-8102
▁visitors	-8103
▁Tro	-8104
ecut	-8105
▁handful	-8106
wo	-8107
▁neighbour	-8108
▁regulation	-8109
▁Harris	-8110
▁Copy	-8111
yer	-8112
PM	-8113
senal	-8114
▁democratic	-8115
▁statistics	-8116
▁milk	-8117
▁array	-8118
▁fears	-8119
▁fiction	-8120
▁dynamic	-8121
▁Lim	-8122
▁attacking	-8123
▁incorpor	-8124
▁47	-8125
▁expanded	-8126
▁Vancouver	-8127
▁€	-8128
▁ownership	-8129
▁scores	-8130
▁anybody	-8131
phones	-8132
▁stupid	-8133
▁suffer	-8134
▁trem	-8135
▁attempting	-8136
▁tone	-8137
▁~	-8138
▁awareness	-8139
▁salary	-8140
▁recommended	-8141
aka	-8142
ouch	-8143
aning	-8144
▁ignore	-8145
▁Sus	-8146
▁Chel	-8147
▁tweeted	-8148
angel	-8149
▁legs	-8150
▁Vegas	-8151
▁tip	-8152
▁Lewis	-8153
▁testim	-8154
hour	-8155
▁sin	-8156
▁Pitt	-8157
▁gear	-8158
icking	-8159
▁raw	-8160
▁actors	-8161
▁displ	-8162
oding	-8163
▁peak	-8164
▁Iranian	-8165
▁ultimate	-8166
▁reven	-8167
itionally	-8168
▁purchased	-8169
▁tasks	-8170
▁races	-8171
▁register	-8172
▁resource	-8173
▁noise	-8174
▁grounds	-8175
▁Yeah	-8176
▁implemented	-8177
▁versus	-8178
▁Exper	-8179
▁Ott	-8180
agg	-8181
from	-8182
lah	-8183
▁46	-8184
▁190	-8185
▁providers	-8186
▁subjects	-8187
▁prosec	-8188
iry	-8189
▁improvement	-8190
▁admit	-8191
▁resign	-8192
▁publication	-8193
▁Ba	-8194
▁attached	-8195
dem	-8196
▁holiday	-8197
▁referend	-8198
ictions	-8199
▁Stadium	-8200
▁recall	-8201
▁2003	-8202
arry	-8203
▁investigators	-8204
▁logic	-8205
▁settings	-8206
▁cro	-8207
▁Control	-8208
▁extend	-8209
▁tomorrow	-8210
▁ranked	-8211
▁Cleveland	-8212
▁fab	-8213
▁Po	-8214
▁suspected	-8215
▁intervention	-8216
▁layer	-8217
▁jur	-8218
cience	-8219
aret	-8220
▁Fall	-8221
▁iP	-8222
▁symptoms	-8223
▁Below	-8224
inois	-8225
▁sorry	-8226
▁celeb	-8227
▁enormous	-8228
▁Hop	-8229
▁depends	-8230
▁embarrass	-8231
Script	-8232
uros	-8233
▁porn	-8234
including	-8235
▁samples	-8236
▁Design	-8237
▁estimate	-8238
stract	-8239
iy	-8240
▁1:	-8241
▁eastern	-8242
▁entertainment	-8243
▁affairs	-8244
▁Form	-8245
▁guest	-8246
▁factory	-8247
▁authent	-8248
PC	-8249
▁liquid	-8250
▁soph	-8251
▁legitimate	-8252
▁viewed	-8253
▁advocates	-8254
Every	-8255
▁amid	-8256
▁Price	-8257
▁Hon	-8258
▁iOS	-8259
▁seemingly	-8260
▁reprodu	-8261
▁inflation	-8262
▁LA	-8263
▁Sure	-8264
intendo	-8265
isp	-8266
▁Lyn	-8267
▁casual	-8268
▁Low	-8269
▁horse	-8270
▁Hospital	-8271
ommod	-8272
aying	-8273
▁Expl	-8274
▁loans	-8275
RC	-8276
▁Credit	-8277
▁bureau	-8278
▁brothers	-8279
▁15,	-8280
▁investigating	-8281
▁coaches	-8282
▁activist	-8283
▁dramatic	-8284
dri	-8285
▁rhet	-8286
▁neck	-8287
▁outs	-8288
▁petition	-8289
▁poly	-8290
▁transportation	-8291
▁Gaza	-8292
▁Bang	-8293
▁offices	-8294
</	-8295
esh	-8296
▁Iraqi	-8297
EE	-8298
▁warrant	-8299
▁substantial	-8300
oval	-8301
▁Jam	-8302
acon	-8303
▁Age	-8304
▁conversations	-8305
With	-8306
▁10.	-8307
▁opinions	-8308
cific	-8309
▁20,	-8310
▁suspended	-8311
amac	-8312
▁humanity	-8313
▁chapter	-8314
▁fallen	-8315
▁forest	-8316
▁entr	-8317
▁conspiracy	-8318
▁ingred	-8319
▁?	-8320
▁Las	-8321
▁covers	-8322
▁throwing	-8323
▁Unlike	-8324
▁Prince	-8325
▁Budd	-8326
▁bars	-8327
inch	-8328
▁steel	-8329
▁hypot	-8330
▁Engine	-8331
▁genetic	-8332
pat	-8333
▁monitor	-8334
39	-8335
▁brill	-8336
cover	-8337
▁diversity	-8338
case	-8339
▁rook	-8340
▁addressed	-8341
flix	-8342
▁reads	-8343
▁medicine	-8344
▁overs	-8345
▁presum	-8346
bi	-8347
▁stayed	-8348
▁careful	-8349
ective	-8350
▁Line	-8351
▁gam	-8352
▁Mill	-8353
arms	-8354
▁foss	-8355
mary	-8356
▁Revolution	-8357
repre	-8358
▁consistently	-8359
▁shr	-8360
maker	-8361
▁colors	-8362
▁stake	-8363
▁mountain	-8364
▁virtually	-8365
▁Ha	-8366
ultural	-8367
▁Five	-8368
▁Short	-8369
xit	-8370
▁Justin	-8371
▁12,	-8372
▁papers	-8373
▁Tour	-8374
▁Ast	-8375
▁Creat	-8376
mo	-8377
▁noting	-8378
iability	-8379
▁Marvel	-8380
▁preced	-8381
▁coc	-8382
▁profits	-8383
▁missile	-8384
▁Buff	-8385
'.	-8386
▁”	-8387
reprene	-8388
▁absence	-8389
▁disrupt	-8390
▁Unt	-8391
▁comedy	-8392
▁encouraged	-8393
▁Sel	-8394
▁7.	-8395
vard	-8396
▁Prop	-8397
▁involves	-8398
wered	-8399
▁fulf	-8400
▁drew	-8401
▁rational	-8402
ref	-8403
▁ballot	-8404
EST	-8405
▁Football	-8406
▁Illinois	-8407
▁Getty	-8408
▁Indiana	-8409
ivals	-8410
▁mad	-8411
▁Norm	-8412
▁dance	-8413
▁Ontario	-8414
claim	-8415
▁spoken	-8416
▁insist	-8417
▁surf	-8418
▁accommod	-8419
▁Intelligence	-8420
iences	-8421
▁handed	-8422
▁clothes	-8423
▁Event	-8424
otype	-8425
amacare	-8426
▁mining	-8427
▁lowest	-8428
▁boat	-8429
geon	-8430
▁fantastic	-8431
▁Abb	-8432
▁incidents	-8433
AG	-8434
!)	-8435
————	-8436
▁Marsh	-8437
▁Denver	-8438
")	-8439
▁brown	-8440
▁gains	-8441
▁Patri	-8442
▁lands	-8443
▁handling	-8444
▁personality	-8445
▁bacter	-8446
ammed	-8447
▁NATO	-8448
▁Liverpool	-8449
dy	-8450
▁closing	-8451
▁princip	-8452
▁km	-8453
▁fruit	-8454
▁silver	-8455
▁reader	-8456
rets	-8457
plete	-8458
▁Portland	-8459
RI	-8460
▁Moon	-8461
▁guarantee	-8462
ijing	-8463
▁mos	-8464
cut	-8465
plate	-8466
▁Sarah	-8467
▁swing	-8468
▁Trib	-8469
▁contributions	-8470
ordon	-8471
▁astron	-8472
▁attitude	-8473
unicip	-8474
▁protecting	-8475
▁tries	-8476
▁protocol	-8477
EG	-8478
▁voter	-8479
▁innovation	-8480
▁Alexander	-8481
itage	-8482
▁hint	-8483
▁judges	-8484
CS	-8485
▁horror	-8486
FF	-8487
▁43	-8488
▁inner	-8489
▁premium	-8490
▁2001	-8491
▁chat	-8492
▁appreciate	-8493
▁Common	-8494
▁ranks	-8495
▁checks	-8496
▁spokesperson	-8497
▁Nintendo	-8498
itter	-8499
▁Ur	-8500
▁conce	-8501
aval	-8502
hot	-8503
▁41	-8504
▁promises	-8505
▁locked	-8506
▁replacement	-8507
▁Mexican	-8508
▁distributed	-8509
zed	-8510
▁mic	-8511
▁Associated	-8512
▁drama	-8513
▁console	-8514
▁marks	-8515
ropri	-8516
▁revel	-8517
▁referendum	-8518
▁tea	-8519
▁commonly	-8520
▁lucky	-8521
ille	-8522
▁Final	-8523
▁speaks	-8524
▁shout	-8525
keep	-8526
▁mistakes	-8527
▁midfield	-8528
▁portray	-8529
▁Mrs	-8530
unes	-8531
▁improving	-8532
▁covering	-8533
▁cogn	-8534
▁legacy	-8535
▁Jonathan	-8536
▁photograp	-8537
Not	-8538
▁homeless	-8539
▁maps	-8540
▁Ten	-8541
▁shoulder	-8542
▁Utah	-8543
▁musical	-8544
backs	-8545
▁efficiency	-8546
▁Master	-8547
▁ec	-8548
raph	-8549
▁Code	-8550
▁Deb	-8551
▁Ruby	-8552
These	-8553
▁Non	-8554
▁Hind	-8555
▁cust	-8556
▁wrest	-8557
▁soil	-8558
▁Eag	-8559
▁Tes	-8560
▁dump	-8561
▁barrel	-8562
annels	-8563
▁Sweden	-8564
scale	-8565
▁threw	-8566
▁Technology	-8567
▁stone	-8568
▁30,	-8569
++	-8570
dog	-8571
▁ignored	-8572
▁instrument	-8573
ington	-8574
▁buff	-8575
▁Warren	-8576
▁Mach	-8577
▁subsequent	-8578
▁Cooper	-8579
▁abandoned	-8580
yo	-8581
pled	-8582
mad	-8583
eding	-8584
▁tape	-8585
▁nomination	-8586
▁grid	-8587
▁deficit	-8588
▁diverse	-8589
ounce	-8590
▁Front	-8591
des	-8592
▁divided	-8593
lahoma	-8594
▁spiritual	-8595
":	-8596
▁universities	-8597
▁programme	-8598
▁dad	-8599
▁Ted	-8600
▁Beijing	-8601
▁2011.	-8602
66	-8603
▁tracking	-8604
▁stolen	-8605
▁acknowledged	-8606
▁Dream	-8607
▁joy	-8608
abeth	-8609
▁joke	-8610
▁rom	-8611
▁criticized	-8612
▁festival	-8613
▁Chelsea	-8614
▁lying	-8615
aping	-8616
heim	-8617
▁Bra	-8618
▁Bloom	-8619
▁Galaxy	-8620
uits	-8621
▁Girl	-8622
▁Bron	-8623
ported	-8624
▁acquired	-8625
▁depression	-8626
▁breaks	-8627
▁passengers	-8628
inf	-8629
▁Corpor	-8630
door	-8631
▁blast	-8632
▁transactions	-8633
▁Kong	-8634
▁monitoring	-8635
▁Hur	-8636
▁conservatives	-8637
▁studied	-8638
▁Equ	-8639
▁usage	-8640
argo	-8641
▁Roberts	-8642
▁receiver	-8643
▁partnership	-8644
▁Speaking	-8645
Im	-8646
▁Rather	-8647
▁lets	-8648
▁funded	-8649
iate	-8650
▁Empire	-8651
▁Ak	-8652
▁demonstrated	-8653
▁Tech	-8654
▁skept	-8655
▁Netflix	-8656
uction	-8657
▁gal	-8658
assador	-8659
▁temperatures	-8660
▁Wolf	-8661
esty	-8662
▁18,	-8663
▁upgrade	-8664
▁guitar	-8665
iley	-8666
uted	-8667
▁(“	-8668
▁sty	-8669
▁Ever	-8670
▁None	-8671
▁tie	-8672
▁headquarters	-8673
▁supplies	-8674
▁performing	-8675
▁Atlantic	-8676
▁2020	-8677
▁scope	-8678
▁helpful	-8679
▁congressional	-8680
▁Vill	-8681
▁Base	-8682
▁scan	-8683
▁appointed	-8684
▁Lear	-8685
84	-8686
UN	-8687
▁hoped	-8688
oded	-8689
▁Belg	-8690
▁compe	-8691
▁distract	-8692
▁moon	-8693
▁Bud	-8694
▁spokeswoman	-8695
▁Article	-8696
▁assert	-8697
▁unions	-8698
▁yellow	-8699
▁Bureau	-8700
▁copies	-8701
▁insisted	-8702
▁Kar	-8703
▁2:	-8704
pie	-8705
▁targeting	-8706
▁responses	-8707
▁3-	-8708
▁Beck	-8709
▁literature	-8710
▁falls	-8711
▁Graham	-8712
▁ordinary	-8713
▁replied	-8714
▁Dutch	-8715
▁les	-8716
rec	-8717
▁Award	-8718
▁Les	-8719
▁DO	-8720
▁Cro	-8721
▁Oklahoma	-8722
▁representing	-8723
ieties	-8724
inction	-8725
▁stages	-8726
▁veterans	-8727
ixed	-8728
▁Eff	-8729
▁AI	-8730
▁Liberal	-8731
▁measured	-8732
erted	-8733
▁Bruce	-8734
▁counts	-8735
▁abroad	-8736
▁capabilities	-8737
▁accomplish	-8738
▁racism	-8739
▁entitled	-8740
Well	-8741
.[5	-8742
▁visiting	-8743
▁Sean	-8744
rimin	-8745
▁appearances	-8746
ihad	-8747
WS	-8748
▁render	-8749
▁cance	-8750
▁trave	-8751
▁Sab	-8752
▁dust	-8753
▁exit	-8754
▁Silver	-8755
▁proposals	-8756
▁Ali	-8757
ais	-8758
iler	-8759
fund	-8760
▁rear	-8761
▁auto	-8762
▁10-	-8763
itary	-8764
shire	-8765
▁hockey	-8766
high	-8767
▁clock	-8768
▁shopping	-8769
▁grav	-8770
dney	-8771
▁naturally	-8772
RL	-8773
▁Eliz	-8774
▁arrive	-8775
▁Governor	-8776
▁waters	-8777
▁warn	-8778
aeda	-8779
aware	-8780
▁Tele	-8781
bridge	-8782
▁Carter	-8783
Trump	-8784
▁reliable	-8785
olph	-8786
▁Obamacare	-8787
zing	-8788
▁exch	-8789
▁Edward	-8790
▁dismissed	-8791
87	-8792
▁twenty	-8793
AF	-8794
▁plain	-8795
89	-8796
▁Early	-8797
▁conventional	-8798
▁documentary	-8799
▁Est	-8800
ctic	-8801
▁mathem	-8802
▁symp	-8803
▁pursue	-8804
aga	-8805
▁march	-8806
▁Jere	-8807
▁centers	-8808
▁classified	-8809
▁inequ	-8810
▁landscape	-8811
▁Indust	-8812
▁fro	-8813
▁margin	-8814
▁Vice	-8815
▁clar	-8816
▁predicted	-8817
mony	-8818
▁urged	-8819
▁transit	-8820
hop	-8821
comes	-8822
▁drove	-8823
▁Left	-8824
▁Olympic	-8825
▁assessment	-8826
irts	-8827
▁Der	-8828
▁letting	-8829
▁employed	-8830
▁neuro	-8831
▁beauty	-8832
▁protein	-8833
▁equality	-8834
▁swim	-8835
▁rescue	-8836
8)	-8837
▁concrete	-8838
hesis	-8839
▁16,	-8840
▁Hold	-8841
▁compare	-8842
▁rif	-8843
encing	-8844
▁Bridge	-8845
ped	-8846
enez	-8847
▁19,	-8848
▁bub	-8849
▁patch	-8850
sl	-8851
▁virus	-8852
▁tactics	-8853
PP	-8854
ecutive	-8855
▁restaurants	-8856
▁senator	-8857
App	-8858
▁Cow	-8859
▁ratio	-8860
▁domain	-8861
har	-8862
▁14,	-8863
fol	-8864
made	-8865
▁2002	-8866
eries	-8867
ira	-8868
▁17,	-8869
▁dub	-8870
▁Vietnam	-8871
▁Uber	-8872
▁blocked	-8873
▁ramp	-8874
▁salt	-8875
▁introduction	-8876
▁Children	-8877
▁politically	-8878
▁prisoners	-8879
acket	-8880
▁Maryland	-8881
▁Much	-8882
▁hung	-8883
▁presidency	-8884
▁Cho	-8885
▁Som	-8886
▁Everyone	-8887
▁Andre	-8888
iamond	-8889
▁artific	-8890
▁Hamilton	-8891
▁Pict	-8892
▁whenever	-8893
-19	-8894
▁burden	-8895
▁wider	-8896
▁obs	-8897
▁Reddit	-8898
▁pipeline	-8899
pa	-8900
usalem	-8901
▁approached	-8902
plus	-8903
▁bread	-8904
theless	-8905
▁trigger	-8906
ught	-8907
pton	-8908
▁soccer	-8909
olves	-8910
▁tips	-8911
ji	-8912
========	-8913
▁museum	-8914
▁ves	-8915
isk	-8916
▁requested	-8917
▁PH	-8918
ultane	-8919
rooms	-8920
▁innocent	-8921
ila	-8922
▁retirement	-8923
▁Hu	-8924
▁Mess	-8925
▁21,	-8926
▁producers	-8927
▁Harvard	-8928
jud	-8929
▁breath	-8930
▁populations	-8931
Do	-8932
archy	-8933
▁membership	-8934
▁McK	-8935
▁Bible	-8936
crib	-8937
▁cig	-8938
▁parallel	-8939
mat	-8940
▁testimony	-8941
omes	-8942
▁Represent	-8943
▁weigh	-8944
▁demanding	-8945
emed	-8946
iano	-8947
▁celebrate	-8948
UST	-8949
▁Leon	-8950
orous	-8951
▁assign	-8952
▁Friend	-8953
inating	-8954
▁Scottish	-8955
▁bab	-8956
ela	-8957
▁discour	-8958
conf	-8959
▁PD	-8960
▁absor	-8961
elson	-8962
▁monthly	-8963
bow	-8964
▁introduce	-8965
▁focusing	-8966
▁violation	-8967
▁Morgan	-8968
▁dates	-8969
▁22,	-8970
▁pig	-8971
▁legislative	-8972
▁Iron	-8973
type	-8974
▁stability	-8975
erts	-8976
▁forecast	-8977
TT	-8978
▁Priv	-8979
▁mac	-8980
▁Sound	-8981
▁quote	-8982
▁firing	-8983
▁channels	-8984
ordinary	-8985
▁spots	-8986
▁representatives	-8987
▁keys	-8988
▁Wr	-8989
break	-8990
oenix	-8991
ouri	-8992
▁scientist	-8993
▁graduate	-8994
▁saving	-8995
▁popularity	-8996
FA	-8997
mers	-8998
▁fighter	-8999
▁rush	-9000
▁universal	-9001
▁phrase	-9002
▁Gary	-9003
▁Should	-9004
▁95	-9005
▁Boe	-9006
press	-9007
▁unpre	-9008
▁CS	-9009
▁survival	-9010
▁experiments	-9011
44	-9012
acco	-9013
▁Ark	-9014
▁releases	-9015
Why	-9016
▁argues	-9017
▁cul	-9018
eters	-9019
asty	-9020
▁Tennes	-9021
▁phenomenon	-9022
▁shame	-9023
▁Trade	-9024
▁toxic	-9025
▁tab	-9026
▁forcing	-9027
▁healthcare	-9028
▁Custom	-9029
ederation	-9030
▁preparing	-9031
▁anxiety	-9032
only	-9033
▁Jerusalem	-9034
▁encounter	-9035
▁contrad	-9036
▁hosp	-9037
▁wedd	-9038
ika	-9039
▁arguing	-9040
▁Cra	-9041
▁8.	-9042
▁Metro	-9043
▁Gulf	-9044
▁loose	-9045
▁persons	-9046
▁ax	-9047
▁rocket	-9048
.-	-9049
▁actively	-9050
▁Could	-9051
▁importantly	-9052
▁flags	-9053
▁Figure	-9054
▁Az	-9055
▁odds	-9056
▁Capital	-9057
▁differently	-9058
▁prosecutors	-9059
▁designs	-9060
▁generations	-9061
duction	-9062
▁delic	-9063
▁Anna	-9064
▁Michel	-9065
▁Bal	-9066
orious	-9067
▁Mult	-9068
▁overseas	-9069
ested	-9070
don	-9071
▁servers	-9072
ounding	-9073
▁Lt	-9074
▁satellite	-9075
▁sequence	-9076
▁smartphone	-9077
ompson	-9078
▁settled	-9079
▁anniversary	-9080
▁unexpected	-9081
▁shadow	-9082
▁Bi	-9083
▁entreprene	-9084
▁Being	-9085
through	-9086
▁Sydney	-9087
▁13,	-9088
▁Know	-9089
▁investigations	-9090
▁wealthy	-9091
▁Others	-9092
▁brilliant	-9093
▁titled	-9094
atar	-9095
▁25,	-9096
▁banking	-9097
▁reveals	-9098
▁abilities	-9099
▁Crime	-9100
▁24,	-9101
BM	-9102
▁1.5	-9103
▁Quest	-9104
▁thorough	-9105
ennis	-9106
▁weekly	-9107
▁Yemen	-9108
▁butt	-9109
▁disorder	-9110
▁affordable	-9111
▁wra	-9112
afe	-9113
▁secondary	-9114
▁silence	-9115
▁Would	-9116
▁ratings	-9117
minute	-9118
▁kilomet	-9119
▁deny	-9120
oret	-9121
▁newsletter	-9122
▁(199	-9123
▁Kick	-9124
ocument	-9125
▁threatening	-9126
irlf	-9127
▁relax	-9128
▁surely	-9129
▁Tax	-9130
▁provision	-9131
▁CL	-9132
ois	-9133
▁Son	-9134
agh	-9135
▁exha	-9136
▁voices	-9137
lined	-9138
▁reforms	-9139
▁comprehensive	-9140
▁stepped	-9141
olds	-9142
▁fool	-9143
▁hyper	-9144
::	-9145
▁adventure	-9146
aved	-9147
irlfriend	-9148
▁Tai	-9149
▁consent	-9150
isons	-9151
▁savings	-9152
▁Official	-9153
▁streaming	-9154
king	-9155
▁Berlin	-9156
▁maintained	-9157
▁tonight	-9158
▁outrage	-9159
itol	-9160
▁Batman	-9161
ahu	-9162
▁Magic	-9163
▁Hong	-9164
▁rounds	-9165
▁errors	-9166
gage	-9167
▁submitted	-9168
aria	-9169
▁pointing	-9170
▁Palestinians	-9171
ocolate	-9172
icism	-9173
▁Libya	-9174
▁waves	-9175
berry	-9176
▁okay	-9177
▁pron	-9178
▁deadly	-9179
▁smell	-9180
inals	-9181
Star	-9182
VE	-9183
▁PA	-9184
▁mini	-9185
▁alarm	-9186
opher	-9187
People	-9188
▁Opp	-9189
▁Leader	-9190
▁Sa	-9191
mind	-9192
▁circle	-9193
▁YOU	-9194
bered	-9195
▁ceremony	-9196
▁execution	-9197
▁analyst	-9198
▁Instagram	-9199
▁awarded	-9200
▁puzz	-9201
▁lunch	-9202
▁windows	-9203
▁quoted	-9204
▁roof	-9205
▁drives	-9206
▁ages	-9207
▁sorts	-9208
▁prepar	-9209
▁Support	-9210
▁questioned	-9211
▁demonstrate	-9212
▁Jenn	-9213
▁broader	-9214
▁Think	-9215
tenance	-9216
▁2007,	-9217
▁54	-9218
▁Eth	-9219
▁intim	-9220
▁Oakland	-9221
▁Assembly	-9222
held	-9223
▁Remember	-9224
onder	-9225
▁objective	-9226
ailed	-9227
▁tens	-9228
▁Comey	-9229
▁torture	-9230
▁striking	-9231
▁borders	-9232
▁childhood	-9233
▁staying	-9234
igious	-9235
enter	-9236
▁architecture	-9237
▁Elizabeth	-9238
CA	-9239
walk	-9240
▁wanting	-9241
▁$20	-9242
▁stem	-9243
▁tremend	-9244
▁civilian	-9245
▁hal	-9246
▁mole	-9247
▁sevent	-9248
▁gent	-9249
ethe	-9250
ctr	-9251
iev	-9252
▁Gil	-9253
▁Fal	-9254
▁harassment	-9255
▁fing	-9256
▁instructions	-9257
▁Fact	-9258
▁struggled	-9259
ierce	-9260
▁fur	-9261
▁deserve	-9262
▁fate	-9263
▁Local	-9264
mans	-9265
▁Hart	-9266
▁Therefore	-9267
rows	-9268
etch	-9269
▁managing	-9270
▁rooms	-9271
▁Total	-9272
▁Wel	-9273
▁propaganda	-9274
▁GT	-9275
▁highlights	-9276
▁acid	-9277
▁hosted	-9278
▁Store	-9279
▁distingu	-9280
▁persu	-9281
▁landing	-9282
▁consensus	-9283
▁DV	-9284
▁Crit	-9285
hatt	-9286
▁picks	-9287
▁Things	-9288
▁donations	-9289
▁Clark	-9290
party	-9291
scribe	-9292
▁dying	-9293
isa	-9294
76	-9295
uper	-9296
▁aer	-9297
▁reverse	-9298
▁contacted	-9299
rection	-9300
lee	-9301
▁sear	-9302
▁smoking	-9303
▁consideration	-9304
▁100%	-9305
▁rookie	-9306
▁Thompson	-9307
akh	-9308
▁Murray	-9309
▁23,	-9310
,000.	-9311
▁Moreover	-9312
▁Tok	-9313
▁wounded	-9314
ses	-9315
abet	-9316
▁executives	-9317
▁Vik	-9318
▁emerging	-9319
they	-9320
▁Box	-9321
asury	-9322
▁autonom	-9323
▁Lam	-9324
ishop	-9325
▁Marx	-9326
▁chicken	-9327
▁greatly	-9328
▁ministry	-9329
▁Management	-9330
▁Festival	-9331
asant	-9332
aders	-9333
▁51	-9334
iffs	-9335
▁gross	-9336
▁Brexit	-9337
▁calm	-9338
▁remarkable	-9339
ceptions	-9340
was	-9341
▁lux	-9342
▁physically	-9343
cedented	-9344
▁trillion	-9345
▁simultane	-9346
▁Sud	-9347
▁gif	-9348
▁Tennessee	-9349
Pl	-9350
uten	-9351
▁cream	-9352
▁Jean	-9353
apolis	-9354
▁dialogue	-9355
organ	-9356
agic	-9357
▁ele	-9358
▁Nev	-9359
▁Roll	-9360
▁bias	-9361
▁bonus	-9362
▁Charlie	-9363
▁promising	-9364
▁GO	-9365
▁mit	-9366
▁procedure	-9367
▁Simon	-9368
izer	-9369
▁semi	-9370
▁Hand	-9371
▁meaningful	-9372
▁Gordon	-9373
▁legally	-9374
▁defeated	-9375
▁investments	-9376
bury	-9377
▁trials	-9378
▁hydro	-9379
▁cooperation	-9380
EP	-9381
▁inches	-9382
▁Intel	-9383
▁stored	-9384
▁dispute	-9385
▁assigned	-9386
xx	-9387
▁Online	-9388
▁contribution	-9389
▁2010.	-9390
55	-9391
▁Li	-9392
▁Harper	-9393
▁difficulty	-9394
▁ans	-9395
▁Access	-9396
▁birds	-9397
▁drone	-9398
▁28,	-9399
▁27,	-9400
umble	-9401
▁coinc	-9402
▁assass	-9403
▁memo	-9404
▁na	-9405
▁promoting	-9406
▁Digital	-9407
alia	-9408
▁Staff	-9409
▁blank	-9410
▁chest	-9411
▁competing	-9412
aver	-9413
holders	-9414
7)	-9415
▁playoffs	-9416
▁Alan	-9417
icity	-9418
▁burning	-9419
▁precisely	-9420
ds	-9421
▁ease	-9422
▁strategies	-9423
▁Until	-9424
▁guidelines	-9425
▁cow	-9426
▁assumed	-9427
▁clothing	-9428
▁knee	-9429
omed	-9430
step	-9431
▁categories	-9432
▁participation	-9433
▁racing	-9434
▁implications	-9435
4)	-9436
▁dating	-9437
portation	-9438
vertisements	-9439
▁26,	-9440
▁Bow	-9441
▁eligible	-9442
orship	-9443
▁backing	-9444
bits	-9445
▁formation	-9446
atern	-9447
▁tons	-9448
trans	-9449
week	-9450
▁opens	-9451
▁smile	-9452
▁spectrum	-9453
cest	-9454
▁possess	-9455
▁Dur	-9456
▁tap	-9457
▁aged	-9458
▁rhetoric	-9459
gus	-9460
▁gathering	-9461
▁Executive	-9462
▁repeat	-9463
▁revers	-9464
▁custody	-9465
▁indicates	-9466
yes	-9467
▁alter	-9468
▁judgment	-9469
▁athletes	-9470
▁Russell	-9471
▁1950	-9472
▁MLS	-9473
▁Pentagon	-9474
▁battles	-9475
▁whereas	-9476
▁tired	-9477
▁Editor	-9478
▁openly	-9479
▁Wales	-9480
ributes	-9481
riors	-9482
▁Player	-9483
even	-9484
▁arrival	-9485
▁Additionally	-9486
▁Page	-9487
achel	-9488
▁memories	-9489
▁Hawai	-9490
▁dish	-9491
sect	-9492
▁Captain	-9493
▁charity	-9494
annon	-9495
▁endorse	-9496
▁counterpart	-9497
▁52	-9498
▁$100	-9499
▁suspects	-9500
▁Assad	-9501
▁defending	-9502
▁Andy	-9503
igate	-9504
▁centuries	-9505
▁picking	-9506
▁accessible	-9507
▁passage	-9508
AND	-9509
▁Mit	-9510
▁enthusi	-9511
▁transaction	-9512
▁nic	-9513
▁CA	-9514
▁riding	-9515
▁divor	-9516
▁educational	-9517
child	-9518
▁recipe	-9519
▁Occ	-9520
▁vig	-9521
▁expanding	-9522
▁Fant	-9523
▁Cole	-9524
▁presentation	-9525
after	-9526
herent	-9527
▁info	-9528
▁fled	-9529
▁theories	-9530
▁discussing	-9531
▁fundra	-9532
▁crimin	-9533
▁bowl	-9534
▁perceived	-9535
race	-9536
▁Download	-9537
odox	-9538
math	-9539
▁Affairs	-9540
▁surviv	-9541
rif	-9542
▁Third	-9543
▁fossil	-9544
▁shield	-9545
▁addresses	-9546
js	-9547
▁unfair	-9548
▁enhance	-9549
▁coaching	-9550
▁inspect	-9551
rac	-9552
▁permit	-9553
▁shipping	-9554
▁$8	-9555
▁manifest	-9556
▁120	-9557
▁stops	-9558
▁managers	-9559
▁bot	-9560
▁Station	-9561
▁echo	-9562
▁grade	-9563
itual	-9564
▁studying	-9565
▁therapy	-9566
Sp	-9567
lla	-9568
▁arbit	-9569
aration	-9570
▁Sav	-9571
▁mood	-9572
▁facilit	-9573
▁Imm	-9574
▁Delhi	-9575
pha	-9576
▁Pitts	-9577
??	-9578
▁Log	-9579
▁Phoenix	-9580
▁EPA	-9581
▁Ku	-9582
author	-9583
▁stere	-9584
▁organic	-9585
issue	-9586
▁outlets	-9587
emic	-9588
▁pharm	-9589
▁hip	-9590
▁substance	-9591
▁Heart	-9592
▁_	-9593
▁CON	-9594
omy	-9595
▁explaining	-9596
▁memor	-9597
▁dominant	-9598
▁tut	-9599
▁frequency	-9600
van	-9601
▁helic	-9602
▁bin	-9603
▁lapt	-9604
▁clinical	-9605
▁superior	-9606
lando	-9607
▁Stew	-9608
▁recruit	-9609
Hz	-9610
▁gate	-9611
▁escal	-9612
▁compensation	-9613
▁sentenced	-9614
▁Ox	-9615
▁muscle	-9616
▁pocket	-9617
iki	-9618
▁Kentucky	-9619
bu	-9620
▁damaged	-9621
▁industries	-9622
ova	-9623
▁everyday	-9624
ito	-9625
▁followers	-9626
assy	-9627
gered	-9628
▁sixth	-9629
▁hopefully	-9630
▁obsc	-9631
▁bottle	-9632
▁pollution	-9633
▁Furthermore	-9634
▁Rest	-9635
ateral	-9636
▁pulling	-9637
▁scrut	-9638
31	-9639
Os	-9640
iture	-9641
gence	-9642
▁compat	-9643
▁poison	-9644
▁adviser	-9645
vision	-9646
▁trends	-9647
AY	-9648
▁Bol	-9649
stal	-9650
▁Continue	-9651
base	-9652
acher	-9653
▁rend	-9654
▁sovere	-9655
▁IC	-9656
▁overcome	-9657
▁lad	-9658
▁dies	-9659
/4	-9660
▁Hal	-9661
▁Case	-9662
▁economics	-9663
▁00	-9664
▁kitchen	-9665
▁2.0	-9666
▁sed	-9667
▁missions	-9668
▁gig	-9669
▁seed	-9670
▁beach	-9671
▁Dragon	-9672
▁math	-9673
▁rebels	-9674
▁underlying	-9675
▁Phill	-9676
▁hospitals	-9677
▁Dog	-9678
▁signature	-9679
▁Burn	-9680
▁shoes	-9681
TER	-9682
igenous	-9683
▁eager	-9684
▁Ref	-9685
unicipal	-9686
▁spell	-9687
▁nerv	-9688
▁institution	-9689
▁lineup	-9690
▁helicop	-9691
▁("	-9692
▁recre	-9693
ylum	-9694
▁setup	-9695
enezuel	-9696
▁punishment	-9697
hard	-9698
arency	-9699
▁engineers	-9700
▁discount	-9701
▁bow	-9702
▁Economic	-9703
▁Capt	-9704
Go	-9705
eria	-9706
▁impression	-9707
kee	-9708
▁cler	-9709
Can	-9710
▁graphics	-9711
▁roy	-9712
▁nin	-9713
market	-9714
cosystem	-9715
▁JavaScript	-9716
roph	-9717
▁merch	-9718
▁module	-9719
▁topics	-9720
▁beings	-9721
▁Find	-9722
▁Disc	-9723
▁insult	-9724
alties	-9725
▁eggs	-9726
▁badly	-9727
▁Yan	-9728
▁stance	-9729
aki	-9730
izza	-9731
-12	-9732
▁signals	-9733
▁tweets	-9734
▁beating	-9735
▁regulatory	-9736
player	-9737
▁searching	-9738
rix	-9739
▁hire	-9740
▁ridiculous	-9741
▁grap	-9742
▁preferred	-9743
▁tables	-9744
▁foods	-9745
▁migrants	-9746
arre	-9747
watch	-9748
▁upload	-9749
▁Aaron	-9750
alysis	-9751
▁Brooklyn	-9752
▁Dick	-9753
itudes	-9754
▁citing	-9755
▁diseases	-9756
▁Bul	-9757
▁unprecedented	-9758
▁timing	-9759
▁bold	-9760
▁answered	-9761
oz	-9762
oln	-9763
▁crus	-9764
▁procedures	-9765
▁Channel	-9766
ptions	-9767
▁blockchain	-9768
▁attractive	-9769
▁dramatically	-9770
iac	-9771
html	-9772
osa	-9773
▁**	-9774
▁mice	-9775
▁Pers	-9776
atively	-9777
▁Arsenal	-9778
▁loves	-9779
9)	-9780
▁shell	-9781
▁genre	-9782
▁creatures	-9783
rowing	-9784
▁Psych	-9785
▁requirement	-9786
Reuters	-9787
▁psychological	-9788
▁segment	-9789
▁Khan	-9790
▁Jeremy	-9791
▁removal	-9792
▁analysts	-9793
▁acknowledge	-9794
▁Dod	-9795
▁periods	-9796
▁principal	-9797
▁99	-9798
▁Ban	-9799
brid	-9800
▁arr	-9801
▁insight	-9802
▁billions	-9803
▁Gro	-9804
▁loop	-9805
▁Tesla	-9806
▁deadline	-9807
▁speaker	-9808
▁Future	-9809
build	-9810
▁capitalism	-9811
▁recommendations	-9812
▁Han	-9813
▁seized	-9814
▁carries	-9815
▁eliminate	-9816
▁56	-9817
grade	-9818
▁logo	-9819
▁inquiry	-9820
▁unve	-9821
▁Order	-9822
▁Photos	-9823
▁convince	-9824
▁arts	-9825
▁Change	-9826
▁partly	-9827
▁invasion	-9828
▁engineer	-9829
▁SU	-9830
▁Venezuel	-9831
▁talented	-9832
ogy	-9833
▁NS	-9834
▁GDP	-9835
▁sections	-9836
▁aims	-9837
▁Word	-9838
▁requiring	-9839
▁pill	-9840
▁collaps	-9841
▁utility	-9842
▁Publ	-9843
owski	-9844
▁sheet	-9845
▁rolling	-9846
▁vend	-9847
▁span	-9848
▁10,000	-9849
▁publishing	-9850
▁frequent	-9851
▁variable	-9852
▁instant	-9853
▁Barb	-9854
▁Argent	-9855
▁colour	-9856
▁amendment	-9857
NS	-9858
▁Nothing	-9859
▁statist	-9860
▁Doctor	-9861
▁subsc	-9862
▁buck	-9863
▁Reagan	-9864
▁diplomatic	-9865
▁notable	-9866
▁Ocean	-9867
De	-9868
▁Steel	-9869
quest	-9870
▁TR	-9871
▁dreams	-9872
▁posting	-9873
▁instances	-9874
cott	-9875
eared	-9876
▁comics	-9877
▁mask	-9878
▁butter	-9879
▁Missouri	-9880
agger	-9881
▁perception	-9882
die	-9883
olving	-9884
▁Move	-9885
▁elder	-9886
▁export	-9887
▁Montreal	-9888
▁communicate	-9889
oca	-9890
netic	-9891
ls	-9892
necess	-9893
▁disappointed	-9894
left	-9895
ental	-9896
▁commander	-9897
▁undert	-9898
▁prompted	-9899
▁Everything	-9900
▁encouraging	-9901
▁camps	-9902
▁collaboration	-9903
apore	-9904
▁lect	-9905
▁roots	-9906
eness	-9907
▁genes	-9908
▁repair	-9909
/10	-9910
▁extraordinary	-9911
oting	-9912
▁prize	-9913
▁Table	-9914
.[10	-9915
▁heroes	-9916
▁homosexual	-9917
▁bullet	-9918
▁maintenance	-9919
▁Near	-9920
▁Writ	-9921
▁corrupt	-9922
▁contemporary	-9923
▁Mun	-9924
ppers	-9925
▁Poll	-9926
aya	-9927
▁mystery	-9928
▁ET	-9929
erg	-9930
▁sits	-9931
▁tempor	-9932
▁employers	-9933
▁fatal	-9934
▁occurs	-9935
▁cheaper	-9936
▁concepts	-9937
ixture	-9938
▁gest	-9939
▁Independent	-9940
▁bene	-9941
▁BM	-9942
▁Kl	-9943
▁associate	-9944
▁neighbors	-9945
▁coup	-9946
isdom	-9947
▁manufacturers	-9948
▁Bes	-9949
▁hanging	-9950
▁pleased	-9951
▁Marine	-9952
▁85	-9953
▁lift	-9954
▁Antonio	-9955
▁approaches	-9956
▁Coal	-9957
▁Orlando	-9958
▁glad	-9959
▁Rome	-9960
▁Model	-9961
▁weakness	-9962
mic	-9963
▁towns	-9964
▁resolve	-9965
▁militants	-9966
▁emp	-9967
▁Trust	-9968
instein	-9969
▁punch	-9970
Now	-9971
check	-9972
▁couples	-9973
const	-9974
▁distur	-9975
▁labour	-9976
▁fights	-9977
.[1]	-9978
leans	-9979
▁Type	-9980
▁designer	-9981
▁birthday	-9982
▁interviewed	-9983
▁demanded	-9984
▁reserved	-9985
▁Craig	-9986
▁drunk	-9987
▁CC	-9988
▁3:	-9989
news	-9990
▁29,	-9991
▁occasionally	-9992
▁constitu	-9993
ele	-9994
▁prospects	-9995
▁53	-9996
arted	-9997
▁CB	-9998
▁adopt	-9999
▁parad	-10000
▁deployed	-10001
▁ecosystem	-10002
▁sessions	-10003
▁Had	-10004
▁traged	-10005
▁pregnant	-10006
▁lessons	-10007
▁irre	-10008
screen	-10009
▁inequality	-10010
alling	-10011
▁Protection	-10012
▁9.	-10013
hr	-10014
▁Nevada	-10015
▁cock	-10016
throp	-10017
▁representation	-10018
ikh	-10019
▁Pittsburgh	-10020
▁defender	-10021
angle	-10022
oli	-10023
▁Copyright	-10024
▁anonymous	-10025
▁Place	-10026
starter	-10027
iban	-10028
▁Capitol	-10029
▁stamp	-10030
▁electoral	-10031
96	-10032
▁Gh	-10033
▁Sheriff	-10034
▁cens	-10035
▁Officer	-10036
tra	-10037
▁Standard	-10038
▁Authority	-10039
▁arc	-10040
▁nose	-10041
▁Perry	-10042
▁Ts	-10043
▁knock	-10044
▁Interest	-10045
▁moderate	-10046
VP	-10047
onz	-10048
▁nurs	-10049
▁violations	-10050
▁Hitler	-10051
▁Ven	-10052
▁Film	-10053
▁Studies	-10054
▁momentum	-10055
▁Rs	-10056
▁Area	-10057
▁Buy	-10058
▁Tel	-10059
ulty	-10060
▁Duke	-10061
▁performances	-10062
▁landed	-10063
▁Convention	-10064
iens	-10065
▁Gill	-10066
▁fabric	-10067
▁Library	-10068
▁intr	-10069
hattan	-10070
▁oppose	-10071
wich	-10072
▁Adams	-10073
▁Raj	-10074
▁constitution	-10075
cour	-10076
▁interaction	-10077
▁underground	-10078
▁guests	-10079
▁podcast	-10080
▁accompan	-10081
olar	-10082
mir	-10083
▁Orleans	-10084
▁owns	-10085
▁shocked	-10086
▁displayed	-10087
▁Christopher	-10088
78	-10089
ials	-10090
▁jumped	-10091
▁professionals	-10092
vi	-10093
istant	-10094
▁Portug	-10095
▁describing	-10096
▁clip	-10097
▁artificial	-10098
▁shirt	-10099
wa	-10100
▁Marc	-10101
▁IM	-10102
▁Robinson	-10103
election	-10104
▁euro	-10105
ricane	-10106
▁FA	-10107
▁intellig	-10108
▁explosion	-10109
▁20-	-10110
********	-10111
awks	-10112
istol	-10113
▁choosing	-10114
▁girlfriend	-10115
▁bands	-10116
section	-10117
▁embrace	-10118
▁2019	-10119
▁forum	-10120
▁functional	-10121
Some	-10122
acles	-10123
▁Alliance	-10124
▁Pant	-10125
▁summit	-10126
▁wedding	-10127
estyle	-10128
▁Subscribe	-10129
▁Leban	-10130
▁bell	-10131
ALL	-10132
▁biological	-10133
▁Pope	-10134
▁SD	-10135
▁interior	-10136
▁imposed	-10137
▁emotions	-10138
▁asset	-10139
arget	-10140
▁swit	-10141
▁recalled	-10142
▁sne	-10143
Ind	-10144
▁registration	-10145
▁Wright	-10146
▁correctly	-10147
unity	-10148
▁terr	-10149
▁vocal	-10150
▁ED	-10151
▁Singapore	-10152
▁volunteers	-10153
▁adequ	-10154
▁cheese	-10155
ighth	-10156
▁Mail	-10157
▁boxes	-10158
appropri	-10159
▁integrity	-10160
▁dual	-10161
▁Resp	-10162
▁modified	-10163
▁Eve	-10164
▁subscribe	-10165
incoln	-10166
▁guid	-10167
▁exclud	-10168
▁Indones	-10169
▁opposing	-10170
▁pa	-10171
ipedia	-10172
▁Aren	-10173
▁maintaining	-10174
▁delight	-10175
▁desperate	-10176
owned	-10177
isition	-10178
▁concerning	-10179
oga	-10180
▁Hamp	-10181
▁silent	-10182
▁Reserve	-10183
▁Ukrainian	-10184
▁Bor	-10185
▁isolated	-10186
▁sustainable	-10187
▁recon	-10188
▁subur	-10189
Yes	-10190
will	-10191
▁organisation	-10192
▁Spir	-10193
▁quit	-10194
▁OR	-10195
▁assembly	-10196
▁lesson	-10197
▁libr	-10198
▁Mountain	-10199
▁Stewart	-10200
▁removing	-10201
▁configuration	-10202
▁advocate	-10203
▁confused	-10204
▁annoy	-10205
▁buried	-10206
via	-10207
gate	-10208
▁relation	-10209
rying	-10210
income	-10211
▁bombs	-10212
▁mile	-10213
endar	-10214
▁Tam	-10215
▁Comb	-10216
▁journalism	-10217
▁pm	-10218
Qu	-10219
acre	-10220
▁submit	-10221
umph	-10222
▁refugee	-10223
▁traveling	-10224
cor	-10225
▁stack	-10226
▁Vlad	-10227
▁minimal	-10228
▁CR	-10229
▁ingredients	-10230
▁Warner	-10231
▁Eb	-10232
▁stro	-10233
gets	-10234
▁Var	-10235
▁pride	-10236
father	-10237
▁probe	-10238
▁Looking	-10239
▁Map	-10240
▁=>	-10241
▁scar	-10242
▁peaceful	-10243
▁vert	-10244
▁acceptable	-10245
▁Oil	-10246
istle	-10247
▁keyboard	-10248
▁nod	-10249
▁Marg	-10250
▁Entertain	-10251
elling	-10252
▁Giants	-10253
Ne	-10254
▁gene	-10255
▁Drug	-10256
▁inspiration	-10257
▁Hung	-10258
▁meal	-10259
▁soldier	-10260
ibl	-10261
▁Nazi	-10262
▁2006,	-10263
pd	-10264
▁jer	-10265
▁Treasury	-10266
▁Chairman	-10267
▁1.0	-10268
▁abstract	-10269
Ob	-10270
PL	-10271
▁dominated	-10272
▁creature	-10273
▁monster	-10274
▁struggles	-10275
▁integration	-10276
▁Manhattan	-10277
▁desktop	-10278
bourne	-10279
▁ideology	-10280
▁deemed	-10281
▁passenger	-10282
▁).	-10283
▁exclusively	-10284
hero	-10285
▁Product	-10286
▁promotion	-10287
▁evac	-10288
▁NO	-10289
▁lifetime	-10290
▁cognitive	-10291
▁thro	-10292
isd	-10293
▁guards	-10294
▁Hug	-10295
▁knife	-10296
▁Holy	-10297
elle	-10298
▁flour	-10299
▁existed	-10300
▁accum	-10301
▁Emer	-10302
▁DE	-10303
▁Ent	-10304
▁charging	-10305
▁bankrupt	-10306
▁Griff	-10307
▁holes	-10308
▁Univers	-10309
sub	-10310
▁attending	-10311
otte	-10312
▁ancest	-10313
▁refers	-10314
▁executed	-10315
▁brutal	-10316
▁references	-10317
▁Jane	-10318
▁Mother	-10319
▁tremendous	-10320
ixon	-10321
▁expenses	-10322
▁Climate	-10323
▁stating	-10324
imize	-10325
▁speculation	-10326
▁57	-10327
▁Cars	-10328
agen	-10329
▁suspic	-10330
▁Mississ	-10331
-15	-10332
security	-10333
▁surrounded	-10334
▁closest	-10335
vo	-10336
▁bird	-10337
▁MPs	-10338
▁steady	-10339
▁profound	-10340
▁Band	-10341
▁occasional	-10342
bound	-10343
▁compr	-10344
▁kicked	-10345
▁consciousness	-10346
rank	-10347
▁Soft	-10348
▁cabinet	-10349
.[6	-10350
Fi	-10351
inge	-10352
▁nervous	-10353
▁credits	-10354
▁teammates	-10355
▁Dak	-10356
▁Dal	-10357
▁#1	-10358
▁Blood	-10359
▁convert	-10360
▁donors	-10361
▁Ottawa	-10362
▁wondering	-10363
bes	-10364
books	-10365
stop	-10366
▁teeth	-10367
▁utter	-10368
human	-10369
▁Jimmy	-10370
">	-10371
rock	-10372
▁athe	-10373
vernment	-10374
▁Poland	-10375
▁Canadians	-10376
▁fleet	-10377
▁hiring	-10378
▁leaked	-10379
hist	-10380
▁Kings	-10381
▁routes	-10382
▁briefly	-10383
▁flee	-10384
some	-10385
▁Gib	-10386
abe	-10387
▁FR	-10388
pack	-10389
oker	-10390
▁brands	-10391
▁stimul	-10392
▁electron	-10393
▁lobb	-10394
▁Nelson	-10395
▁engaging	-10396
ardo	-10397
▁Lincoln	-10398
▁2.5	-10399
▁engines	-10400
▁disappear	-10401
dam	-10402
▁refuse	-10403
▁Edit	-10404
▁chaos	-10405
▁Jerry	-10406
▁bacteria	-10407
▁expense	-10408
▁revolutionary	-10409
hire	-10410
▁curious	-10411
▁250	-10412
utter	-10413
▁void	-10414
▁justify	-10415
▁speakers	-10416
▁gri	-10417
chell	-10418
▁confusion	-10419
▁physics	-10420
▁cinem	-10421
▁evident	-10422
▁Wi	-10423
▁fel	-10424
▁Osc	-10425
orneys	-10426
▁harsh	-10427
300	-10428
dr	-10429
▁concert	-10430
▁ministers	-10431
▁figured	-10432
lynn	-10433
▁hosts	-10434
▁$15	-10435
▁boom	-10436
▁subsequently	-10437
▁Within	-10438
▁Nether	-10439
▁Cas	-10440
▁printed	-10441
▁sexually	-10442
▁Jun	-10443
▁gameplay	-10444
▁CPU	-10445
▁repeal	-10446
▁100,000	-10447
▁Ni	-10448
aa	-10449
▁Command	-10450
Station	-10451
▁survived	-10452
▁Niger	-10453
▁Entertainment	-10454
ateful	-10455
▁districts	-10456
▁!	-10457
grad	-10458
has	-10459
TON	-10460
▁considerable	-10461
▁Kr	-10462
TML	-10463
cur	-10464
div	-10465
▁31,	-10466
▁compromise	-10467
▁Hans	-10468
▁True	-10469
▁defended	-10470
▁loaded	-10471
▁produces	-10472
resident	-10473
ishers	-10474
▁Mario	-10475
▁witnesses	-10476
ophob	-10477
▁strengthen	-10478
▁attracted	-10479
▁pir	-10480
ernand	-10481
ocated	-10482
thodox	-10483
▁Taliban	-10484
▁packages	-10485
cal	-10486
OK	-10487
orge	-10488
▁interpretation	-10489
▁Father	-10490
▁Louisiana	-10491
▁developments	-10492
▁Ka	-10493
apper	-10494
▁patri	-10495
▁asylum	-10496
▁suspension	-10497
graph	-10498
good	-10499
▁Name	-10500
▁contrary	-10501
▁Round	-10502
▁packed	-10503
oub	-10504
▁characteristics	-10505
attered	-10506
▁researcher	-10507
▁publish	-10508
aro	-10509
▁challenged	-10510
elve	-10511
▁Stock	-10512
▁caps	-10513
▁SN	-10514
▁USB	-10515
ben	-10516
▁HIV	-10517
▁blocking	-10518
74	-10519
▁correl	-10520
▁Grant	-10521
▁Overall	-10522
▁Zim	-10523
▁yeah	-10524
▁guaranteed	-10525
▁Based	-10526
▁embed	-10527
▁Gard	-10528
▁dropping	-10529
▁Victoria	-10530
ressing	-10531
▁Stanford	-10532
▁consecut	-10533
anim	-10534
▁epic	-10535
▁Modern	-10536
▁nu	-10537
▁SEC	-10538
amous	-10539
▁Sche	-10540
▁slot	-10541
▁fert	-10542
▁outcomes	-10543
reck	-10544
▁endors	-10545
▁taxpayers	-10546
▁avo	-10547
▁integrated	-10548
▁prost	-10549
achment	-10550
tarian	-10551
▁fails	-10552
▁surprisingly	-10553
▁orient	-10554
▁Financial	-10555
lihood	-10556
6)	-10557
▁da	-10558
erent	-10559
▁Very	-10560
▁robust	-10561
▁recovered	-10562
imir	-10563
▁nowhere	-10564
▁tear	-10565
▁assemb	-10566
gal	-10567
Just	-10568
▁Russians	-10569
▁alert	-10570
▁Winter	-10571
ILL	-10572
▁Tower	-10573
▁ranking	-10574
▁households	-10575
vation	-10576
▁breast	-10577
▁junior	-10578
▁Blake	-10579
▁editorial	-10580
▁Alaska	-10581
▁Flash	-10582
▁raises	-10583
▁1)	-10584
merce	-10585
ester	-10586
▁simultaneously	-10587
▁courtesy	-10588
▁criminals	-10589
▁Nich	-10590
white	-10591
▁scared	-10592
looking	-10593
▁engagement	-10594
▁Bir	-10595
▁chip	-10596
mble	-10597
▁FOR	-10598
leep	-10599
▁agreements	-10600
▁Mind	-10601
▁Sin	-10602
eling	-10603
▁Ub	-10604
▁bombing	-10605
▁EC	-10606
ATCH	-10607
gged	-10608
ping	-10609
▁Larry	-10610
▁Manning	-10611
adesh	-10612
▁Sport	-10613
▁Olympics	-10614
rics	-10615
strong	-10616
stra	-10617
▁enact	-10618
▁reserv	-10619
▁Edition	-10620
▁sophistic	-10621
▁oxy	-10622
▁Egyptian	-10623
▁BC	-10624
GE	-10625
thood	-10626
▁blamed	-10627
▁Da	-10628
izarre	-10629
nan	-10630
atus	-10631
▁productive	-10632
▁Level	-10633
▁expects	-10634
▁uncertainty	-10635
▁9/11	-10636
▁Section	-10637
cop	-10638
▁Abu	-10639
▁continu	-10640
800	-10641
▁hub	-10642
▁mirror	-10643
vas	-10644
▁impacts	-10645
ippi	-10646
▁wet	-10647
▁Fight	-10648
ERE	-10649
enh	-10650
▁Pa	-10651
▁2009.	-10652
▁flavor	-10653
thur	-10654
▁Corp	-10655
▁Deep	-10656
▁Citiz	-10657
▁fingers	-10658
▁Pear	-10659
▁telephone	-10660
▁chronic	-10661
▁trailer	-10662
▁unnecess	-10663
▁66	-10664
▁transparency	-10665
▁Cold	-10666
.[11	-10667
▁Snowden	-10668
▁hunting	-10669
▁certific	-10670
▁Cloud	-10671
Me	-10672
▁Phys	-10673
QL	-10674
▁Modi	-10675
mented	-10676
▁courage	-10677
▁Prom	-10678
▁presents	-10679
▁2008.	-10680
▁Queens	-10681
▁ES	-10682
inst	-10683
▁reass	-10684
▁Collins	-10685
http	-10686
▁mathemat	-10687
▁headlines	-10688
▁uncomfort	-10689
▁babies	-10690
▁1999	-10691
▁solo	-10692
▁Rubio	-10693
lu	-10694
▁angle	-10695
▁expecting	-10696
▁vent	-10697
▁checking	-10698
omic	-10699
▁singer	-10700
breaking	-10701
▁proportion	-10702
AB	-10703
nie	-10704
▁qualified	-10705
▁Wy	-10706
▁Nik	-10707
▁inbox	-10708
aste	-10709
▁departure	-10710
oft	-10711
ahoo	-10712
▁flights	-10713
▁similarly	-10714
▁painting	-10715
▁ric	-10716
▁intimid	-10717
ixel	-10718
▁barg	-10719
▁modest	-10720
▁patent	-10721
▁promoted	-10722
▁occasion	-10723
▁conflicts	-10724
DR	-10725
cap	-10726
NBC	-10727
▁flav	-10728
▁pleasure	-10729
▁Vo	-10730
uter	-10731
▁Talk	-10732
▁rebuild	-10733
terror	-10734
▁inaug	-10735
iere	-10736
.[2]	-10737
▁jet	-10738
▁Fif	-10739
UC	-10740
low	-10741
limited	-10742
etheless	-10743
▁animation	-10744
▁Morm	-10745
▁backs	-10746
▁Rangers	-10747
▁Qual	-10748
▁invested	-10749
oned	-10750
▁functionality	-10751
▁Abd	-10752
▁desp	-10753
▁venture	-10754
▁senators	-10755
▁meters	-10756
acts	-10757
▁forgotten	-10758
5)	-10759
▁Wiki	-10760
▁Medicare	-10761
▁alliance	-10762
▁nationwide	-10763
▁Organization	-10764
bian	-10765
▁mart	-10766
card	-10767
▁influenced	-10768
▁Stanley	-10769
▁Toy	-10770
▁accord	-10771
▁accuracy	-10772
▁Tokyo	-10773
▁Malays	-10774
▁provider	-10775
▁luxury	-10776
offs	-10777
▁dependent	-10778
▁Smart	-10779
▁tanks	-10780
400	-10781
▁colleg	-10782
▁bol	-10783
By	-10784
▁examine	-10785
▁inevitable	-10786
orate	-10787
icked	-10788
).[	-10789
ifier	-10790
▁lane	-10791
▁consecutive	-10792
▁enabled	-10793
wind	-10794
▁lin	-10795
▁inher	-10796
▁visits	-10797
▁PlayStation	-10798
▁shops	-10799
▁tower	-10800
▁organis	-10801
▁Medicaid	-10802
fish	-10803
uating	-10804
leading	-10805
rition	-10806
▁entrance	-10807
▁py	-10808
▁burned	-10809
forward	-10810
dict	-10811
▁58	-10812
▁solely	-10813
▁restore	-10814
gly	-10815
million	-10816
cling	-10817
▁bulk	-10818
▁outf	-10819
▁theft	-10820
▁advertisement	-10821
▁password	-10822
▁releasing	-10823
BN	-10824
iar	-10825
▁Ronald	-10826
▁Between	-10827
▁SE	-10828
▁Small	-10829
▁ally	-10830
▁chips	-10831
▁polling	-10832
▁explicitly	-10833
▁beta	-10834
▁bits	-10835
▁orbit	-10836
▁Environmental	-10837
▁Block	-10838
▁Hampshire	-10839
▁Netherlands	-10840
▁sake	-10841
▁Mand	-10842
▁strip	-10843
▁los	-10844
▁McDonald	-10845
▁insur	-10846
boys	-10847
▁keen	-10848
▁bases	-10849
▁Python	-10850
▁Nature	-10851
▁wise	-10852
▁formula	-10853
wed	-10854
olid	-10855
isms	-10856
▁balls	-10857
Let	-10858
▁vit	-10859
▁identical	-10860
ollar	-10861
keley	-10862
▁motivated	-10863
▁50%	-10864
agine	-10865
ailable	-10866
ampa	-10867
▁ignor	-10868
▁politician	-10869
zone	-10870
▁handled	-10871
bled	-10872
iden	-10873
▁diver	-10874
▁Wayne	-10875
.]	-10876
ista	-10877
▁Jen	-10878
▁Summer	-10879
▁reluct	-10880
▁Champions	-10881
▁gut	-10882
reshold	-10883
▁investigated	-10884
olas	-10885
aco	-10886
79	-10887
▁30-	-10888
▁privilege	-10889
▁immune	-10890
▁influential	-10891
may	-10892
▁Kurdish	-10893
▁Pod	-10894
▁0.1	-10895
▁volunt	-10896
▁assists	-10897
▁earthqu	-10898
▁algorithm	-10899
▁gym	-10900
▁infection	-10901
▁Hamas	-10902
▁Luke	-10903
▁Ay	-10904
olitan	-10905
▁Domin	-10906
▁iPad	-10907
▁Building	-10908
▁poster	-10909
▁occupied	-10910
llor	-10911
▁checked	-10912
▁impressed	-10913
vol	-10914
▁killer	-10915
▁renewable	-10916
large	-10917
▁suck	-10918
▁guidance	-10919
▁Kal	-10920
izations	-10921
▁variables	-10922
▁decrease	-10923
▁belt	-10924
▁imprison	-10925
▁Dean	-10926
▁neighborhoods	-10927
Cont	-10928
citation	-10929
▁fut	-10930
onduct	-10931
▁seeks	-10932
▁(1)	-10933
▁detention	-10934
being	-10935
▁trains	-10936
▁kidn	-10937
▁mandate	-10938
▁screw	-10939
▁launching	-10940
erald	-10941
▁Philippines	-10942
overs	-10943
▁radiation	-10944
▁projected	-10945
▁Tan	-10946
forced	-10947
("	-10948
▁Chron	-10949
bitious	-10950
▁absurd	-10951
▁awards	-10952
▁jurisd	-10953
▁Steam	-10954
ante	-10955
friendly	-10956
▁applies	-10957
▁Benn	-10958
oup	-10959
▁Reid	-10960
▁evolved	-10961
▁chocolate	-10962
▁Native	-10963
?’	-10964
▁tent	-10965
▁destination	-10966
▁rolled	-10967
▁tragedy	-10968
▁transferred	-10969
▁complained	-10970
▁excuse	-10971
▁distribut	-10972
▁accepting	-10973
reek	-10974
▁tears	-10975
laim	-10976
▁poet	-10977
▁kiss	-10978
▁jihad	-10979
▁manual	-10980
ilation	-10981
▁conviction	-10982
town	-10983
▁Lad	-10984
▁concentration	-10985
”)	-10986
▁preserve	-10987
oning	-10988
▁lifestyle	-10989
▁Nash	-10990
▁provisions	-10991
▁residential	-10992
tery	-10993
assion	-10994
▁Peace	-10995
▁Beh	-10996
ucker	-10997
▁Posted	-10998
amine	-10999
▁dimin	-11000
iper	-11001
▁operator	-11002
▁Murphy	-11003
track	-11004
▁garden	-11005
▁fits	-11006
▁filter	-11007
▁innovative	-11008
▁(10	-11009
▁settle	-11010
ormal	-11011
▁180	-11012
▁wireless	-11013
uther	-11014
▁backup	-11015
▁antib	-11016
▁Pinterest	-11017
▁bone	-11018
▁Forest	-11019
Se	-11020
▁overl	-11021
about	-11022
rah	-11023
▁Cry	-11024
▁elabor	-11025
▁Laur	-11026
▁Less	-11027
▁Patriots	-11028
▁operated	-11029
una	-11030
▁59	-11031
▁preventing	-11032
▁Drive	-11033
}}	-11034
▁fer	-11035
▁inex	-11036
▁Date	-11037
▁bump	-11038
▁traded	-11039
->	-11040
▁shelter	-11041
▁beneath	-11042
▁Progress	-11043
ulse	-11044
▁Inn	-11045
▁Knight	-11046
▁DVD	-11047
▁adap	-11048
▁supposedly	-11049
HA	-11050
▁Trek	-11051
pen	-11052
▁prosecution	-11053
▁missiles	-11054
▁Pir	-11055
▁Reds	-11056
usting	-11057
▁Along	-11058
▁reflects	-11059
▁Fle	-11060
▁lean	-11061
such	-11062
▁bags	-11063
▁resemb	-11064
▁lens	-11065
▁circuit	-11066
▁prosecutor	-11067
JP	-11068
▁compelling	-11069
idal	-11070
▁AFP	-11071
ding	-11072
▁Whit	-11073
▁static	-11074
anguage	-11075
▁ought	-11076
▁Ow	-11077
▁painful	-11078
▁disabled	-11079
▁emphasis	-11080
▁Roger	-11081
▁occasions	-11082
▁drum	-11083
▁recession	-11084
UM	-11085
▁Jacob	-11086
▁Singh	-11087
▁FO	-11088
▁regarded	-11089
▁subtle	-11090
FS	-11091
▁reck	-11092
rifice	-11093
▁males	-11094
ige	-11095
▁Cuba	-11096
▁tension	-11097
▁bother	-11098
▁RT	-11099
▁voc	-11100
▁Taiwan	-11101
▁Mississippi	-11102
non	-11103
▁stats	-11104
▁accusations	-11105
▁McCon	-11106
▁criteria	-11107
▁revenues	-11108
▁hes	-11109
urches	-11110
▁outstanding	-11111
▁Vin	-11112
?)	-11113
▁Anti	-11114
▁stopping	-11115
▁SM	-11116
IE	-11117
▁Dor	-11118
▁accompanied	-11119
dep	-11120
▁destro	-11121
▁speeds	-11122
▁newsletters	-11123
▁bicy	-11124
▁Quebec	-11125
shore	-11126
▁Asked	-11127
▁departments	-11128
vironments	-11129
▁photographs	-11130
inite	-11131
49	-11132
▁pose	-11133
▁Orange	-11134
uz	-11135
▁Against	-11136
▁cooking	-11137
thal	-11138
▁cops	-11139
▁participating	-11140
ouses	-11141
▁Imp	-11142
itement	-11143
ugby	-11144
▁boards	-11145
▁earnings	-11146
▁spotted	-11147
▁Comput	-11148
wall	-11149
▁iconic	-11150
▁productivity	-11151
▁dressed	-11152
▁fed	-11153
▁Flynn	-11154
▁realistic	-11155
bery	-11156
▁iter	-11157
▁longtime	-11158
▁Gre	-11159
▁coin	-11160
▁theoret	-11161
▁Corporation	-11162
▁Commons	-11163
▁administrative	-11164
▁192	-11165
leted	-11166
▁awful	-11167
▁filing	-11168
former	-11169
▁Sac	-11170
▁Yang	-11171
▁sustained	-11172
▁favourite	-11173
bus	-11174
▁hosting	-11175
▁operators	-11176
▁resort	-11177
▁>>	-11178
▁entity	-11179
▁rhy	-11180
▁surge	-11181
isive	-11182
▁riders	-11183
untu	-11184
▁Side	-11185
▁Ian	-11186
▁slide	-11187
▁Manager	-11188
▁Kas	-11189
▁panels	-11190
▁600	-11191
TR	-11192
▁Rap	-11193
armed	-11194
▁Pel	-11195
▁Sessions	-11196
▁examined	-11197
▁Players	-11198
iah	-11199
▁consists	-11200
▁container	-11201
▁sentiment	-11202
▁liberty	-11203
▁theater	-11204
inally	-11205
▁</	-11206
▁Rh	-11207
encer	-11208
▁constructed	-11209
▁advent	-11210
▁intrig	-11211
▁Kickstarter	-11212
incial	-11213
▁HTML	-11214
▁oldest	-11215
▁praised	-11216
ocur	-11217
▁Text	-11218
▁dirty	-11219
▁eru	-11220
▁beaten	-11221
▁graphic	-11222
▁Beyond	-11223
▁1998	-11224
▁Row	-11225
ilst	-11226
▁leak	-11227
▁meanwhile	-11228
▁wisdom	-11229
▁convenient	-11230
▁synd	-11231
▁preview	-11232
▁uncomfortable	-11233
▁bip	-11234
▁automatic	-11235
▁Speaker	-11236
▁Todd	-11237
century	-11238
▁$9	-11239
▁Blu	-11240
▁creator	-11241
▁interactions	-11242
▁Fun	-11243
▁surre	-11244
▁controller	-11245
▁Nap	-11246
▁Huff	-11247
▁discrimin	-11248
600	-11249
▁devastating	-11250
rons	-11251
▁anonym	-11252
▁fishing	-11253
▁5-	-11254
▁1000	-11255
accept	-11256
▁neur	-11257
▁finishing	-11258
▁Jess	-11259
▁infant	-11260
opp	-11261
▁Bah	-11262
▁torn	-11263
▁Fergus	-11264
charg	-11265
▁dealt	-11266
▁mortgage	-11267
▁Mas	-11268
▁globe	-11269
▁cleared	-11270
▁Swedish	-11271
▁displays	-11272
▁significance	-11273
▁Eagles	-11274
▁Heat	-11275
▁Chrome	-11276
▁occupation	-11277
▁Bab	-11278
▁Cos	-11279
▁robots	-11280
▁anch	-11281
celona	-11282
▁availability	-11283
▁municipal	-11284
anyahu	-11285
▁rivals	-11286
▁Brandon	-11287
▁possibilities	-11288
▁mm	-11289
▁Motor	-11290
▁72	-11291
▁Storm	-11292
▁Vladimir	-11293
▁affects	-11294
▁reviewed	-11295
▁polar	-11296
▁experimental	-11297
▁Ward	-11298
▁deserves	-11299
May	-11300
▁Na	-11301
▁debates	-11302
▁layers	-11303
▁Mitchell	-11304
▁misc	-11305
▁earning	-11306
▁converted	-11307
▁attorneys	-11308
▁radar	-11309
▁golf	-11310
▁documented	-11311
▁Gab	-11312
▁ambitious	-11313
words	-11314
comp	-11315
▁Lions	-11316
▁trips	-11317
▁exploit	-11318
▁bizarre	-11319
EMENT	-11320
user	-11321
kward	-11322
▁Swit	-11323
▁analys	-11324
▁Safety	-11325
▁walks	-11326
agu	-11327
fers	-11328
▁wore	-11329
▁Watson	-11330
▁detained	-11331
▁predec	-11332
▁Len	-11333
▁prayer	-11334
itty	-11335
▁Lady	-11336
▁offseason	-11337
ailing	-11338
▁Congressional	-11339
▁Ky	-11340
rc	-11341
▁ther	-11342
▁safely	-11343
▁secular	-11344
▁Benj	-11345
arios	-11346
.[3]	-11347
▁Magazine	-11348
▁fucking	-11349
▁interven	-11350
▁Madrid	-11351
▁mysterious	-11352
uels	-11353
▁combine	-11354
xide	-11355
▁Hann	-11356
▁lady	-11357
▁Lie	-11358
bin	-11359
▁reserve	-11360
neg	-11361
▁2)	-11362
▁crossing	-11363
rencies	-11364
▁scrutiny	-11365
olly	-11366
▁tu	-11367
owder	-11368
▁comed	-11369
▁Beat	-11370
▁amongst	-11371
▁horrible	-11372
▁Parker	-11373
▁rewards	-11374
▁Berkeley	-11375
▁Hunter	-11376
first	-11377
▁steal	-11378
▁complexity	-11379
▁Bloomberg	-11380
▁regret	-11381
▁delivering	-11382
Int	-11383
winning	-11384
▁12-	-11385
▁seeds	-11386
▁mothers	-11387
▁ranging	-11388
▁align	-11389
▁addressing	-11390
oop	-11391
▁documentation	-11392
DC	-11393
▁$500	-11394
▁competitors	-11395
beat	-11396
▁lighting	-11397
▁Blog	-11398
profile	-11399
▁arrests	-11400
link	-11401
▁pregnancy	-11402
iors	-11403
▁viable	-11404
▁adoption	-11405
▁environments	-11406
▁overnight	-11407
▁duties	-11408
▁collecting	-11409
uably	-11410
▁Commissioner	-11411
▁rebel	-11412
▁appearing	-11413
err	-11414
▁inhab	-11415
▁indication	-11416
▁peer	-11417
ching	-11418
▁carrier	-11419
▁unfortunately	-11420
named	-11421
▁delegates	-11422
▁relatives	-11423
▁(7	-11424
▁Chall	-11425
▁crossed	-11426
kind	-11427
▁murdered	-11428
▁mouse	-11429
▁Doug	-11430
▁Stein	-11431
TE	-11432
▁acted	-11433
▁tale	-11434
arded	-11435
▁corn	-11436
▁Marshall	-11437
arts	-11438
isting	-11439
▁Melbourne	-11440
▁publisher	-11441
▁toss	-11442
arer	-11443
▁cease	-11444
▁pension	-11445
iated	-11446
▁Posts	-11447
Or	-11448
▁360	-11449
▁coord	-11450
▁drops	-11451
▁Karl	-11452
▁IV	-11453
aments	-11454
arians	-11455
▁Pur	-11456
▁catast	-11457
block	-11458
▁viewing	-11459
▁76	-11460
▁Advertisements	-11461
.[12	-11462
▁Baker	-11463
▁Kyle	-11464
seless	-11465
▁Airport	-11466
Ps	-11467
▁pour	-11468
▁reign	-11469
▁venue	-11470
▁witnessed	-11471
▁Print	-11472
▁restricted	-11473
▁violated	-11474
▁pricing	-11475
▁Netanyahu	-11476
▁Currently	-11477
▁Federation	-11478
▁commentary	-11479
▁Gene	-11480
shot	-11481
ART	-11482
ESS	-11483
uke	-11484
...”	-11485
▁whis	-11486
▁Amb	-11487
▁Morris	-11488
▁delayed	-11489
▁ambassador	-11490
▁McM	-11491
▁nights	-11492
▁relie	-11493
▁Campbell	-11494
▁Coalition	-11495
▁meets	-11496
▁indu	-11497
▁sons	-11498
▁Naz	-11499
▁bugs	-11500
▁spray	-11501
▁citizenship	-11502
▁Draft	-11503
▁Sad	-11504
▁exploring	-11505
▁altogether	-11506
founder	-11507
▁toug	-11508
▁remembered	-11509
▁limitations	-11510
..."	-11511
▁Arena	-11512
ATED	-11513
▁burst	-11514
▁fires	-11515
HT	-11516
▁desert	-11517
▁employer	-11518
▁libraries	-11519
bles	-11520
▁Ca	-11521
mart	-11522
▁Express	-11523
government	-11524
▁winners	-11525
ugs	-11526
▁chemicals	-11527
▁celebrated	-11528
athon	-11529
▁sleeping	-11530
▁ensuring	-11531
▁newspapers	-11532
▁stir	-11533
KE	-11534
ects	-11535
▁Mobile	-11536
▁orange	-11537
▁caution	-11538
▁reflected	-11539
▁abund	-11540
▁6-	-11541
▁bathroom	-11542
▁intelligent	-11543
47	-11544
▁firearms	-11545
ui	-11546
▁threshold	-11547
▁Je	-11548
obby	-11549
ques	-11550
▁commod	-11551
▁conced	-11552
▁Barcelona	-11553
otion	-11554
▁coins	-11555
fi	-11556
mons	-11557
▁replacing	-11558
48	-11559
▁Mitt	-11560
▁Forces	-11561
oyd	-11562
istance	-11563
▁questioning	-11564
▁Soon	-11565
▁1.2	-11566
▁themes	-11567
▁Buck	-11568
▁DJ	-11569
ected	-11570
▁verify	-11571
▁Saint	-11572
▁tissue	-11573
▁Laure	-11574
▁grants	-11575
▁pending	-11576
▁Ferguson	-11577
▁WAS	-11578
▁Legisl	-11579
▁designated	-11580
▁2005,	-11581
▁countless	-11582
▁aspir	-11583
▁hiding	-11584
rike	-11585
▁sizes	-11586
▁Natural	-11587
▁startup	-11588
▁Money	-11589
aucus	-11590
GA	-11591
▁installation	-11592
▁Ry	-11593
▁courses	-11594
▁4:	-11595
▁oxygen	-11596
▁notably	-11597
▁equipped	-11598
prot	-11599
▁Mom	-11600
ierre	-11601
Leaks	-11602
▁migration	-11603
▁calculated	-11604
▁Tell	-11605
gov	-11606
fs	-11607
▁laptop	-11608
emin	-11609
▁Hawaii	-11610
▁tablet	-11611
▁appointment	-11612
▁Roc	-11613
acies	-11614
▁Ga	-11615
▁suggestions	-11616
▁unl	-11617
▁gradually	-11618
▁Regard	-11619
▁Senior	-11620
▁Hend	-11621
▁Similarly	-11622
FO	-11623
ttes	-11624
ocial	-11625
urities	-11626
▁bonds	-11627
▁Hond	-11628
▁impose	-11629
▁2,000	-11630
▁supporter	-11631
avery	-11632
cular	-11633
▁advised	-11634
▁faculty	-11635
▁quietly	-11636
▁hunt	-11637
▁Brand	-11638
▁Dub	-11639
▁chamber	-11640
emit	-11641
commun	-11642
PI	-11643
▁curve	-11644
▁disappeared	-11645
piece	-11646
▁Beng	-11647
▁wound	-11648
▁actress	-11649
rait	-11650
omach	-11651
▁Song	-11652
▁''	-11653
▁Want	-11654
▁tempt	-11655
quer	-11656
▁Arts	-11657
▁Kerry	-11658
▁sophisticated	-11659
uj	-11660
▁pledge	-11661
oda	-11662
▁FCC	-11663
▁demo	-11664
▁Lawrence	-11665
▁planes	-11666
ols	-11667
bie	-11668
▁Fro	-11669
▁beef	-11670
▁Farm	-11671
▁stunning	-11672
▁10%	-11673
isode	-11674
rup	-11675
▁Dakota	-11676
atal	-11677
arently	-11678
▁drafted	-11679
▁commands	-11680
▁parameters	-11681
▁Campaign	-11682
▁marginal	-11683
▁frustration	-11684
▁prol	-11685
▁styles	-11686
▁Dom	-11687
gments	-11688
▁tends	-11689
▁builds	-11690
▁Whatever	-11691
▁advocacy	-11692
▁preparation	-11693
~~	-11694
▁endless	-11695
▁fascinating	-11696
▁Treat	-11697
▁complain	-11698
▁gentle	-11699
▁psychiat	-11700
▁cultiv	-11701
▁Political	-11702
two	-11703
▁cruel	-11704
▁Cut	-11705
▁damn	-11706
▁doctr	-11707
▁Benjamin	-11708
▁fet	-11709
▁directors	-11710
▁weaken	-11711
▁drinks	-11712
▁Obviously	-11713
▁Anyone	-11714
▁stressed	-11715
▁prevented	-11716
▁Mov	-11717
▁poorly	-11718
▁translation	-11719
cre	-11720
▁makers	-11721
bet	-11722
▁Something	-11723
▁suggestion	-11724
▁hearts	-11725
opt	-11726
▁adj	-11727
▁contents	-11728
▁MA	-11729
map	-11730
function	-11731
▁reactions	-11732
▁separated	-11733
▁COM	-11734
▁arena	-11735
omer	-11736
rior	-11737
▁transmission	-11738
.),	-11739
TIS	-11740
▁Bart	-11741
mid	-11742
▁Abbott	-11743
▁yard	-11744
uates	-11745
▁happiness	-11746
▁EX	-11747
alid	-11748
▁Rice	-11749
▁praise	-11750
▁shocking	-11751
▁scratch	-11752
▁Need	-11753
▁Election	-11754
▁drones	-11755
▁suprem	-11756
▁agriculture	-11757
▁technological	-11758
▁annually	-11759
appropriate	-11760
▁Nevertheless	-11761
▁Sep	-11762
arma	-11763
open	-11764
▁cous	-11765
▁NCAA	-11766
▁protections	-11767
▁Barry	-11768
▁800	-11769
▁Awards	-11770
▁Investig	-11771
▁cave	-11772
▁essay	-11773
▁Alberta	-11774
▁capability	-11775
▁Rain	-11776
▁partially	-11777
▁permitted	-11778
Of	-11779
burn	-11780
bably	-11781
outing	-11782
News	-11783
▁Switzer	-11784
▁UI	-11785
▁demonstration	-11786
▁McConnell	-11787
▁forb	-11788
▁Tampa	-11789
▁strongest	-11790
▁rice	-11791
▁awkward	-11792
▁Occup	-11793
▁circles	-11794
▁BL	-11795
orical	-11796
▁greet	-11797
▁Christianity	-11798
▁divide	-11799
▁furn	-11800
▁discipline	-11801
▁fo	-11802
▁buyers	-11803
▁Chance	-11804
ori	-11805
ernel	-11806
▁trucks	-11807
▁assumption	-11808
atre	-11809
▁instantly	-11810
gary	-11811
▁worlds	-11812
▁2-	-11813
▁alike	-11814
formance	-11815
▁addiction	-11816
▁logical	-11817
▁patrol	-11818
▁ritual	-11819
▁epid	-11820
▁hostile	-11821
uming	-11822
▁63	-11823
▁tum	-11824
▁supplement	-11825
▁highlighted	-11826
▁Raid	-11827
/3	-11828
▁golden	-11829
kes	-11830
▁metaph	-11831
Ass	-11832
pot	-11833
oj	-11834
polit	-11835
▁Evans	-11836
▁Deputy	-11837
▁shooter	-11838
▁understands	-11839
▁mandatory	-11840
oples	-11841
▁crown	-11842
▁Records	-11843
▁incorrect	-11844
▁celebration	-11845
▁exploration	-11846
▁Rogers	-11847
▁tob	-11848
▁1996	-11849
▁Prior	-11850
▁pressing	-11851
aman	-11852
▁Bond	-11853
▁toll	-11854
udeau	-11855
▁coordinator	-11856
▁climb	-11857
▁dil	-11858
▁Hotel	-11859
▁WATCH	-11860
▁Eventually	-11861
▁BE	-11862
▁ghost	-11863
▁ineff	-11864
uh	-11865
▁Philip	-11866
TO	-11867
▁mechanisms	-11868
▁Chap	-11869
speed	-11870
▁Kirk	-11871
▁boundaries	-11872
▁vaccine	-11873
UD	-11874
▁spy	-11875
▁Almost	-11876
▁arguably	-11877
▁audiences	-11878
▁decor	-11879
▁fastest	-11880
▁Around	-11881
▁honestly	-11882
▁conservation	-11883
stan	-11884
▁Kit	-11885
▁focuses	-11886
▁Indians	-11887
oons	-11888
▁0.5	-11889
▁enterprise	-11890
▁Notes	-11891
▁67	-11892
▁parks	-11893
▁historically	-11894
minded	-11895
▁grave	-11896
▁accomplished	-11897
▁depos	-11898
▁seventh	-11899
▁Terry	-11900
▁starter	-11901
▁experiencing	-11902
itate	-11903
▁Hus	-11904
▁mechanics	-11905
▁Swiss	-11906
▁safer	-11907
▁prosper	-11908
pling	-11909
▁Corps	-11910
▁shake	-11911
▁lyr	-11912
▁Maine	-11913
borne	-11914
▁powered	-11915
▁Salt	-11916
▁Members	-11917
asted	-11918
▁Oxford	-11919
▁painted	-11920
▁sauce	-11921
▁placing	-11922
▁Christie	-11923
▁bears	-11924
▁illegally	-11925
count	-11926
▁Lock	-11927
▁devoted	-11928
▁singing	-11929
▁mountains	-11930
▁Ta	-11931
▁Ped	-11932
▁fract	-11933
anches	-11934
aughters	-11935
▁lineback	-11936
▁References	-11937
orer	-11938
▁Tea	-11939
▁Emb	-11940
▁overd	-11941
▁recept	-11942
▁anarch	-11943
▁respective	-11944
py	-11945
uez	-11946
▁bubble	-11947
13]	-11948
▁lone	-11949
▁applying	-11950
▁Ess	-11951
After	-11952
handed	-11953
natural	-11954
▁Due	-11955
.[7	-11956
zes	-11957
sk	-11958
▁subsidies	-11959
▁printing	-11960
rint	-11961
▁hacking	-11962
▁summary	-11963
▁Gray	-11964
▁Cohen	-11965
elled	-11966
▁penalties	-11967
abling	-11968
▁dign	-11969
▁Hum	-11970
▁electrical	-11971
▁ash	-11972
▁flew	-11973
ologically	-11974
▁sacrifice	-11975
▁traveled	-11976
▁Inside	-11977
acular	-11978
▁Works	-11979
▁unnecessary	-11980
▁mild	-11981
mother	-11982
▁Tyler	-11983
▁Keith	-11984
▁Hispan	-11985
▁investing	-11986
▁revealing	-11987
▁Tun	-11988
▁interrupt	-11989
▁observations	-11990
▁cats	-11991
▁Brus	-11992
▁Conservatives	-11993
▁animated	-11994
▁$50	-11995
▁Neil	-11996
▁tunnel	-11997
▁1.1	-11998
ims	-11999
▁entities	-12000
▁Switzerland	-12001
ocus	-12002
▁Alt	-12003
▁priorities	-12004
uccess	-12005
▁crops	-12006
valid	-12007
▁Fried	-12008
▁emerge	-12009
▁ethics	-12010
.[4]	-12011
▁Jets	-12012
▁quantum	-12013
ridge	-12014
▁feminist	-12015
46	-12016
▁Rail	-12017
▁Firef	-12018
▁haz	-12019
version	-12020
▁stomach	-12021
▁acquisition	-12022
▁longest	-12023
ND	-12024
rin	-12025
▁receives	-12026
ICE	-12027
▁Franklin	-12028
While	-12029
rot	-12030
lesh	-12031
▁UPD	-12032
▁Fantasy	-12033
▁grocer	-12034
▁confirmation	-12035
▁qualify	-12036
Ad	-12037
▁bitter	-12038
▁vague	-12039
▁tutorial	-12040
▁Rio	-12041
connect	-12042
▁frank	-12043
▁Wikipedia	-12044
iciary	-12045
▁Trudeau	-12046
cat	-12047
half	-12048
ipher	-12049
sur	-12050
▁orientation	-12051
▁derived	-12052
MAN	-12053
▁computing	-12054
▁frustrated	-12055
flow	-12056
▁gaining	-12057
storm	-12058
▁Fast	-12059
▁$30	-12060
▁transformation	-12061
atoes	-12062
▁Military	-12063
verning	-12064
▁counties	-12065
▁cultures	-12066
drop	-12067
▁Hey	-12068
▁crowds	-12069
▁pedest	-12070
▁calendar	-12071
comed	-12072
▁initiatives	-12073
▁Cand	-12074
ulpt	-12075
▁Try	-12076
▁tobacco	-12077
mare	-12078
▁12.	-12079
▁breach	-12080
itivity	-12081
▁Friends	-12082
▁expertise	-12083
requ	-12084
▁operates	-12085
▁greenhouse	-12086
▁Brady	-12087
▁Temple	-12088
▁meth	-12089
▁harvest	-12090
▁enjoying	-12091
▁WikiLeaks	-12092
▁achievement	-12093
▁BR	-12094
▁tune	-12095
▁Pok	-12096
▁pays	-12097
byn	-12098
▁ceiling	-12099
▁Aw	-12100
▁rotation	-12101
▁resigned	-12102
size	-12103
▁Saints	-12104
▁Nav	-12105
▁rehab	-12106
DAY	-12107
uerto	-12108
▁contributing	-12109
Res	-12110
▁1997	-12111
▁earl	-12112
▁scenarios	-12113
oria	-12114
SE	-12115
▁humanitarian	-12116
▁bund	-12117
▁tar	-12118
▁balanced	-12119
▁exchanges	-12120
pg	-12121
▁Diff	-12122
▁node	-12123
formed	-12124
▁peers	-12125
km	-12126
▁Chuck	-12127
boards	-12128
▁Vers	-12129
▁Scar	-12130
▁oversight	-12131
icut	-12132
▁cam	-12133
bart	-12134
anded	-12135
liminary	-12136
▁cryptocur	-12137
▁till	-12138
▁Fisher	-12139
▁prototype	-12140
▁conversion	-12141
string	-12142
▁responding	-12143
▁popul	-12144
▁Bund	-12145
▁Dougl	-12146
▁Buffalo	-12147
mun	-12148
▁Circuit	-12149
oa	-12150
▁Speed	-12151
▁READ	-12152
mn	-12153
nor	-12154
▁Dri	-12155
▁Oscar	-12156
▁Yahoo	-12157
ults	-12158
▁motivation	-12159
Russ	-12160
▁exem	-12161
▁sentences	-12162
▁density	-12163
onia	-12164
▁Besides	-12165
▁bio	-12166
▁conclusions	-12167
▁cake	-12168
SU	-12169
▁Arctic	-12170
▁economies	-12171
▁scary	-12172
ryption	-12173
▁acquire	-12174
▁highway	-12175
▁distinction	-12176
vious	-12177
▁resur	-12178
outheast	-12179
▁EV	-12180
▁WWE	-12181
▁Krist	-12182
ortunate	-12183
▁nonprofit	-12184
umbled	-12185
?'	-12186
las	-12187
▁serial	-12188
jan	-12189
▁reserves	-12190
lli	-12191
▁Neither	-12192
▁jokes	-12193
▁insane	-12194
▁shorter	-12195
utt	-12196
▁Cu	-12197
▁Prin	-12198
▁manufacturer	-12199
▁priest	-12200
▁AB	-12201
ayed	-12202
▁composed	-12203
▁treating	-12204
▁anticipated	-12205
▁agricultural	-12206
▁heritage	-12207
pin	-12208
▁pione	-12209
▁desired	-12210
specific	-12211
test	-12212
▁Arkansas	-12213
▁ideological	-12214
▁Century	-12215
14]	-12216
▁Lynch	-12217
▁Norway	-12218
icts	-12219
▁Rodrig	-12220
▁intensity	-12221
acer	-12222
▁lanes	-12223
▁Medicine	-12224
▁residence	-12225
▁grateful	-12226
di	-12227
▁buzz	-12228
▁Venezuela	-12229
▁toile	-12230
▁hatred	-12231
▁Liberty	-12232
▁designers	-12233
▁appeals	-12234
▁explosive	-12235
SD	-12236
ivan	-12237
Image	-12238
▁posed	-12239
▁participated	-12240
▁Susan	-12241
▁churches	-12242
▁flexible	-12243
▁condemned	-12244
brew	-12245
▁spreading	-12246
irs	-12247
▁Number	-12248
▁attributed	-12249
▁ugly	-12250
▁secured	-12251
▁dispar	-12252
▁acceptance	-12253
▁Lucas	-12254
▁freely	-12255
▁completion	-12256
incinn	-12257
▁filling	-12258
▁monetary	-12259
arettes	-12260
▁ears	-12261
▁Maria	-12262
▁formally	-12263
▁respected	-12264
▁distant	-12265
initely	-12266
▁imperial	-12267
▁declare	-12268
▁attendance	-12269
▁Elsa	-12270
▁sher	-12271
atile	-12272
▁beloved	-12273
▁islands	-12274
▁deliberately	-12275
ockets	-12276
▁equity	-12277
matic	-12278
▁Jake	-12279
Fig	-12280
supp	-12281
▁sword	-12282
▁Warriors	-12283
▁1930	-12284
▁clever	-12285
think	-12286
▁Harvey	-12287
▁pressed	-12288
hill	-12289
▁exped	-12290
▁Select	-12291
▁rumors	-12292
▁por	-12293
otypes	-12294
ECT	-12295
▁Ju	-12296
▁respondents	-12297
▁Ath	-12298
▁Corn	-12299
68	-12300
imens	-12301
▁deployment	-12302
▁62	-12303
file	-12304
▁mamm	-12305
Co	-12306
sign	-12307
▁condemn	-12308
▁Contact	-12309
▁affair	-12310
▁Puerto	-12311
▁disclosure	-12312
▁turb	-12313
▁Columbus	-12314
.[5]	-12315
▁GPU	-12316
▁Past	-12317
▁panic	-12318
ilateral	-12319
▁Meet	-12320
▁announcing	-12321
▁approve	-12322
▁composition	-12323
▁controlling	-12324
▁chap	-12325
western	-12326
▁touched	-12327
▁(9	-12328
▁Stre	-12329
▁crude	-12330
orient	-12331
▁editors	-12332
▁McL	-12333
iary	-12334
chron	-12335
▁heaven	-12336
▁directions	-12337
▁68	-12338
▁portfol	-12339
▁judicial	-12340
▁Danny	-12341
▁worthy	-12342
▁1995	-12343
▁recy	-12344
mi	-12345
▁volunteer	-12346
sized	-12347
story	-12348
incinnati	-12349
▁advantages	-12350
▁operational	-12351
VERTIS	-12352
▁bones	-12353
NG	-12354
ATION	-12355
rane	-12356
prising	-12357
▁dispos	-12358
idding	-12359
▁Solar	-12360
▁);	-12361
▁incomp	-12362
▁Morning	-12363
▁Luck	-12364
▁raid	-12365
▁Robin	-12366
▁instruments	-12367
wid	-12368
▁quotes	-12369
dev	-12370
▁Communist	-12371
▁Bh	-12372
▁naked	-12373
▁tensions	-12374
▁Reading	-12375
▁FDA	-12376
-11	-12377
▁61	-12378
▁knocked	-12379
▁whistle	-12380
▁particles	-12381
▁bass	-12382
Rep	-12383
Col	-12384
second	-12385
▁RC	-12386
▁flexibility	-12387
econom	-12388
▁fright	-12389
▁shifted	-12390
▁rocks	-12391
▁excessive	-12392
▁lung	-12393
▁identifying	-12394
eu	-12395
guard	-12396
▁Holland	-12397
▁Imagine	-12398
▁Partners	-12399
▁conj	-12400
▁pink	-12401
sing	-12402
▁welcomed	-12403
▁Charlotte	-12404
hol	-12405
▁$25	-12406
▁mechanical	-12407
Mus	-12408
▁HP	-12409
▁2004,	-12410
written	-12411
powered	-12412
▁triggered	-12413
▁reaches	-12414
gi	-12415
▁Weiss	-12416
▁viral	-12417
▁Must	-12418
▁consequence	-12419
product	-12420
▁infring	-12421
dale	-12422
agraph	-12423
▁Pence	-12424
▁Corbyn	-12425
▁Connecticut	-12426
▁difficulties	-12427
▁Raven	-12428
▁wings	-12429
uto	-12430
ropolitan	-12431
▁resolved	-12432
auc	-12433
▁Pred	-12434
▁absent	-12435
bage	-12436
▁ADVERTIS	-12437
▁legislature	-12438
▁pursuing	-12439
IO	-12440
▁slavery	-12441
▁rushed	-12442
▁defenders	-12443
▁incons	-12444
▁colleague	-12445
rust	-12446
▁fluid	-12447
▁fest	-12448
▁disturbing	-12449
-16	-12450
▁Mission	-12451
.25	-12452
▁rifle	-12453
▁Consider	-12454
zb	-12455
erving	-12456
▁wrapped	-12457
llers	-12458
▁reply	-12459
whe	-12460
▁Phone	-12461
▁excitement	-12462
▁floating	-12463
IST	-12464
▁Merkel	-12465
▁avoided	-12466
▁earliest	-12467
▁Bou	-12468
▁clicking	-12469
pace	-12470
▁Fel	-12471
▁grasp	-12472
▁colleges	-12473
▁Anim	-12474
owell	-12475
▁reminded	-12476
▁77	-12477
▁reson	-12478
▁interf	-12479
▁Verizon	-12480
▁interrog	-12481
▁MM	-12482
code	-12483
orig	-12484
▁Joy	-12485
▁Crown	-12486
▁tel	-12487
▁zones	-12488
▁trapped	-12489
crat	-12490
ighed	-12491
itably	-12492
▁refusing	-12493
▁innings	-12494
▁sparked	-12495
▁processor	-12496
▁instinct	-12497
▁Imper	-12498
▁whites	-12499
▁technically	-12500
because	-12501
▁lifted	-12502
▁pledged	-12503
▁aest	-12504
SL	-12505
▁Fab	-12506
▁harmful	-12507
▁survivors	-12508
▁duration	-12509
▁3.5	-12510
▁Updated	-12511
ella	-12512
▁Tig	-12513
▁exports	-12514
▁spacecraft	-12515
▁wishes	-12516
▁1/2	-12517
▁Thunder	-12518
abetes	-12519
▁satisfied	-12520
▁Load	-12521
data	-12522
eller	-12523
▁subt	-12524
chi	-12525
▁elderly	-12526
▁divorce	-12527
▁hackers	-12528
▁suitable	-12529
▁Arthur	-12530
▁immigrant	-12531
izard	-12532
stock	-12533
▁Thor	-12534
▁Resear	-12535
odge	-12536
▁11.	-12537
▁Dest	-12538
▁Cincinnati	-12539
fold	-12540
▁Pap	-12541
▁grip	-12542
keeper	-12543
▁sends	-12544
▁stocks	-12545
▁ft	-12546
▁(2)	-12547
▁deciding	-12548
▁IRS	-12549
▁Stars	-12550
▁Shan	-12551
▁abol	-12552
▁flip	-12553
▁probability	-12554
▁conducting	-12555
▁habits	-12556
▁MC	-12557
▁optimistic	-12558
▁hier	-12559
▁assured	-12560
▁empire	-12561
▁neglect	-12562
▁economists	-12563
▁declaration	-12564
group	-12565
leton	-12566
▁Advent	-12567
▁template	-12568
abil	-12569
▁tendency	-12570
▁traditionally	-12571
▁Oliver	-12572
▁hybrid	-12573
▁texts	-12574
▁tragic	-12575
▁tourists	-12576
▁MD	-12577
67	-12578
▁Madison	-12579
▁teenager	-12580
▁minorities	-12581
▁steep	-12582
▁provincial	-12583
▁Garden	-12584
▁Carson	-12585
▁constrain	-12586
dec	-12587
▁parliamentary	-12588
▁NEW	-12589
▁compliance	-12590
▁alternatives	-12591
SC	-12592
▁indicating	-12593
▁temporarily	-12594
gree	-12595
nered	-12596
▁legendary	-12597
▁waited	-12598
▁Brussels	-12599
urned	-12600
▁Rank	-12601
▁preval	-12602
▁headline	-12603
oard	-12604
▁magical	-12605
orph	-12606
aukee	-12607
▁immense	-12608
▁assuming	-12609
▁romantic	-12610
▁breakfast	-12611
▁Living	-12612
▁mutual	-12613
iva	-12614
▁approaching	-12615
never	-12616
▁vegan	-12617
sky	-12618
▁Employ	-12619
▁barriers	-12620
▁Bears	-12621
▁fitness	-12622
▁hopeful	-12623
Name	-12624
UTERS	-12625
▁Guide	-12626
▁squee	-12627
▁Bos	-12628
abl	-12629
▁Rams	-12630
▁token	-12631
▁Country	-12632
▁Jefferson	-12633
▁Fixed	-12634
▁Islands	-12635
▁undermine	-12636
▁wallet	-12637
▁compos	-12638
around	-12639
▁Seven	-12640
afi	-12641
rained	-12642
▁bless	-12643
usters	-12644
▁fru	-12645
uri	-12646
▁philosoph	-12647
▁Hi	-12648
charge	-12649
unct	-12650
▁Altern	-12651
▁Memorial	-12652
▁athletic	-12653
▁transparent	-12654
('	-12655
▁Anne	-12656
▁nick	-12657
▁planets	-12658
▁humor	-12659
▁reminder	-12660
▁ethical	-12661
atin	-12662
▁pursuit	-12663
last	-12664
▁Belgium	-12665
▁liberals	-12666
▁Turner	-12667
forcement	-12668
▁structural	-12669
▁69	-12670
▁$1,	-12671
▁Nin	-12672
▁mixture	-12673
▁Communications	-12674
▁socialist	-12675
▁BY	-12676
▁tang	-12677
▁brains	-12678
▁(8	-12679
ousing	-12680
▁breakdown	-12681
HING	-12682
beit	-12683
tics	-12684
▁Room	-12685
▁buttons	-12686
vals	-12687
ocate	-12688
▁vibr	-12689
▁champions	-12690
▁sued	-12691
best	-12692
▁fare	-12693
▁purchases	-12694
erer	-12695
inging	-12696
▁Vermont	-12697
▁vel	-12698
▁Hunt	-12699
####	-12700
▁thereby	-12701
NT	-12702
otton	-12703
lash	-12704
▁editing	-12705
▁Member	-12706
▁barrier	-12707
▁detected	-12708
▁trusted	-12709
▁financing	-12710
▁worship	-12711
acceptable	-12712
▁URL	-12713
backed	-12714
▁warnings	-12715
▁WR	-12716
waukee	-12717
ski	-12718
▁preference	-12719
▁lib	-12720
ructive	-12721
▁Od	-12722
▁cartoon	-12723
▁essence	-12724
▁DR	-12725
▁infected	-12726
▁lun	-12727
lly	-12728
▁urge	-12729
▁comply	-12730
▁casting	-12731
▁treatments	-12732
▁Clar	-12733
▁null	-12734
▁identification	-12735
▁Princ	-12736
▁Pi	-12737
▁Save	-12738
▁detain	-12739
▁Bradley	-12740
15]	-12741
▁Ja	-12742
▁15-	-12743
▁Kle	-12744
▁decides	-12745
▁20%	-12746
gregation	-12747
▁Students	-12748
▁licensed	-12749
▁economist	-12750
▁smugg	-12751
▁Cambridge	-12752
▁presumably	-12753
somet	-12754
▁unfortunate	-12755
itbart	-12756
▁frozen	-12757
▁unity	-12758
▁Studio	-12759
▁Il	-12760
▁Glass	-12761
▁grabbed	-12762
ationally	-12763
▁Rosen	-12764
▁auction	-12765
▁Serge	-12766
▁inhib	-12767
▁regulators	-12768
Sc	-12769
note	-12770
▁Guy	-12771
▁disg	-12772
▁Mormon	-12773
enz	-12774
seud	-12775
▁Gonz	-12776
▁strain	-12777
▁evangel	-12778
▁Lane	-12779
▁penet	-12780
▁screening	-12781
▁Nort	-12782
▁vertical	-12783
acent	-12784
▁scrap	-12785
▁silly	-12786
▁embedded	-12787
▁diagnosed	-12788
▁rall	-12789
▁slower	-12790
quality	-12791
azy	-12792
▁PAC	-12793
visor	-12794
▁winds	-12795
▁Universe	-12796
▁attitudes	-12797
eor	-12798
▁meantime	-12799
urred	-12800
▁trop	-12801
▁Universal	-12802
▁aftermath	-12803
fil	-12804
▁Getting	-12805
▁suppose	-12806
▁1994	-12807
▁tong	-12808
▁Cass	-12809
▁Ghost	-12810
XX	-12811
gt	-12812
plex	-12813
▁Prize	-12814
▁imagination	-12815
▁Books	-12816
▁median	-12817
▁advances	-12818
▁Title	-12819
▁sooner	-12820
bling	-12821
▁Coach	-12822
▁masses	-12823
▁QB	-12824
owners	-12825
▁recount	-12826
▁damaging	-12827
roc	-12828
▁Kam	-12829
▁Bash	-12830
▁stabil	-12831
▁execute	-12832
▁separation	-12833
▁horm	-12834
▁Nobody	-12835
Mar	-12836
▁Cher	-12837
▁accountable	-12838
▁lake	-12839
▁font	-12840
▁Polish	-12841
,000,	-12842
gs	-12843
▁nons	-12844
▁streak	-12845
▁purely	-12846
▁Gallery	-12847
2:	-12848
▁Theatre	-12849
main	-12850
irable	-12851
▁conclude	-12852
▁grows	-12853
▁Glenn	-12854
tha	-12855
▁permits	-12856
len	-12857
olk	-12858
▁Virt	-12859
▁reun	-12860
▁Search	-12861
▁retreat	-12862
();	-12863
▁millenn	-12864
▁creep	-12865
▁eleph	-12866
▁gifts	-12867
▁societies	-12868
▁secrets	-12869
▁Peters	-12870
media	-12871
▁Veter	-12872
▁verdict	-12873
when	-12874
▁masc	-12875
▁armor	-12876
▁Celt	-12877
▁pizza	-12878
▁donated	-12879
▁daughters	-12880
AV	-12881
▁189	-12882
▁Finance	-12883
writer	-12884
▁ADVERTISEMENT	-12885
izable	-12886
school	-12887
▁creators	-12888
▁lobbying	-12889
▁unders	-12890
▁careers	-12891
▁Ec	-12892
▁cub	-12893
▁0.00	-12894
▁Mort	-12895
▁governing	-12896
advant	-12897
▁Cowboys	-12898
wal	-12899
CO	-12900
arents	-12901
▁expend	-12902
▁transformed	-12903
▁Garc	-12904
▁honey	-12905
▁lasted	-12906
▁midfielder	-12907
GM	-12908
▁Say	-12909
▁Ebola	-12910
▁admits	-12911
▁sacrific	-12912
uy	-12913
▁edited	-12914
▁donation	-12915
▁visa	-12916
▁Muham	-12917
▁Spirit	-12918
▁Travel	-12919
▁throws	-12920
▁passionate	-12921
Ty	-12922
▁firef	-12923
▁Budget	-12924
▁beers	-12925
▁dispro	-12926
isers	-12927
és	-12928
oner	-12929
▁Amy	-12930
▁fierce	-12931
▁intentions	-12932
anka	-12933
▁Better	-12934
▁Record	-12935
▁generous	-12936
▁Photograph	-12937
▁Johnny	-12938
▁Michelle	-12939
▁Tob	-12940
▁lau	-12941
▁lacking	-12942
▁Devil	-12943
Pal	-12944
▁4-	-12945
▁Argentina	-12946
orses	-12947
▁succeeded	-12948
▁DNC	-12949
estone	-12950
▁commissioner	-12951
idays	-12952
En	-12953
▁AMD	-12954
▁warfare	-12955
▁Indonesia	-12956
▁offset	-12957
▁comparing	-12958
16]	-12959
actor	-12960
five	-12961
esis	-12962
▁Profile	-12963
dig	-12964
fig	-12965
▁bottles	-12966
haul	-12967
▁insect	-12968
▁feared	-12969
▁sequel	-12970
▁Hub	-12971
▁Hindu	-12972
▁suspicious	-12973
▁treaty	-12974
peror	-12975
▁“[	-12976
▁trash	-12977
▁batteries	-12978
resa	-12979
tail	-12980
▁outer	-12981
▁riot	-12982
big	-12983
▁beneficial	-12984
▁demol	-12985
▁Current	-12986
enna	-12987
▁$0	-12988
▁Leaf	-12989
shirt	-12990
▁zomb	-12991
▁indict	-12992
iph	-12993
▁Joh	-12994
▁destroying	-12995
rape	-12996
▁mock	-12997
▁Chapter	-12998
▁dece	-12999
▁aired	-13000
▁rushing	-13001
▁Jennifer	-13002
▁Viol	-13003
▁founding	-13004
LY	-13005
▁Walter	-13006
▁interference	-13007
▁collapsed	-13008
▁recruiting	-13009
▁exempt	-13010
▁decreased	-13011
▁observation	-13012
▁dose	-13013
▁farms	-13014
▁gravity	-13015
pop	-13016
▁Sor	-13017
▁Half	-13018
▁denial	-13019
▁Isa	-13020
▁slave	-13021
▁Sciences	-13022
▁Milwaukee	-13023
▁appealing	-13024
arenthood	-13025
▁Poké	-13026
▁Working	-13027
▁wondered	-13028
eded	-13029
hess	-13030
▁arriving	-13031
rien	-13032
▁counting	-13033
▁capitalist	-13034
▁helicopter	-13035
▁metab	-13036
▁Making	-13037
gian	-13038
▁Alf	-13039
▁JS	-13040
▁failures	-13041
▁Douglas	-13042
▁REUTERS	-13043
▁rib	-13044
▁Too	-13045
points	-13046
▁emotion	-13047
▁directory	-13048
▁acres	-13049
▁screaming	-13050
start	-13051
▁draws	-13052
claimed	-13053
▁disorders	-13054
▁retailers	-13055
▁introducing	-13056
arest	-13057
▁Return	-13058
▁invite	-13059
▁monop	-13060
▁wildlife	-13061
▁organizing	-13062
▁agrees	-13063
▁villages	-13064
700	-13065
urse	-13066
▁fence	-13067
▁enables	-13068
▁cleaning	-13069
▁Fat	-13070
▁Kind	-13071
▁considers	-13072
▁hill	-13073
▁cheer	-13074
▁Bros	-13075
▁width	-13076
69	-13077
ollah	-13078
▁continuous	-13079
store	-13080
▁UPDATE	-13081
▁leverage	-13082
utical	-13083
oni	-13084
.[6]	-13085
▁suspicion	-13086
▁licensing	-13087
▁authorized	-13088
▁Hills	-13089
▁arrangement	-13090
▁unh	-13091
▁Pick	-13092
▁Software	-13093
▁24-	-13094
▁Aqu	-13095
▁isolation	-13096
▁Cond	-13097
▁Collect	-13098
▁workplace	-13099
driven	-13100
▁teens	-13101
▁cluster	-13102
▁Islamist	-13103
cha	-13104
value	-13105
▁Relations	-13106
▁jew	-13107
▁grace	-13108
▁Marco	-13109
▁threaten	-13110
▁believing	-13111
▁boyfriend	-13112
▁sculpt	-13113
▁females	-13114
▁incentive	-13115
▁variation	-13116
▁ultra	-13117
▁novels	-13118
▁Lebanon	-13119
▁Years	-13120
▁touchdowns	-13121
▁fict	-13122
▁taxpayer	-13123
▁smartphones	-13124
▁decks	-13125
▁CM	-13126
▁contam	-13127
▁celebrity	-13128
master	-13129
▁gamers	-13130
▁::	-13131
▁sensor	-13132
▁compound	-13133
ools	-13134
▁Either	-13135
▁shifts	-13136
From	-13137
▁routinely	-13138
▁ampl	-13139
▁Inv	-13140
▁Lisa	-13141
▁dumb	-13142
▁organisations	-13143
▁reconst	-13144
▁negotiate	-13145
ueller	-13146
▁compiled	-13147
hal	-13148
urable	-13149
▁labels	-13150
▁commented	-13151
▁traditions	-13152
anium	-13153
▁feeding	-13154
▁evaluate	-13155
▁translated	-13156
▁plaint	-13157
▁pleaded	-13158
▁Pakistani	-13159
▁awa	-13160
▁boring	-13161
▁78	-13162
▁Hem	-13163
▁Mason	-13164
▁Brooks	-13165
▁urging	-13166
▁educated	-13167
▁Zh	-13168
▁Colomb	-13169
amps	-13170
▁Brun	-13171
cend	-13172
▁Hope	-13173
▁TD	-13174
▁700	-13175
▁doubled	-13176
▁encount	-13177
▁invented	-13178
▁inclusion	-13179
normal	-13180
▁Spencer	-13181
▁encountered	-13182
▁glob	-13183
▁Caption	-13184
▁shed	-13185
▁counterparts	-13186
OG	-13187
▁18-	-13188
▁Bernard	-13189
▁sponsored	-13190
▁retrie	-13191
▁civilization	-13192
▁cocaine	-13193
▁Ubuntu	-13194
▁unveiled	-13195
▁Officials	-13196
▁NPR	-13197
▁rhyth	-13198
▁BJP	-13199
▁1920	-13200
▁Tory	-13201
▁$2.	-13202
▁bust	-13203
▁mentally	-13204
▁breathing	-13205
▁credibility	-13206
▁institutional	-13207
DB	-13208
oler	-13209
ussion	-13210
▁damages	-13211
▁fraction	-13212
▁Workers	-13213
▁marine	-13214
cker	-13215
▁Gay	-13216
▁Jar	-13217
▁branches	-13218
reach	-13219
ugged	-13220
▁sweat	-13221
▁eliminated	-13222
▁proceedings	-13223
ifting	-13224
▁Armen	-13225
▁PL	-13226
coins	-13227
feld	-13228
▁Ave	-13229
▁statistical	-13230
ordable	-13231
▁renewed	-13232
▁Cob	-13233
ctive	-13234
▁tenure	-13235
▁instruction	-13236
▁realm	-13237
▁Calgary	-13238
ublin	-13239
▁Wonder	-13240
▁albums	-13241
▁literary	-13242
olphins	-13243
▁severely	-13244
umm	-13245
▁Ide	-13246
▁genet	-13247
▁cricket	-13248
▁Stop	-13249
▁aging	-13250
aux	-13251
▁Till	-13252
▁Close	-13253
▁snaps	-13254
▁dys	-13255
▁lip	-13256
cribed	-13257
▁compassion	-13258
direct	-13259
▁3,000	-13260
▁Studios	-13261
▁BB	-13262
illo	-13263
zech	-13264
▁meals	-13265
iasm	-13266
▁subscription	-13267
▁lyrics	-13268
▁wheels	-13269
aley	-13270
heric	-13271
▁justified	-13272
lem	-13273
▁Seah	-13274
▁finan	-13275
▁firmly	-13276
▁Spider	-13277
▁shoulders	-13278
▁shar	-13279
▁laser	-13280
Hey	-13281
▁Rah	-13282
▁Wallace	-13283
astically	-13284
issa	-13285
path	-13286
iking	-13287
itative	-13288
▁connecting	-13289
▁crying	-13290
▁establishing	-13291
▁Tribune	-13292
▁cents	-13293
▁consultant	-13294
CD	-13295
▁unch	-13296
▁motorcy	-13297
▁steam	-13298
▁workforce	-13299
▁Goldman	-13300
alog	-13301
tech	-13302
▁Rat	-13303
▁magnitude	-13304
▁Ric	-13305
giving	-13306
▁Eight	-13307
roller	-13308
▁unrest	-13309
▁regards	-13310
ocker	-13311
ello	-13312
nik	-13313
▁74	-13314
▁terminal	-13315
lib	-13316
▁Woman	-13317
▁resume	-13318
▁brave	-13319
▁consumed	-13320
▁2007.	-13321
▁Highway	-13322
▁incentives	-13323
▁cra	-13324
umbling	-13325
▁Liberals	-13326
▁codes	-13327
▁trafficking	-13328
essional	-13329
▁nan	-13330
▁sheer	-13331
▁Carlos	-13332
olo	-13333
1:	-13334
▁exceptions	-13335
▁divers	-13336
▁pepper	-13337
▁filming	-13338
▁preliminary	-13339
▁fundraising	-13340
bull	-13341
▁Merc	-13342
▁Charg	-13343
▁layout	-13344
itated	-13345
▁pilots	-13346
aceutical	-13347
▁Exchange	-13348
▁Gates	-13349
▁spawn	-13350
▁jumping	-13351
▁Electric	-13352
▁traits	-13353
▁lengthy	-13354
▁vacation	-13355
pur	-13356
▁toy	-13357
▁Bennett	-13358
▁Impro	-13359
▁corresponding	-13360
▁Zero	-13361
▁accompany	-13362
▁Nearly	-13363
cca	-13364
plan	-13365
▁Incre	-13366
▁psychology	-13367
.[8	-13368
▁unst	-13369
▁grain	-13370
▁partial	-13371
▁Koch	-13372
▁Nex	-13373
▁monsters	-13374
▁Blues	-13375
▁Sent	-13376
▁hed	-13377
arthy	-13378
▁2001,	-13379
▁overlook	-13380
▁amend	-13381
▁dubbed	-13382
▁reflection	-13383
▁entrepreneurs	-13384
ulative	-13385
=”	-13386
▁suits	-13387
erences	-13388
▁Own	-13389
▁inch	-13390
▁willingness	-13391
hell	-13392
▁contacts	-13393
▁solidarity	-13394
▁GPS	-13395
▁enhanced	-13396
▁Join	-13397
▁observe	-13398
▁convinc	-13399
▁musicians	-13400
ellar	-13401
oline	-13402
▁Researchers	-13403
▁5:	-13404
▁purchasing	-13405
-200	-13406
▁iT	-13407
▁Double	-13408
▁triple	-13409
lie	-13410
▁Init	-13411
▁disappointing	-13412
▁locally	-13413
▁implementing	-13414
days	-13415
▁1992	-13416
aghd	-13417
▁Juan	-13418
▁PT	-13419
▁MMA	-13420
▁Reed	-13421
▁delays	-13422
▁funeral	-13423
▁underway	-13424
▁Nixon	-13425
▁divid	-13426
iots	-13427
▁Kel	-13428
▁Broncos	-13429
raham	-13430
▁Race	-13431
▁thirty	-13432
▁1.3	-13433
▁une	-13434
▁Blair	-13435
▁twist	-13436
▁dism	-13437
▁leather	-13438
▁magnetic	-13439
▁hypothesis	-13440
▁Qaeda	-13441
▁mobil	-13442
▁avoiding	-13443
▁paths	-13444
▁GR	-13445
▁Urban	-13446
home	-13447
ulent	-13448
▁Harrison	-13449
▁endorsed	-13450
▁Breitbart	-13451
ulum	-13452
acker	-13453
▁Denmark	-13454
▁kingdom	-13455
▁peoples	-13456
ppy	-13457
▁Shadow	-13458
▁averaged	-13459
closure	-13460
▁SW	-13461
adows	-13462
▁Analy	-13463
▁climbing	-13464
▁outright	-13465
NET	-13466
▁spare	-13467
▁sectors	-13468
▁creativity	-13469
▁hence	-13470
▁impress	-13471
▁offshore	-13472
igma	-13473
mouth	-13474
▁investor	-13475
▁precious	-13476
stage	-13477
▁audit	-13478
▁kills	-13479
▁hij	-13480
engu	-13481
▁Resources	-13482
▁Representatives	-13483
▁Pere	-13484
▁matching	-13485
▁ACL	-13486
▁maker	-13487
▁Hud	-13488
▁LED	-13489
▁cort	-13490
▁Billy	-13491
▁Dennis	-13492
▁adequate	-13493
▁generating	-13494
▁supportive	-13495
▁Ald	-13496
Am	-13497
https	-13498
controlled	-13499
▁pants	-13500
▁apology	-13501
aha	-13502
▁dirt	-13503
▁worn	-13504
▁statue	-13505
▁indirect	-13506
▁Lost	-13507
▁likelihood	-13508
▁blacks	-13509
▁Sox	-13510
je	-13511
▁escaped	-13512
▁timeline	-13513
▁accounting	-13514
▁0.3	-13515
▁Transportation	-13516
▁dio	-13517
ateur	-13518
opard	-13519
▁trace	-13520
▁Chile	-13521
▁pupp	-13522
▁determination	-13523
2-	-13524
▁2003,	-13525
▁mph	-13526
zo	-13527
▁Unit	-13528
▁Defence	-13529
▁pub	-13530
▁Recently	-13531
▁DM	-13532
▁3.0	-13533
▁origins	-13534
uum	-13535
▁predictions	-13536
iang	-13537
▁Self	-13538
▁accurately	-13539
▁Teh	-13540
▁Iss	-13541
▁affecting	-13542
▁Added	-13543
▁wrestling	-13544
▁Superman	-13545
▁skilled	-13546
ivic	-13547
inance	-13548
outube	-13549
17]	-13550
▁()	-13551
▁Si	-13552
▁Server	-13553
live	-13554
▁Shel	-13555
▁Muhammad	-13556
▁counted	-13557
▁comparable	-13558
▁Brazilian	-13559
▁vegetables	-13560
▁mounted	-13561
asi	-13562
▁Rachel	-13563
▁resignation	-13564
umbl	-13565
eches	-13566
ugging	-13567
▁1940	-13568
▁Gate	-13569
▁Shar	-13570
▁Truth	-13571
▁specialist	-13572
source	-13573
.[7]	-13574
▁Buzz	-13575
rament	-13576
▁afterwards	-13577
▁bankruptcy	-13578
▁shaped	-13579
▁shifting	-13580
▁2018.	-13581
IVE	-13582
▁buses	-13583
▁indigenous	-13584
▁inmates	-13585
affe	-13586
elta	-13587
▁Introdu	-13588
▁publishers	-13589
oday	-13590
▁Ltd	-13591
health	-13592
▁consolid	-13593
ector	-13594
▁Object	-13595
▁tradem	-13596
▁sensors	-13597
▁1993	-13598
▁descript	-13599
▁alternate	-13600
▁esp	-13601
▁chains	-13602
▁shootings	-13603
▁adaptation	-13604
▁Give	-13605
▁earthquake	-13606
▁veto	-13607
▁Movement	-13608
ignt	-13609
▁merc	-13610
▁slaves	-13611
atherine	-13612
Per	-13613
▁neat	-13614
Book	-13615
ride	-13616
▁Vikings	-13617
acious	-13618
lude	-13619
rowth	-13620
▁Gas	-13621
date	-13622
▁swimming	-13623
▁Hockey	-13624
▁Planned	-13625
▁Agree	-13626
▁problematic	-13627
▁embassy	-13628
▁Gear	-13629
Any	-13630
aku	-13631
▁NDP	-13632
▁Palin	-13633
1-	-13634
▁compatible	-13635
▁MO	-13636
▁gray	-13637
▁shore	-13638
▁limiting	-13639
▁Hat	-13640
▁leaf	-13641
▁continent	-13642
▁NG	-13643
▁folk	-13644
▁Mueller	-13645
▁Marl	-13646
rose	-13647
than	-13648
ACK	-13649
ailand	-13650
▁88	-13651
▁Comics	-13652
▁Palestine	-13653
▁Systems	-13654
airy	-13655
have	-13656
▁Pas	-13657
▁von	-13658
▁User	-13659
isible	-13660
▁triumph	-13661
▁vulnerability	-13662
▁Spot	-13663
▁forming	-13664
▁assumptions	-13665
▁0.	-13666
▁sie	-13667
▁Prim	-13668
▁Bryan	-13669
▁Dublin	-13670
▁republic	-13671
▁anime	-13672
▁locals	-13673
▁Seahawks	-13674
▁cod	-13675
▁seiz	-13676
▁lawsuits	-13677
▁certificate	-13678
▁powder	-13679
▁disadvant	-13680
rer	-13681
▁sail	-13682
bean	-13683
▁Agr	-13684
▁Method	-13685
▁Raiders	-13686
▁lesser	-13687
▁corners	-13688
▁Hero	-13689
ML	-13690
MB	-13691
ooting	-13692
▁metres	-13693
▁garbage	-13694
▁Homeland	-13695
/5	-13696
▁HTT	-13697
▁royal	-13698
▁folder	-13699
▁sisters	-13700
▁Upon	-13701
▁intu	-13702
▁tatt	-13703
▁Assistant	-13704
ocumented	-13705
OST	-13706
iosity	-13707
▁Jamie	-13708
Net	-13709
▁wooden	-13710
wart	-13711
▁fib	-13712
▁striker	-13713
▁thoroughly	-13714
oubted	-13715
munition	-13716
▁cycling	-13717
▁leagues	-13718
▁wherever	-13719
▁File	-13720
▁costly	-13721
▁intend	-13722
▁loving	-13723
▁Episode	-13724
▁organize	-13725
▁reasoning	-13726
addy	-13727
▁temple	-13728
▁Iv	-13729
kees	-13730
orns	-13731
▁fuels	-13732
▁broadband	-13733
ocaly	-13734
▁wreck	-13735
▁besides	-13736
▁aggression	-13737
▁tub	-13738
▁attacker	-13739
▁paragraph	-13740
▁Bulls	-13741
▁farming	-13742
▁superhero	-13743
idges	-13744
▁crashed	-13745
▁memorial	-13746
▁interactive	-13747
▁plea	-13748
▁testified	-13749
▁Scientists	-13750
-17	-13751
▁holy	-13752
▁sheriff	-13753
▁teenage	-13754
▁autonomous	-13755
▁inappropriate	-13756
▁abused	-13757
▁laughing	-13758
▁Certain	-13759
etta	-13760
▁slip	-13761
▁airline	-13762
iliation	-13763
▁exhaust	-13764
▁Activ	-13765
▁marry	-13766
▁Original	-13767
▁Fly	-13768
esity	-13769
▁Pros	-13770
levant	-13771
▁betray	-13772
▁medication	-13773
pse	-13774
▁dealers	-13775
▁Apparently	-13776
▁Terror	-13777
▁Silicon	-13778
▁VA	-13779
▁Bryant	-13780
▁portfolio	-13781
people	-13782
▁spill	-13783
▁intercept	-13784
▁rated	-13785
neath	-13786
issance	-13787
▁switched	-13788
▁Forum	-13789
kg	-13790
table	-13791
▁leaks	-13792
▁recalls	-13793
pered	-13794
insula	-13795
▁Edwards	-13796
▁gods	-13797
▁Joined	-13798
anto	-13799
▁Study	-13800
▁stays	-13801
▁unanim	-13802
▁insists	-13803
▁admission	-13804
▁16-	-13805
width	-13806
▁hood	-13807
letter	-13808
▁outdoor	-13809
▁prohibited	-13810
gel	-13811
▁sink	-13812
qual	-13813
▁evaluation	-13814
▁Git	-13815
▁dated	-13816
▁Greens	-13817
IDS	-13818
ahl	-13819
▁oh	-13820
cules	-13821
▁fame	-13822
▁expose	-13823
▁Roth	-13824
▁photographer	-13825
▁obligation	-13826
▁Operation	-13827
▁straightforward	-13828
Sec	-13829
▁bite	-13830
▁Czech	-13831
▁demon	-13832
▁drought	-13833
▁matched	-13834
ambling	-13835
▁lecture	-13836
▁misleading	-13837
▁impe	-13838
▁prest	-13839
▁observers	-13840
ahn	-13841
enc	-13842
▁org	-13843
▁5,000	-13844
▁outbreak	-13845
▁corporation	-13846
▁0.2	-13847
alin	-13848
▁Soul	-13849
iberal	-13850
▁Barbara	-13851
▁imagined	-13852
▁Arn	-13853
▁Mul	-13854
▁Qatar	-13855
-18	-13856
▁mortality	-13857
▁practically	-13858
▁79	-13859
artisan	-13860
▁rankings	-13861
▁REL	-13862
▁Butler	-13863
▁GMT	-13864
ocity	-13865
▁charts	-13866
▁independently	-13867
▁Fourth	-13868
▁Rou	-13869
▁swift	-13870
▁Germans	-13871
▁McCarthy	-13872
▁relating	-13873
east	-13874
ignty	-13875
▁infamous	-13876
▁Days	-13877
▁lap	-13878
20]	-13879
▁halt	-13880
respons	-13881
▁healing	-13882
▁sounded	-13883
▁Cart	-13884
▁loses	-13885
▁behaviors	-13886
▁130	-13887
▁foul	-13888
auer	-13889
actic	-13890
▁Account	-13891
▁diabetes	-13892
▁Parenthood	-13893
bul	-13894
▁Ot	-13895
▁encryption	-13896
▁73	-13897
uced	-13898
▁laboratory	-13899
▁delicious	-13900
▁exercises	-13901
1/	-13902
Even	-13903
▁trap	-13904
▁enthusiasm	-13905
▁trauma	-13906
▁elaborate	-13907
▁Julian	-13908
▁unfold	-13909
tic	-13910
selling	-13911
Who	-13912
▁listing	-13913
▁privately	-13914
gro	-13915
▁110	-13916
▁toys	-13917
entials	-13918
▁sacred	-13919
▁clinic	-13920
▁Richmond	-13921
▁celebrating	-13922
▁Griffin	-13923
olan	-13924
▁raped	-13925
▁detection	-13926
▁tribal	-13927
▁twitter	-13928
lett	-13929
mile	-13930
See	-13931
nesty	-13932
proof	-13933
▁Fitz	-13934
▁disk	-13935
▁transcript	-13936
▁searches	-13937
▁rubber	-13938
▁Malaysia	-13939
▁NA	-13940
▁Mack	-13941
▁declining	-13942
▁algorithms	-13943
iop	-13944
▁GB	-13945
▁HBO	-13946
ullivan	-13947
four	-13948
▁colonial	-13949
ppo	-13950
▁Linked	-13951
▁Creek	-13952
▁Soccer	-13953
▁Thailand	-13954
fix	-13955
cup	-13956
Te	-13957
abul	-13958
▁Auto	-13959
▁gallery	-13960
▁predomin	-13961
irk	-13962
▁nuts	-13963
▁skeptical	-13964
▁convey	-13965
▁frustrating	-13966
NE	-13967
funded	-13968
▁edges	-13969
mination	-13970
▁friendship	-13971
▁MIT	-13972
cs	-13973
.5%	-13974
▁Kill	-13975
▁Browns	-13976
▁MLB	-13977
▁Quick	-13978
▁Spurs	-13979
▁iTunes	-13980
▁reduces	-13981
izont	-13982
▁classical	-13983
▁adjusted	-13984
asm	-13985
▁briefing	-13986
viol	-13987
▁Pokémon	-13988
▁Mi	-13989
▁photography	-13990
▁grat	-13991
▁Bangl	-13992
▁attributes	-13993
▁closure	-13994
▁linebacker	-13995
▁Village	-13996
▁demographic	-13997
▁Learn	-13998
▁effectiveness	-13999
▁Shah	-14000
▁athlete	-14001
▁specified	-14002
blog	-14003
eren	-14004
▁Help	-14005
▁desperately	-14006
▁darkness	-14007
▁Diamond	-14008
▁shy	-14009
▁Cuban	-14010
▁Laura	-14011
▁Iceland	-14012
blem	-14013
black	-14014
hner	-14015
▁bedroom	-14016
DE	-14017
roots	-14018
▁demonstrations	-14019
itis	-14020
othy	-14021
▁Lev	-14022
▁Legend	-14023
▁modules	-14024
▁Shield	-14025
▁consume	-14026
▁fundamentally	-14027
▁MB	-14028
▁cher	-14029
▁Survey	-14030
aws	-14031
▁accountability	-14032
manuel	-14033
ocaust	-14034
remlin	-14035
▁archae	-14036
▁billionaire	-14037
▁substantially	-14038
▁ALL	-14039
▁Gand	-14040
▁Colon	-14041
▁linear	-14042
▁withdrawal	-14043
▁forums	-14044
ieval	-14045
▁chase	-14046
his	-14047
degree	-14048
▁diagnosis	-14049
0,	-14050
▁insure	-14051
▁Break	-14052
missions	-14053
-14	-14054
agging	-14055
▁Pun	-14056
▁classroom	-14057
ovic	-14058
wear	-14059
ository	-14060
oubtedly	-14061
▁historian	-14062
▁__	-14063
▁RAM	-14064
▁dangers	-14065
▁pitcher	-14066
▁disclose	-14067
inos	-14068
▁wrap	-14069
uru	-14070
▁Target	-14071
▁inevitably	-14072
Cal	-14073
▁vessel	-14074
▁Invalid	-14075
▁flowers	-14076
▁Legal	-14077
borough	-14078
HD	-14079
ittees	-14080
▁revised	-14081
▁accommodate	-14082
▁cancelled	-14083
▁Jav	-14084
▁wand	-14085
▁thumb	-14086
iga	-14087
▁bloody	-14088
▁altered	-14089
▁tuned	-14090
▁schemes	-14091
73	-14092
▁medal	-14093
▁deleted	-14094
▁Palace	-14095
▁***	-14096
▁newest	-14097
▁nominated	-14098
▁territories	-14099
▁CBC	-14100
▁Maj	-14101
ioned	-14102
▁orche	-14103
writing	-14104
national	-14105
▁qualities	-14106
▁2000,	-14107
▁Sunni	-14108
▁spectacular	-14109
puted	-14110
▁midst	-14111
▁carriers	-14112
▁maintains	-14113
▁Brothers	-14114
ITY	-14115
oween	-14116
▁reception	-14117
▁infer	-14118
▁midnight	-14119
▁0.9	-14120
lation	-14121
▁eighth	-14122
▁automated	-14123
▁lasting	-14124
▁aide	-14125
rolling	-14126
▁Analysis	-14127
▁unacceptable	-14128
olutions	-14129
▁Hurricane	-14130
▁Snap	-14131
▁formerly	-14132
opes	-14133
▁Rico	-14134
▁ports	-14135
▁exhibition	-14136
▁Bobby	-14137
▁query	-14138
▁uncons	-14139
▁==	-14140
abad	-14141
▁Additional	-14142
▁playback	-14143
▁anonymity	-14144
................	-14145
▁meg	-14146
▁whilst	-14147
▁twin	-14148
▁kernel	-14149
▁denying	-14150
wer	-14151
thirds	-14152
▁dioxide	-14153
▁$40	-14154
▁Starting	-14155
▁fulfill	-14156
pelled	-14157
▁loyalty	-14158
represent	-14159
View	-14160
▁doctrine	-14161
▁freshman	-14162
▁locker	-14163
tor	-14164
feed	-14165
▁wip	-14166
▁mate	-14167
▁labeled	-14168
▁Abs	-14169
▁Phillips	-14170
▁vigil	-14171
ango	-14172
▁risen	-14173
▁bikes	-14174
▁aggreg	-14175
chair	-14176
▁Titan	-14177
▁dash	-14178
▁Regional	-14179
▁monument	-14180
▁Ib	-14181
▁IBM	-14182
▁SO	-14183
▁Visit	-14184
▁considerably	-14185
▁185	-14186
▁202	-14187
▁prox	-14188
▁fines	-14189
▁prescription	-14190
▁Clean	-14191
▁FL	-14192
cill	-14193
ften	-14194
iology	-14195
▁nit	-14196
▁pipe	-14197
px	-14198
team	-14199
▁restored	-14200
▁Fame	-14201
▁organizers	-14202
▁exceptional	-14203
thereum	-14204
▁filmed	-14205
▁Chamber	-14206
azed	-14207
▁Mall	-14208
▁misconduct	-14209
▁examination	-14210
icers	-14211
onge	-14212
▁Kate	-14213
▁regulate	-14214
▁chemistry	-14215
▁genuinely	-14216
marks	-14217
▁Ele	-14218
▁Sandy	-14219
▁wounds	-14220
▁SA	-14221
semble	-14222
▁ignoring	-14223
keys	-14224
▁Hide	-14225
▁honour	-14226
UE	-14227
▁BP	-14228
oping	-14229
▁tackles	-14230
▁ammunition	-14231
▁pile	-14232
ervation	-14233
▁juice	-14234
▁pseud	-14235
▁premiere	-14236
.:	-14237
▁1.4	-14238
▁sexuality	-14239
▁unlimited	-14240
▁Lem	-14241
ortions	-14242
▁relies	-14243
istically	-14244
ulsion	-14245
var	-14246
▁garage	-14247
▁quad	-14248
▁belongs	-14249
▁Politics	-14250
▁Stra	-14251
▁rage	-14252
▁Ultimately	-14253
18]	-14254
▁militant	-14255
▁relate	-14256
▁SL	-14257
▁prejud	-14258
▁VP	-14259
▁Create	-14260
▁arranged	-14261
▁expressing	-14262
Fr	-14263
▁exagger	-14264
Semit	-14265
▁entries	-14266
▁battlefield	-14267
▁Cab	-14268
▁confusing	-14269
▁fancy	-14270
▁killings	-14271
▁Confeder	-14272
▁streams	-14273
72	-14274
▁Marcus	-14275
▁symbols	-14276
▁variations	-14277
▁accidentally	-14278
uki	-14279
▁skull	-14280
▁heroin	-14281
▁Packers	-14282
▁Orthodox	-14283
▁permanently	-14284
mines	-14285
▁binding	-14286
▁unle	-14287
▁outlined	-14288
▁dancing	-14289
▁scram	-14290
▁Really	-14291
▁hungry	-14292
riel	-14293
▁Rush	-14294
wick	-14295
▁grey	-14296
▁manages	-14297
▁translate	-14298
Time	-14299
Qaeda	-14300
▁pound	-14301
▁Commerce	-14302
▁160	-14303
▁unre	-14304
▁Bishop	-14305
▁Applic	-14306
▁strictly	-14307
wealth	-14308
▁preseason	-14309
▁modes	-14310
▁submar	-14311
▁SF	-14312
▁coastal	-14313
▁mentions	-14314
▁Ax	-14315
▁Dawn	-14316
▁Webs	-14317
▁sanct	-14318
▁Planet	-14319
▁partisan	-14320
▁McD	-14321
▁shutdown	-14322
42	-14323
▁cm	-14324
▁occurring	-14325
▁MI	-14326
▁Protest	-14327
▁electro	-14328
▁obligations	-14329
▁Tru	-14330
illery	-14331
▁divisions	-14332
inate	-14333
olutely	-14334
▁demonstrates	-14335
John	-14336
lies	-14337
▁Shi	-14338
ungle	-14339
▁Fran	-14340
▁spirits	-14341
ickets	-14342
▁Border	-14343
▁quo	-14344
▁puzzle	-14345
▁surveys	-14346
▁teenagers	-14347
▁signatures	-14348
ulu	-14349
▁overhaul	-14350
▁Continued	-14351
▁inability	-14352
.[8]	-14353
UI	-14354
▁Month	-14355
Because	-14356
▁od	-14357
▁heter	-14358
▁strings	-14359
▁rendering	-14360
▁publications	-14361
▁15.	-14362
▁artif	-14363
▁drilling	-14364
▁completing	-14365
▁String	-14366
▁governance	-14367
heimer	-14368
▁contractors	-14369
▁Fish	-14370
▁Surv	-14371
uv	-14372
▁Lang	-14373
rus	-14374
clusion	-14375
▁differ	-14376
ranean	-14377
Ed	-14378
▁fiber	-14379
▁mature	-14380
▁13.	-14381
▁Imperial	-14382
▁processed	-14383
▁consistency	-14384
▁confidential	-14385
▁Pin	-14386
▁Pad	-14387
▁speeches	-14388
▁Newton	-14389
lementary	-14390
ipt	-14391
▁encrypt	-14392
▁volumes	-14393
▁corrid	-14394
▁legislators	-14395
▁0.4	-14396
▁Chand	-14397
▁shapes	-14398
▁Assange	-14399
▁tourism	-14400
▁tribute	-14401
space	-14402
▁horses	-14403
▁Dra	-14404
▁Biden	-14405
...]	-14406
▁Bannon	-14407
▁shipped	-14408
rone	-14409
▁artic	-14410
▁bind	-14411
▁tolerance	-14412
▁confronted	-14413
9.99	-14414
▁cargo	-14415
▁spite	-14416
▁spotlight	-14417
▁Cant	-14418
▁yours	-14419
▁defining	-14420
▁embraced	-14421
▁Appe	-14422
▁Few	-14423
▁Beer	-14424
retion	-14425
▁reasonably	-14426
▁140	-14427
▁namely	-14428
▁Daw	-14429
▁lovely	-14430
▁2018,	-14431
▁Nag	-14432
▁Tar	-14433
▁boats	-14434
▁flows	-14435
▁electronics	-14436
fam	-14437
▁Wade	-14438
ripp	-14439
▁Colin	-14440
▁lined	-14441
aton	-14442
Id	-14443
▁snap	-14444
▁vendors	-14445
runner	-14446
▁advers	-14447
▁Pink	-14448
▁genius	-14449
arette	-14450
▁empower	-14451
▁premier	-14452
▁Chronicle	-14453
▁Throughout	-14454
▁2002,	-14455
▁doubts	-14456
!!!	-14457
▁sells	-14458
▁Austria	-14459
Up	-14460
▁subscribing	-14461
names	-14462
▁Okay	-14463
▁Girls	-14464
▁Tigers	-14465
INE	-14466
▁Rodgers	-14467
▁inhabit	-14468
▁Gam	-14469
▁Clay	-14470
▁Zion	-14471
▁leap	-14472
▁melt	-14473
fly	-14474
▁Drag	-14475
▁Nathan	-14476
▁Nancy	-14477
▁Nar	-14478
▁Pete	-14479
▁Regardless	-14480
▁Rud	-14481
▁incumb	-14482
▁enabling	-14483
▁quarters	-14484
sis	-14485
▁Cou	-14486
airo	-14487
working	-14488
▁Classic	-14489
kh	-14490
List	-14491
▁Cape	-14492
▁Batt	-14493
▁Brend	-14494
▁Jesse	-14495
▁rings	-14496
▁Late	-14497
▁travelling	-14498
Christ	-14499
▁liability	-14500
▁Sens	-14501
▁AV	-14502
rawl	-14503
yang	-14504
▁proc	-14505
▁Sources	-14506
▁determining	-14507
▁dense	-14508
▁Tehran	-14509
rones	-14510
▁cute	-14511
▁facilitate	-14512
▁presidents	-14513
aneous	-14514
▁extends	-14515
▁oversee	-14516
▁Animal	-14517
▁guilt	-14518
▁indef	-14519
▁exhibit	-14520
▁victories	-14521
▁underneath	-14522
ocide	-14523
▁spends	-14524
▁dignity	-14525
▁rede	-14526
▁Samuel	-14527
▁98	-14528
▁ware	-14529
mingham	-14530
▁outlet	-14531
apor	-14532
▁MVP	-14533
▁Tib	-14534
accur	-14535
▁gard	-14536
▁flesh	-14537
▁Vi	-14538
▁Poly	-14539
IFA	-14540
▁dispens	-14541
▁malware	-14542
▁Bed	-14543
▁Pil	-14544
▁dive	-14545
▁sovereignty	-14546
aters	-14547
▁Winn	-14548
▁84	-14549
oust	-14550
▁plates	-14551
▁solved	-14552
▁grocery	-14553
▁Hig	-14554
▁intens	-14555
CL	-14556
▁felony	-14557
▁sponsors	-14558
▁concess	-14559
izards	-14560
▁sect	-14561
▁donate	-14562
▁Sudan	-14563
iri	-14564
inery	-14565
▁measurements	-14566
Press	-14567
▁intake	-14568
▁parade	-14569
▁Arc	-14570
▁LLC	-14571
▁Raw	-14572
▁Going	-14573
▁notorious	-14574
▁piv	-14575
▁Cardinals	-14576
Mod	-14577
▁stepping	-14578
usterity	-14579
▁Happy	-14580
▁clouds	-14581
▁discon	-14582
\\	-14583
1][	-14584
prom	-14585
▁firearm	-14586
alous	-14587
▁united	-14588
agged	-14589
▁flooding	-14590
▁incoming	-14591
19]	-14592
▁Mitch	-14593
forming	-14594
▁successor	-14595
▁backlash	-14596
▁Kaz	-14597
▁negotiating	-14598
Israel	-14599
▁Sem	-14600
holder	-14601
▁arrangements	-14602
▁3)	-14603
▁0.8	-14604
▁Machine	-14605
▁tactical	-14606
hole	-14607
▁Mans	-14608
▁aboard	-14609
▁tube	-14610
▁Boeing	-14611
▁Index	-14612
▁ende	-14613
closed	-14614
▁retro	-14615
▁Kath	-14616
bad	-14617
write	-14618
▁Occupy	-14619
▁Holmes	-14620
▁binary	-14621
▁clarity	-14622
sche	-14623
urring	-14624
constitutional	-14625
▁Jobs	-14626
▁adverse	-14627
▁Fortunately	-14628
▁functioning	-14629
▁defic	-14630
▁Together	-14631
▁Halloween	-14632
▁fortun	-14633
▁frames	-14634
▁sporting	-14635
▁Garcia	-14636
▁tier	-14637
azines	-14638
▁alumin	-14639
▁Firefox	-14640
▁frankly	-14641
▁stealing	-14642
▁Erd	-14643
▁artwork	-14644
ogg	-14645
▁glasses	-14646
▁Chen	-14647
▁tongue	-14648
▁prevention	-14649
▁Flight	-14650
▁finals	-14651
▁Minor	-14652
building	-14653
▁luc	-14654
▁bipartisan	-14655
.“	-14656
edge	-14657
▁nort	-14658
riages	-14659
▁Got	-14660
▁admin	-14661
orus	-14662
▁Deal	-14663
entions	-14664
▁interim	-14665
▁Baseball	-14666
”—	-14667
▁drill	-14668
▁catching	-14669
osi	-14670
vised	-14671
▁muscles	-14672
▁Hopefully	-14673
▁casualties	-14674
▁switching	-14675
▁vet	-14676
▁globally	-14677
▁Kor	-14678
▁vowed	-14679
▁Castle	-14680
▁defendants	-14681
▁subscribers	-14682
lickr	-14683
▁sweep	-14684
▁hearings	-14685
▁96	-14686
▁Path	-14687
also	-14688
▁pretend	-14689
ido	-14690
ashi	-14691
▁CSS	-14692
HINGTON	-14693
▁hunger	-14694
castle	-14695
▁convincing	-14696
▁businessman	-14697
▁Agricult	-14698
▁libertarian	-14699
▁airpl	-14700
▁Baghd	-14701
▁analyzed	-14702
oute	-14703
▁10:	-14704
.99	-14705
ARD	-14706
▁disclosed	-14707
▁Bird	-14708
▁generic	-14709
▁licenses	-14710
▁bureaucrat	-14711
▁Horn	-14712
▁bearing	-14713
▁Citizens	-14714
▁Moz	-14715
▁dot	-14716
▁Stay	-14717
utenant	-14718
▁mistaken	-14719
Ab	-14720
▁{\	-14721
▁Mis	-14722
▁Bott	-14723
▁Quinn	-14724
▁Spect	-14725
▁refusal	-14726
▁cure	-14727
headed	-14728
▁"[	-14729
Look	-14730
▁Alice	-14731
▁Luther	-14732
▁autism	-14733
▁relent	-14734
ernandez	-14735
▁stroke	-14736
83	-14737
aughed	-14738
▁EM	-14739
aires	-14740
▁hind	-14741
▁holders	-14742
▁astronaut	-14743
▁subjected	-14744
▁hash	-14745
▁Panthers	-14746
▁Edge	-14747
▁identities	-14748
▁Fan	-14749
pless	-14750
umblr	-14751
▁utterly	-14752
▁sensitivity	-14753
▁cancel	-14754
▁arrives	-14755
▁hardest	-14756
▁heal	-14757
▁jurisdiction	-14758
ulator	-14759
▁Actually	-14760
exp	-14761
▁acute	-14762
▁tourist	-14763
▁portrayed	-14764
▁LG	-14765
▁pale	-14766
▁rolls	-14767
ufficient	-14768
▁extending	-14769
▁Mode	-14770
43	-14771
His	-14772
▁HR	-14773
terior	-14774
▁TODAY	-14775
▁proport	-14776
▁endorsement	-14777
▁tricks	-14778
▁characterized	-14779
ggle	-14780
▁Crow	-14781
▁fond	-14782
▁Enterprise	-14783
▁14.	-14784
▁erupt	-14785
▁186	-14786
▁duo	-14787
▁1991	-14788
▁nurse	-14789
Post	-14790
▁redist	-14791
▁treasure	-14792
▁marketplace	-14793
▁aliens	-14794
▁sweeping	-14795
▁Wire	-14796
▁glory	-14797
▁antibiot	-14798
▁salaries	-14799
pit	-14800
▁Sold	-14801
▁haul	-14802
▁Wells	-14803
▁twelve	-14804
▁sponsor	-14805
▁jack	-14806
▁troubled	-14807
▁accusing	-14808
CR	-14809
del	-14810
▁upside	-14811
▁Release	-14812
outed	-14813
▁Ferr	-14814
▁objectives	-14815
▁Computer	-14816
mined	-14817
▁Globe	-14818
▁violating	-14819
▁cab	-14820
▁Nexus	-14821
▁laughed	-14822
rend	-14823
▁slic	-14824
▁Brewing	-14825
▁cu	-14826
▁gau	-14827
▁Someone	-14828
▁artistic	-14829
▁Rodriguez	-14830
▁apologize	-14831
▁attackers	-14832
▁neo	-14833
▁achieving	-14834
▁exploitation	-14835
▁incon	-14836
▁credible	-14837
▁cousin	-14838
▁sketch	-14839
▁Kos	-14840
▁Beast	-14841
▁necessity	-14842
El	-14843
▁Martine	-14844
jar	-14845
▁Joel	-14846
.[9]	-14847
▁Foster	-14848
▁useless	-14849
▁Shaw	-14850
▁pray	-14851
▁89	-14852
▁Armed	-14853
▁newer	-14854
▁vessels	-14855
▁violate	-14856
umns	-14857
ucc	-14858
▁Nat	-14859
image	-14860
▁Angela	-14861
ierra	-14862
▁Chip	-14863
ede	-14864
▁renov	-14865
▁Affordable	-14866
▁lately	-14867
▁WASHINGTON	-14868
Muslim	-14869
▁Trav	-14870
▁blown	-14871
▁tribe	-14872
▁tribes	-14873
▁analyses	-14874
▁recommendation	-14875
SM	-14876
▁HE	-14877
▁coat	-14878
▁mall	-14879
▁Reform	-14880
▁propri	-14881
AK	-14882
▁Wii	-14883
▁committing	-14884
▁71	-14885
▁Lan	-14886
▁Kremlin	-14887
▁stimulus	-14888
▁Birmingham	-14889
▁sometime	-14890
▁nightmare	-14891
▁Hughes	-14892
▁Nine	-14893
BER	-14894
uting	-14895
▁Nobel	-14896
zi	-14897
orable	-14898
Com	-14899
Yeah	-14900
▁191	-14901
▁Hait	-14902
▁theoretical	-14903
▁ram	-14904
▁villain	-14905
▁assembled	-14906
▁favorable	-14907
TION	-14908
▁defendant	-14909
▁revelation	-14910
▁ME	-14911
▁settlements	-14912
▁Opt	-14913
▁cares	-14914
▁Duncan	-14915
NY	-14916
kar	-14917
oriented	-14918
▁proving	-14919
▁financially	-14920
-13	-14921
▁affiliate	-14922
▁fictional	-14923
▁Arabic	-14924
▁hydrogen	-14925
▁barrels	-14926
▁protective	-14927
▁predecessor	-14928
BL	-14929
Men	-14930
▁VM	-14931
▁USS	-14932
▁forests	-14933
▁Nep	-14934
▁1989	-14935
php	-14936
pic	-14937
▁aides	-14938
▁straw	-14939
▁pockets	-14940
▁deterior	-14941
▁PDF	-14942
▁Finland	-14943
▁Jessica	-14944
▁Israelis	-14945
/8	-14946
▁lacks	-14947
▁Finn	-14948
▁Autom	-14949
▁diamond	-14950
▁aston	-14951
▁1-	-14952
▁OP	-14953
▁nodes	-14954
▁Strong	-14955
▁readily	-14956
disc	-14957
▁Were	-14958
▁Portugal	-14959
ithub	-14960
▁poses	-14961
▁Palmer	-14962
▁shortage	-14963
nex	-14964
▁86	-14965
uity	-14966
▁Catal	-14967
▁reviewing	-14968
▁Compan	-14969
▁Ground	-14970
▁reiter	-14971
▁adapted	-14972
▁biology	-14973
▁listened	-14974
▁drown	-14975
▁revelations	-14976
▁referen	-14977
▁Sacrament	-14978
▁Cox	-14979
green	-14980
▁Jong	-14981
ausible	-14982
▁nationally	-14983
▁Immigration	-14984
Islam	-14985
hum	-14986
▁stark	-14987
▁valued	-14988
{\	-14989
omi	-14990
▁Drew	-14991
▁Dere	-14992
▁Large	-14993
far	-14994
▁Zach	-14995
▁backers	-14996
▁descend	-14997
▁credited	-14998
char	-14999
▁Trail	-15000
▁subway	-15001
▁elevated	-15002
▁navigate	-15003
▁Nashville	-15004
cond	-15005
▁RPG	-15006
pection	-15007
▁disability	-15008
▁mosque	-15009
▁Welcome	-15010
▁0.7	-15011
▁mant	-15012
▁theaters	-15013
▁Mes	-15014
00000000	-15015
▁substitute	-15016
▁IG	-15017
plant	-15018
▁seam	-15019
atican	-15020
▁Ahmed	-15021
▁incomes	-15022
▁Pictures	-15023
▁cache	-15024
telling	-15025
▁hem	-15026
aky	-15027
▁undoubtedly	-15028
▁warr	-15029
▁aster	-15030
official	-15031
▁TE	-15032
respect	-15033
▁grandfather	-15034
▁caut	-15035
▁20,000	-15036
▁sticks	-15037
---	-15038
three	-15039
?!	-15040
ITH	-15041
▁donor	-15042
▁Aleppo	-15043
▁analog	-15044
▁debris	-15045
▁shower	-15046
▁Ru	-15047
▁ward	-15048
▁persistent	-15049
▁),	-15050
▁RO	-15051
produ	-15052
omo	-15053
▁Sex	-15054
▁spat	-15055
monton	-15056
▁petro	-15057
▁spells	-15058
▁maneu	-15059
▁banner	-15060
▁Dear	-15061
▁gaps	-15062
LD	-15063
eta	-15064
▁Alb	-15065
▁relied	-15066
osures	-15067
▁separately	-15068
▁cooling	-15069
▁tablets	-15070
▁dynamics	-15071
atched	-15072
control	-15073
▁patience	-15074
▁unsuccess	-15075
▁runner	-15076
▁Grey	-15077
[...]
