<unk>	0
<s>	0
</s>	0
▁t	-0
ou	-1
he	-2
▁a	-3
in	-4
▁w	-5
re	-6
▁I	-7
▁s	-8
ha	-9
▁y	-10
on	-11
▁you	-12
▁m	-13
▁the	-14
..	-15
▁d	-16
it	-17
▁b	-18
ll	-19
er	-20
ing	-21
▁to	-22
▁c	-23
an	-24
is	-25
hat	-26
▁g	-27
▁f	-28
or	-29
en	-30
▁l	-31
▁W	-32
ow	-33
ve	-34
▁n	-35
nd	-36
▁o	-37
es	-38
▁p	-39
▁T	-40
ot	-41
ed	-42
et	-43
om	-44
▁Y	-45
ar	-46
▁th	-47
...	-48
▁he	-49
▁it	-50
st	-51
▁h	-52
ay	-53
▁in	-54
▁of	-55
▁ha	-56
at	-57
▁S	-58
▁me	-59
▁be	-60
▁k	-61
▁You	-62
as	-63
le	-64
id	-65
▁A	-66
▁H	-67
gh	-68
▁that	-69
▁M	-70
▁and	-71
ld	-72
▁on	-73
ut	-74
ck	-75
out	-76
ke	-77
se	-78
▁we	-79
▁do	-80
im	-81
▁u	-82
ght	-83
al	-84
▁is	-85
▁e	-86
ver	-87
--	-88
oo	-89
▁B	-90
▁N	-91
▁D	-92
ri	-93
▁kn	-94
▁for	-95
▁The	-96
▁C	-97
ce	-98
▁know	-99
ad	-100
▁re	-101
▁li	-102
▁don	-103
▁st	-104
ust	-105
▁your	-106
▁an	-107
▁What	-108
▁was	-109
ell	-110
ome	-111
▁O	-112
▁have	-113
▁go	-114
ould	-115
▁this	-116
ir	-117
▁--	-118
am	-119
▁not	-120
ant	-121
ith	-122
ch	-123
ill	-124
ee	-125
▁my	-126
▁L	-127
ent	-128
▁j	-129
▁G	-130
▁with	-131
ly	-132
▁It	-133
▁what	-134
all	-135
▁can	-136
ion	-137
ct	-138
if	-139
ro	-140
hing	-141
her	-142
▁He	-143
▁get	-144
ea	-145
▁are	-146
▁ab	-147
ho	-148
▁ne	-149
▁out	-150
▁J	-151
ink	-152
▁like	-153
▁want	-154
▁P	-155
▁about	-156
▁all	-157
ra	-158
ter	-159
ry	-160
▁got	-161
▁as	-162
▁just	-163
▁F	-164
ic	-165
▁him	-166
ake	-167
▁up	-168
▁No	-169
▁R	-170
one	-171
ight	-172
▁here	-173
▁We	-174
▁did	-175
▁think	-176
ur	-177
pp	-178
ie	-179
▁sh	-180
▁at	-181
ook	-182
un	-183
ood	-184
▁so	-185
▁That	-186
▁any	-187
ore	-188
our	-189
▁there	-190
▁And	-191
▁they	-192
▁wor	-193
right	-194
op	-195
▁E	-196
ack	-197
and	-198
ind	-199
hy	-200
il	-201
very	-202
▁su	-203
▁one	-204
han	-205
▁but	-206
ive	-207
ess	-208
od	-209
▁her	-210
us	-211
▁see	-212
▁whe	-213
▁some	-214
▁right	-215
▁going	-216
▁no	-217
▁de	-218
art	-219
▁if	-220
ge	-221
rom	-222
ally	-223
▁But	-224
ig	-225
uck	-226
▁say	-227
▁al	-228
au	-229
own	-230
ain	-231
▁r	-232
end	-233
ist	-234
▁us	-235
ime	-236
est	-237
▁Oh	-238
▁sa	-239
▁would	-240
▁Well	-241
▁she	-242
▁man	-243
▁...	-244
alk	-245
▁pl	-246
▁lo	-247
ong	-248
rou	-249
▁or	-250
▁who	-251
ame	-252
ast	-253
ven	-254
eah	-255
red	-256
▁gu	-257
omet	-258
▁thing	-259
em	-260
▁could	-261
ers	-262
▁now	-263
way	-264
ul	-265
▁his	-266
ab	-267
▁How	-268
▁tell	-269
▁were	-270
os	-271
▁from	-272
ol	-273
▁time	-274
▁They	-275
▁Th	-276
▁been	-277
ine	-278
▁back	-279
ear	-280
na	-281
▁-	-282
fe	-283
▁look	-284
ate	-285
▁them	-286
ard	-287
um	-288
ak	-289
▁Yes	-290
ice	-291
▁com	-292
▁ex	-293
qu	-294
ick	-295
itt	-296
▁se	-297
▁will	-298
▁Yeah	-299
▁mean	-300
▁K	-301
thing	-302
▁good	-303
▁somet	-304
ation	-305
lf	-306
▁Whe	-307
ure	-308
▁too	-309
▁had	-310
▁talk	-311
nt	-312
▁off	-313
▁She	-314
▁didn	-315
▁So	-316
hi	-317
ous	-318
▁Why	-319
▁con	-320
other	-321
▁Do	-322
are	-323
▁when	-324
▁"	-325
el	-326
▁way	-327
▁sp	-328
▁something	-329
▁pro	-330
ort	-331
▁how	-332
▁int	-333
be	-334
▁never	-335
▁ag	-336
▁take	-337
▁come	-338
▁need	-339
ody	-340
▁This	-341
▁Don	-342
▁every	-343
kay	-344
▁tw	-345
▁Mr	-346
▁'	-347
ble	-348
ose	-349
▁down	-350
▁call	-351
▁work	-352
ittle	-353
▁V	-354
▁If	-355
res	-356
▁happ	-357
ause	-358
▁make	-359
ase	-360
ty	-361
ap	-362
▁over	-363
ff	-364
onna	-365
ide	-366
▁fuck	-367
▁little	-368
ew	-369
▁Not	-370
▁gonna	-371
eop	-372
▁more	-373
ace	-374
ER	-375
ber	-376
eople	-377
ought	-378
▁should	-379
▁does	-380
▁let	-381
▁guy	-382
aybe	-383
▁our	-384
▁said	-385
self	-386
▁v	-387
body	-388
oy	-389
▁There	-390
reat	-391
▁am	-392
▁St	-393
ect	-394
ag	-395
</	-396
▁bet	-397
▁than	-398
▁really	-399
▁kill	-400
▁tr	-401
▁mo	-402
iss	-403
▁<	-404
▁has	-405
▁mu	-406
▁love	-407
▁won	-408
▁by	-409
▁people	-410
cause	-411
nder	-412
ther	-413
▁cl	-414
▁qu	-415
oney	-416
▁then	-417
▁U	-418
ree	-419
th	-420
AN	-421
▁happen	-422
▁much	-423
▁only	-424
▁day	-425
ud	-426
▁Where	-427
ving	-428
▁bl	-429
eel	-430
▁af	-431
ound	-432
▁where	-433
▁Who	-434
ity	-435
▁very	-436
▁year	-437
▁Is	-438
round	-439
ite	-440
▁why	-441
ies	-442
orry	-443
▁under	-444
▁Now	-445
▁sc	-446
ny	-447
▁lea	-448
eep	-449
▁en	-450
▁co	-451
▁Just	-452
▁wr	-453
ough	-454
lie	-455
▁ro	-456
▁My	-457
ks	-458
▁thought	-459
▁two	-460
lp	-461
▁other	-462
ob	-463
ta	-464
▁even	-465
▁le	-466
▁sure	-467
pl	-468
▁feel	-469
▁anything	-470
riend	-471
ait	-472
▁give	-473
▁doing	-474
ue	-475
▁into	-476
▁night	-477
▁ask	-478
ep	-479
ull	-480
fore	-481
ting	-482
▁find	-483
ning	-484
▁MR	-485
▁again	-486
irst	-487
ass	-488
▁try	-489
ather	-490
ac	-491
▁long	-492
▁help	-493
▁life	-494
ady	-495
▁ever	-496
ne	-497
▁Let	-498
row	-499
ish	-500
ade	-501
▁around	-502
ire	-503
per	-504
ment	-505
ran	-506
ret	-507
▁Look	-508
▁Are	-509
▁before	-510
▁God	-511
▁told	-512
ways	-513
▁money	-514
▁belie	-515
▁br	-516
▁All	-517
ave	-518
lease	-519
▁gir	-520
get	-521
▁things	-522
▁must	-523
▁im	-524
iz	-525
▁put	-526
▁In	-527
▁still	-528
▁Did	-529
▁Be	-530
ool	-531
age	-532
▁believe	-533
▁better	-534
▁friend	-535
ON	-536
▁car	-537
▁sorry	-538
▁kid	-539
▁rem	-540
ci	-541
▁kind	-542
▁po	-543
▁hu	-544
▁years	-545
▁Okay	-546
▁un	-547
▁last	-548
act	-549
ond	-550
▁well	-551
urn	-552
▁always	-553
▁ar	-554
▁away	-555
▁Hey	-556
▁girl	-557
▁Then	-558
▁first	-559
▁sir	-560
▁old	-561
▁Than	-562
▁these	-563
ft	-564
▁Maybe	-565
▁part	-566
ord	-567
ress	-568
▁keep	-569
▁place	-570
▁care	-571
▁after	-572
▁min	-573
▁real	-574
isten	-575
ried	-576
ise	-577
▁their	-578
ix	-579
▁name	-580
▁Good	-581
▁cour	-582
▁cou	-583
ng	-584
▁chan	-585
▁home	-586
▁lot	-587
stand	-588
▁Ch	-589
▁those	-590
▁.	-591
▁ass	-592
▁whi	-593
day	-594
pt	-595
▁Jo	-596
▁new	-597
IN	-598
▁big	-599
▁sw	-600
ach	-601
▁nothing	-602
▁Can	-603
atch	-604
int	-605
ember	-606
▁hand	-607
ory	-608
▁okay	-609
▁bad	-610
▁hell	-611
ouse	-612
▁start	-613
▁live	-614
har	-615
▁doesn	-616
▁When	-617
▁Your	-618
der	-619
▁because	-620
▁sm	-621
▁bu	-622
▁boy	-623
dd	-624
ary	-625
man	-626
sp	-627
▁mar	-628
▁shit	-629
▁play	-630
▁el	-631
LL	-632
ip	-633
▁minut	-634
▁understand	-635
▁ac	-636
▁great	-637
▁wait	-638
amn	-639
▁hear	-640
▁dr	-641
ater	-642
able	-643
▁run	-644
▁isn	-645
▁dead	-646
▁dis	-647
ever	-648
old	-649
▁bus	-650
▁supp	-651
ful	-652
▁own	-653
▁course	-654
▁For	-655
▁Come	-656
▁fl	-657
▁might	-658
ike	-659
▁sec	-660
▁else	-661
▁wouldn	-662
AR	-663
▁made	-664
ock	-665
▁Re	-666
▁wrong	-667
rough	-668
▁show	-669
▁act	-670
▁guess	-671
▁talking	-672
og	-673
ian	-674
tain	-675
▁stay	-676
▁everything	-677
che	-678
▁happened	-679
▁wom	-680
▁mind	-681
aw	-682
▁per	-683
▁Sh	-684
▁stu	-685
▁che	-686
atter	-687
▁leave	-688
av	-689
▁wanted	-690
▁through	-691
ence	-692
▁yourself	-693
een	-694
aking	-695
ons	-696
▁pr	-697
ars	-698
ign	-699
▁enough	-700
▁id	-701
▁remember	-702
oss	-703
▁har	-704
▁done	-705
ren	-706
IC	-707
▁gotta	-708
▁Al	-709
?!	-710
▁head	-711
▁ain	-712
▁cra	-713
ious	-714
▁tra	-715
▁job	-716
."	-717
imes	-718
ions	-719
ife	-720
▁MRS	-721
▁imp	-722
ict	-723
▁house	-724
ps	-725
ger	-726
▁came	-727
▁three	-728
....	-729
▁getting	-730
▁wee	-731
▁left	-732
▁wasn	-733
ub	-734
▁world	-735
ath	-736
▁fucking	-737
my	-738
ia	-739
▁maybe	-740
▁room	-741
ple	-742
akes	-743
ail	-744
!!	-745
iness	-746
ms	-747
▁An	-748
▁father	-749
▁another	-750
ance	-751
▁Get	-752
rest	-753
here	-754
▁being	-755
▁saw	-756
▁Go	-757
mer	-758
▁yes	-759
▁plan	-760
pen	-761
▁mother	-762
▁knew	-763
▁sho	-764
ner	-765
ost	-766
EN	-767
pe	-768
▁mor	-769
erson	-770
oll	-771
▁someone	-772
▁trying	-773
▁matter	-774
▁meet	-775
hn	-776
▁guys	-777
dy	-778
▁DR	-779
...?	-780
▁nice	-781
▁ra	-782
▁rec	-783
ince	-784
▁went	-785
enty	-786
▁ad	-787
side	-788
ctor	-789
▁ser	-790
▁whole	-791
xt	-792
▁sl	-793
▁heard	-794
ark	-795
▁pret	-796
▁seen	-797
▁mon	-798
onight	-799
▁Hell	-800
▁dif	-801
▁coming	-802
orrow	-803
ved	-804
▁John	-805
air	-806
▁Sure	-807
▁stop	-808
ated	-809
arl	-810
les	-811
ey	-812
leep	-813
orm	-814
▁As	-815
▁sha	-816
▁looking	-817
osed	-818
ily	-819
▁fun	-820
eet	-821
▁Every	-822
▁1	-823
▁hard	-824
▁same	-825
▁word	-826
▁turn	-827
ied	-828
▁app	-829
▁proble	-830
▁business	-831
▁On	-832
▁hour	-833
▁Right	-834
▁Some	-835
ru	-836
▁best	-837
OR	-838
ndred	-839
▁please	-840
▁Of	-841
▁fine	-842
▁killed	-843
▁hur	-844
▁idea	-845
▁quest	-846
gg	-847
AT	-848
▁walk	-849
▁Any	-850
▁haven	-851
▁ph	-852
▁gr	-853
▁used	-854
▁deal	-855
reak	-856
ible	-857
ually	-858
▁Tell	-859
▁Thank	-860
▁To	-861
oth	-862
▁tonight	-863
igh	-864
▁found	-865
▁person	-866
▁miss	-867
▁bit	-868
▁fam	-869
▁hat	-870
▁hop	-871
▁att	-872
▁pay	-873
ident	-874
▁Because	-875
ors	-876
▁Will	-877
zy	-878
ream	-879
▁Like	-880
▁cle	-881
▁many	-882
▁acc	-883
mm	-884
▁MAN	-885
ister	-886
▁woman	-887
▁men	-888
▁called	-889
ye	-890
▁bab	-891
▁myself	-892
iv	-893
▁wife	-894
ax	-895
▁bo	-896
▁comp	-897
▁read	-898
ably	-899
▁Uh	-900
hed	-901
▁hundred	-902
▁ya	-903
▁son	-904
▁says	-905
▁Ex	-906
gether	-907
▁chi	-908
▁use	-909
rist	-910
▁end	-911
▁morning	-912
▁may	-913
▁gl	-914
▁fin	-915
▁couldn	-916
▁pretty	-917
ical	-918
▁pol	-919
ans	-920
▁few	-921
▁sch	-922
▁stuff	-923
▁Please	-924
▁sur	-925
▁diffe	-926
▁dri	-927
▁pre	-928
aught	-929
▁war	-930
▁listen	-931
ready	-932
▁De	-933
ense	-934
▁One	-935
uh	-936
▁cont	-937
▁saying	-938
▁Cl	-939
uth	-940
▁des	-941
▁set	-942
▁Fran	-943
▁cr	-944
▁next	-945
▁together	-946
ss	-947
ves	-948
▁tow	-949
▁while	-950
ason	-951
▁already	-952
▁yet	-953
▁tri	-954
▁most	-955
▁ago	-956
bably	-957
▁rest	-958
anna	-959
pped	-960
▁tom	-961
▁TH	-962
▁Jes	-963
▁count	-964
▁without	-965
▁Dad	-966
less	-967
▁point	-968
▁cha	-969
▁huh	-970
▁Or	-971
▁Have	-972
▁week	-973
ild	-974
▁days	-975
▁minute	-976
▁ch	-977
ating	-978
ird	-979
▁school	-980
ont	-981
ations	-982
▁drink	-983
▁open	-984
▁child	-985
▁worry	-986
▁Br	-987
▁Me	-988
▁sit	-989
▁pick	-990
▁Thanks	-991
▁watch	-992
ins	-993
▁rep	-994
where	-995
up	-996
▁took	-997
▁sleep	-998
ract	-999
erest	-1000
▁stand	-1001
sw	-1002
▁tomorrow	-1003
raid	-1004
▁exp	-1005
▁alone	-1006
▁wants	-1007
▁bring	-1008
▁Tw	-1009
ired	-1010
▁far	-1011
▁Christ	-1012
▁Nothing	-1013
ower	-1014
aut	-1015
ntil	-1016
ah	-1017
▁Here	-1018
▁gone	-1019
▁friends	-1020
▁problem	-1021
▁crazy	-1022
▁five	-1023
de	-1024
no	-1025
▁mom	-1026
▁met	-1027
▁once	-1028
ens	-1029
▁late	-1030
ousand	-1031
rent	-1032
▁baby	-1033
▁doll	-1034
▁cut	-1035
▁six	-1036
ICE	-1037
▁See	-1038
ither	-1039
ott	-1040
▁dec	-1041
ition	-1042
ize	-1043
actly	-1044
----	-1045
▁wonder	-1046
eak	-1047
▁die	-1048
▁today	-1049
▁Listen	-1050
ib	-1051
▁knows	-1052
▁since	-1053
asy	-1054
▁Jack	-1055
▁Jesus	-1056
ery	-1057
OU	-1058
▁yeah	-1059
▁At	-1060
ug	-1061
orn	-1062
▁case	-1063
▁afraid	-1064
ork	-1065
rew	-1066
▁interest	-1067
you	-1068
▁gun	-1069
▁such	-1070
▁hurt	-1071
sh	-1072
▁comm	-1073
fect	-1074
▁second	-1075
▁fig	-1076
ash	-1077
▁hope	-1078
▁which	-1079
use	-1080
▁thinking	-1081
▁VO	-1082
▁hold	-1083
ces	-1084
▁brother	-1085
▁supposed	-1086
▁Dr	-1087
ness	-1088
▁Hello	-1089
▁VOICE	-1090
▁month	-1091
cept	-1092
▁ter	-1093
▁four	-1094
▁Mar	-1095
▁ten	-1096
▁break	-1097
vel	-1098
▁Miss	-1099
▁thousand	-1100
▁book	-1101
▁ri	-1102
▁anyone	-1103
▁beaut	-1104
▁Mrs	-1105
▁minutes	-1106
▁check	-1107
ying	-1108
az	-1109
▁story	-1110
LE	-1111
ump	-1112
▁cop	-1113
▁uh	-1114
aul	-1115
▁hit	-1116
▁shot	-1117
ile	-1118
cy	-1119
▁Hi	-1120
▁half	-1121
▁trou	-1122
▁Com	-1123
▁until	-1124
iful	-1125
ared	-1126
▁em	-1127
ings	-1128
▁pri	-1129
▁probably	-1130
▁inv	-1131
▁Har	-1132
▁Somet	-1133
▁face	-1134
▁soon	-1135
ank	-1136
▁prom	-1137
▁fight	-1138
▁makes	-1139
head	-1140
me	-1141
▁wanna	-1142
▁sound	-1143
▁bed	-1144
▁door	-1145
▁hot	-1146
▁poss	-1147
▁Wait	-1148
ang	-1149
ount	-1150
▁eat	-1151
ILL	-1152
▁move	-1153
▁town	-1154
▁family	-1155
▁te	-1156
▁Would	-1157
unch	-1158
▁true	-1159
▁New	-1160
med	-1161
▁Se	-1162
▁damn	-1163
▁kids	-1164
ual	-1165
▁gave	-1166
▁wh	-1167
▁question	-1168
more	-1169
▁compl	-1170
▁heart	-1171
▁working	-1172
ial	-1173
OM	-1174
▁somebody	-1175
▁Take	-1176
▁young	-1177
ned	-1178
▁ap	-1179
▁jo	-1180
ertain	-1181
▁married	-1182
00	-1183
uss	-1184
▁lost	-1185
▁Sp	-1186
yes	-1187
▁luck	-1188
▁least	-1189
hes	-1190
▁gets	-1191
▁Un	-1192
▁different	-1193
irty	-1194
cl	-1195
ier	-1196
▁?	-1197
cial	-1198
ents	-1199
RE	-1200
▁Bl	-1201
▁pass	-1202
▁resp	-1203
▁law	-1204
ollow	-1205
▁trouble	-1206
▁Ar	-1207
▁twenty	-1208
the	-1209
▁dream	-1210
aid	-1211
son	-1212
▁import	-1213
io	-1214
umb	-1215
▁Le	-1216
▁sign	-1217
▁having	-1218
so	-1219
▁Ab	-1220
▁aw	-1221
▁hate	-1222
▁asked	-1223
▁fuckin	-1224
▁ev	-1225
▁anyway	-1226
▁rel	-1227
▁both	-1228
▁answ	-1229
SON	-1230
ST	-1231
ames	-1232
▁chance	-1233
▁Cap	-1234
▁phone	-1235
▁expl	-1236
▁Sorry	-1237
IT	-1238
▁reason	-1239
reet	-1240
▁spe	-1241
▁Fuck	-1242
▁each	-1243
ph	-1244
▁fact	-1245
▁ent	-1246
▁ob	-1247
▁Tom	-1248
▁ready	-1249
pr	-1250
unk	-1251
outh	-1252
▁happy	-1253
▁beautiful	-1254
▁times	-1255
▁hours	-1256
▁exactly	-1257
its	-1258
▁fif	-1259
▁wish	-1260
▁cho	-1261
▁With	-1262
▁police	-1263
▁fr	-1264
▁hum	-1265
▁mill	-1266
▁anymore	-1267
come	-1268
iet	-1269
▁Was	-1270
▁side	-1271
▁change	-1272
ged	-1273
▁light	-1274
ute	-1275
▁gi	-1276
AM	-1277
▁blood	-1278
vie	-1279
▁aren	-1280
▁Frank	-1281
▁comes	-1282
▁sk	-1283
▁Ne	-1284
umber	-1285
ention	-1286
▁important	-1287
▁forget	-1288
▁looks	-1289
▁ins	-1290
▁Ma	-1291
▁beg	-1292
▁trust	-1293
cc	-1294
▁Z	-1295
▁Sc	-1296
▁close	-1297
ove	-1298
▁dollars	-1299
ced	-1300
▁inf	-1301
▁couple	-1302
▁taking	-1303
▁expect	-1304
▁making	-1305
ult	-1306
▁mine	-1307
ole	-1308
▁later	-1309
ates	-1310
ete	-1311
▁telling	-1312
▁2	-1313
▁shoot	-1314
ross	-1315
icture	-1316
▁Ge	-1317
ison	-1318
▁dro	-1319
CK	-1320
hh	-1321
▁Char	-1322
▁bro	-1323
ards	-1324
▁pull	-1325
▁truth	-1326
▁high	-1327
land	-1328
▁bra	-1329
▁serious	-1330
▁lear	-1331
cer	-1332
▁easy	-1333
app	-1334
att	-1335
ding	-1336
▁Really	-1337
▁goes	-1338
du	-1339
ane	-1340
now	-1341
▁send	-1342
▁tou	-1343
▁anybody	-1344
▁eyes	-1345
▁yours	-1346
▁buy	-1347
▁conf	-1348
most	-1349
▁hon	-1350
▁RO	-1351
amp	-1352
led	-1353
▁follow	-1354
▁Su	-1355
▁Mom	-1356
▁Does	-1357
▁quite	-1358
▁*	-1359
als	-1360
ude	-1361
▁fell	-1362
▁mur	-1363
▁death	-1364
▁picture	-1365
▁body	-1366
▁hands	-1367
▁air	-1368
meric	-1369
▁mess	-1370
itch	-1371
▁disc	-1372
▁sick	-1373
▁water	-1374
▁Man	-1375
▁fire	-1376
▁godd	-1377
ID	-1378
▁char	-1379
ton	-1380
ject	-1381
mon	-1382
▁pie	-1383
ction	-1384
▁means	-1385
▁tried	-1386
cuse	-1387
▁power	-1388
▁dep	-1389
▁ship	-1390
▁thank	-1391
▁Je	-1392
▁res	-1393
'.	-1394
inner	-1395
sy	-1396
hin	-1397
▁Captain	-1398
▁cor	-1399
ling	-1400
▁sent	-1401
▁against	-1402
vers	-1403
▁free	-1404
▁inside	-1405
ung	-1406
▁sy	-1407
▁inst	-1408
band	-1409
▁sort	-1410
▁dan	-1411
eral	-1412
▁stra	-1413
OT	-1414
▁Bet	-1415
ING	-1416
sel	-1417
▁His	-1418
▁dog	-1419
▁bull	-1420
▁Gr	-1421
iles	-1422
▁Bill	-1423
▁game	-1424
▁doctor	-1425
▁country	-1426
kes	-1427
▁full	-1428
▁speak	-1429
▁Americ	-1430
orge	-1431
usband	-1432
▁Af	-1433
cent	-1434
▁LE	-1435
pid	-1436
olog	-1437
hind	-1438
▁ret	-1439
▁along	-1440
▁though	-1441
CH	-1442
SE	-1443
▁Jim	-1444
▁Two	-1445
lic	-1446
ient	-1447
▁Pro	-1448
ley	-1449
unt	-1450
▁sex	-1451
arly	-1452
▁Give	-1453
▁either	-1454
ler	-1455
▁sim	-1456
▁waiting	-1457
ween	-1458
▁inter	-1459
idd	-1460
▁funny	-1461
▁million	-1462
arent	-1463
▁wind	-1464
▁pres	-1465
AY	-1466
▁everybody	-1467
ides	-1468
artment	-1469
ets	-1470
▁Am	-1471
▁husband	-1472
▁alive	-1473
▁pap	-1474
▁forg	-1475
▁Got	-1476
▁party	-1477
ator	-1478
▁eight	-1479
▁figure	-1480
UR	-1481
▁actually	-1482
▁office	-1483
cle	-1484
▁str	-1485
▁number	-1486
IE	-1487
▁fav	-1488
▁answer	-1489
▁certain	-1490
not	-1491
▁behind	-1492
▁wear	-1493
any	-1494
ched	-1495
AD	-1496
ines	-1497
ital	-1498
teen	-1499
ured	-1500
▁died	-1501
▁suppose	-1502
ised	-1503
▁dad	-1504
ield	-1505
▁leg	-1506
▁stupid	-1507
oke	-1508
aken	-1509
▁YOU	-1510
▁coll	-1511
▁line	-1512
▁months	-1513
shit	-1514
▁fast	-1515
▁started	-1516
by	-1517
▁ele	-1518
▁women	-1519
▁Bob	-1520
▁sense	-1521
▁himself	-1522
▁shut	-1523
▁ma	-1524
erv	-1525
▁sub	-1526
ster	-1527
▁honey	-1528
▁det	-1529
▁record	-1530
▁Ah	-1531
▁Never	-1532
▁George	-1533
▁May	-1534
▁goddamn	-1535
▁between	-1536
▁Bar	-1537
▁sweet	-1538
▁bar	-1539
▁tea	-1540
▁ahead	-1541
▁Ben	-1542
▁Sir	-1543
ote	-1544
▁fall	-1545
▁pain	-1546
▁secret	-1547
ert	-1548
▁Huh	-1549
▁Could	-1550
▁seem	-1551
▁safe	-1552
▁Say	-1553
▁almost	-1554
▁moment	-1555
▁running	-1556
rol	-1557
▁dra	-1558
aughter	-1559
cks	-1560
IS	-1561
▁Per	-1562
▁Whi	-1563
rought	-1564
▁front	-1565
haps	-1566
▁ST	-1567
▁able	-1568
▁Nobody	-1569
▁dinner	-1570
▁Her	-1571
▁def	-1572
range	-1573
▁hair	-1574
▁living	-1575
te	-1576
ited	-1577
▁reg	-1578
▁cons	-1579
▁lead	-1580
ative	-1581
ience	-1582
leas	-1583
▁gra	-1584
▁terri	-1585
▁nobody	-1586
ats	-1587
ters	-1588
▁drive	-1589
ined	-1590
▁sing	-1591
▁El	-1592
▁Gu	-1593
▁hang	-1594
▁exper	-1595
▁scared	-1596
▁everyone	-1597
hip	-1598
▁its	-1599
▁rid	-1600
▁Something	-1601
▁worth	-1602
▁news	-1603
▁clean	-1604
to	-1605
ished	-1606
▁adv	-1607
▁shouldn	-1608
PER	-1609
osp	-1610
▁test	-1611
itting	-1612
ony	-1613
ten	-1614
▁boys	-1615
▁stud	-1616
▁black	-1617
▁touch	-1618
▁mem	-1619
▁feeling	-1620
mit	-1621
▁Sam	-1622
▁brought	-1623
ram	-1624
▁Only	-1625
rence	-1626
▁happens	-1627
ush	-1628
▁hor	-1629
▁Very	-1630
▁children	-1631
▁street	-1632
▁favor	-1633
▁build	-1634
▁straight	-1635
AL	-1636
ene	-1637
ney	-1638
▁pat	-1639
▁After	-1640
co	-1641
▁dou	-1642
▁sister	-1643
▁Ad	-1644
▁less	-1645
TT	-1646
▁mist	-1647
ts	-1648
ric	-1649
▁lose	-1650
▁perfect	-1651
▁vis	-1652
▁also	-1653
▁outside	-1654
▁Pres	-1655
>.	-1656
eal	-1657
▁ext	-1658
▁glad	-1659
▁mus	-1660
▁York	-1661
▁write	-1662
cess	-1663
▁win	-1664
▁fool	-1665
.'	-1666
ics	-1667
ked	-1668
▁gen	-1669
▁whatever	-1670
bb	-1671
▁Stop	-1672
omb	-1673
vin	-1674
ility	-1675
▁Mary	-1676
▁Fine	-1677
▁lives	-1678
room	-1679
▁ball	-1680
OW	-1681
▁human	-1682
▁asking	-1683
▁dear	-1684
uff	-1685
▁Che	-1686
▁dist	-1687
▁weeks	-1688
▁class	-1689
▁girls	-1690
▁inc	-1691
▁weren	-1692
king	-1693
▁thanks	-1694
ale	-1695
oot	-1696
▁lie	-1697
sol	-1698
--------	-1699
atur	-1700
uddy	-1701
mp	-1702
▁Eng	-1703
ES	-1704
▁seems	-1705
ELL	-1706
▁Tr	-1707
▁mad	-1708
▁About	-1709
▁daughter	-1710
▁Pl	-1711
▁prot	-1712
ically	-1713
▁alright	-1714
cked	-1715
▁Ed	-1716
▁taken	-1717
▁Which	-1718
▁grand	-1719
▁cap	-1720
▁lady	-1721
oor	-1722
▁Wh	-1723
▁Rem	-1724
▁Shut	-1725
ounds	-1726
▁fifty	-1727
ward	-1728
▁Con	-1729
▁small	-1730
▁ref	-1731
▁past	-1732
▁explain	-1733
oc	-1734
▁bel	-1735
▁rad	-1736
▁cold	-1737
▁sell	-1738
▁movie	-1739
▁throw	-1740
▁somewhere	-1741
ze	-1742
ald	-1743
▁del	-1744
▁These	-1745
▁needs	-1746
▁surpr	-1747
▁danger	-1748
▁possible	-1749
▁piece	-1750
nie	-1751
airs	-1752
▁dest	-1753
RI	-1754
▁lau	-1755
▁tap	-1756
▁report	-1757
▁Great	-1758
▁mouth	-1759
ama	-1760
ault	-1761
ches	-1762
sych	-1763
▁Dan	-1764
▁Harry	-1765
▁complete	-1766
iam	-1767
men	-1768
▁CH	-1769
eter	-1770
▁art	-1771
ief	-1772
▁key	-1773
▁dress	-1774
fort	-1775
iting	-1776
vest	-1777
▁till	-1778
▁parent	-1779
▁President	-1780
pping	-1781
▁fore	-1782
▁tired	-1783
stem	-1784
▁goin	-1785
▁Shit	-1786
▁Ag	-1787
reen	-1788
▁catch	-1789
▁fil	-1790
▁beat	-1791
go	-1792
ider	-1793
▁land	-1794
?"	-1795
▁es	-1796
icul	-1797
▁order	-1798
▁words	-1799
ospital	-1800
?...	-1801
▁add	-1802
▁buck	-1803
▁Sw	-1804
arth	-1805
aster	-1806
ature	-1807
▁food	-1808
bye	-1809
▁inform	-1810
▁looked	-1811
selves	-1812
▁bitch	-1813
▁thinks	-1814
uts	-1815
ones	-1816
▁Mart	-1817
▁cool	-1818
▁known	-1819
▁ought	-1820
ior	-1821
oul	-1822
▁blow	-1823
▁control	-1824
ffee	-1825
▁learn	-1826
▁leaving	-1827
rying	-1828
▁clear	-1829
▁ran	-1830
solute	-1831
▁Doctor	-1832
EL	-1833
▁Even	-1834
▁imag	-1835
elt	-1836
▁Car	-1837
▁offic	-1838
▁special	-1839
▁Lou	-1840
▁med	-1841
▁dark	-1842
▁Everything	-1843
▁col	-1844
▁white	-1845
oose	-1846
▁pleas	-1847
▁accident	-1848
▁Our	-1849
▁fix	-1850
??	-1851
▁Mic	-1852
▁THE	-1853
▁save	-1854
▁worked	-1855
▁promise	-1856
▁questions	-1857
ept	-1858
▁Sm	-1859
hose	-1860
ized	-1861
▁First	-1862
▁thirty	-1863
MAN	-1864
▁Ro	-1865
▁protect	-1866
OY	-1867
eg	-1868
lo	-1869
▁Dav	-1870
▁Comm	-1871
▁works	-1872
ants	-1873
▁Isn	-1874
entle	-1875
▁Excuse	-1876
fic	-1877
▁ru	-1878
▁mag	-1879
▁rather	-1880
▁parents	-1881
▁sn	-1882
▁Wal	-1883
▁From	-1884
▁calling	-1885
'?	-1886
▁Mc	-1887
▁begin	-1888
▁company	-1889
▁playing	-1890
▁wonderful	-1891
▁squ	-1892
▁psych	-1893
▁pub	-1894
▁ride	-1895
▁Nice	-1896
ession	-1897
FF	-1898
▁Alright	-1899
ots	-1900
▁Nick	-1901
esides	-1902
▁kidding	-1903
zz	-1904
▁By	-1905
ency	-1906
▁Didn	-1907
aven	-1908
▁exc	-1909
▁dire	-1910
idence	-1911
▁disapp	-1912
▁fly	-1913
ately	-1914
▁system	-1915
bor	-1916
▁Paul	-1917
▁train	-1918
iver	-1919
iddle	-1920
▁Keep	-1921
▁prof	-1922
▁Daddy	-1923
▁stick	-1924
▁attack	-1925
AS	-1926
▁Pr	-1927
▁sometimes	-1928
how	-1929
cher	-1930
▁lucky	-1931
irt	-1932
jor	-1933
aste	-1934
▁Max	-1935
ision	-1936
▁wall	-1937
▁interested	-1938
▁Joe	-1939
▁kiss	-1940
▁star	-1941
solutely	-1942
reed	-1943
▁Gra	-1944
▁Sha	-1945
▁Those	-1946
▁En	-1947
▁hospital	-1948
▁sal	-1949
arling	-1950
but	-1951
▁par	-1952
▁pos	-1953
▁Call	-1954
▁takes	-1955
▁personal	-1956
The	-1957
rey	-1958
▁Cha	-1959
▁priv	-1960
▁People	-1961
ists	-1962
▁Gen	-1963
▁bag	-1964
▁quick	-1965
▁shall	-1966
▁bother	-1967
erry	-1968
▁clot	-1969
▁oper	-1970
▁poor	-1971
▁meant	-1972
▁trans	-1973
joy	-1974
what	-1975
▁city	-1976
▁felt	-1977
▁ROB	-1978
night	-1979
▁doin	-1980
▁grow	-1981
▁spend	-1982
▁concer	-1983
ND	-1984
▁outta	-1985
▁Three	-1986
HER	-1987
cha	-1988
ific	-1989
▁loved	-1990
▁coffee	-1991
bar	-1992
gan	-1993
ich	-1994
ows	-1995
▁OK	-1996
▁Big	-1997
▁Mother	-1998
▁others	-1999
bt	-2000
urs	-2001
▁bas	-2002
▁music	-2003
',	-2004
ken	-2005
spect	-2006
▁press	-2007
▁top	-2008
▁smart	-2009
▁meeting	-2010
You	-2011
ina	-2012
▁treat	-2013
▁worse	-2014
fer	-2015
▁Jeff	-2016
ming	-2017
▁bank	-2018
▁handle	-2019
▁respect	-2020
we	-2021
com	-2022
ball	-2023
hole	-2024
ities	-2025
▁cause	-2026
ead	-2027
▁Cal	-2028
▁Ray	-2029
▁feet	-2030
▁turned	-2031
five	-2032
lish	-2033
▁Boy	-2034
terday	-2035
▁invol	-2036
▁giving	-2037
▁Ind	-2038
▁date	-2039
▁David	-2040
▁Whatever	-2041
▁paper	-2042
ully	-2043
vern	-2044
▁eye	-2045
▁Col	-2046
inger	-2047
▁Think	-2048
▁become	-2049
▁Forget	-2050
▁seeing	-2051
ik	-2052
▁ow	-2053
▁ind	-2054
▁fair	-2055
▁hotel	-2056
br	-2057
ided	-2058
lin	-2059
rap	-2060
ills	-2061
▁tot	-2062
dered	-2063
▁Charlie	-2064
oof	-2065
▁cost	-2066
▁road	-2067
bo	-2068
▁Mister	-2069
▁Par	-2070
▁Remember	-2071
ma	-2072
illy	-2073
▁breat	-2074
▁fault	-2075
▁bullshit	-2076
▁drug	-2077
uri	-2078
ered	-2079
▁Rose	-2080
▁store	-2081
▁cannot	-2082
ues	-2083
▁sto	-2084
▁Damn	-2085
▁laugh	-2086
▁fucked	-2087
▁plane	-2088
▁swear	-2089
▁caught	-2090
▁talked	-2091
eed	-2092
hael	-2093
sing	-2094
ering	-2095
▁deep	-2096
vent	-2097
▁apartment	-2098
▁WH	-2099
▁pen	-2100
▁kick	-2101
▁short	-2102
▁smell	-2103
ENT	-2104
irth	-2105
oint	-2106
vious	-2107
ories	-2108
▁mach	-2109
▁tele	-2110
uation	-2111
set	-2112
▁ty	-2113
▁strong	-2114
ONE	-2115
roy	-2116
amed	-2117
▁drop	-2118
▁ones	-2119
▁creat	-2120
▁choice	-2121
▁simple	-2122
▁clothes	-2123
cri	-2124
ury	-2125
▁Put	-2126
▁cops	-2127
▁lawy	-2128
▁sold	-2129
▁Michael	-2130
▁mention	-2131
▁worried	-2132
ED	-2133
ray	-2134
▁vo	-2135
elve	-2136
ring	-2137
▁gentle	-2138
".	-2139
rie	-2140
▁Lu	-2141
erve	-2142
▁bast	-2143
▁mistake	-2144
▁Lea	-2145
uture	-2146
▁return	-2147
ode	-2148
▁BR	-2149
fuck	-2150
▁kept	-2151
▁murder	-2152
!!!	-2153
▁paid	-2154
OO	-2155
▁Bu	-2156
▁seven	-2157
▁Walter	-2158
▁difference	-2159
▁Act	-2160
ism	-2161
▁near	-2162
▁changed	-2163
AG	-2164
▁IN	-2165
inal	-2166
▁War	-2167
▁invest	-2168
▁Anything	-2169
▁happening	-2170
une	-2171
▁Ph	-2172
ages	-2173
▁MAR	-2174
▁prison	-2175
▁information	-2176
ift	-2177
that	-2178
itive	-2179
▁Make	-2180
▁prog	-2181
ges	-2182
▁Fl	-2183
▁TV	-2184
▁hung	-2185
▁serv	-2186
▁given	-2187
ational	-2188
ders	-2189
▁red	-2190
▁clos	-2191
nes	-2192
tle	-2193
▁aff	-2194
▁pract	-2195
▁honest	-2196
▁middle	-2197
▁American	-2198
▁Sometimes	-2199
KE	-2200
ilt	-2201
▁mis	-2202
▁cond	-2203
▁pack	-2204
▁Jimmy	-2205
▁Sid	-2206
▁Dick	-2207
▁sake	-2208
reci	-2209
▁tick	-2210
ission	-2211
▁longer	-2212
ls	-2213
lex	-2214
read	-2215
INSON	-2216
istory	-2217
▁bath	-2218
▁step	-2219
▁bucks	-2220
▁enjoy	-2221
ipp	-2222
▁King	-2223
▁boat	-2224
▁suit	-2225
▁future	-2226
ky	-2227
▁Te	-2228
ular	-2229
▁ris	-2230
▁moving	-2231
▁strange	-2232
▁terrible	-2233
▁drunk	-2234
▁entire	-2235
bert	-2236
▁Everybody	-2237
IL	-2238
used	-2239
▁pur	-2240
▁sun	-2241
▁hasn	-2242
ective	-2243
▁marry	-2244
▁yesterday	-2245
ety	-2246
ement	-2247
uring	-2248
▁brain	-2249
▁lunch	-2250
for	-2251
idge	-2252
▁Hold	-2253
▁slow	-2254
▁sat	-2255
▁Four	-2256
,"	-2257
▁div	-2258
▁busy	-2259
▁liked	-2260
rop	-2261
▁anim	-2262
▁Peter	-2263
▁finish	-2264
know	-2265
▁cab	-2266
▁cal	-2267
▁cent	-2268
▁foot	-2269
▁stri	-2270
▁knock	-2271
▁weird	-2272
▁respons	-2273
of	-2274
els	-2275
iot	-2276
key	-2277
oun	-2278
▁oh	-2279
▁Out	-2280
▁truck	-2281
▁sounds	-2282
cing	-2283
▁eng	-2284
▁Carl	-2285
▁bott	-2286
▁James	-2287
▁broke	-2288
▁anywhere	-2289
"?	-2290
ACK	-2291
iol	-2292
▁ill	-2293
▁wit	-2294
▁trip	-2295
stairs	-2296
▁Someone	-2297
▁birth	-2298
▁lying	-2299
▁sitting	-2300
▁watching	-2301
huh	-2302
▁Edd	-2303
lcome	-2304
▁except	-2305
▁appreci	-2306
▁careful	-2307
▁figured	-2308
▁problems	-2309
▁dangerous	-2310
▁jail	-2311
▁jump	-2312
▁floor	-2313
ICK	-2314
▁box	-2315
▁pal	-2316
urity	-2317
▁public	-2318
aces	-2319
ored	-2320
▁Too	-2321
ution	-2322
▁born	-2323
▁Perhaps	-2324
▁evening	-2325
yn	-2326
▁piss	-2327
▁quiet	-2328
▁radio	-2329
▁Johnny	-2330
▁Besides	-2331
▁Eve	-2332
itche	-2333
▁burn	-2334
▁bust	-2335
▁ring	-2336
▁chick	-2337
▁involved	-2338
eace	-2339
▁bur	-2340
ander	-2341
clock	-2342
▁fear	-2343
▁calls	-2344
▁account	-2345
ien	-2346
tin	-2347
ume	-2348
▁dev	-2349
▁boss	-2350
▁early	-2351
▁glass	-2352
▁upset	-2353
▁needed	-2354
▁window	-2355
▁ROBINSON	-2356
ino	-2357
oon	-2358
▁..	-2359
▁English	-2360
▁situation	-2361
ging	-2362
▁cover	-2363
ror	-2364
▁Ho	-2365
▁ed	-2366
▁quit	-2367
▁completely	-2368
▁proper	-2369
mas	-2370
nect	-2371
▁Sal	-2372
▁lay	-2373
ervous	-2374
eat	-2375
▁mot	-2376
▁Fred	-2377
▁state	-2378
▁General	-2379
▁killing	-2380
▁Nor	-2381
▁cat	-2382
ments	-2383
▁Father	-2384
▁realize	-2385
US	-2386
aine	-2387
▁Bea	-2388
▁offer	-2389
▁Should	-2390
▁present	-2391
ians	-2392
udge	-2393
▁ang	-2394
▁rich	-2395
ett	-2396
ache	-2397
▁esc	-2398
▁carry	-2399
▁kinda	-2400
▁stopped	-2401
▁building	-2402
▁z	-2403
ili	-2404
yle	-2405
fully	-2406
▁Mike	-2407
▁Ell	-2408
▁occ	-2409
▁Jake	-2410
▁nine	-2411
ARD	-2412
▁loc	-2413
▁doubt	-2414
▁letter	-2415
▁discuss	-2416
▁message	-2417
noon	-2418
▁belong	-2419
▁destroy	-2420
▁history	-2421
ec	-2422
ron	-2423
orth	-2424
▁cig	-2425
rench	-2426
▁More	-2427
▁Eddie	-2428
▁books	-2429
▁tough	-2430
▁SU	-2431
dden	-2432
rill	-2433
▁Mor	-2434
▁Stay	-2435
▁team	-2436
▁White	-2437
▁sudden	-2438
▁certainly	-2439
LER	-2440
iter	-2441
▁list	-2442
gu	-2443
ope	-2444
▁sol	-2445
OTHER	-2446
▁teach	-2447
▁nothin	-2448
▁private	-2449
elie	-2450
▁court	-2451
▁super	-2452
▁arrest	-2453
▁possib	-2454
UT	-2455
▁Co	-2456
▁Mad	-2457
▁Six	-2458
▁Try	-2459
▁dig	-2460
▁opp	-2461
▁Alex	-2462
▁cash	-2463
▁self	-2464
▁lived	-2465
port	-2466
urch	-2467
▁Ser	-2468
▁dance	-2469
▁miles	-2470
▁table	-2471
▁picked	-2472
▁asshole	-2473
▁imagine	-2474
ET	-2475
ium	-2476
▁Gl	-2477
▁cur	-2478
▁afternoon	-2479
▁interesting	-2480
▁Ted	-2481
▁ble	-2482
▁!	-2483
▁Bo	-2484
ffic	-2485
▁Pat	-2486
▁Looks	-2487
▁bought	-2488
▁finally	-2489
▁cir	-2490
▁neigh	-2491
▁screw	-2492
▁decided	-2493
▁consider	-2494
▁arm	-2495
▁Russ	-2496
▁Anyway	-2497
erg	-2498
▁Sec	-2499
▁Son	-2500
▁mark	-2501
▁likes	-2502
▁across	-2503
▁forgot	-2504
▁gotten	-2505
▁unless	-2506
>,	-2507
▁5	-2508
aret	-2509
atic	-2510
uter	-2511
▁owe	-2512
iment	-2513
▁draw	-2514
▁killer	-2515
▁nervous	-2516
▁Actually	-2517
▁Christmas	-2518
ege	-2519
▁Mac	-2520
▁adm	-2521
▁BILL	-2522
▁Lord	-2523
▁none	-2524
▁named	-2525
▁wrote	-2526
IM	-2527
ask	-2528
▁Sch	-2529
▁Ste	-2530
▁tre	-2531
▁voice	-2532
▁station	-2533
▁finished	-2534
▁god	-2535
▁cross	-2536
▁lawyer	-2537
▁Sen	-2538
▁gar	-2539
▁soul	-2540
cially	-2541
▁ear	-2542
▁bird	-2543
▁bomb	-2544
▁dumb	-2545
▁prep	-2546
▁wake	-2547
▁JO	-2548
▁gold	-2549
▁allow	-2550
▁bastard	-2551
ggest	-2552
iding	-2553
▁card	-2554
▁reach	-2555
▁ground	-2556
iff	-2557
rect	-2558
▁Sim	-2559
▁visit	-2560
ination	-2561
gue	-2562
▁eh	-2563
▁join	-2564
▁main	-2565
▁tape	-2566
▁space	-2567
▁steal	-2568
▁impress	-2569
tw	-2570
▁Im	-2571
ened	-2572
▁pop	-2573
▁requ	-2574
lfriend	-2575
▁threat	-2576
▁somethin	-2577
alt	-2578
boy	-2579
enn	-2580
enny	-2581
tact	-2582
▁weap	-2583
▁suggest	-2584
▁appreciate	-2585
▁ve	-2586
ices	-2587
▁form	-2588
friend	-2589
▁prove	-2590
▁staying	-2591
▁pleasure	-2592
vernment	-2593
!?	-2594
CE	-2595
oop	-2596
ries	-2597
view	-2598
▁Mer	-2599
▁fat	-2600
▁twelve	-2601
avy	-2602
▁tur	-2603
▁Last	-2604
▁Want	-2605
▁bunch	-2606
▁apolog	-2607
▁William	-2608
▁driving	-2609
▁wearing	-2610
▁pictures	-2611
mb	-2612
rid	-2613
▁BU	-2614
▁cas	-2615
▁fail	-2616
▁hadn	-2617
▁French	-2618
▁charge	-2619
▁standing	-2620
▁GU	-2621
cker	-2622
vies	-2623
work	-2624
▁fol	-2625
inite	-2626
▁dying	-2627
▁machine	-2628
▁er	-2629
▁Cor	-2630
▁Lie	-2631
▁Ric	-2632
▁val	-2633
▁hero	-2634
▁missing	-2635
▁accept	-2636
▁perhaps	-2637
▁witness	-2638
IG	-2639
hys	-2640
▁mil	-2641
▁Five	-2642
▁cell	-2643
▁fifteen	-2644
hen	-2645
uty	-2646
cell	-2647
ires	-2648
▁lad	-2649
ormal	-2650
▁fill	-2651
▁park	-2652
▁moved	-2653
ham	-2654
rick	-2655
▁roll	-2656
▁shar	-2657
▁surv	-2658
▁Somebody	-2659
ears	-2660
▁Del	-2661
▁Sus	-2662
▁smo	-2663
riage	-2664
▁forty	-2665
ogn	-2666
What	-2667
bout	-2668
hood	-2669
▁mod	-2670
▁Holl	-2671
▁nose	-2672
▁phot	-2673
▁hungry	-2674
▁America	-2675
▁obvious	-2676
▁program	-2677
af	-2678
▁ce	-2679
▁LEE	-2680
▁Wor	-2681
▁age	-2682
▁dam	-2683
▁field	-2684
▁contact	-2685
▁girlfriend	-2686
ern	-2687
xic	-2688
riff	-2689
ules	-2690
uten	-2691
well	-2692
▁vict	-2693
▁excuse	-2694
▁missed	-2695
▁movies	-2696
▁instead	-2697
▁putting	-2698
HE	-2699
▁ice	-2700
▁wed	-2701
▁joke	-2702
▁Louis	-2703
▁service	-2704
▁Aw	-2705
▁Hon	-2706
▁Rob	-2707
▁Black	-2708
▁produ	-2709
▁commun	-2710
▁seconds	-2711
und	-2712
▁Love	-2713
▁Must	-2714
▁Buddy	-2715
▁saved	-2716
000	-2717
ano	-2718
oud	-2719
time	-2720
▁peace	-2721
▁totally	-2722
▁listening	-2723
NE	-2724
UCK	-2725
ruct	-2726
▁Red	-2727
▁lim	-2728
▁mir	-2729
▁Godd	-2730
▁camp	-2731
▁board	-2732
▁honor	-2733
▁direct	-2734
▁relations	-2735
LD	-2736
got	-2737
..."	-2738
▁Wow	-2739
▁equ	-2740
attle	-2741
▁song	-2742
▁Chief	-2743
▁horse	-2744
IR	-2745
▁sad	-2746
▁tem	-2747
▁tor	-2748
owers	-2749
▁Once	-2750
▁ways	-2751
▁Leave	-2752
▁stuck	-2753
het	-2754
mmer	-2755
▁stat	-2756
▁Still	-2757
ossible	-2758
▁dreams	-2759
▁beginning	-2760
▁BE	-2761
ends	-2762
place	-2763
▁Aren	-2764
▁army	-2765
▁viol	-2766
utenant	-2767
▁attention	-2768
ius	-2769
▁Ha	-2770
aith	-2771
tern	-2772
▁Jew	-2773
uthor	-2774
▁Most	-2775
▁hide	-2776
▁rock	-2777
▁third	-2778
▁Everyone	-2779
MM	-2780
▁NO	-2781
▁spl	-2782
▁circ	-2783
▁hurry	-2784
▁connect	-2785
▁darling	-2786
aint	-2787
amer	-2788
hard	-2789
▁West	-2790
▁enem	-2791
▁evil	-2792
▁neck	-2793
▁daddy	-2794
▁gives	-2795
----------------	-2796
▁cry	-2797
▁Billy	-2798
▁single	-2799
▁travel	-2800
ris	-2801
▁eas	-2802
▁emp	-2803
▁Watch	-2804
>?	-2805
▁Cra	-2806
▁Star	-2807
▁bill	-2808
▁fish	-2809
▁earth	-2810
▁share	-2811
▁Exactly	-2812
EM	-2813
ica	-2814
▁hy	-2815
▁Help	-2816
▁pray	-2817
▁prop	-2818
▁blame	-2819
CT	-2820
do	-2821
inc	-2822
▁av	-2823
ified	-2824
▁Back	-2825
▁awful	-2826
▁recogn	-2827
▁address	-2828
▁college	-2829
▁comfort	-2830
▁percent	-2831
▁surprise	-2832
AND	-2833
pin	-2834
▁ste	-2835
▁film	-2836
▁hardly	-2837
ify	-2838
▁BL	-2839
▁LT	-2840
ille	-2841
▁crime	-2842
▁Before	-2843
▁papers	-2844
▁partner	-2845
▁ourselves	-2846
rat	-2847
▁Were	-2848
▁escap	-2849
▁idiot	-2850
▁reading	-2851
VER	-2852
aly	-2853
▁Jul	-2854
▁appro	-2855
▁walking	-2856
▁experience	-2857
vy	-2858
ana	-2859
roup	-2860
ures	-2861
otion	-2862
▁Bull	-2863
▁blue	-2864
▁hook	-2865
▁loves	-2866
BI	-2867
let	-2868
▁IT	-2869
>...	-2870
▁Ann	-2871
▁HAR	-2872
▁beer	-2873
▁club	-2874
▁load	-2875
▁sens	-2876
▁Honey	-2877
▁talkin	-2878
▁investig	-2879
▁DO	-2880
▁Cle	-2881
▁vir	-2882
cious	-2883
icide	-2884
▁Over	-2885
▁Better	-2886
▁evidence	-2887
ives	-2888
roud	-2889
▁Tra	-2890
heart	-2891
▁Paris	-2892
▁orders	-2893
▁security	-2894
▁Em	-2895
ager	-2896
iced	-2897
▁Dep	-2898
▁Fed	-2899
ardon	-2900
▁cook	-2901
▁fort	-2902
▁guns	-2903
▁king	-2904
▁birthday	-2905
▁position	-2906
▁wondering	-2907
rer	-2908
ser	-2909
▁CA	-2910
▁MI	-2911
ette	-2912
▁Ger	-2913
▁fan	-2914
▁lar	-2915
▁City	-2916
▁exam	-2917
▁extra	-2918
▁Sounds	-2919
▁planet	-2920
▁fighting	-2921
▁promised	-2922
bed	-2923
▁cow	-2924
▁Rick	-2925
▁nuts	-2926
▁admit	-2927
▁folks	-2928
▁natur	-2929
▁Goodbye	-2930
▁wedding	-2931
▁starting	-2932
ov	-2933
ya	-2934
aged	-2935
ners	-2936
onel	-2937
▁conv	-2938
▁crap	-2939
▁Grand	-2940
▁using	-2941
▁Twenty	-2942
▁broken	-2943
▁forever	-2944
▁suspect	-2945
▁usually	-2946
▁Probably	-2947
▁computer	-2948
...!	-2949
▁San	-2950
▁phys	-2951
▁type	-2952
▁block	-2953
▁divor	-2954
initely	-2955
▁asleep	-2956
▁memory	-2957
▁cigaret	-2958
▁marriage	-2959
ral	-2960
earch	-2961
▁cred	-2962
▁elect	-2963
▁notice	-2964
▁mission	-2965
▁boyfriend	-2966
iny	-2967
mmm	-2968
▁TO	-2969
wise	-2970
▁sil	-2971
azing	-2972
ficult	-2973
▁Doesn	-2974
▁Jerry	-2975
▁buddy	-2976
▁silly	-2977
bit	-2978
vis	-2979
imme	-2980
▁low	-2981
▁fired	-2982
▁tells	-2983
▁normal	-2984
▁absolutely	-2985
RA	-2986
BER	-2987
▁CO	-2988
▁wat	-2989
ended	-2990
oring	-2991
▁Kill	-2992
▁THOM	-2993
▁Since	-2994
▁spent	-2995
LEY	-2996
zen	-2997
pens	-2998
▁Bab	-2999
▁jack	-3000
▁spec	-3001
▁wild	-3002
▁Major	-3003
▁agree	-3004
▁relax	-3005
RO	-3006
iant	-3007
▁Min	-3008
▁aut	-3009
▁bre	-3010
▁gas	-3011
▁lab	-3012
▁base	-3013
▁post	-3014
▁plans	-3015
iculous	-3016
▁neighbor	-3017
can	-3018
fast	-3019
▁Gee	-3020
▁ann	-3021
alent	-3022
▁note	-3023
ending	-3024
▁guest	-3025
▁names	-3026
▁Charles	-3027
▁whether	-3028
uc	-3029
gged	-3030
ivil	-3031
▁Sit	-3032
▁Ever	-3033
▁host	-3034
amb	-3035
eth	-3036
▁Fin	-3037
▁Lau	-3038
▁Mag	-3039
▁fit	-3040
▁ide	-3041
▁quar	-3042
▁acting	-3043
▁collect	-3044
>!	-3045
RY	-3046
▁RE	-3047
ently	-3048
▁Cong	-3049
▁beha	-3050
▁lock	-3051
▁rent	-3052
elieve	-3053
▁angry	-3054
▁drugs	-3055
▁fellow	-3056
▁walked	-3057
▁writing	-3058
gin	-3059
iew	-3060
▁ir	-3061
andy	-3062
over	-3063
▁Ain	-3064
▁Has	-3065
ption	-3066
▁feed	-3067
▁Earth	-3068
▁Uncle	-3069
▁Lieutenant	-3070
ese	-3071
irm	-3072
lyn	-3073
nel	-3074
▁Mu	-3075
RIAM	-3076
▁Time	-3077
▁Tommy	-3078
▁twice	-3079
▁MIRIAM	-3080
▁bathroom	-3081
▁Ten	-3082
▁fur	-3083
▁vac	-3084
▁Little	-3085
▁difficult	-3086
AA	-3087
acy	-3088
erk	-3089
form	-3090
▁FBI	-3091
▁Hal	-3092
ining	-3093
light	-3094
▁spot	-3095
▁Mexic	-3096
▁polit	-3097
▁plenty	-3098
▁holding	-3099
▁records	-3100
lly	-3101
▁GO	-3102
aren	-3103
hile	-3104
just	-3105
▁Hen	-3106
▁dem	-3107
Cause	-3108
▁Mars	-3109
▁crew	-3110
▁cust	-3111
▁feels	-3112
▁keeps	-3113
▁smoke	-3114
▁contin	-3115
▁dollar	-3116
▁remind	-3117
▁learned	-3118
▁officer	-3119
IA	-3120
UN	-3121
ata	-3122
ste	-3123
▁Mo	-3124
▁Andy	-3125
▁arri	-3126
▁inno	-3127
▁Bobby	-3128
▁closed	-3129
▁herself	-3130
▁ridiculous	-3131
HN	-3132
ONN	-3133
ped	-3134
uit	-3135
▁Up	-3136
ploy	-3137
rass	-3138
rodu	-3139
urse	-3140
▁Doc	-3141
▁KID	-3142
▁Under	-3143
▁proud	-3144
▁tight	-3145
▁fright	-3146
▁correct	-3147
▁welcome	-3148
chn	-3149
cket	-3150
▁Pol	-3151
astic	-3152
itude	-3153
▁JOHN	-3154
▁weak	-3155
▁level	-3156
VE	-3157
ero	-3158
!...	-3159
pper	-3160
▁Adm	-3161
▁Det	-3162
▁egg	-3163
▁Dude	-3164
▁Thom	-3165
▁blind	-3166
▁Sl	-3167
▁OFF	-3168
▁Jean	-3169
▁dick	-3170
▁rules	-3171
▁island	-3172
▁pulled	-3173
▁summer	-3174
▁surprised	-3175
sc	-3176
TON	-3177
con	-3178
ppy	-3179
▁SP	-3180
▁ant	-3181
itten	-3182
▁Betty	-3183
▁built	-3184
▁loose	-3185
▁trick	-3186
▁waste	-3187
▁MOTHER	-3188
▁finger	-3189
▁Er	-3190
▁Dor	-3191
▁Fif	-3192
otten	-3193
▁Hard	-3194
▁crim	-3195
▁spir	-3196
▁organ	-3197
▁advice	-3198
▁necess	-3199
▁feelings	-3200
▁particul	-3201
▁relationship	-3202
bs	-3203
ils	-3204
que	-3205
▁ca	-3206
eeth	-3207
esty	-3208
▁Old	-3209
▁Rel	-3210
ipped	-3211
▁Turn	-3212
▁dump	-3213
▁gift	-3214
ountain	-3215
aff	-3216
off	-3217
unny	-3218
▁bow	-3219
▁Next	-3220
▁hole	-3221
▁often	-3222
▁locked	-3223
gel	-3224
▁HE	-3225
▁Lo	-3226
host	-3227
▁sea	-3228
▁Frid	-3229
▁Leon	-3230
▁yell	-3231
ishing	-3232
▁embar	-3233
▁forgive	-3234
▁stories	-3235
▁favorite	-3236
▁Absolutely	-3237
za	-3238
lor	-3239
por	-3240
▁DE	-3241
▁la	-3242
arry	-3243
▁Lee	-3244
▁Ter	-3245
▁Van	-3246
▁iss	-3247
▁area	-3248
▁curi	-3249
▁apart	-3250
hington	-3251
▁places	-3252
▁government	-3253
▁impossible	-3254
ada	-3255
ivers	-3256
▁Phil	-3257
▁Talk	-3258
▁band	-3259
▁seemed	-3260
▁Sheriff	-3261
▁contract	-3262
▁condition	-3263
aa	-3264
lt	-3265
▁Sk	-3266
essor	-3267
▁file	-3268
▁rece	-3269
▁risk	-3270
▁track	-3271
▁Martin	-3272
▁lovely	-3273
▁played	-3274
▁scream	-3275
▁Goddamn	-3276
▁Richard	-3277
▁Washington	-3278
rank	-3279
▁BOY	-3280
▁est	-3281
▁tax	-3282
house	-3283
▁coun	-3284
▁Eight	-3285
▁force	-3286
▁stole	-3287
▁Always	-3288
▁during	-3289
▁intell	-3290
▁victim	-3291
aim	-3292
uly	-3293
▁pu	-3294
▁dun	-3295
rible	-3296
▁Mama	-3297
▁skin	-3298
▁Scott	-3299
▁major	-3300
▁price	-3301
▁attract	-3302
▁sleeping	-3303
ETT	-3304
ids	-3305
raph	-3306
wood	-3307
▁pot	-3308
▁spo	-3309
ffect	-3310
▁lots	-3311
▁Guess	-3312
▁camer	-3313
▁scare	-3314
▁Um	-3315
ford	-3316
▁Jan	-3317
▁hey	-3318
▁pan	-3319
arden	-3320
▁Hall	-3321
▁Mill	-3322
▁Pret	-3323
▁WILL	-3324
▁hall	-3325
▁view	-3326
▁Thing	-3327
▁dirty	-3328
▁freak	-3329
▁worst	-3330
▁convers	-3331
▁Tomorrow	-3332
gn	-3333
ker	-3334
uel	-3335
▁Ok	-3336
iner	-3337
ises	-3338
▁Roy	-3339
▁hom	-3340
▁hun	-3341
▁odd	-3342
▁Chan	-3343
▁sand	-3344
▁succ	-3345
ration	-3346
vision	-3347
▁Henry	-3348
▁Believe	-3349
▁charact	-3350
▁neither	-3351
▁willing	-3352
▁breakfast	-3353
▁profession	-3354
ALL	-3355
aper	-3356
itor	-3357
▁Bur	-3358
iforn	-3359
▁Long	-3360
▁calm	-3361
▁cast	-3362
▁swim	-3363
▁civil	-3364
▁Jeffrey	-3365
▁command	-3366
▁Californ	-3367
▁embarrass	-3368
ruce	-3369
yond	-3370
▁Ask	-3371
▁Mon	-3372
▁PAT	-3373
▁aud	-3374
▁cute	-3375
▁onto	-3376
▁opin	-3377
▁Holly	-3378
▁taste	-3379
▁Colonel	-3380
▁subject	-3381
igg	-3382
isf	-3383
olf	-3384
resh	-3385
▁Pop	-3386
▁Pri	-3387
▁den	-3388
▁Holy	-3389
▁Vict	-3390
urance	-3391
▁games	-3392
▁detail	-3393
▁gettin	-3394
▁nature	-3395
HT	-3396
ns	-3397
YER	-3398
uro	-3399
,000	-3400
▁AND	-3401
▁mix	-3402
▁sle	-3403
ument	-3404
▁Find	-3405
▁wood	-3406
icated	-3407
▁round	-3408
▁teeth	-3409
▁animal	-3410
▁church	-3411
▁within	-3412
▁knowing	-3413
▁patient	-3414
▁upstairs	-3415
▁California	-3416
ply	-3417
two	-3418
iral	-3419
rage	-3420
▁DAY	-3421
▁Hur	-3422
▁Jun	-3423
▁mer	-3424
venty	-3425
▁Check	-3426
▁gener	-3427
▁group	-3428
▁insane	-3429
▁search	-3430
itz	-3431
▁Ya	-3432
aked	-3433
anks	-3434
gest	-3435
▁Sar	-3436
▁Tri	-3437
▁High	-3438
▁Show	-3439
▁code	-3440
▁decide	-3441
▁Another	-3442
▁weekend	-3443
▁concerned	-3444
bur	-3445
gar	-3446
like	-3447
roll	-3448
▁Guy	-3449
▁thr	-3450
▁und	-3451
▁copy	-3452
▁study	-3453
▁Street	-3454
▁forward	-3455
GG	-3456
ka	-3457
▁ME	-3458
ites	-3459
▁App	-3460
▁Rog	-3461
ooper	-3462
ortun	-3463
▁Park	-3464
▁Rome	-3465
▁cock	-3466
▁numb	-3467
▁scene	-3468
▁Except	-3469
▁career	-3470
▁corner	-3471
▁apologize	-3472
▁Prof	-3473
▁purp	-3474
▁Bruce	-3475
▁chair	-3476
▁author	-3477
▁common	-3478
▁eating	-3479
▁showed	-3480
GE	-3481
It	-3482
oh	-3483
yl	-3484
ints	-3485
line	-3486
medi	-3487
▁GRE	-3488
▁cru	-3489
▁crow	-3490
▁runs	-3491
▁House	-3492
▁const	-3493
▁German	-3494
▁heaven	-3495
▁settle	-3496
▁support	-3497
▁innocent	-3498
▁detective	-3499
▁Cr	-3500
▁La	-3501
▁Int	-3502
▁cup	-3503
eared	-3504
imate	-3505
▁BILLY	-3506
▁State	-3507
▁dunno	-3508
▁shoes	-3509
▁stock	-3510
▁stran	-3511
▁effect	-3512
▁itself	-3513
ART	-3514
ades	-3515
▁Tod	-3516
▁Way	-3517
stein	-3518
▁suff	-3519
▁Other	-3520
▁Smith	-3521
▁agent	-3522
▁taught	-3523
ulations	-3524
ONG	-3525
rog	-3526
back	-3527
merg	-3528
reme	-3529
they	-3530
▁Sho	-3531
▁mid	-3532
▁nin	-3533
▁pig	-3534
jesty	-3535
▁seat	-3536
▁warm	-3537
▁Marty	-3538
▁newsp	-3539
▁HARPER	-3540
▁credit	-3541
▁double	-3542
▁Admiral	-3543
▁hanging	-3544
▁brothers	-3545
▁drinking	-3546
din	-3547
eds	-3548
mare	-3549
▁Bye	-3550
▁hol	-3551
antic	-3552
▁soft	-3553
▁Agent	-3554
▁turns	-3555
▁gentlemen	-3556
ai	-3557
oyd	-3558
icle	-3559
▁Cat	-3560
ology	-3561
▁None	-3562
▁heal	-3563
▁keys	-3564
▁tree	-3565
▁ident	-3566
▁immedi	-3567
▁paying	-3568
▁starts	-3569
▁ticket	-3570
▁noticed	-3571
ITE	-3572
URR	-3573
aur	-3574
▁pe	-3575
eech	-3576
four	-3577
iest	-3578
lect	-3579
reng	-3580
rian	-3581
▁Ken	-3582
▁rob	-3583
▁legs	-3584
▁comin	-3585
▁empty	-3586
▁heavy	-3587
▁afford	-3588
▁breath	-3589
▁amazing	-3590
▁survive	-3591
DY	-3592
▁AL	-3593
▁Ev	-3594
town	-3595
▁Gre	-3596
ourse	-3597
▁Stan	-3598
▁fant	-3599
▁Danie	-3600
▁color	-3601
▁guard	-3602
▁sight	-3603
▁split	-3604
mission	-3605
▁Pretty	-3606
▁desert	-3607
▁helped	-3608
▁losing	-3609
▁dropped	-3610
▁Bullshit	-3611
▁greatest	-3612
▁themselves	-3613
erm	-3614
nal	-3615
CHER	-3616
angu	-3617
rate	-3618
▁Its	-3619
▁Sant	-3620
itchen	-3621
▁responsible	-3622
ki	-3623
ugg	-3624
ula	-3625
▁Nah	-3626
▁wha	-3627
▁Comp	-3628
▁Dave	-3629
▁cars	-3630
▁cheap	-3631
▁Harold	-3632
▁Victor	-3633
▁flight	-3634
▁Brother	-3635
▁keeping	-3636
▁success	-3637
▁training	-3638
▁interview	-3639
▁department	-3640
▁television	-3641
▁SH	-3642
ances	-3643
onely	-3644
▁moon	-3645
ograph	-3646
▁action	-3647
▁lately	-3648
▁Senator	-3649
▁opinion	-3650
▁PA	-3651
elly	-3652
inda	-3653
▁Dou	-3654
▁bod	-3655
▁tip	-3656
▁Same	-3657
▁lied	-3658
▁pool	-3659
▁shop	-3660
▁South	-3661
▁judge	-3662
▁trial	-3663
ization	-3664
▁beyond	-3665
▁simply	-3666
▁letters	-3667
▁character	-3668
IP	-3669
arm	-3670
val	-3671
▁BO	-3672
▁ho	-3673
amin	-3674
look	-3675
▁Aye	-3676
▁ign	-3677
▁lic	-3678
▁pil	-3679
▁pun	-3680
stood	-3681
▁Cent	-3682
▁suck	-3683
▁susp	-3684
ground	-3685
▁introdu	-3686
▁motherfuck	-3687
ex	-3688
ays	-3689
ees	-3690
iat	-3691
▁OF	-3692
▁di	-3693
OMAN	-3694
came	-3695
▁Pre	-3696
aring	-3697
velop	-3698
▁Soon	-3699
▁size	-3700
▁wast	-3701
▁OFFIC	-3702
▁enemy	-3703
▁large	-3704
▁plant	-3705
▁Norman	-3706
mergency	-3707
▁natural	-3708
▁murdered	-3709
!"	-3710
SO	-3711
UM	-3712
CONN	-3713
chan	-3714
this	-3715
▁McC	-3716
▁pin	-3717
▁pus	-3718
▁rub	-3719
▁tie	-3720
iliar	-3721
iring	-3722
itted	-3723
usion	-3724
▁Life	-3725
▁clim	-3726
▁desk	-3727
▁farm	-3728
▁sees	-3729
▁wine	-3730
▁Robert	-3731
▁Things	-3732
▁numbers	-3733
asc	-3734
▁MA	-3735
▁Veg	-3736
▁due	-3737
▁Grace	-3738
▁Jason	-3739
▁Satur	-3740
▁champ	-3741
▁exist	-3742
▁hello	-3743
▁hired	-3744
▁proof	-3745
▁raise	-3746
▁remain	-3747
▁decision	-3748
▁following	-3749
▁conversation	-3750
fle	-3751
par	-3752
tor	-3753
aced	-3754
rief	-3755
▁Had	-3756
▁deg	-3757
ville	-3758
▁Brad	-3759
▁Brit	-3760
▁Mick	-3761
▁heat	-3762
▁held	-3763
▁rout	-3764
▁Green	-3765
▁langu	-3766
ibility	-3767
▁further	-3768
▁Saturday	-3769
va	-3770
ANT	-3771
she	-3772
arch	-3773
▁Wha	-3774
iling	-3775
▁cous	-3776
▁dont	-3777
▁duty	-3778
▁incl	-3779
▁orig	-3780
▁Franc	-3781
▁Miles	-3782
▁Super	-3783
▁beach	-3784
▁bridge	-3785
▁famous	-3786
▁lonely	-3787
▁suddenly	-3788
gs	-3789
gly	-3790
ila	-3791
omm	-3792
loyd	-3793
▁Bad	-3794
ality	-3795
field	-3796
▁Blue	-3797
▁LEER	-3798
▁heads	-3799
▁river	-3800
▁rough	-3801
▁hiding	-3802
▁OFFICER	-3803
▁possibly	-3804
AB	-3805
UL	-3806
▁Li	-3807
URSE	-3808
oned	-3809
▁Wes	-3810
▁Yah	-3811
▁obs	-3812
▁KURR	-3813
▁mama	-3814
▁WOMAN	-3815
▁faith	-3816
▁fella	-3817
▁ideas	-3818
▁lookin	-3819
▁passed	-3820
▁pocket	-3821
▁KURRING	-3822
▁deserve	-3823
▁kitchen	-3824
▁matters	-3825
icy	-3826
pect	-3827
▁Bud	-3828
▁Jac	-3829
▁map	-3830
orter	-3831
▁Fort	-3832
▁arms	-3833
▁NURSE	-3834
▁Trust	-3835
▁becom	-3836
▁crack	-3837
▁event	-3838
▁stars	-3839
▁whose	-3840
▁master	-3841
▁curious	-3842
▁monster	-3843
▁opportun	-3844
▁shooting	-3845
ez	-3846
▁Ob	-3847
othy	-3848
▁Ber	-3849
▁bat	-3850
▁Nope	-3851
▁vide	-3852
▁Lloyd	-3853
▁Vegas	-3854
▁WHITE	-3855
ference	-3856
▁assist	-3857
▁became	-3858
▁bigger	-3859
▁crying	-3860
▁checked	-3861
▁Du	-3862
RIEN	-3863
elle	-3864
▁Mur	-3865
▁rom	-3866
igned	-3867
▁harm	-3868
▁laid	-3869
▁lift	-3870
▁Count	-3871
▁SUPER	-3872
▁ghost	-3873
▁older	-3874
▁shows	-3875
▁sword	-3876
▁techn	-3877
▁Wouldn	-3878
▁bottle	-3879
▁custom	-3880
CO	-3881
ann	-3882
col	-3883
osh	-3884
'...	-3885
akin	-3886
ilty	-3887
▁Hel	-3888
asons	-3889
board	-3890
▁Part	-3891
▁nail	-3892
▁bodies	-3893
▁pounds	-3894
▁repres	-3895
▁hearing	-3896
▁somehow	-3897
▁familiar	-3898
▁recognize	-3899
▁seriously	-3900
▁sweetheart	-3901
.,	-3902
ses	-3903
"...	-3904
inct	-3905
▁Bra	-3906
▁Law	-3907
idden	-3908
ondon	-3909
▁Army	-3910
▁Buzz	-3911
▁Happ	-3912
▁thro	-3913
▁green	-3914
cellent	-3915
▁Thomas	-3916
▁incred	-3917
▁prefer	-3918
▁satisf	-3919
▁Majesty	-3920
▁excited	-3921
▁request	-3922
▁comfortable	-3923
min	-3924
▁Cas	-3925
▁VAN	-3926
under	-3927
▁Dead	-3928
▁tour	-3929
iction	-3930
▁knife	-3931
▁magic	-3932
▁nurse	-3933
▁Indian	-3934
▁London	-3935
▁appear	-3936
▁project	-3937
▁teacher	-3938
EE	-3939
ITH	-3940
YAT	-3941
ule	-3942
yan	-3943
▁MS	-3944
▁hi	-3945
oman	-3946
▁dry	-3947
ising	-3948
itary	-3949
▁Shhh	-3950
▁Sund	-3951
ealous	-3952
rength	-3953
▁Death	-3954
▁purpose	-3955
▁horrible	-3956
ca	-3957
▁ED	-3958
IGHT	-3959
aire	-3960
ceed	-3961
cise	-3962
▁Cut	-3963
prise	-3964
▁Gord	-3965
▁jour	-3966
▁upon	-3967
ressed	-3968
▁cares	-3969
▁lights	-3970
▁nightmare	-3971
KER	-3972
▁Ca	-3973
omed	-3974
▁PIN	-3975
▁Ver	-3976
hetic	-3977
▁Clau	-3978
▁rain	-3979
▁claim	-3980
▁lines	-3981
▁spoke	-3982
▁beauty	-3983
▁descri	-3984
▁hoping	-3985
▁answers	-3986
▁medical	-3987
▁vacation	-3988
▁definitely	-3989
PT	-3990
ago	-3991
oid	-3992
sed	-3993
▁FUCK	-3994
▁Mark	-3995
▁butt	-3996
▁comb	-3997
▁Gimme	-3998
▁magaz	-3999
▁pants	-4000
▁access	-4001
▁camera	-4002
▁speech	-4003
▁Dorothy	-4004
▁England	-4005
▁jealous	-4006
▁gentleman	-4007
▁perfectly	-4008
don	-4009
rel	-4010
tes	-4011
▁10	-4012
face	-4013
inci	-4014
▁cre	-4015
BRIEN	-4016
ening	-4017
geant	-4018
gging	-4019
using	-4020
vered	-4021
▁Adam	-4022
▁Know	-4023
▁Luke	-4024
▁Step	-4025
▁dogs	-4026
▁push	-4027
▁rule	-4028
▁sour	-4029
▁Bring	-4030
▁pregn	-4031
▁speed	-4032
▁Mexico	-4033
▁employ	-4034
▁leaves	-4035
pecially	-4036
▁meaning	-4037
▁bringing	-4038
▁carrying	-4039
▁property	-4040
▁necessary	-4041
▁Ot	-4042
▁Ow	-4043
▁Hot	-4044
▁mut	-4045
YATSO	-4046
▁Friday	-4047
▁GYATSO	-4048
▁weight	-4049
▁weather	-4050
▁written	-4051
yal	-4052
ergy	-4053
iers	-4054
itty	-4055
ucky	-4056
▁Run	-4057
▁van	-4058
asion	-4059
fered	-4060
istic	-4061
▁Easy	-4062
▁meat	-4063
▁stom	-4064
▁Haven	-4065
▁Until	-4066
▁sixty	-4067
▁wound	-4068
▁bright	-4069
▁distur	-4070
▁escape	-4071
▁nights	-4072
▁pieces	-4073
▁spirit	-4074
▁develop	-4075
▁mountain	-4076
▁immediately	-4077
gie	-4078
ini	-4079
lebr	-4080
uses	-4081
▁Spe	-4082
ledge	-4083
▁Aust	-4084
▁Euro	-4085
▁Annie	-4086
▁Cause	-4087
▁Spock	-4088
▁cards	-4089
▁bottom	-4090
▁brains	-4091
▁closer	-4092
▁Russian	-4093
▁arrange	-4094
▁watched	-4095
▁weapons	-4096
▁criminal	-4097
▁intellig	-4098
▁Goodnight	-4099
▁disappear	-4100
No	-4101
We	-4102
dia	-4103
▁AN	-4104
▁LA	-4105
itiz	-4106
▁Wil	-4107
▁ver	-4108
▁Joey	-4109
▁port	-4110
▁ugly	-4111
father	-4112
▁Relax	-4113
▁crowd	-4114
▁fresh	-4115
▁sport	-4116
▁truly	-4117
▁uncle	-4118
▁guilty	-4119
▁pissed	-4120
▁poison	-4121
▁airport	-4122
▁biggest	-4123
▁goodbye	-4124
▁practice	-4125
▁Professor	-4126
▁insurance	-4127
BOY	-4128
OWN	-4129
ato	-4130
cut	-4131
urt	-4132
bers	-4133
gers	-4134
▁Rep	-4135
▁Yep	-4136
▁sna	-4137
▁Baby	-4138
▁Danny	-4139
▁threw	-4140
▁borrow	-4141
▁object	-4142
▁scient	-4143
▁sooner	-4144
▁suicide	-4145
ena	-4146
sey	-4147
ONES	-4148
▁Ant	-4149
ients	-4150
▁Wood	-4151
▁bene	-4152
▁blew	-4153
▁dise	-4154
▁ears	-4155
▁grab	-4156
▁hors	-4157
▁loud	-4158
▁mood	-4159
▁Susan	-4160
▁aware	-4161
▁balls	-4162
▁leads	-4163
▁usual	-4164
▁Sunday	-4165
▁client	-4166
▁garden	-4167
▁signal	-4168
▁animals	-4169
LO	-4170
gl	-4171
imp	-4172
rit	-4173
ted	-4174
▁ur	-4175
rant	-4176
▁Far	-4177
▁Pal	-4178
▁oil	-4179
▁tar	-4180
▁Pete	-4181
▁Rock	-4182
▁prov	-4183
▁rese	-4184
fortun	-4185
romise	-4186
▁local	-4187
▁Unless	-4188
▁choose	-4189
▁opened	-4190
▁dressed	-4191
▁believed	-4192
▁language	-4193
▁planning	-4194
▁emergency	-4195
▁expecting	-4196
bl	-4197
EAN	-4198
IOR	-4199
ita	-4200
▁Gir	-4201
▁Hmm	-4202
derer	-4203
ipper	-4204
▁Open	-4205
▁drove	-4206
▁buried	-4207
▁expens	-4208
▁stayed	-4209
▁Johnson	-4210
▁license	-4211
▁strength	-4212
▁Commander	-4213
0.	-4214
da	-4215
And	-4216
kin	-4217
down	-4218
emme	-4219
▁Nat	-4220
▁fre	-4221
phone	-4222
▁JEAN	-4223
incess	-4224
▁BLACK	-4225
▁Shall	-4226
CONNELL	-4227
▁Europe	-4228
▁busted	-4229
▁talent	-4230
▁theory	-4231
▁writer	-4232
▁Francis	-4233
▁allowed	-4234
▁especially	-4235
▁everywhere	-4236
▁neighborhood	-4237
▁Ke	-4238
stit	-4239
vere	-4240
▁Dun	-4241
▁Kat	-4242
▁OUT	-4243
▁boo	-4244
▁....	-4245
▁bite	-4246
▁mail	-4247
▁wash	-4248
▁whis	-4249
▁Their	-4250
▁match	-4251
▁react	-4252
▁wheel	-4253
arently	-4254
▁Thirty	-4255
▁awhile	-4256
▁cousin	-4257
▁easier	-4258
▁pardon	-4259
▁Certain	-4260
▁turning	-4261
▁followed	-4262
▁sometime	-4263
AI	-4264
nin	-4265
pes	-4266
▁Sy	-4267
▁ok	-4268
hold	-4269
▁Des	-4270
ashed	-4271
essed	-4272
▁Ryan	-4273
▁Scot	-4274
▁bare	-4275
▁coat	-4276
▁page	-4277
▁wire	-4278
ording	-4279
▁above	-4280
▁States	-4281
▁assume	-4282
▁damage	-4283
▁damned	-4284
▁energy	-4285
▁shower	-4286
▁British	-4287
▁Tonight	-4288
▁complain	-4289
▁opportunity	-4290
?'	-4291
▁Mm	-4292
▁Pe	-4293
empt	-4294
ussy	-4295
▁log	-4296
ender	-4297
onder	-4298
wards	-4299
▁inde	-4300
▁Enter	-4301
▁Grant	-4302
▁Larry	-4303
▁divorce	-4304
▁emotion	-4305
▁quickly	-4306
▁SUPERIOR	-4307
▁pressure	-4308
▁operation	-4309
ratulations	-4310
AMS	-4311
ERT	-4312
ONT	-4313
eez	-4314
▁Ty	-4315
mber	-4316
road	-4317
than	-4318
▁Air	-4319
▁Res	-4320
▁Tex	-4321
▁fem	-4322
▁fle	-4323
▁mat	-4324
▁tit	-4325
arant	-4326
inese	-4327
▁Poor	-4328
▁cree	-4329
▁gang	-4330
▁repe	-4331
▁Roger	-4332
▁World	-4333
▁mirac	-4334
osition	-4335
▁weapon	-4336
▁obviously	-4337
isc	-4338
law	-4339
▁Ra	-4340
asty	-4341
▁Hit	-4342
▁Low	-4343
▁ate	-4344
▁bum	-4345
▁rev	-4346
▁Jose	-4347
▁Karl	-4348
▁scri	-4349
▁tear	-4350
▁tran	-4351
▁sales	-4352
▁Mickey	-4353
▁United	-4354
▁driver	-4355
ointment	-4356
▁Without	-4357
▁extreme	-4358
▁nowhere	-4359
▁expected	-4360
▁mentioned	-4361
▁personally	-4362
ox	-4363
IST	-4364
fit	-4365
▁vol	-4366
▁bear	-4367
▁liar	-4368
overed	-4369
undred	-4370
▁celebr	-4371
▁bedroom	-4372
▁chicken	-4373
▁helping	-4374
▁reasons	-4375
▁seventy	-4376
▁communic	-4377
▁Hollywood	-4378
six	-4379
▁ON	-4380
▁um	-4381
aker	-4382
bage	-4383
bing	-4384
▁Day	-4385
▁Ham	-4386
▁Mmm	-4387
▁rum	-4388
aylor	-4389
▁Ital	-4390
ension	-4391
▁birds	-4392
▁sneak	-4393
▁trade	-4394
ilities	-4395
▁jacket	-4396
▁throat	-4397
▁science	-4398
▁Sergeant	-4399
▁professional	-4400
Th	-4401
oe	-4402
esh	-4403
gon	-4404
▁NE	-4405
▁SM	-4406
rupt	-4407
▁Leo	-4408
▁Nin	-4409
seven	-4410
▁Chic	-4411
▁Cool	-4412
▁Earl	-4413
▁Home	-4414
▁Whoa	-4415
▁fing	-4416
▁ment	-4417
▁pers	-4418
▁vill	-4419
▁JONES	-4420
▁serve	-4421
▁shape	-4422
▁Gordon	-4423
▁Sidney	-4424
▁battle	-4425
▁garage	-4426
▁Chinese	-4427
▁deliver	-4428
▁forgotten	-4429
RES	-4430
cean	-4431
▁FOR	-4432
▁Tre	-4433
▁rat	-4434
.....	-4435
▁Benj	-4436
▁Down	-4437
▁Supp	-4438
▁craw	-4439
▁hated	-4440
itation	-4441
▁Elaine	-4442
▁Taylor	-4443
rilliant	-4444
▁manager	-4445
▁prepared	-4446
▁particular	-4447
bly	-4448
▁SC	-4449
case	-4450
▁Mil	-4451
▁fed	-4452
▁imm	-4453
▁Been	-4454
▁Mond	-4455
▁jerk	-4456
▁mass	-4457
▁pair	-4458
▁thou	-4459
▁Honor	-4460
▁Offic	-4461
▁doors	-4462
▁files	-4463
▁shock	-4464
▁total	-4465
itchell	-4466
▁flying	-4467
▁market	-4468
▁stomach	-4469
▁murderer	-4470
▁positive	-4471
▁Certainly	-4472
ij	-4473
bbed	-4474
ueen	-4475
▁BAN	-4476
▁Haw	-4477
▁Naw	-4478
▁flo	-4479
▁hig	-4480
rance	-4481
▁Work	-4482
▁grad	-4483
▁Baron	-4484
▁Rache	-4485
▁Seven	-4486
▁Sweet	-4487
▁accom	-4488
▁legal	-4489
ulation	-4490
▁bullet	-4491
▁patter	-4492
▁square	-4493
▁Anybody	-4494
▁flowers	-4495
▁regular	-4496
▁streets	-4497
▁Mitchell	-4498
▁represent	-4499
He	-4500
fl	-4501
DAY	-4502
udy	-4503
▁Ac	-4504
▁Cub	-4505
▁Hor	-4506
▁Mel	-4507
▁Ros	-4508
▁shr	-4509
▁flat	-4510
▁hunt	-4511
icious	-4512
itions	-4513
▁Ready	-4514
▁among	-4515
▁issue	-4516
▁medic	-4517
▁storm	-4518
onsense	-4519
ression	-4520
▁Daniel	-4521
▁boring	-4522
▁burned	-4523
▁faster	-4524
▁ladies	-4525
▁social	-4526
▁strike	-4527
▁picking	-4528
▁pregnant	-4529
▁responsibility	-4530
udd	-4531
▁ju	-4532
icks	-4533
kins	-4534
▁Art	-4535
▁Chi	-4536
▁Mau	-4537
▁net	-4538
eight	-4539
▁Alan	-4540
▁BUTT	-4541
▁Hild	-4542
▁Sand	-4543
▁Tran	-4544
▁dude	-4545
▁earl	-4546
▁soci	-4547
▁whom	-4548
▁wise	-4549
ursday	-4550
▁bleed	-4551
▁spare	-4552
▁stink	-4553
▁tapes	-4554
ruction	-4555
▁regret	-4556
▁doctors	-4557
▁pretend	-4558
▁restaur	-4559
11	-4560
zo	-4561
ipe	-4562
▁AR	-4563
▁Cy	-4564
▁Ly	-4565
▁Wr	-4566
▁Yo	-4567
▁nu	-4568
PSON	-4569
ston	-4570
▁Die	-4571
▁Kay	-4572
▁Las	-4573
▁pet	-4574
asure	-4575
venge	-4576
▁ends	-4577
▁exec	-4578
▁milk	-4579
▁ours	-4580
▁Happy	-4581
▁Hurry	-4582
▁Might	-4583
▁moves	-4584
▁separ	-4585
▁bloody	-4586
▁sexual	-4587
▁switch	-4588
▁Welcome	-4589
▁fortune	-4590
▁process	-4591
▁Thursday	-4592
▁breaking	-4593
▁someplace	-4594
▁frightened	-4595
spe	-4596
uman	-4597
▁Him	-4598
▁Jon	-4599
▁tun	-4600
▁wis	-4601
ograp	-4602
▁deli	-4603
▁eggs	-4604
▁ruin	-4605
▁snow	-4606
gative	-4607
▁broad	-4608
▁crash	-4609
▁kidna	-4610
▁player	-4611
▁powerful	-4612
▁destroyed	-4613
▁MU	-4614
▁Sn	-4615
▁Tim	-4616
▁doc	-4617
isted	-4618
ordin	-4619
▁Cole	-4620
▁disg	-4621
▁North	-4622
▁Steve	-4623
▁awake	-4624
▁fixed	-4625
▁plays	-4626
▁eleven	-4627
▁manage	-4628
▁script	-4629
▁Chicago	-4630
▁covered	-4631
▁dealing	-4632
uz	-4633
UIS	-4634
▁Eh	-4635
▁Ms	-4636
ores	-4637
vior	-4638
▁Acc	-4639
▁Def	-4640
▁Vir	-4641
▁sky	-4642
alley	-4643
ammit	-4644
order	-4645
swald	-4646
▁Coll	-4647
▁Jane	-4648
▁Walk	-4649
▁disp	-4650
▁pure	-4651
▁unif	-4652
▁final	-4653
▁finds	-4654
▁sever	-4655
▁tryin	-4656
▁Joseph	-4657
▁Junior	-4658
▁saving	-4659
▁general	-4660
▁letting	-4661
▁Benjamin	-4662
▁speaking	-4663
▁Detective	-4664
ACE	-4665
rad	-4666
▁20	-4667
▁MC	-4668
▁Sa	-4669
give	-4670
goti	-4671
▁Amy	-4672
▁abs	-4673
althy	-4674
▁Anna	-4675
▁KONG	-4676
▁Real	-4677
▁dies	-4678
▁tong	-4679
▁GREEN	-4680
▁expert	-4681
▁mostly	-4682
▁waited	-4683
▁chances	-4684
▁changes	-4685
▁concern	-4686
▁receive	-4687
▁Williams	-4688
▁motherfucker	-4689
hia	-4690
hol	-4691
oph	-4692
thy	-4693
▁ta	-4694
RICK	-4695
ased	-4696
mond	-4697
▁HER	-4698
▁Jap	-4699
▁Kir	-4700
▁Lis	-4701
▁SCH	-4702
▁amb	-4703
▁ban	-4704
▁scr	-4705
▁sin	-4706
▁wet	-4707
aning	-4708
ators	-4709
izing	-4710
▁Wade	-4711
▁lies	-4712
▁tail	-4713
▁trap	-4714
omeday	-4715
▁Clark	-4716
▁dozen	-4717
▁noise	-4718
▁print	-4719
▁trunk	-4720
olution	-4721
▁Master	-4722
▁clever	-4723
▁desper	-4724
▁cigarettes	-4725
.?	-4726
gen	-4727
iod	-4728
▁Ap	-4729
HEAD	-4730
IENT	-4731
olen	-4732
ached	-4733
orney	-4734
uding	-4735
▁Kane	-4736
▁PRES	-4737
▁fund	-4738
arence	-4739
▁Brown	-4740
▁Hildy	-4741
▁Sonny	-4742
▁chest	-4743
▁video	-4744
▁Rachel	-4745
▁amount	-4746
▁buying	-4747
▁recall	-4748
▁disease	-4749
▁quarter	-4750
▁THOMPSON	-4751
▁terrific	-4752
▁thoughts	-4753
▁disappeared	-4754
mo	-4755
ESS	-4756
INS	-4757
ORSE	-4758
your	-4759
▁COR	-4760
▁Jam	-4761
▁non	-4762
▁saf	-4763
▁unc	-4764
aches	-4765
▁Fire	-4766
▁data	-4767
▁fake	-4768
▁junk	-4769
reedom	-4770
▁Funny	-4771
▁cream	-4772
▁devil	-4773
▁grave	-4774
▁shame	-4775
▁slept	-4776
▁Monday	-4777
▁target	-4778
▁falling	-4779
▁funeral	-4780
▁invited	-4781
▁Clarence	-4782
▁attitude	-4783
▁attorney	-4784
▁research	-4785
WY	-4786
ION	-4787
▁Kn	-4788
iled	-4789
ummy	-4790
umst	-4791
▁Les	-4792
▁Ven	-4793
▁Win	-4794
▁lif	-4795
▁por	-4796
▁PINK	-4797
▁STAN	-4798
▁hire	-4799
▁pian	-4800
▁poet	-4801
▁roof	-4802
▁woke	-4803
cience	-4804
▁nerve	-4805
▁sweat	-4806
▁virus	-4807
aterial	-4808
▁Oswald	-4809
▁toward	-4810
▁Thought	-4811
▁created	-4812
▁earlier	-4813
▁thinkin	-4814
▁continue	-4815
▁Enterprise	-4816
▁downstairs	-4817
ips	-4818
ona	-4819
org	-4820
hand	-4821
onds	-4822
▁DAD	-4823
▁Sue	-4824
▁fac	-4825
▁East	-4826
▁Pull	-4827
▁THAT	-4828
▁Theo	-4829
▁reck	-4830
▁Start	-4831
▁activ	-4832
▁grown	-4833
▁hates	-4834
▁north	-4835
▁pussy	-4836
▁spell	-4837
▁Police	-4838
▁lesson	-4839
▁recomm	-4840
▁Italian	-4841
▁besides	-4842
▁guarant	-4843
▁ordered	-4844
▁sending	-4845
▁smoking	-4846
▁newspaper	-4847
bon	-4848
aves	-4849
ella	-4850
▁Kid	-4851
▁bal	-4852
icked	-4853
▁Cons	-4854
▁Half	-4855
▁Jess	-4856
▁Lady	-4857
▁Sher	-4858
▁trad	-4859
though	-4860
utiful	-4861
▁Gotta	-4862
▁Jones	-4863
▁Sally	-4864
▁WILLI	-4865
▁loyal	-4866
▁sched	-4867
▁shirt	-4868
▁swell	-4869
▁talks	-4870
utation	-4871
▁France	-4872
▁engine	-4873
▁transp	-4874
▁Officer	-4875
▁dancing	-4876
▁eighteen	-4877
▁laughing	-4878
▁cigarette	-4879
▁knowledge	-4880
ux	-4881
AIN	-4882
oms	-4883
▁AS	-4884
CTER	-4885
ieur	-4886
nedy	-4887
roke	-4888
▁Lam	-4889
▁jew	-4890
▁nut	-4891
▁Feel	-4892
▁ROSE	-4893
▁Reed	-4894
▁Tony	-4895
▁huge	-4896
▁infl	-4897
▁plus	-4898
▁HORSE	-4899
▁Money	-4900
▁Seems	-4901
▁cabin	-4902
▁pills	-4903
▁remem	-4904
onsieur	-4905
▁Couldn	-4906
▁LECTER	-4907
▁tellin	-4908
▁Kennedy	-4909
▁finding	-4910
▁touched	-4911
▁magazine	-4912
▁military	-4913
▁physical	-4914
▁incredible	-4915
▁practically	-4916
NY	-4917
OL	-4918
OS	-4919
gy	-4920
▁da	-4921
esar	-4922
omen	-4923
ture	-4924
uite	-4925
vert	-4926
▁Jab	-4927
▁Won	-4928
allow	-4929
clear	-4930
hered	-4931
▁Best	-4932
▁Hang	-4933
▁WHAT	-4934
▁chem	-4935
▁elev	-4936
abitch	-4937
▁GUARD	-4938
▁Margo	-4939
▁actor	-4940
▁joint	-4941
▁parts	-4942
▁south	-4943
▁artist	-4944
▁commit	-4945
▁negoti	-4946
",	-4947
DRA	-4948
SCH	-4949
awn	-4950
▁DA	-4951
load	-4952
ourt	-4953
▁Den	-4954
▁Hom	-4955
▁Ram	-4956
▁Sur	-4957
▁enc	-4958
▁heh	-4959
DRAKE	-4960
ounce	-4961
▁Aunt	-4962
▁Eric	-4963
▁firm	-4964
▁laws	-4965
▁maid	-4966
▁rare	-4967
▁shad	-4968
▁yard	-4969
▁Night	-4970
▁Speak	-4971
▁citiz	-4972
▁exact	-4973
▁occur	-4974
▁rooms	-4975
▁whore	-4976
▁Caesar	-4977
▁betray	-4978
▁horses	-4979
▁shield	-4980
▁therap	-4981
▁concent	-4982
▁garbage	-4983
▁planned	-4984
▁showing	-4985
▁arrested	-4986
▁realized	-4987
▁romantic	-4988
2.	-4989
▁OR	-4990
etch	-4991
▁CAT	-4992
▁Dis	-4993
▁GUY	-4994
▁Mat	-4995
▁Tur	-4996
bered	-4997
igger	-4998
usual	-4999
▁Ange	-5000
▁Cast	-5001
▁Cont	-5002
▁Move	-5003
▁dare	-5004
▁dirt	-5005
▁dust	-5006
▁tall	-5007
iverse	-5008
▁Ellie	-5009
▁Jacqu	-5010
▁clock	-5011
▁condu	-5012
▁smile	-5013
▁drinks	-5014
▁oughta	-5015
▁ruined	-5016
▁screen	-5017
▁tongue	-5018
▁confused	-5019
▁creature	-5020
▁experiment	-5021
▁understood	-5022
UD	-5023
ARL	-5024
IAN	-5025
ara	-5026
net	-5027
▁15	-5028
ancy	-5029
gger	-5030
ilos	-5031
play	-5032
▁Ahh	-5033
▁Bel	-5034
▁nar	-5035
erves	-5036
▁Beth	-5037
▁jobs	-5038
▁liqu	-5039
▁prob	-5040
mother	-5041
▁blank	-5042
▁naked	-5043
▁pilot	-5044
eration	-5045
▁Church	-5046
▁decent	-5047
▁likely	-5048
▁perfor	-5049
▁sevent	-5050
▁slight	-5051
▁terror	-5052
▁Neither	-5053
▁Perfect	-5054
▁burning	-5055
▁example	-5056
▁opening	-5057
▁pulling	-5058
▁MANDRAKE	-5059
▁brilliant	-5060
▁restaurant	-5061
▁investigation	-5062
CA	-5063
ef	-5064
ZAI	-5065
cey	-5066
cra	-5067
hop	-5068
▁EV	-5069
▁KN	-5070
▁fe	-5071
oops	-5072
ruit	-5073
▁GOD	-5074
▁Tot	-5075
ERSON	-5076
eline	-5077
▁Gard	-5078
▁Hope	-5079
▁guts	-5080
▁lips	-5081
▁vamp	-5082
ateful	-5083
▁Mommy	-5084
▁Santa	-5085
▁chief	-5086
▁hurts	-5087
▁shark	-5088
▁staff	-5089
▁BANZAI	-5090
▁cancer	-5091
▁genius	-5092
▁policy	-5093
▁result	-5094
▁details	-5095
▁glasses	-5096
▁reality	-5097
▁soldier	-5098
specially	-5099
ari	-5100
oci	-5101
▁ah	-5102
▁ol	-5103
ousy	-5104
ples	-5105
rees	-5106
▁sed	-5107
hamed	-5108
holes	-5109
ilies	-5110
there	-5111
ucker	-5112
▁PILL	-5113
▁Send	-5114
▁Such	-5115
▁grew	-5116
ashion	-5117
ential	-5118
▁Again	-5119
▁Linda	-5120
▁Sarah	-5121
▁Texas	-5122
▁brief	-5123
▁plain	-5124
▁style	-5125
▁trail	-5126
▁walks	-5127
▁Jackie	-5128
▁Simone	-5129
▁Sister	-5130
▁indeed	-5131
▁member	-5132
▁nearly	-5133
▁Fucking	-5134
▁selling	-5135
▁thousands	-5136
▁connection	-5137
▁reputation	-5138
UST	-5139
uns	-5140
▁IS	-5141
ETTI	-5142
iece	-5143
otic	-5144
rict	-5145
with	-5146
▁Sil	-5147
ences	-5148
peror	-5149
▁Boss	-5150
▁Play	-5151
▁prim	-5152
▁pump	-5153
▁rate	-5154
▁sett	-5155
▁Japan	-5156
▁Jesse	-5157
▁Today	-5158
▁ended	-5159
▁paint	-5160
▁punch	-5161
hundred	-5162
▁health	-5163
▁invent	-5164
▁signed	-5165
▁spring	-5166
▁fingers	-5167
▁offered	-5168
▁several	-5169
▁tickets	-5170
▁PILLETTI	-5171
▁original	-5172
▁carefully	-5173
▁entertain	-5174
▁Especially	-5175
▁complicated	-5176
▁Congratulations	-5177
xx	-5178
did	-5179
lan	-5180
phe	-5181
LETT	-5182
ante	-5183
▁---	-5184
▁Cou	-5185
▁Jer	-5186
▁Los	-5187
▁obl	-5188
▁opt	-5189
ittee	-5190
iving	-5191
ureau	-5192
▁Bart	-5193
▁rabb	-5194
▁seal	-5195
▁Nicky	-5196
▁Stand	-5197
▁cents	-5198
ability	-5199
▁Second	-5200
▁riding	-5201
▁freedom	-5202
▁heading	-5203
▁circumst	-5204
▁midnight	-5205
▁partners	-5206
▁transfer	-5207
▁impressed	-5208
OP	-5209
WYK	-5210
cel	-5211
cil	-5212
fif	-5213
raw	-5214
book	-5215
good	-5216
lock	-5217
▁Med	-5218
▁Squ	-5219
arily	-5220
▁mile	-5221
▁rush	-5222
▁term	-5223
▁toil	-5224
uesday	-5225
▁Force	-5226
▁brave	-5227
▁illeg	-5228
▁relig	-5229
▁terms	-5230
▁Almost	-5231
▁Anyone	-5232
▁Either	-5233
▁Island	-5234
▁brings	-5235
▁STANWYK	-5236
▁arrived	-5237
▁attempt	-5238
▁belongs	-5239
▁breathe	-5240
▁product	-5241
▁unusual	-5242
▁instruct	-5243
▁material	-5244
▁secretary	-5245
▁Department	-5246
add	-5247
iac	-5248
pet	-5249
see	-5250
▁Kr	-5251
▁Wy	-5252
bles	-5253
spir	-5254
▁Men	-5255
▁RED	-5256
▁Rod	-5257
▁Rom	-5258
▁Val	-5259
▁fro	-5260
▁sou	-5261
IDENT	-5262
andon	-5263
oston	-5264
ulate	-5265
▁Gold	-5266
▁Head	-5267
▁Wasn	-5268
▁anti	-5269
▁lord	-5270
▁loss	-5271
▁mort	-5272
▁Jabez	-5273
▁Kelly	-5274
▁sayin	-5275
▁Claire	-5276
▁associ	-5277
▁defend	-5278
▁desire	-5279
▁eighty	-5280
▁psycho	-5281
▁rights	-5282
▁Tuesday	-5283
▁ashamed	-5284
▁clearly	-5285
▁society	-5286
▁approach	-5287
▁baseball	-5288
▁behavior	-5289
▁psychiat	-5290
EY	-5291
OST	-5292
azz	-5293
hal	-5294
agne	-5295
quot	-5296
▁DON	-5297
▁Gal	-5298
▁HEN	-5299
▁INT	-5300
▁Naz	-5301
▁Nix	-5302
▁Ron	-5303
▁tim	-5304
rated	-5305
▁Fair	-5306
▁Mont	-5307
▁Sean	-5308
▁Wend	-5309
atives	-5310
▁facts	-5311
▁piano	-5312
▁prior	-5313
▁score	-5314
▁stone	-5315
ologist	-5316
▁Carter	-5317
▁Honest	-5318
▁admire	-5319
▁demand	-5320
▁insult	-5321
atherine	-5322
ological	-5323
▁wasting	-5324
▁audience	-5325
▁screaming	-5326
▁telephone	-5327
▁disappoint	-5328
tt	-5329
rim	-5330
ued	-5331
▁12	-5332
▁Ba	-5333
▁HA	-5334
Beat	-5335
llen	-5336
oard	-5337
reck	-5338
swer	-5339
▁Mal	-5340
▁Off	-5341
▁hyp	-5342
▁jam	-5343
▁jud	-5344
cient	-5345
▁Both	-5346
▁race	-5347
▁tent	-5348
▁Fifty	-5349
▁Young	-5350
▁mixed	-5351
▁relie	-5352
▁sandw	-5353
▁trees	-5354
▁Edward	-5355
▁aboard	-5356
▁create	-5357
▁kicked	-5358
▁reward	-5359
▁stolen	-5360
▁CATLETT	-5361
▁WILLIAMS	-5362
▁downtown	-5363
▁painting	-5364
▁PRESIDENT	-5365
▁otherwise	-5366
▁president	-5367
sis	-5368
▁LU	-5369
▁TE	-5370
COLL	-5371
▁Amb	-5372
▁Dev	-5373
▁Use	-5374
▁pit	-5375
three	-5376
▁Bird	-5377
▁Flor	-5378
▁HILL	-5379
▁Serv	-5380
▁acqu	-5381
▁gain	-5382
▁radi	-5383
▁Alice	-5384
▁Lenny	-5385
▁Terry	-5386
▁alarm	-5387
▁drown	-5388
▁ocean	-5389
▁swing	-5390
▁thief	-5391
▁title	-5392
▁Madame	-5393
▁Secret	-5394
▁convin	-5395
▁intend	-5396
▁invite	-5397
▁monkey	-5398
▁spread	-5399
▁Promise	-5400
▁screwed	-5401
▁distance	-5402
▁families	-5403
▁grateful	-5404
▁official	-5405
▁soldiers	-5406
▁introduce	-5407
IK	-5408
Oh	-5409
???	-5410
anz	-5411
dom	-5412
ura	-5413
▁EM	-5414
agon	-5415
each	-5416
geon	-5417
iami	-5418
otch	-5419
oved	-5420
phan	-5421
ware	-5422
▁Bat	-5423
▁Gar	-5424
▁Tor	-5425
▁Web	-5426
▁foc	-5427
▁inj	-5428
▁led	-5429
arlin	-5430
▁Anne	-5431
▁Dire	-5432
▁Lisa	-5433
▁Mind	-5434
▁Read	-5435
▁Sail	-5436
▁Save	-5437
▁Wall	-5438
▁cure	-5439
▁resc	-5440
▁sail	-5441
▁scar	-5442
ipment	-5443
▁Court	-5444
▁arran	-5445
▁finan	-5446
▁loser	-5447
▁nasty	-5448
▁sonof	-5449
ception	-5450
▁agreed	-5451
▁assign	-5452
▁center	-5453
▁compet	-5454
▁hidden	-5455
▁safety	-5456
▁Darling	-5457
▁depends	-5458
▁singing	-5459
▁sixteen	-5460
▁occasion	-5461
▁performan	-5462
▁statement	-5463
▁appointment	-5464
kn	-5465
xy	-5466
OME	-5467
ops	-5468
sen	-5469
▁Ir	-5470
rove	-5471
▁RIP	-5472
▁Ren	-5473
▁gri	-5474
happy	-5475
ouses	-5476
uncey	-5477
▁CAPT	-5478
▁Calm	-5479
▁EVIL	-5480
▁Nine	-5481
▁Rand	-5482
▁YOUR	-5483
▁diam	-5484
▁drag	-5485
enture	-5486
▁BROWN	-5487
▁China	-5488
▁Miami	-5489
▁armed	-5490
▁humor	-5491
▁shots	-5492
▁Answer	-5493
▁ROBERT	-5494
▁butter	-5495
▁forced	-5496
▁period	-5497
▁Forgive	-5498
▁capable	-5499
▁justice	-5500
▁popular	-5501
▁exciting	-5502
▁wondered	-5503
▁Beautiful	-5504
▁equipment	-5505
PH	-5506
SH	-5507
▁GR	-5508
onde	-5509
▁Ass	-5510
▁BOB	-5511
▁COU	-5512
▁Pet	-5513
▁RAT	-5514
▁Tob	-5515
▁arg	-5516
▁lun	-5517
▁mob	-5518
▁unf	-5519
fleet	-5520
▁Made	-5521
▁impl	-5522
▁odds	-5523
▁pill	-5524
▁Afric	-5525
▁Diego	-5526
▁Going	-5527
▁Wayne	-5528
▁bills	-5529
▁grade	-5530
▁kinds	-5531
▁lousy	-5532
▁prick	-5533
▁stood	-5534
▁tooth	-5535
▁affect	-5536
▁babies	-5537
▁barely	-5538
▁cooper	-5539
▁female	-5540
▁filled	-5541
▁fought	-5542
▁PATIENT	-5543
▁defense	-5544
▁knocked	-5545
▁miracle	-5546
▁offense	-5547
▁whoever	-5548
▁charming	-5549
▁electric	-5550
ols	-5551
why	-5552
▁AM	-5553
▁EL	-5554
hers	-5555
ping	-5556
uffy	-5557
▁GET	-5558
▁NOT	-5559
▁Sug	-5560
▁mal	-5561
aming	-5562
ially	-5563
iance	-5564
never	-5565
▁Marc	-5566
▁dope	-5567
▁edge	-5568
▁pred	-5569
▁tied	-5570
▁Marsh	-5571
▁ROYER	-5572
▁Sleep	-5573
▁bored	-5574
▁knees	-5575
▁woods	-5576
COLLARD	-5577
▁Howard	-5578
▁Russia	-5579
▁Wonder	-5580
▁insist	-5581
▁source	-5582
▁spoken	-5583
▁underw	-5584
▁Frankie	-5585
▁Patrick	-5586
▁hunting	-5587
▁student	-5588
▁Chauncey	-5589
▁Francisco	-5590
▁Starfleet	-5591
'!	-5592
agn	-5593
bra	-5594
ida	-5595
til	-5596
▁WE	-5597
▁ye	-5598
WELL	-5599
▁COO	-5600
▁Gab	-5601
▁Imp	-5602
▁Sat	-5603
▁bug	-5604
▁fra	-5605
▁thy	-5606
▁toy	-5607
▁unt	-5608
atory	-5609
sters	-5610
stery	-5611
▁Burn	-5612
▁Care	-5613
▁Hand	-5614
▁Plus	-5615
▁cake	-5616
▁jury	-5617
▁lack	-5618
▁slip	-5619
thirty	-5620
verage	-5621
▁Times	-5622
▁bones	-5623
▁flesh	-5624
▁kills	-5625
▁novel	-5626
▁panic	-5627
▁value	-5628
ailable	-5629
▁Enough	-5630
▁Pardon	-5631
▁RIPPER	-5632
▁advant	-5633
▁design	-5634
▁explos	-5635
▁accompl	-5636
▁growing	-5637
▁passing	-5638
▁attacked	-5639
▁expensive	-5640
▁discovered	-5641
ARK	-5642
Don	-5643
REN	-5644
hod	-5645
sec	-5646
▁AG	-5647
▁BA	-5648
▁Us	-5649
IVER	-5650
That	-5651
gent	-5652
resp	-5653
riss	-5654
▁Bon	-5655
▁Dom	-5656
▁Dri	-5657
▁Mul	-5658
▁Vin	-5659
▁fab	-5660
▁pir	-5661
ELLER	-5662
apers	-5663
axter	-5664
stone	-5665
▁Eliz	-5666
▁Kent	-5667
▁Kirk	-5668
▁Need	-5669
▁Plan	-5670
▁bell	-5671
▁cart	-5672
▁deny	-5673
uments	-5674
▁Later	-5675
▁fancy	-5676
▁ordin	-5677
anation	-5678
▁Steven	-5679
▁affair	-5680
▁cheese	-5681
▁guests	-5682
▁points	-5683
▁toilet	-5684
▁wallet	-5685
▁winter	-5686
▁century	-5687
▁courage	-5688
▁uniform	-5689
▁Monsieur	-5690
▁incident	-5691
▁universe	-5692
▁confidence	-5693
▁possibility	-5694
WO	-5695
INE	-5696
ban	-5697
izz	-5698
ulu	-5699
▁MO	-5700
oted	-5701
pent	-5702
zing	-5703
▁Dar	-5704
▁Ele	-5705
▁KEL	-5706
▁bot	-5707
eteen	-5708
▁Norm	-5709
▁Room	-5710
▁Vada	-5711
▁cult	-5712
▁lake	-5713
▁mask	-5714
▁puts	-5715
erable	-5716
▁Child	-5717
▁Doyle	-5718
▁Stone	-5719
▁angel	-5720
▁assum	-5721
▁badly	-5722
▁coinc	-5723
▁minds	-5724
▁scary	-5725
▁solid	-5726
▁Baxter	-5727
▁Miller	-5728
▁easily	-5729
▁BROTHER	-5730
▁Emperor	-5731
▁Getting	-5732
▁KELCHER	-5733
▁Suppose	-5734
▁captain	-5735
▁disgust	-5736
▁lawyers	-5737
▁secrets	-5738
▁younger	-5739
▁director	-5740
▁breathing	-5741
▁extremely	-5742
▁permission	-5743
▁photograph	-5744
FE	-5745
aze	-5746
die	-5747
nam	-5748
▁ep	-5749
ague	-5750
ivid	-5751
rade	-5752
vard	-5753
▁Hud	-5754
▁Moz	-5755
▁Mus	-5756
▁WAL	-5757
▁deb	-5758
▁gal	-5759
▁pee	-5760
▁reb	-5761
▁Hmmm	-5762
▁Pear	-5763
▁babe	-5764
▁chat	-5765
▁dent	-5766
▁exer	-5767
▁Romeo	-5768
▁Shoot	-5769
▁cloud	-5770
▁tests	-5771
▁determ	-5772
▁Special	-5773
▁challen	-5774
▁members	-5775
▁pleased	-5776
▁victims	-5777
▁Superman	-5778
▁millions	-5779
▁progress	-5780
▁guarantee	-5781
▁attractive	-5782
▁circumstances	-5783
BE	-5784
TH	-5785
has	-5786
hem	-5787
rig	-5788
uce	-5789
▁Ru	-5790
ilar	-5791
ique	-5792
rell	-5793
rier	-5794
▁Bus	-5795
▁fal	-5796
▁sem	-5797
abeth	-5798
icate	-5799
▁Book	-5800
▁Clay	-5801
▁Jews	-5802
▁Lots	-5803
▁Pick	-5804
▁Said	-5805
▁crit	-5806
▁gear	-5807
▁rail	-5808
▁stab	-5809
▁thin	-5810
ensive	-5811
▁Ethan	-5812
▁Helen	-5813
▁Mitch	-5814
▁Phill	-5815
▁Ricky	-5816
▁below	-5817
▁bound	-5818
▁influ	-5819
▁model	-5820
sidered	-5821
spector	-5822
▁Fuckin	-5823
▁Nathan	-5824
▁execut	-5825
▁mirror	-5826
▁thrown	-5827
▁carried	-5828
▁counter	-5829
▁passion	-5830
▁perform	-5831
▁Congress	-5832
▁learning	-5833
▁pathetic	-5834
▁unfortun	-5835
▁desperate	-5836
▁emotional	-5837
▁political	-5838
▁considered	-5839
▁performance	-5840
▁sonofabitch	-5841
▁understanding	-5842
5.	-5843
.</	-5844
But	-5845
NER	-5846
ril	-5847
▁CL	-5848
▁UP	-5849
...'	-5850
LERK	-5851
anda	-5852
eman	-5853
have	-5854
real	-5855
vable	-5856
▁CONT	-5857
▁Case	-5858
▁DICK	-5859
▁Lomb	-5860
▁Name	-5861
▁bang	-5862
▁gall	-5863
▁lets	-5864
▁pist	-5865
▁tits	-5866
▁vote	-5867
▁wide	-5868
▁CLERK	-5869
▁Craig	-5870
▁Janet	-5871
▁Judge	-5872
▁Karen	-5873
▁Price	-5874
▁analy	-5875
▁cases	-5876
▁frank	-5877
▁grant	-5878
▁metal	-5879
▁sacri	-5880
▁stret	-5881
▁youre	-5882
▁Jewish	-5883
▁Number	-5884
▁proced	-5885
▁repeat	-5886
▁foreign	-5887
▁Princess	-5888
▁memories	-5889
▁spending	-5890
▁direction	-5891
▁Apparently	-5892
▁impression	-5893
DO	-5894
AGN	-5895
How	-5896
TER	-5897
phy	-5898
▁Fig	-5899
▁Ooo	-5900
▁Top	-5901
▁fag	-5902
▁lap	-5903
▁tab	-5904
holic	-5905
utter	-5906
venue	-5907
▁Club	-5908
▁Meet	-5909
▁Mine	-5910
▁bail	-5911
▁rope	-5912
▁warn	-5913
ipping	-5914
irteen	-5915
▁Close	-5916
▁Laura	-5917
▁autom	-5918
▁fully	-5919
▁shake	-5920
▁shift	-5921
▁signs	-5922
▁suppl	-5923
▁Dickie	-5924
▁Jeanne	-5925
▁Mozart	-5926
▁guards	-5927
▁loaded	-5928
▁studio	-5929
▁temper	-5930
▁vision	-5931
▁Lombard	-5932
▁foolish	-5933
▁nuclear	-5934
▁pattern	-5935
▁warning	-5936
▁becoming	-5937
▁medicine	-5938
▁reporter	-5939
▁Americans	-5940
▁interests	-5941
▁Federation	-5942
St	-5943
BIT	-5944
RED	-5945
gun	-5946
oom	-5947
ador	-5948
chie	-5949
outs	-5950
pson	-5951
uiet	-5952
▁Wed	-5953
▁bes	-5954
▁bon	-5955
▁dea	-5956
▁eff	-5957
AGNAN	-5958
icles	-5959
imony	-5960
ittin	-5961
rison	-5962
▁gate	-5963
inting	-5964
▁Hanna	-5965
▁SMITH	-5966
▁brand	-5967
▁climb	-5968
▁witch	-5969
▁Heaven	-5970
▁priest	-5971
▁reckon	-5972
▁refuse	-5973
▁tricks	-5974
▁workin	-5975
ARTAGNAN	-5976
▁Morning	-5977
▁appears	-5978
▁failure	-5979
▁fishing	-5980
▁traffic	-5981
▁wanting	-5982
▁Gardiner	-5983
▁basement	-5984
▁bastards	-5985
▁divorced	-5986
▁friendly	-5987
▁handsome	-5988
▁recently	-5989
▁Catherine	-5990
▁Elizabeth	-5991
▁available	-5992
▁explanation	-5993
NA	-5994
IER	-5995
USS	-5996
cho	-5997
who	-5998
▁GE	-5999
▁MY	-6000
▁Po	-6001
ingo	-6002
ival	-6003
seum	-6004
▁BAR	-6005
▁Dra	-6006
▁EMM	-6007
▁Emp	-6008
▁FAR	-6009
▁Hol	-6010
▁Mos	-6011
▁RAB	-6012
▁gay	-6013
▁lob	-6014
▁mic	-6015
acher	-6016
ights	-6017
▁Bert	-6018
▁Dian	-6019
▁Doug	-6020
▁PAID	-6021
▁bags	-6022
▁educ	-6023
▁qual	-6024
▁repl	-6025
▁Agnes	-6026
▁Faith	-6027
▁Hotel	-6028
▁Susie	-6029
▁Wanna	-6030
▁Water	-6031
▁While	-6032
▁avoid	-6033
▁bread	-6034
▁image	-6035
▁stage	-6036
▁sugar	-6037
▁trace	-6038
inating	-6039
▁EMMETT	-6040
▁Follow	-6041
▁Friend	-6042
▁Louise	-6043
▁RABBIT	-6044
▁Sailor	-6045
▁assure	-6046
▁batter	-6047
▁parano	-6048
▁robber	-6049
▁season	-6050
▁slowly	-6051
iversity	-6052
▁Frances	-6053
▁Jessica	-6054
▁parties	-6055
▁changing	-6056
▁entirely	-6057
▁terribly	-6058
▁throwing	-6059
▁whenever	-6060
50	-6061
?--	-6062
mar	-6063
tra	-6064
▁du	-6065
cred	-6066
rugg	-6067
year	-6068
▁Bas	-6069
▁Ned	-6070
▁Rub	-6071
▁sen	-6072
allas	-6073
▁Buck	-6074
▁Expl	-6075
▁Fore	-6076
▁Free	-6077
▁Thel	-6078
▁Viet	-6079
▁beam	-6080
▁path	-6081
▁prec	-6082
▁sale	-6083
▁tast	-6084
▁thee	-6085
▁vers	-6086
▁Being	-6087
▁Brian	-6088
▁Brook	-6089
▁Chick	-6090
▁Whose	-6091
▁range	-6092
▁thumb	-6093
▁Albert	-6094
▁Boston	-6095
▁Dallas	-6096
▁exchan	-6097
▁goddam	-6098
▁princi	-6099
▁shrink	-6100
▁stairs	-6101
ervation	-6102
▁Whoever	-6103
▁charges	-6104
▁contain	-6105
▁illegal	-6106
▁someday	-6107
▁surface	-6108
▁dreaming	-6109
▁elevator	-6110
▁schedule	-6111
▁Otherwise	-6112
▁assistant	-6113
▁bothering	-6114
▁community	-6115
▁remembered	-6116
IV	-6117
ggy	-6118
iar	-6119
roc	-6120
sie	-6121
▁Ol	-6122
This	-6123
ifer	-6124
plex	-6125
some	-6126
ulse	-6127
▁CIA	-6128
▁Met	-6129
▁aim	-6130
▁anx	-6131
▁ves	-6132
belie	-6133
ropri	-6134
ublic	-6135
▁Says	-6136
▁bein	-6137
▁fasc	-6138
▁fate	-6139
▁loan	-6140
▁male	-6141
▁meal	-6142
▁nigg	-6143
▁toss	-6144
▁Lemme	-6145
▁MARIE	-6146
▁Women	-6147
▁brown	-6148
▁demon	-6149
attered	-6150
▁Shelly	-6151
▁assass	-6152
▁casino	-6153
▁higher	-6154
▁regard	-6155
▁vessel	-6156
▁bullets	-6157
▁cleaned	-6158
▁enemies	-6159
▁healthy	-6160
▁release	-6161
▁village	-6162
▁National	-6163
▁arranged	-6164
▁checking	-6165
▁convince	-6166
▁experien	-6167
▁ordinary	-6168
▁authority	-6169
▁confident	-6170
GAN	-6171
arn	-6172
eer	-6173
ugs	-6174
▁DY	-6175
▁HO	-6176
IELD	-6177
gain	-6178
nine	-6179
oret	-6180
rely	-6181
tail	-6182
umps	-6183
▁Ang	-6184
▁Reg	-6185
▁nor	-6186
▁veh	-6187
FFLEY	-6188
arian	-6189
fifty	-6190
inson	-6191
xygen	-6192
▁Bern	-6193
▁Coun	-6194
▁Fall	-6195
▁Greg	-6196
▁Mack	-6197
▁Sort	-6198
▁desp	-6199
▁hits	-6200
▁publ	-6201
▁unit	-6202
▁Natur	-6203
▁Pearl	-6204
▁argue	-6205
▁clown	-6206
▁cruel	-6207
▁holes	-6208
▁liter	-6209
▁lover	-6210
▁notes	-6211
▁stake	-6212
▁Twelve	-6213
▁border	-6214
▁commer	-6215
▁cowboy	-6216
▁virgin	-6217
▁Florida	-6218
▁Heather	-6219
▁MUFFLEY	-6220
▁confess	-6221
▁current	-6222
▁cutting	-6223
▁engaged	-6224
▁murders	-6225
▁shoulda	-6226
▁Security	-6227
▁assholes	-6228
▁directly	-6229
▁champagne	-6230
▁transport	-6231
▁Commission	-6232
▁compliment	-6233
▁conference	-6234
▁reasonable	-6235
▁grandfather	-6236
,'	-6237
ATH	-6238
rem	-6239
sit	-6240
▁PR	-6241
away	-6242
ello	-6243
gery	-6244
inos	-6245
pert	-6246
rett	-6247
uate	-6248
xual	-6249
▁Kim	-6250
▁MAS	-6251
▁Yup	-6252
ician	-6253
irsty	-6254
isher	-6255
istry	-6256
osing	-6257
▁Otis	-6258
▁THUR	-6259
▁libr	-6260
▁wand	-6261
colate	-6262
vernor	-6263
▁aside	-6264
▁blast	-6265
▁crook	-6266
▁motor	-6267
▁ships	-6268
▁walls	-6269
▁Barnes	-6270
▁Commun	-6271
▁caused	-6272
▁philos	-6273
▁stands	-6274
▁thrill	-6275
▁Central	-6276
▁chasing	-6277
▁counsel	-6278
▁disturb	-6279
▁systems	-6280
▁trained	-6281
▁unhappy	-6282
▁Starling	-6283
▁Excellent	-6284
▁miserable	-6285
▁recommend	-6286
▁confession	-6287
▁eventually	-6288
▁protection	-6289
20	-6290
So	-6291
vo	-6292
ADY	-6293
hab	-6294
ora	-6295
vey	-6296
▁Ce	-6297
▁Da	-6298
▁FR	-6299
▁Ni	-6300
▁SE	-6301
amps	-6302
ange	-6303
ibly	-6304
ural	-6305
walk	-6306
▁HIR	-6307
▁MOR	-6308
▁Rad	-6309
▁swe	-6310
▁unp	-6311
uable	-6312
ulous	-6313
▁Lake	-6314
▁Lois	-6315
▁Oper	-6316
▁arch	-6317
▁bury	-6318
▁deck	-6319
▁dime	-6320
▁pity	-6321
render	-6322
▁Forty	-6323
▁Kevin	-6324
▁began	-6325
▁enter	-6326
▁habit	-6327
▁jokes	-6328
▁motel	-6329
▁opera	-6330
▁plate	-6331
▁Andrew	-6332
▁HIRSCH	-6333
▁Virgin	-6334
▁button	-6335
▁depend	-6336
▁effort	-6337
▁leader	-6338
▁ninety	-6339
▁retire	-6340
▁However	-6341
▁THURMAN	-6342
▁respond	-6343
▁theater	-6344
▁treated	-6345
▁bleeding	-6346
▁nonsense	-6347
▁officers	-6348
▁politics	-6349
▁shopping	-6350
▁stealing	-6351
▁advantage	-6352
▁excellent	-6353
▁satisfied	-6354
▁seventeen	-6355
▁intelligence	-6356
ALD	-6357
hel	-6358
obb	-6359
uch	-6360
burg	-6361
when	-6362
▁Bro	-6363
▁Ill	-6364
▁Set	-6365
icted	-6366
pting	-6367
▁Corn	-6368
▁DYKE	-6369
▁Kurt	-6370
▁Mass	-6371
▁Pent	-6372
▁Port	-6373
▁cong	-6374
▁outa	-6375
▁pour	-6376
▁Royal	-6377
▁chain	-6378
▁creep	-6379
▁mustn	-6380
▁refer	-6381
▁route	-6382
▁suits	-6383
▁Gentle	-6384
▁Graham	-6385
▁JOHNNY	-6386
▁Lester	-6387
▁headed	-6388
▁mister	-6389
▁oxygen	-6390
▁rescue	-6391
▁served	-6392
onscious	-6393
▁Charley	-6394
▁becomes	-6395
▁scratch	-6396
▁sweetie	-6397
▁therapy	-6398
▁trigger	-6399
▁windows	-6400
▁argument	-6401
▁cleaning	-6402
▁hundreds	-6403
▁shoulder	-6404
▁wherever	-6405
▁worrying	-6406
▁Alexander	-6407
▁Jacqueline	-6408
BA	-6409
ga	-6410
---	-6411
IND	-6412
IRL	-6413
OMM	-6414
OTT	-6415
ales	-6416
clus	-6417
jack	-6418
keep	-6419
rial	-6420
sequ	-6421
ship	-6422
uick	-6423
▁Bay	-6424
▁Dem	-6425
▁Lex	-6426
▁Liz	-6427
▁Rex	-6428
▁Suz	-6429
▁joy	-6430
▁nap	-6431
LEONE	-6432
▁COLL	-6433
▁Hunt	-6434
▁Matt	-6435
▁bars	-6436
▁bone	-6437
▁cats	-6438
▁diss	-6439
▁mole	-6440
▁nick	-6441
▁shel	-6442
inated	-6443
▁Diane	-6444
▁Jenny	-6445
▁Lucky	-6446
▁Sugar	-6447
▁false	-6448
▁ranch	-6449
▁sharp	-6450
▁theat	-6451
▁tries	-6452
istence	-6453
jection	-6454
looking	-6455
▁Whatta	-6456
▁fellas	-6457
▁fucker	-6458
▁harder	-6459
▁jumped	-6460
▁nigger	-6461
▁Federal	-6462
▁leading	-6463
▁settled	-6464
▁staring	-6465
▁CORLEONE	-6466
▁believes	-6467
▁bothered	-6468
▁counting	-6469
▁instinct	-6470
▁negative	-6471
▁precious	-6472
▁sensitive	-6473
▁embarrassing	-6474
-1	-6475
BB	-6476
IME	-6477
ado	-6478
▁Id	-6479
▁et	-6480
Well	-6481
atin	-6482
quis	-6483
rael	-6484
rane	-6485
▁Cos	-6486
▁Doe	-6487
▁Fam	-6488
▁Mem	-6489
▁Rip	-6490
▁bud	-6491
▁las	-6492
▁row	-6493
▁typ	-6494
▁wid	-6495
agine	-6496
antly	-6497
aries	-6498
eller	-6499
ovich	-6500
▁Also	-6501
▁Boys	-6502
▁GIRL	-6503
▁Inst	-6504
▁Kind	-6505
▁chap	-6506
▁owns	-6507
▁shoe	-6508
▁sore	-6509
▁tiny	-6510
▁zero	-6511
iously	-6512
▁Jamie	-6513
▁Wrong	-6514
▁Wyatt	-6515
▁blown	-6516
▁cheer	-6517
▁delic	-6518
▁focus	-6519
▁gimme	-6520
▁juice	-6521
▁Sheila	-6522
▁Thelma	-6523
▁museum	-6524
▁silver	-6525
▁Claudia	-6526
▁Vincent	-6527
▁journal	-6528
▁journey	-6529
▁parking	-6530
▁routine	-6531
▁sisters	-6532
▁swallow	-6533
▁trusted	-6534
▁warrant	-6535
▁mistakes	-6536
▁treasure	-6537
▁fantastic	-6538
▁Government	-6539
My	-6540
ias	-6541
ket	-6542
▁II	-6543
▁gy	-6544
ader	-6545
asts	-6546
hest	-6547
iber	-6548
iffe	-6549
lder	-6550
life	-6551
ords	-6552
▁Dam	-6553
▁Hun	-6554
▁Ret	-6555
▁Sun	-6556
▁sew	-6557
▁spy	-6558
ansas	-6559
arter	-6560
epend	-6561
maybe	-6562
▁Gale	-6563
▁Herr	-6564
▁Josh	-6565
▁Land	-6566
▁Sing	-6567
▁Thor	-6568
▁Toby	-6569
▁Zero	-6570
▁cage	-6571
▁duck	-6572
▁golf	-6573
▁link	-6574
▁tend	-6575
▁virt	-6576
nesday	-6577
▁Devil	-6578
▁Sandy	-6579
▁Terri	-6580
▁badge	-6581
▁holds	-6582
▁lifet	-6583
▁oblig	-6584
▁rocks	-6585
▁stops	-6586
▁altern	-6587
▁anyhow	-6588
▁begins	-6589
▁corpor	-6590
▁engage	-6591
▁highly	-6592
▁humili	-6593
▁myster	-6594
▁smells	-6595
▁Angeles	-6596
▁JOHNSON	-6597
▁ability	-6598
▁bargain	-6599
▁conduct	-6600
▁destiny	-6601
▁fashion	-6602
▁package	-6603
▁instance	-6604
▁misunder	-6605
▁stronger	-6606
▁swimming	-6607
▁Inspector	-6608
▁Wednesday	-6609
▁grandmother	-6610
▁personality	-6611
Do	-6612
NG	-6613
WS	-6614
sa	-6615
ww	-6616
OGG	-6617
bag	-6618
oma	-6619
sch	-6620
▁Ju	-6621
CTOR	-6622
bara	-6623
bows	-6624
hern	-6625
iday	-6626
iven	-6627
izza	-6628
onse	-6629
otta	-6630
▁Alf	-6631
▁Nic	-6632
▁Row	-6633
▁Sel	-6634
▁Vik	-6635
▁dim	-6636
▁nic	-6637
▁pow	-6638
▁tag	-6639
▁tub	-6640
ookie	-6641
▁Dear	-6642
▁Duke	-6643
▁Gall	-6644
▁Hear	-6645
▁Moll	-6646
▁True	-6647
▁ZOGG	-6648
▁asks	-6649
▁corn	-6650
▁dece	-6651
▁fart	-6652
▁gamb	-6653
▁scan	-6654
▁sink	-6655
eopard	-6656
▁Marge	-6657
▁Wendy	-6658
▁forth	-6659
▁helps	-6660
▁squad	-6661
▁Claude	-6662
▁Viktor	-6663
▁infect	-6664
▁raised	-6665
▁resist	-6666
▁review	-6667
▁robbed	-6668
▁strugg	-6669
▁surely	-6670
ropriate	-6671
▁beating	-6672
▁closing	-6673
▁hurting	-6674
▁replace	-6675
▁setting	-6676
▁Robinson	-6677
▁convinced	-6678
▁existence	-6679
▁goddamned	-6680
▁suffering	-6681
▁testimony	-6682
▁particularly	-6683
ua	-6684
ARA	-6685
DIE	-6686
Yes	-6687
den	-6688
uva	-6689
van	-6690
▁Hy	-6691
▁Nu	-6692
adem	-6693
bbie	-6694
gram	-6695
imal	-6696
mail	-6697
ront	-6698
▁Eat	-6699
▁Jos	-6700
▁MAY	-6701
▁Pau	-6702
▁Pin	-6703
▁TOW	-6704
▁dom	-6705
▁gig	-6706
erved	-6707
ierce	-6708
onica	-6709
ungle	-6710
▁BRAD	-6711
▁Bast	-6712
▁Beck	-6713
▁Dark	-6714
▁Data	-6715
▁Jeez	-6716
▁Mall	-6717
▁blah	-6718
▁haul	-6719
▁holy	-6720
▁magn	-6721
▁purs	-6722
▁tank	-6723
▁worm	-6724
▁Bible	-6725
▁Julie	-6726
▁Lydia	-6727
▁River	-6728
▁Screw	-6729
▁Youre	-6730
▁conce	-6731
▁curse	-6732
▁fruit	-6733
▁glory	-6734
▁makin	-6735
▁tears	-6736
▁Nothin	-6737
▁Willie	-6738
▁attend	-6739
▁checks	-6740
▁houses	-6741
▁joking	-6742
▁neighb	-6743
▁serial	-6744
▁Fifteen	-6745
▁Imagine	-6746
▁Johnnie	-6747
▁PATRICK	-6748
▁Shouldn	-6749
▁individ	-6750
▁prepare	-6751
▁provide	-6752
▁presence	-6753
▁standard	-6754
▁valuable	-6755
▁According	-6756
▁chocolate	-6757
▁customers	-6758
▁signature	-6759
▁suspicious	-6760
▁embarrassed	-6761
▁instructions	-6762
eh	-6763
--?	-6764
ANG	-6765
aph	-6766
ele	-6767
wor	-6768
▁BI	-6769
OSTA	-6770
aign	-6771
cies	-6772
etic	-6773
illa	-6774
mate	-6775
resa	-6776
▁End	-6777
▁Gib	-6778
▁Gus	-6779
▁Rec	-6780
▁Sau	-6781
▁Sol	-6782
▁fee	-6783
▁lat	-6784
inist	-6785
known	-6786
otton	-6787
ushed	-6788
▁Gary	-6789
▁Lucy	-6790
▁Peel	-6791
▁Post	-6792
▁Rich	-6793
▁cert	-6794
▁dish	-6795
▁fuel	-6796
▁pays	-6797
▁pink	-6798
▁rude	-6799
▁scen	-6800
▁teen	-6801
▁wore	-6802
AGOSTA	-6803
ulated	-6804
▁EDDIE	-6805
▁Grail	-6806
▁Mayor	-6807
▁Nixon	-6808
▁Sheld	-6809
▁based	-6810
▁faces	-6811
▁noble	-6812
▁occup	-6813
▁pound	-6814
▁wreck	-6815
assador	-6816
ennifer	-6817
viously	-6818
▁Dunbar	-6819
▁Lawson	-6820
▁School	-6821
▁Senate	-6822
▁failed	-6823
▁ghosts	-6824
▁loving	-6825
▁outfit	-6826
▁suffer	-6827
▁tunnel	-6828
▁yellow	-6829
▁ancient	-6830
▁billion	-6831
▁capital	-6832
▁escaped	-6833
▁mystery	-6834
▁revenge	-6835
▁section	-6836
▁Veronica	-6837
▁exchange	-6838
▁fourteen	-6839
▁function	-6840
▁machines	-6841
▁pleasant	-6842
▁separate	-6843
▁stranger	-6844
▁Naturally	-6845
▁intention	-6846
▁surrender	-6847
▁Understand	-6848
▁assignment	-6849
▁successful	-6850
▁coincidence	-6851
If	-6852
?!!	-6853
nox	-6854
ota	-6855
vir	-6856
hips	-6857
mpat	-6858
wray	-6859
▁100	-6860
▁Atl	-6861
▁Heh	-6862
▁NOW	-6863
▁Pen	-6864
▁Stu	-6865
▁ast	-6866
▁hid	-6867
▁rot	-6868
erick	-6869
▁Camp	-6870
▁Dign	-6871
▁Kiss	-6872
▁Marl	-6873
▁beef	-6874
▁bond	-6875
▁decl	-6876
▁exit	-6877
▁flag	-6878
▁flow	-6879
▁hill	-6880
▁sexy	-6881
▁west	-6882
prints	-6883
▁Drink	-6884
▁Glenn	-6885
▁Homer	-6886
▁Power	-6887
▁coast	-6888
▁depos	-6889
▁marks	-6890
▁thick	-6891
▁wings	-6892
stitute	-6893
▁Africa	-6894
▁Debbie	-6895
▁Parker	-6896
▁Scotty	-6897
▁manner	-6898
▁rabbit	-6899
▁secure	-6900
▁Barbara	-6901
▁COLLINS	-6902
▁Freddie	-6903
▁Mulwray	-6904
▁Stephen	-6905
▁Webster	-6906
▁actress	-6907
▁degrees	-6908
▁proceed	-6909
▁reached	-6910
▁slipped	-6911
▁location	-6912
▁reaction	-6913
▁sentence	-6914
▁thirteen	-6915
▁violence	-6916
believable	-6917
▁happiness	-6918
▁mountains	-6919
▁collection	-6920
▁commercial	-6921
▁commission	-6922
▁intelligent	-6923
la	-6924
nn	-6925
wr	-6926
ADE	-6927
ALE	-6928
EYF	-6929
TOR	-6930
Who	-6931
Why	-6932
cow	-6933
hhh	-6934
pal	-6935
umn	-6936
▁SW	-6937
aval	-6938
eaks	-6939
foot	-6940
kind	-6941
moon	-6942
rand	-6943
stal	-6944
▁Cow	-6945
▁WAS	-6946
▁agg	-6947
▁lit	-6948
▁sam	-6949
▁une	-6950
inals	-6951
ously	-6952
▁Bond	-6953
▁Ford	-6954
▁Girl	-6955
▁Glad	-6956
▁Jill	-6957
▁June	-6958
▁Kate	-6959
▁LADY	-6960
▁agre	-6961
▁cere	-6962
▁clue	-6963
▁iron	-6964
▁soup	-6965
EYFUSS	-6966
action	-6967
▁Break	-6968
▁Chris	-6969
▁Cross	-6970
▁Light	-6971
▁Mason	-6972
▁adult	-6973
▁bless	-6974
▁boots	-6975
▁jewel	-6976
▁uncom	-6977
▁Course	-6978
▁Israel	-6979
▁Prince	-6980
▁Ripley	-6981
▁Surely	-6982
▁basket	-6983
▁coward	-6984
▁darlin	-6985
▁events	-6986
▁pistol	-6987
▁stroke	-6988
▁struck	-6989
▁useful	-6990
▁warned	-6991
▁Grandma	-6992
▁enjoyed	-6993
▁hitting	-6994
▁trapped	-6995
▁winning	-6996
▁DREYFUSS	-6997
▁chemical	-6998
▁exercise	-6999
▁national	-7000
▁passport	-7001
▁patients	-7002
▁received	-7003
▁surround	-7004
▁Gentlemen	-7005
▁including	-7006
▁psychiatrist	-7007
GH	-7008
ko	-7009
vi	-7010
OOD	-7011
mma	-7012
ras	-7013
ups	-7014
▁50	-7015
▁Hm	-7016
▁JA	-7017
anie	-7018
cile	-7019
eeze	-7020
mour	-7021
oooo	-7022
reek	-7023
roit	-7024
then	-7025
▁Luc	-7026
▁Mis	-7027
▁Sea	-7028
▁TWO	-7029
▁bri	-7030
▁cri	-7031
▁jet	-7032
▁rip	-7033
enger	-7034
osite	-7035
uther	-7036
▁Slow	-7037
▁Stew	-7038
▁THIS	-7039
▁chew	-7040
▁mart	-7041
▁seek	-7042
ivered	-7043
▁Barry	-7044
▁Vince	-7045
▁asses	-7046
▁dough	-7047
▁eaten	-7048
▁shown	-7049
▁yards	-7050
ressive	-7051
▁Hannah	-7052
▁Marcus	-7053
▁coulda	-7054
▁frozen	-7055
▁horror	-7056
▁joined	-7057
▁mental	-7058
▁mighty	-7059
▁nation	-7060
▁smooth	-7061
▁woulda	-7062
thousand	-7063
▁Detroit	-7064
▁bowling	-7065
▁complex	-7066
▁delight	-7067
▁plastic	-7068
▁privile	-7069
▁useless	-7070
▁Director	-7071
▁Jennifer	-7072
▁delivery	-7073
▁document	-7074
▁football	-7075
▁lifetime	-7076
▁stopping	-7077
▁Obviously	-7078
▁influence	-7079
▁naturally	-7080
▁tradition	-7081
▁background	-7082
RU	-7083
uf	-7084
llo	-7085
▁KY	-7086
▁LO	-7087
▁US	-7088
essa	-7089
ifts	-7090
imum	-7091
lers	-7092
sers	-7093
▁Cad	-7094
▁Cre	-7095
▁Hou	-7096
▁LUC	-7097
▁McM	-7098
▁Pay	-7099
▁bay	-7100
▁ing	-7101
▁var	-7102
NEILL	-7103
force	-7104
inate	-7105
uters	-7106
▁Chin	-7107
▁Craw	-7108
▁Much	-7109
▁Sulu	-7110
▁bump	-7111
▁drum	-7112
▁init	-7113
▁nurs	-7114
▁stor	-7115
▁wave	-7116
Course	-7117
ashing	-7118
cisely	-7119
penter	-7120
verend	-7121
▁Chuck	-7122
▁Pleas	-7123
▁Short	-7124
▁Small	-7125
▁alien	-7126
▁frame	-7127
▁grass	-7128
▁lower	-7129
▁pride	-7130
▁skull	-7131
▁Dignan	-7132
▁Freddy	-7133
▁Hitler	-7134
▁Truman	-7135
▁beside	-7136
▁confir	-7137
▁conven	-7138
▁dating	-7139
▁estate	-7140
▁instit	-7141
▁supply	-7142
▁tempor	-7143
▁volunt	-7144
▁Service	-7145
▁reports	-7146
▁sounded	-7147
▁stretch	-7148
ification	-7149
▁Japanese	-7150
▁Virginia	-7151
▁describe	-7152
▁goodness	-7153
▁nineteen	-7154
▁railroad	-7155
▁solution	-7156
▁touching	-7157
▁policeman	-7158
▁individual	-7159
▁newspapers	-7160
▁underground	-7161
gir	-7162
raq	-7163
war	-7164
▁11	-7165
▁bi	-7166
▁tu	-7167
ggin	-7168
mony	-7169
quar	-7170
ties	-7171
▁ARE	-7172
▁CAN	-7173
▁Jen	-7174
▁Neg	-7175
▁Pan	-7176
▁Vul	-7177
▁ded	-7178
▁nun	-7179
agger	-7180
bitch	-7181
ellow	-7182
guard	-7183
otted	-7184
ribut	-7185
tered	-7186
while	-7187
▁Dean	-7188
▁Iraq	-7189
▁JACK	-7190
▁Prey	-7191
▁Roth	-7192
▁Shaw	-7193
▁belt	-7194
▁clin	-7195
▁cris	-7196
▁fare	-7197
▁inch	-7198
▁poem	-7199
▁stew	-7200
▁Blood	-7201
▁Ellen	-7202
▁HENRY	-7203
▁Julia	-7204
▁Teddy	-7205
▁Truth	-7206
▁Tyler	-7207
▁cells	-7208
▁costs	-7209
▁falls	-7210
▁flash	-7211
▁flies	-7212
▁phony	-7213
▁sucks	-7214
▁takin	-7215
▁toast	-7216
ressing	-7217
▁Avenue	-7218
▁Berlin	-7219
▁COOPER	-7220
▁adjust	-7221
▁blonde	-7222
▁castle	-7223
▁degree	-7224
▁gather	-7225
▁liquor	-7226
▁steady	-7227
▁strict	-7228
▁territ	-7229
▁Command	-7230
▁Company	-7231
▁Germans	-7232
▁Looking	-7233
▁federal	-7234
▁prevent	-7235
▁darkness	-7236
▁distract	-7237
▁according	-7238
▁underwear	-7239
▁protecting	-7240
ERE	-7241
OND	-7242
RIS	-7243
bie	-7244
dle	-7245
eng	-7246
ocr	-7247
ois	-7248
▁dy	-7249
DOCK	-7250
EMON	-7251
dell	-7252
otes	-7253
vate	-7254
yeah	-7255
▁Dew	-7256
▁Lyn	-7257
▁ONE	-7258
▁Tar	-7259
▁coc	-7260
ading	-7261
iable	-7262
ramer	-7263
▁GEOR	-7264
▁Hill	-7265
▁Live	-7266
▁Pink	-7267
▁WELL	-7268
▁Wild	-7269
▁Wind	-7270
▁Year	-7271
▁coke	-7272
▁pupp	-7273
ilding	-7274
▁didnt	-7275
▁fence	-7276
▁giant	-7277
▁ignor	-7278
▁labor	-7279
▁shell	-7280
▁stiff	-7281
▁Bureau	-7282
▁Coming	-7283
▁County	-7284
▁HELLER	-7285
▁Person	-7286
▁compan	-7287
▁device	-7288
▁filthy	-7289
▁jungle	-7290
▁launch	-7291
▁method	-7292
▁powers	-7293
▁remark	-7294
▁shadow	-7295
▁sucker	-7296
▁sympat	-7297
▁voices	-7298
ications	-7299
▁Harvard	-7300
▁Lampert	-7301
▁article	-7302
▁awfully	-7303
▁cocaine	-7304
▁concept	-7305
▁testify	-7306
▁BRADDOCK	-7307
▁Brooklyn	-7308
▁Business	-7309
▁Governor	-7310
▁occurred	-7311
▁philosop	-7312
▁supplies	-7313
▁committed	-7314
▁committee	-7315
▁neighbors	-7316
▁University	-7317
▁conscience	-7318
▁disgusting	-7319
GU	-7320
IES	-7321
esc	-7322
ulf	-7323
▁ID	-7324
-...	-7325
AAAA	-7326
STER	-7327
bley	-7328
ffin	-7329
▁Cab	-7330
▁Est	-7331
▁Fle	-7332
▁McK	-7333
▁Rat	-7334
▁flu	-7335
▁lip	-7336
▁ult	-7337
▁vul	-7338
▁zoo	-7339
anish	-7340
craft	-7341
ittes	-7342
verly	-7343
▁Came	-7344
▁Navy	-7345
▁Vice	-7346
▁Viol	-7347
▁alco	-7348
▁cant	-7349
▁cave	-7350
▁defe	-7351
▁hers	-7352
▁lect	-7353
ortion	-7354
▁Board	-7355
▁Gonna	-7356
▁Makes	-7357
▁alley	-7358
▁angle	-7359
▁askin	-7360
▁cared	-7361
▁photo	-7362
▁queen	-7363
▁slave	-7364
▁Austin	-7365
▁Gittes	-7366
▁breaks	-7367
▁editor	-7368
▁planes	-7369
▁satell	-7370
▁struct	-7371
▁Skipper	-7372
▁clients	-7373
▁colored	-7374
▁dreamed	-7375
▁frankly	-7376
▁library	-7377
▁loyalty	-7378
▁remains	-7379
▁homework	-7380
▁honestly	-7381
▁invented	-7382
▁returned	-7383
▁teaching	-7384
▁weakness	-7385
▁creatures	-7386
▁financial	-7387
▁Definitely	-7388
▁possession	-7389
▁yourselves	-7390
AF	-7391
Ne	-7392
'11	-7393
ANE	-7394
CRE	-7395
bal	-7396
omy	-7397
ryn	-7398
win	-7399
MUCK	-7400
ivin	-7401
osal	-7402
rake	-7403
rary	-7404
thur	-7405
uest	-7406
utes	-7407
▁CAR	-7408
▁Han	-7409
▁McG	-7410
▁WIL	-7411
▁gut	-7412
▁rig	-7413
ennis	-7414
herry	-7415
nders	-7416
▁Bank	-7417
▁Evan	-7418
▁Evil	-7419
▁Lind	-7420
▁Pack	-7421
▁Pass	-7422
▁Shan	-7423
▁Shar	-7424
▁Vick	-7425
▁buzz	-7426
▁symb	-7427
iments	-7428
▁Grady	-7429
▁Mikey	-7430
▁Negro	-7431
▁Peace	-7432
▁STONE	-7433
▁Stick	-7434
▁banks	-7435
▁basic	-7436
▁limit	-7437
▁lotta	-7438
▁media	-7439
▁minor	-7440
▁moron	-7441
▁penny	-7442
▁spill	-7443
▁spook	-7444
▁stays	-7445
▁steps	-7446
▁whist	-7447
orgeous	-7448
▁Elliot	-7449
▁Kansas	-7450
▁agents	-7451
▁exists	-7452
▁fourth	-7453
▁kissed	-7454
▁packed	-7455
▁polite	-7456
▁rotten	-7457
▁series	-7458
▁stress	-7459
standing	-7460
▁DICKSON	-7461
▁Leonard	-7462
▁Marylin	-7463
▁Meaning	-7464
▁SCHMUCK	-7465
▁average	-7466
▁consequ	-7467
▁figures	-7468
▁killers	-7469
▁surgery	-7470
▁Minister	-7471
▁Reverend	-7472
▁movement	-7473
▁adventure	-7474
▁delivered	-7475
▁witnesses	-7476
*!	-7477
Ar	-7478
Ch	-7479
sm	-7480
--!	-7481
ige	-7482
lim	-7483
mel	-7484
tan	-7485
zed	-7486
▁AD	-7487
▁ly	-7488
beat	-7489
bird	-7490
itan	-7491
race	-7492
udes	-7493
▁Add	-7494
▁Cho	-7495
▁DIS	-7496
▁Fer	-7497
▁ped	-7498
▁til	-7499
ament	-7500
berty	-7501
gment	-7502
icing	-7503
usted	-7504
verse	-7505
viron	-7506
▁Alvy	-7507
▁Bear	-7508
▁Edie	-7509
▁Lock	-7510
▁atta	-7511
▁ease	-7512
▁sack	-7513
▁soap	-7514
▁taxi	-7515
▁Deeds	-7516
▁Irish	-7517
▁Simon	-7518
▁comed	-7519
▁frequ	-7520
▁greed	-7521
▁legit	-7522
▁mercy	-7523
▁moral	-7524
▁pizza	-7525
▁rifle	-7526
▁shore	-7527
▁wanta	-7528
▁Arthur	-7529
▁Having	-7530
▁Hudson	-7531
▁Juliet	-7532
▁KNIGHT	-7533
▁Moscow	-7534
▁Paulie	-7535
▁dealer	-7536
▁fallen	-7537
▁forces	-7538
▁mechan	-7539
▁prints	-7540
▁profit	-7541
▁supper	-7542
▁washed	-7543
▁wishes	-7544
▁Beverly	-7545
▁advance	-7546
▁balance	-7547
▁contest	-7548
▁species	-7549
▁theatre	-7550
▁torture	-7551
▁Hospital	-7552
▁headache	-7553
▁specific	-7554
▁strangers	-7555
▁considering	-7556
▁organization	-7557
HAM	-7558
SIN	-7559
ape	-7560
apt	-7561
ipt	-7562
omp	-7563
uls	-7564
▁25	-7565
▁Di	-7566
▁LI	-7567
▁Oz	-7568
▁PH	-7569
▁Pa	-7570
▁RA	-7571
▁SA	-7572
▁pa	-7573
BATH	-7574
RIST	-7575
iger	-7576
nell	-7577
sieu	-7578
yard	-7579
▁BEA	-7580
▁Bre	-7581
▁Fel	-7582
▁Ian	-7583
▁Jud	-7584
▁Ran	-7585
▁SPO	-7586
▁der	-7587
▁rug	-7588
▁wra	-7589
chest	-7590
cover	-7591
every	-7592
osity	-7593
uated	-7594
umont	-7595
umper	-7596
▁Anth	-7597
▁Balt	-7598
▁Gill	-7599
▁Gray	-7600
▁Mant	-7601
▁Many	-7602
▁Told	-7603
▁Yess	-7604
▁aunt	-7605
▁boot	-7606
▁capt	-7607
▁chip	-7608
▁lung	-7609
▁Drive	-7610
▁Elvis	-7611
▁GRANT	-7612
▁Third	-7613
▁Wally	-7614
▁belly	-7615
▁boats	-7616
▁chase	-7617
▁chose	-7618
▁drill	-7619
▁owned	-7620
▁steel	-7621
ication	-7622
▁Jersey	-7623
▁Kramer	-7624
▁Maxine	-7625
▁THOMAS	-7626
▁counts	-7627
▁flower	-7628
▁former	-7629
▁ignore	-7630
▁option	-7631
▁pushed	-7632
▁remove	-7633
▁sticks	-7634
fortable	-7635
▁Finally	-7636
▁Jackson	-7637
▁MASBATH	-7638
▁citizen	-7639
▁lessons	-7640
▁managed	-7641
▁twisted	-7642
▁whiskey	-7643
▁although	-7644
▁campaign	-7645
▁everyday	-7646
▁opposite	-7647
▁students	-7648
▁Ambassador	-7649
▁investment	-7650
AH	-7651
ANK	-7652
eek	-7653
haw	-7654
ito	-7655
upp	-7656
▁Ja	-7657
▁Ta	-7658
YLER	-7659
ench	-7660
enth	-7661
esis	-7662
esus	-7663
igan	-7664
izes	-7665
mmmm	-7666
odes	-7667
omic	-7668
pedo	-7669
rase	-7670
vity	-7671
▁COP	-7672
▁Dil	-7673
▁Hay	-7674
▁Lad	-7675
▁Lay	-7676
▁Mas	-7677
▁Nap	-7678
▁REV	-7679
▁Wyn	-7680
▁sau	-7681
AMBER	-7682
cking	-7683
ettes	-7684
leans	-7685
ockey	-7686
oting	-7687
ronic	-7688
uster	-7689
▁Buff	-7690
▁Dana	-7691
▁Dest	-7692
▁Kids	-7693
▁Kong	-7694
▁Left	-7695
▁Sign	-7696
▁dawn	-7697
▁doub	-7698
▁hust	-7699
▁pant	-7700
▁reve	-7701
▁wing	-7702
▁wolf	-7703
ANDLER	-7704
wright	-7705
▁Gabri	-7706
▁Italy	-7707
▁Party	-7708
▁Trans	-7709
▁alert	-7710
▁couch	-7711
▁estab	-7712
▁opens	-7713
▁shout	-7714
▁solve	-7715
▁union	-7716
▁wives	-7717
▁Chriss	-7718
▁Dennis	-7719
▁GEORGE	-7720
▁Indeed	-7721
▁Intern	-7722
▁Luther	-7723
▁TOWLER	-7724
▁Warren	-7725
▁actual	-7726
▁advise	-7727
▁closet	-7728
▁county	-7729
▁forest	-7730
▁ripped	-7731
▁sheets	-7732
▁CHAMBER	-7733
▁Justice	-7734
▁Orleans	-7735
▁Private	-7736
▁Spanish	-7737
▁effects	-7738
▁however	-7739
▁moments	-7740
▁payment	-7741
▁psychic	-7742
▁pushing	-7743
▁reminds	-7744
▁vehicle	-7745
▁yelling	-7746
▁CHANDLER	-7747
▁answered	-7748
▁designed	-7749
▁mistaken	-7750
▁offering	-7751
▁paranoid	-7752
▁prisoner	-7753
▁response	-7754
▁salesman	-7755
▁treating	-7756
▁Objection	-7757
▁connected	-7758
▁procedure	-7759
▁promotion	-7760
▁radiation	-7761
▁treatment	-7762
▁revolution	-7763
▁threatened	-7764
"!	-7765
OD	-7766
hm	-7767
pa	-7768
aws	-7769
elp	-7770
kee	-7771
lot	-7772
oln	-7773
olt	-7774
pps	-7775
put	-7776
OUGH	-7777
bell	-7778
fits	-7779
iety	-7780
miss	-7781
olds	-7782
shot	-7783
▁Aug	-7784
▁Cam	-7785
▁DAN	-7786
▁Nik	-7787
▁Pic	-7788
▁bid	-7789
▁san	-7790
▁shy	-7791
acity	-7792
agher	-7793
anced	-7794
oster	-7795
point	-7796
stick	-7797
uggie	-7798
uries	-7799
▁Ball	-7800
▁Cuba	-7801
▁Full	-7802
▁Guys	-7803
▁KYLE	-7804
▁Ruth	-7805
▁Stra	-7806
▁WALL	-7807
▁dull	-7808
▁east	-7809
▁eter	-7810
▁exha	-7811
▁forb	-7812
▁heck	-7813
▁melt	-7814
▁neat	-7815
▁rise	-7816
▁sits	-7817
▁tune	-7818
isions	-7819
itched	-7820
orters	-7821
rating	-7822
ushing	-7823
▁Fried	-7824
▁Horse	-7825
▁Inter	-7826
▁JAIME	-7827
▁Miche	-7828
▁Throw	-7829
▁apple	-7830
▁blows	-7831
▁cable	-7832
▁films	-7833
▁incre	-7834
▁micro	-7835
▁pages	-7836
▁songs	-7837
▁sweep	-7838
▁trash	-7839
▁wrest	-7840
rington	-7841
▁Alfred	-7842
▁Cooper	-7843
▁Couple	-7844
▁Evelyn	-7845
▁Trying	-7846
▁Valent	-7847
▁detect	-7848
▁league	-7849
▁poetry	-7850
▁powder	-7851
▁remote	-7852
▁worker	-7853
▁convent	-7854
▁fighter	-7855
▁helluva	-7856
▁jewelry	-7857
▁lunatic	-7858
▁shotgun	-7859
▁surgeon	-7860
vironment	-7861
▁Brothers	-7862
▁independ	-7863
▁sandwich	-7864
▁Gallagher	-7865
▁Yesterday	-7866
▁depressed	-7867
▁honeymoon	-7868
▁kidnapped	-7869
▁worthless	-7870
▁discussion	-7871
▁pretending	-7872
▁unfortunate	-7873
1.	-7874
IEF	-7875
VIS	-7876
was	-7877
▁Hu	-7878
▁cy	-7879
!!!!	-7880
CAID	-7881
assy	-7882
draw	-7883
emet	-7884
fice	-7885
idal	-7886
mosp	-7887
onym	-7888
oura	-7889
rior	-7890
▁Arn	-7891
▁Att	-7892
▁BEE	-7893
▁Bal	-7894
▁DNA	-7895
▁Ins	-7896
▁KIN	-7897
▁MCC	-7898
▁Pac	-7899
▁Pra	-7900
▁STE	-7901
▁una	-7902
▁uns	-7903
eless	-7904
press	-7905
▁Band	-7906
▁Cait	-7907
▁Clar	-7908
▁Doll	-7909
▁Done	-7910
▁Dool	-7911
▁Drew	-7912
▁Each	-7913
▁Erin	-7914
▁Knox	-7915
▁Linc	-7916
▁Lula	-7917
▁Neil	-7918
▁Reyn	-7919
▁Used	-7920
▁WITH	-7921
▁conc	-7922
▁core	-7923
▁furn	-7924
▁mast	-7925
▁nest	-7926
▁neut	-7927
▁owes	-7928
▁pale	-7929
▁porn	-7930
▁redu	-7931
▁sons	-7932
▁spit	-7933
otchka	-7934
velous	-7935
▁Catch	-7936
▁Guard	-7937
▁Kling	-7938
▁Nancy	-7939
▁Satan	-7940
▁anger	-7941
▁bride	-7942
▁burgl	-7943
▁cripp	-7944
▁gross	-7945
▁intim	-7946
▁mommy	-7947
▁owner	-7948
▁pulls	-7949
▁scale	-7950
▁sides	-7951
▁CHRIST	-7952
▁Vulcan	-7953
▁Wynant	-7954
▁blocks	-7955
▁dumped	-7956
▁intent	-7957
▁messed	-7958
▁perman	-7959
▁trucks	-7960
▁waitin	-7961
▁Anthony	-7962
▁Caitlin	-7963
▁Dickson	-7964
▁KINCAID	-7965
▁Lincoln	-7966
▁Somehow	-7967
▁Stanley	-7968
▁WALLACE	-7969
▁Western	-7970
▁choices	-7971
▁crossed	-7972
▁factory	-7973
▁fantasy	-7974
▁manners	-7975
▁quality	-7976
▁related	-7977
▁retired	-7978
▁shelter	-7979
▁Catholic	-7980
▁Crawford	-7981
▁crawling	-7982
▁entrance	-7983
▁homicide	-7984
▁properly	-7985
▁suitcase	-7986
▁waitress	-7987
▁Christian	-7988
▁computers	-7989
▁religious	-7990
▁conditions	-7991
▁nightmares	-7992
▁imagination	-7993
▁disappointed	-7994
▁transmission	-7995
?.	-7996
ek	-7997
Hey	-7998
ROY	-7999
She	-8000
UND	-8001
car	-8002
non	-8003
urd	-8004
▁AB	-8005
▁FE	-8006
▁Os	-8007
▁ge	-8008
ghed	-8009
wait	-8010
wife	-8011
will	-8012
▁ALL	-8013
▁Log	-8014
▁SAL	-8015
▁fri	-8016
▁git	-8017
▁glo	-8018
▁pip	-8019
▁sym	-8020
asant	-8021
inity	-8022
itect	-8023
itors	-8024
worth	-8025
▁Bell	-8026
▁Hank	-8027
▁Judy	-8028
▁Pant	-8029
▁Ross	-8030
▁Swed	-8031
▁Weir	-8032
▁epis	-8033
▁fran	-8034
▁item	-8035
▁tone	-8036
▁uses	-8037
hattan	-8038
igence	-8039
please	-8040
▁Knock	-8041
▁Madam	-8042
▁Tower	-8043
▁dates	-8044
▁guilt	-8045
▁hoped	-8046
▁laund	-8047
▁pitch	-8048
▁poker	-8049
▁purse	-8050
▁safer	-8051
▁snake	-8052
▁tempt	-8053
▁toler	-8054
▁wears	-8055
▁werew	-8056
clusive	-8057
fucking	-8058
nothing	-8059
▁Agency	-8060
▁Bridge	-8061
▁Easter	-8062
▁atmosp	-8063
▁bitter	-8064
▁chosen	-8065
▁crisis	-8066
▁escort	-8067
▁hearts	-8068
▁merely	-8069
▁salary	-8070
▁senior	-8071
▁tracks	-8072
▁troops	-8073
▁HILLYER	-8074
▁Vietnam	-8075
▁anxious	-8076
▁digging	-8077
▁drawing	-8078
▁handled	-8079
▁kissing	-8080
▁robbery	-8081
▁shaking	-8082
▁similar	-8083
▁wounded	-8084
formation	-8085
▁Beaumont	-8086
▁Unfortun	-8087
▁Whenever	-8088
▁betrayed	-8089
▁discover	-8090
▁listened	-8091
▁patience	-8092
▁vampires	-8093
▁agreement	-8094
▁buildings	-8095
▁apparently	-8096
▁threatening	-8097
In	-8098
MS	-8099
uv	-8100
▁i	-8101
EIN	-8102
INU	-8103
Now	-8104
POS	-8105
SEN	-8106
ads	-8107
edi	-8108
▁AT	-8109
▁Ko	-8110
ases	-8111
call	-8112
daya	-8113
fied	-8114
odge	-8115
uary	-8116
uded	-8117
uine	-8118
utch	-8119
vant	-8120
vell	-8121
▁Cur	-8122
▁MOM	-8123
▁Pow	-8124
▁jun	-8125
▁les	-8126
▁ple	-8127
STEIN	-8128
There	-8129
asing	-8130
lying	-8131
overy	-8132
ppers	-8133
urphy	-8134
▁"...	-8135
▁Bomb	-8136
▁Cold	-8137
▁Cost	-8138
▁Deal	-8139
▁Gosh	-8140
▁Mmmm	-8141
▁Nell	-8142
▁Nort	-8143
▁Rain	-8144
▁Took	-8145
▁Wake	-8146
▁fits	-8147
▁gest	-8148
▁mate	-8149
coming	-8150
oretta	-8151
▁April	-8152
▁CHIEF	-8153
▁ELROY	-8154
▁FORGE	-8155
▁Found	-8156
▁Heart	-8157
▁SPOON	-8158
▁Thats	-8159
▁Yours	-8160
▁achie	-8161
▁acted	-8162
▁dinos	-8163
▁fever	-8164
▁lemme	-8165
▁skill	-8166
▁stall	-8167
▁stare	-8168
achelor	-8169
andoned	-8170
▁Arnold	-8171
▁Auggie	-8172
▁collar	-8173
▁indust	-8174
▁laughs	-8175
▁locker	-8176
▁madame	-8177
▁prayer	-8178
▁punish	-8179
▁rubber	-8180
▁timing	-8181
quarters	-8182
▁Loretta	-8183
▁conspir	-8184
▁helpful	-8185
▁interfe	-8186
▁network	-8187
▁profile	-8188
▁torpedo	-8189
▁version	-8190
▁champion	-8191
▁citizens	-8192
▁meantime	-8193
▁messages	-8194
▁quarters	-8195
▁Ninotchka	-8196
▁Wonderful	-8197
▁attracted	-8198
▁exception	-8199
▁potential	-8200
▁appearance	-8201
▁introduced	-8202
▁scientists	-8203
▁suggestion	-8204
▁technology	-8205
Mr	-8206
ba	-8207
rr	-8208
ARS	-8209
BEE	-8210
GGS	-8211
God	-8212
ICH	-8213
box	-8214
kov	-8215
pla	-8216
reg	-8217
riz	-8218
▁TR	-8219
They	-8220
acco	-8221
aded	-8222
avik	-8223
hire	-8224
icip	-8225
name	-8226
orse	-8227
ppin	-8228
uous	-8229
upid	-8230
▁Dol	-8231
▁Lab	-8232
▁Sky	-8233
▁Viv	-8234
▁Yan	-8235
▁dat	-8236
ITION	-8237
izard	-8238
lines	-8239
mouth	-8240
▁Dist	-8241
▁HAVE	-8242
▁Mach	-8243
▁Malk	-8244
▁Nazi	-8245
▁Road	-8246
▁adop	-8247
▁budd	-8248
▁earn	-8249
▁flew	-8250
▁fond	-8251
▁mall	-8252
▁oath	-8253
▁prem	-8254
▁rank	-8255
orable	-8256
▁Dewey	-8257
▁Merle	-8258
▁Psych	-8259
▁Roman	-8260
▁Sammy	-8261
▁basis	-8262
▁enorm	-8263
▁lobby	-8264
▁units	-8265
▁veget	-8266
rection	-8267
▁Barton	-8268
▁Coffee	-8269
▁Empire	-8270
▁Hallow	-8271
▁Saavik	-8272
▁Silver	-8273
▁appeal	-8274
▁belief	-8275
▁column	-8276
▁finest	-8277
▁hyster	-8278
▁nerves	-8279
▁parole	-8280
▁pirate	-8281
▁reveal	-8282
▁sacred	-8283
▁sealed	-8284
▁shitty	-8285
▁statue	-8286
▁urgent	-8287
▁wasted	-8288
ifferent	-8289
▁CONTINU	-8290
▁Comrade	-8291
▁Depends	-8292
▁Genesis	-8293
▁buddies	-8294
▁charged	-8295
▁cleared	-8296
▁fellows	-8297
▁hostage	-8298
▁hostile	-8299
▁options	-8300
▁selfish	-8301
▁sheriff	-8302
▁shields	-8303
▁storage	-8304
▁McMurphy	-8305
▁dressing	-8306
▁fabulous	-8307
▁freezing	-8308
▁generous	-8309
▁gorgeous	-8310
▁princess	-8311
▁studying	-8312
▁Doolittle	-8313
▁Malkovich	-8314
▁Seriously	-8315
▁Somewhere	-8316
▁backwards	-8317
▁challenge	-8318
▁education	-8319
▁practical	-8320
▁publicity	-8321
▁sacrifice	-8322
▁scientist	-8323
▁territory	-8324
▁friendship	-8325
▁construction	-8326
▁Unfortunately	-8327
▁uncomfortable	-8328
NT	-8329
SS	-8330
po	-8331
ALK	-8332
OOK	-8333
ORD	-8334
TAN	-8335
arc	-8336
iro	-8337
oir	-8338
rud	-8339
vor	-8340
▁Fe	-8341
AGER	-8342
ONEY	-8343
bble	-8344
bled	-8345
etti	-8346
eyer	-8347
grim	-8348
itar	-8349
nels	-8350
oley	-8351
tell	-8352
ynam	-8353
▁AID	-8354
▁Ade	-8355
▁BUR	-8356
▁COM	-8357
▁Fox	-8358
▁Key	-8359
▁Lew	-8360
▁Lib	-8361
▁Lot	-8362
▁PER	-8363
▁STU	-8364
▁WAT	-8365
▁ess	-8366
▁fry	-8367
▁gum	-8368
▁nea	-8369
▁yuh	-8370
ablan	-8371
ashes	-8372
attoo	-8373
ckets	-8374
eered	-8375
endid	-8376
ishop	-8377
istor	-8378
licop	-8379
nthia	-8380
▁...-	-8381
▁Drop	-8382
▁Epps	-8383
▁HEAD	-8384
▁HERE	-8385
▁Lect	-8386
▁Them	-8387
▁Town	-8388
▁calc	-8389
▁deaf	-8390
▁dial	-8391
▁dict	-8392
▁hose	-8393
▁knee	-8394
▁parl	-8395
▁pile	-8396
▁punk	-8397
▁rape	-8398
▁role	-8399
▁scam	-8400
▁sche	-8401
▁snap	-8402
▁spin	-8403
▁tons	-8404
ourage	-8405
▁AGENT	-8406
▁Creat	-8407
▁India	-8408
▁Josie	-8409
▁Kurtz	-8410
▁Whadd	-8411
▁ambul	-8412
▁cemet	-8413
▁charm	-8414
▁fucks	-8415
▁hears	-8416
▁impro	-8417
▁quote	-8418
▁salad	-8419
▁spect	-8420
▁spoil	-8421
ablanca	-8422
▁August	-8423
▁Creasy	-8424
▁Deputy	-8425
▁Joanna	-8426
▁Morgan	-8427
▁Samuel	-8428
▁arrive	-8429
▁feelin	-8430
▁knight	-8431
▁modern	-8432
▁orange	-8433
▁regist	-8434
▁resign	-8435
▁runnin	-8436
▁sector	-8437
▁stones	-8438
▁valley	-8439
▁winner	-8440
POSITION	-8441
ographer	-8442
▁Chicken	-8443
▁Daniels	-8444
▁Instead	-8445
▁Vanessa	-8446
▁benefit	-8447
▁convict	-8448
▁diamond	-8449
▁jumping	-8450
▁results	-8451
▁squeeze	-8452
▁unknown	-8453
▁vampire	-8454
▁victory	-8455
▁Interest	-8456
▁Nonsense	-8457
▁assigned	-8458
▁catching	-8459
▁customer	-8460
▁disaster	-8461
▁marrying	-8462
▁abandoned	-8463
▁architect	-8464
▁sentiment	-8465
▁Casablanca	-8466
▁impressive	-8467
▁appropriate	-8468
II	-8469
Art	-8470
IRE	-8471
LOV	-8472
ORE	-8473
VEN	-8474
era	-8475
igo	-8476
inn	-8477
rix	-8478
▁OL	-8479
▁WA	-8480
▁yo	-8481
IVAN	-8482
MMMM	-8483
alth	-8484
colm	-8485
ggie	-8486
gues	-8487
irts	-8488
mark	-8489
sect	-8490
viet	-8491
wire	-8492
▁Diz	-8493
▁Fre	-8494
▁Ice	-8495
▁MAT	-8496
▁Pot	-8497
▁Sub	-8498
▁cro	-8499
▁gam	-8500
▁jus	-8501
▁nan	-8502
adelp	-8503
ademy	-8504
aging	-8505
borah	-8506
think	-8507
▁Barn	-8508
▁Bour	-8509
▁Face	-8510
▁KING	-8511
▁Mean	-8512
▁SULL	-8513
▁Vien	-8514
▁Wolf	-8515
▁eats	-8516
▁horn	-8517
▁inqu	-8518
▁meas	-8519
▁mult	-8520
▁narc	-8521
▁noon	-8522
▁plot	-8523
▁plug	-8524
▁sequ	-8525
▁soph	-8526
▁Corle	-8527
▁Foley	-8528
▁Suzie	-8529
▁Whats	-8530
▁annoy	-8531
▁begun	-8532
▁bluff	-8533
▁cocks	-8534
▁deals	-8535
▁delay	-8536
▁disci	-8537
▁draft	-8538
▁entit	-8539
▁forms	-8540
ificent	-8541
▁Laurie	-8542
▁Ordell	-8543
▁Sooner	-8544
▁Venice	-8545
▁fortun	-8546
▁kiddin	-8547
▁meters	-8548
▁mornin	-8549
▁plates	-8550
▁speaks	-8551
▁stream	-8552
▁symbol	-8553
▁turkey	-8554
▁worthy	-8555
adelphia	-8556
cription	-8557
▁Cynthia	-8558
▁Malcolm	-8559
▁Mexican	-8560
▁Seattle	-8561
▁custody	-8562
▁genuine	-8563
▁impulse	-8564
▁passage	-8565
▁possess	-8566
▁removed	-8567
▁studied	-8568
▁Preysing	-8569
▁SULLIVAN	-8570
▁Saunders	-8571
▁Speaking	-8572
▁Thompson	-8573
▁Victoria	-8574
▁cocktail	-8575
▁controll	-8576
▁expenses	-8577
▁identify	-8578
▁threaten	-8579
▁Bernstein	-8580
▁CONTINUED	-8581
▁Carpenter	-8582
▁Halloween	-8583
▁Manhattan	-8584
▁THOMERSON	-8585
▁intellect	-8586
▁structure	-8587
▁determined	-8588
▁mysterious	-8589
▁combination	-8590
AK	-8591
Al	-8592
UG	-8593
cr	-8594
ti	-8595
bow	-8596
imm	-8597
ola	-8598
OMER	-8599
URED	-8600
acht	-8601
cles	-8602
gedy	-8603
iley	-8604
mind	-8605
oses	-8606
rice	-8607
uits	-8608
▁Bow	-8609
▁Buy	-8610
▁Fun	-8611
▁GOT	-8612
▁Kal	-8613
▁Spl	-8614
▁Tem	-8615
▁WHO	-8616
▁asp	-8617
▁bye	-8618
▁fog	-8619
▁hel	-8620
▁rul	-8621
FIELD	-8622
Where	-8623
ained	-8624
andom	-8625
check	-8626
hears	-8627
ilton	-8628
imore	-8629
ridge	-8630
ueger	-8631
▁Babe	-8632
▁Conf	-8633
▁Maya	-8634
▁Rico	-8635
▁Roll	-8636
▁batt	-8637
▁bowl	-8638
▁buff	-8639
▁cran	-8640
▁hamb	-8641
▁hint	-8642
▁slut	-8643
▁ward	-8644
otions	-8645
rences	-8646
▁Adele	-8647
▁BARRY	-8648
▁Class	-8649
▁Clear	-8650
▁Coast	-8651
▁Event	-8652
▁NIGHT	-8653
▁Peggy	-8654
▁beast	-8655
▁breed	-8656
▁crawl	-8657
▁faint	-8658
▁grace	-8659
▁incon	-8660
▁instr	-8661
▁integ	-8662
▁molec	-8663
▁paras	-8664
▁persu	-8665
▁prize	-8666
▁raped	-8667
▁recon	-8668
▁rings	-8669
▁steak	-8670
▁steam	-8671
▁DRIVER	-8672
▁Mostly	-8673
▁Mulder	-8674
▁Taking	-8675
▁Wilson	-8676
▁covers	-8677
▁ending	-8678
▁favour	-8679
▁issues	-8680
▁latest	-8681
▁legend	-8682
▁maniac	-8683
▁morgue	-8684
▁motion	-8685
▁narrow	-8686
▁palace	-8687
▁retard	-8688
▁wicked	-8689
iversary	-8690
ordinary	-8691
▁Correct	-8692
▁Merrick	-8693
▁affairs	-8694
▁coordin	-8695
▁explore	-8696
▁highest	-8697
▁inspect	-8698
▁silence	-8699
▁towards	-8700
▁Building	-8701
▁Corleone	-8702
▁Terrific	-8703
▁audition	-8704
▁bachelor	-8705
▁cheating	-8706
▁chickens	-8707
▁dropping	-8708
▁enjoying	-8709
▁entitled	-8710
▁intended	-8711
▁register	-8712
▁survived	-8713
▁troubles	-8714
▁withdraw	-8715
▁Baltimore	-8716
▁Goddamnit	-8717
▁basically	-8718
▁confirmed	-8719
▁developed	-8720
▁explained	-8721
▁interfere	-8722
▁interrupt	-8723
▁shoulders	-8724
▁expression	-8725
▁environment	-8726
▁Philadelphia	-8727
-2	-8728
VY	-8729
rd	-8730
uy	-8731
▁,	-8732
AMM	-8733
gic	-8734
met	-8735
ogy	-8736
vit	-8737
yon	-8738
▁21	-8739
▁Mi	-8740
▁na	-8741
berg	-8742
inky	-8743
pack	-8744
pret	-8745
pton	-8746
▁ANN	-8747
▁Ban	-8748
▁Gay	-8749
▁LOU	-8750
▁Leg	-8751
▁PRO	-8752
▁Saw	-8753
▁Tal	-8754
▁Yet	-8755
▁avo	-8756
▁kil	-8757
▁suc	-8758
▁wip	-8759
ables	-8760
berry	-8761
guing	-8762
uties	-8763
▁BUGG	-8764
▁Blow	-8765
▁COBB	-8766
▁Joan	-8767
▁Moon	-8768
▁Ruby	-8769
▁Schw	-8770
▁TOMM	-8771
▁bend	-8772
▁grat	-8773
▁rust	-8774
▁site	-8775
▁tact	-8776
▁trem	-8777
athers	-8778
bowski	-8779
ection	-8780
essler	-8781
▁Bones	-8782
▁Chair	-8783
▁Emily	-8784
▁Jacob	-8785
▁Kenny	-8786
▁Kinda	-8787
▁Paine	-8788
▁Rowan	-8789
▁YOUNG	-8790
▁drank	-8791
▁fools	-8792
▁givin	-8793
▁homes	-8794
▁musta	-8795
▁socks	-8796
▁spray	-8797
▁swore	-8798
▁widow	-8799
ography	-8800
▁Animal	-8801
▁Batman	-8802
▁Dinner	-8803
▁Family	-8804
▁Lecter	-8805
▁Scully	-8806
▁Soviet	-8807
▁Valley	-8808
▁agency	-8809
▁applic	-8810
▁beings	-8811
▁budget	-8812
▁deeper	-8813
▁firing	-8814
▁freeze	-8815
▁permit	-8816
▁releas	-8817
▁sports	-8818
▁states	-8819
▁tastes	-8820
▁thrust	-8821
▁Deborah	-8822
▁Raymond	-8823
▁Science	-8824
▁Through	-8825
▁Working	-8826
▁channel	-8827
▁cheated	-8828
▁culture	-8829
▁demonst	-8830
▁flatter	-8831
▁guessed	-8832
▁helicop	-8833
▁offices	-8834
▁packing	-8835
▁players	-8836
▁spirits	-8837
▁worries	-8838
▁Lebowski	-8839
▁Russians	-8840
▁accepted	-8841
▁accounts	-8842
▁activity	-8843
▁capacity	-8844
▁cemetery	-8845
▁entering	-8846
▁maintain	-8847
▁requires	-8848
▁starving	-8849
▁werewolf	-8850
▁CHRISTIAN	-8851
▁disturbed	-8852
▁prisoners	-8853
▁atmosphere	-8854
▁convention	-8855
▁anniversary	-8856
▁destruction	-8857
▁necessarily	-8858
▁photographs	-8859
▁reservation	-8860
▁confidential	-8861
IO	-8862
La	-8863
OV	-8864
Pl	-8865
uk	-8866
END	-8867
HOL	-8868
IVE	-8869
amm	-8870
aps	-8871
aug	-8872
hib	-8873
his	-8874
ira	-8875
pea	-8876
tah	-8877
ths	-8878
xim	-8879
▁wa	-8880
BERG	-8881
IDDY	-8882
anut	-8883
aroo	-8884
cast	-8885
hall	-8886
ouch	-8887
rors	-8888
umbo	-8889
want	-8890
▁Fat	-8891
▁Pap	-8892
▁Tan	-8893
▁Tha	-8894
▁eth	-8895
▁hob	-8896
▁mas	-8897
▁spr	-8898
▁sue	-8899
MANIC	-8900
balls	-8901
break	-8902
might	-8903
pense	-8904
power	-8905
somet	-8906
veill	-8907
▁AIDS	-8908
▁Dill	-8909
▁Joel	-8910
▁Kyle	-8911
▁Main	-8912
▁Thea	-8913
▁Twom	-8914
▁Went	-8915
▁bait	-8916
▁debt	-8917
▁diet	-8918
▁dive	-8919
▁econ	-8920
▁inna	-8921
▁pals	-8922
▁surf	-8923
isible	-8924
velope	-8925
▁BAKER	-8926
▁Edgar	-8927
▁Frida	-8928
▁Lewis	-8929
▁McCoy	-8930
▁Randy	-8931
▁Sixty	-8932
▁Smoke	-8933
▁THERE	-8934
▁candy	-8935
▁cheat	-8936
▁deton	-8937
▁guide	-8938
▁hairy	-8939
▁needn	-8940
▁scrap	-8941
▁sheet	-8942
▁straw	-8943
▁subst	-8944
▁BUGGIN	-8945
▁Carlos	-8946
▁Chekov	-8947
▁Donald	-8948
▁Donnie	-8949
▁FARREN	-8950
▁Living	-8951
▁Maggie	-8952
▁PRIDDY	-8953
▁Pierce	-8954
▁WALKER	-8955
▁cancel	-8956
▁colors	-8957
▁doubts	-8958
▁earned	-8959
▁intern	-8960
▁laying	-8961
▁limits	-8962
▁random	-8963
▁safely	-8964
▁scheme	-8965
▁suspic	-8966
▁tattoo	-8967
▁unique	-8968
▁Krueger	-8969
▁Seventy	-8970
▁Wallace	-8971
▁assault	-8972
▁closely	-8973
▁compass	-8974
▁display	-8975
▁elephan	-8976
▁engines	-8977
▁operate	-8978
▁produce	-8979
▁receipt	-8980
▁violent	-8981
MANICURED	-8982
▁Consider	-8983
▁Negative	-8984
▁Twombley	-8985
▁acquaint	-8986
▁election	-8987
▁envelope	-8988
▁telegram	-8989
▁visiting	-8990
▁blackmail	-8991
▁cooperate	-8992
▁marvelous	-8993
▁reception	-8994
▁technical	-8995
▁forgetting	-8996
▁incredibly	-8997
▁complaining	-8998
▁concentrate	-8999
▁institution	-9000
▁proposition	-9001
▁questioning	-9002
▁transferred	-9003
▁unconscious	-9004
▁arrangements	-9005
▁consequences	-9006
cs	-9007
ja	-9008
ARY	-9009
HAT	-9010
NUL	-9011
ZIM	-9012
asm	-9013
cca	-9014
low	-9015
ooo	-9016
pol	-9017
HEWS	-9018
HING	-9019
NULF	-9020
OUND	-9021
UNGU	-9022
aron	-9023
gage	-9024
hhhh	-9025
itts	-9026
orms	-9027
oser	-9028
plom	-9029
rich	-9030
semb	-9031
tery	-9032
▁Bod	-9033
▁Deb	-9034
▁Edu	-9035
▁Fur	-9036
▁Hop	-9037
▁Kip	-9038
▁Mot	-9039
▁Neo	-9040
▁Pas	-9041
▁TIM	-9042
▁alb	-9043
▁fer	-9044
▁kin	-9045
about	-9046
bbing	-9047
inent	-9048
iture	-9049
leton	-9050
umbag	-9051
woman	-9052
▁Bela	-9053
▁Bree	-9054
▁Cind	-9055
▁Ferg	-9056
▁Lily	-9057
▁MILL	-9058
▁Ohio	-9059
▁Ouch	-9060
▁RAND	-9061
▁dign	-9062
▁grip	-9063
▁hood	-9064
▁insp	-9065
▁isol	-9066
▁leak	-9067
▁math	-9068
▁skip	-9069
▁subs	-9070
▁summ	-9071
▁torn	-9072
▁wrap	-9073
▁Attor	-9074
▁BIZIM	-9075
▁Banks	-9076
▁Burke	-9077
▁Carol	-9078
▁Clean	-9079
▁HARRY	-9080
▁Point	-9081
▁WATCH	-9082
▁boxes	-9083
▁brace	-9084
▁brick	-9085
▁cigar	-9086
▁comic	-9087
▁havin	-9088
▁inher	-9089
▁penet	-9090
▁seats	-9091
▁sends	-9092
▁sorts	-9093
▁tower	-9094
because	-9095
ificant	-9096
nerable	-9097
osexual	-9098
▁ARNULF	-9099
▁Dammit	-9100
▁Misery	-9101
▁Teresa	-9102
▁cattle	-9103
▁critic	-9104
▁driven	-9105
▁hambur	-9106
▁landed	-9107
▁origin	-9108
▁photos	-9109
▁scares	-9110
▁string	-9111
▁transl	-9112
fficient	-9113
▁Explain	-9114
▁FUCKING	-9115
▁MANAGER	-9116
▁MATHEWS	-9117
▁Melanie	-9118
▁Strange	-9119
▁blanket	-9120
▁bothers	-9121
▁chamber	-9122
▁kicking	-9123
▁leaders	-9124
▁logical	-9125
▁refused	-9126
▁require	-9127
▁smiling	-9128
▁tragedy	-9129
veillance	-9130
▁Although	-9131
▁enormous	-9132
▁hopeless	-9133
▁judgment	-9134
▁prospect	-9135
▁religion	-9136
▁reported	-9137
▁BIZIMUNGU	-9138
▁Frederick	-9139
▁celebrate	-9140
▁criminals	-9141
▁decisions	-9142
▁privilege	-9143
▁satellite	-9144
▁searching	-9145
▁traveling	-9146
▁Interesting	-9147
▁businessman	-9148
▁civilization	-9149
▁possibilities	-9150
Is	-9151
wy	-9152
ATO	-9153
All	-9154
GER	-9155
ITT	-9156
LOR	-9157
ios	-9158
nis	-9159
ums	-9160
zer	-9161
zlo	-9162
▁22	-9163
▁UN	-9164
▁fi	-9165
BERT	-9166
Neil	-9167
agen	-9168
artz	-9169
emon	-9170
rels	-9171
rome	-9172
rust	-9173
sure	-9174
till	-9175
uing	-9176
uris	-9177
zech	-9178
▁--?	-9179
▁AST	-9180
▁DID	-9181
▁Div	-9182
▁ELL	-9183
▁Ire	-9184
▁Job	-9185
▁LAW	-9186
▁Oak	-9187
▁ape	-9188
▁org	-9189
▁rag	-9190
RICKY	-9191
STONE	-9192
UMONT	-9193
eland	-9194
inary	-9195
onies	-9196
peare	-9197
pheus	-9198
plete	-9199
wayne	-9200
▁Cobb	-9201
▁Deep	-9202
▁Diet	-9203
▁Grun	-9204
▁Hung	-9205
▁KILL	-9206
▁Lear	-9207
▁Lila	-9208
▁Pike	-9209
▁Spar	-9210
▁Toto	-9211
▁Turk	-9212
▁Utah	-9213
▁Walt	-9214
▁acid	-9215
▁appl	-9216
▁bugs	-9217
▁caut	-9218
▁cunt	-9219
▁dram	-9220
▁rats	-9221
▁rear	-9222
▁salt	-9223
▁stir	-9224
▁vice	-9225
▁whip	-9226
Americ	-9227
imeter	-9228
ounced	-9229
usions	-9230
▁Alone	-9231
▁Beach	-9232
▁Cliff	-9233
▁Doing	-9234
▁Enjoy	-9235
▁Girls	-9236
▁Hills	-9237
▁Kring	-9238
▁Marie	-9239
▁Norma	-9240
▁Nurse	-9241
▁Press	-9242
▁SCOTT	-9243
▁beans	-9244
▁burst	-9245
▁concl	-9246
▁fairy	-9247
▁fifth	-9248
▁incom	-9249
▁lands	-9250
▁march	-9251
▁sheep	-9252
▁Canada	-9253
▁Center	-9254
▁Chance	-9255
▁Double	-9256
▁Dwayne	-9257
▁Laszlo	-9258
▁Luthor	-9259
▁Maranz	-9260
▁Murray	-9261
▁Shakes	-9262
▁Vienna	-9263
▁Violet	-9264
▁Yessir	-9265
▁absurd	-9266
▁anonym	-9267
▁behave	-9268
▁collea	-9269
▁fights	-9270
▁gamble	-9271
▁misery	-9272
▁phones	-9273
▁potato	-9274
▁specim	-9275
▁sucked	-9276
▁tested	-9277
▁unfair	-9278
▁whores	-9279
▁Amazing	-9280
▁College	-9281
▁Phillip	-9282
▁Westley	-9283
▁actions	-9284
▁beneath	-9285
▁classes	-9286
▁closest	-9287
▁compens	-9288
▁cooking	-9289
▁dentist	-9290
▁express	-9291
▁feeding	-9292
▁greater	-9293
▁happily	-9294
▁laughed	-9295
▁laundry	-9296
▁propose	-9297
▁recover	-9298
▁reflect	-9299
▁smarter	-9300
▁succeed	-9301
▁ASTRICKY	-9302
▁Attorney	-9303
▁BEAUMONT	-9304
▁Friedman	-9305
▁Garrison	-9306
▁Honestly	-9307
▁concerns	-9308
▁emotions	-9309
▁floating	-9310
▁informed	-9311
▁meetings	-9312
▁relative	-9313
▁Sheldrake	-9314
▁corporate	-9315
▁furniture	-9316
▁negotiate	-9317
▁professor	-9318
▁relatives	-9319
▁violation	-9320
▁conspiracy	-9321
▁invitation	-9322
▁Shakespeare	-9323
▁extraordinary	-9324
KI	-9325
00.	-9326
OUR	-9327
bel	-9328
cat	-9329
hos	-9330
lee	-9331
ogs	-9332
uct	-9333
▁RU	-9334
▁Ze	-9335
ATOR	-9336
Good	-9337
Yeah	-9338
aaaa	-9339
arte	-9340
bast	-9341
boat	-9342
burn	-9343
hill	-9344
ials	-9345
iere	-9346
inks	-9347
leaf	-9348
muck	-9349
oner	-9350
rong	-9351
take	-9352
talk	-9353
uffs	-9354
wald	-9355
ylan	-9356
▁Dud	-9357
▁Fro	-9358
▁Kub	-9359
▁SER	-9360
▁Shh	-9361
▁Sic	-9362
▁WOR	-9363
▁clo	-9364
▁cos	-9365
▁gre	-9366
▁pha	-9367
▁raw	-9368
▁ton	-9369
andal	-9370
elein	-9371
ivity	-9372
neath	-9373
obile	-9374
oleon	-9375
utton	-9376
▁Bren	-9377
▁CAST	-9378
▁Chew	-9379
▁Crow	-9380
▁Flyn	-9381
▁Gods	-9382
▁Juno	-9383
▁Kend	-9384
▁SCHU	-9385
▁Shot	-9386
▁WAIT	-9387
▁amaz	-9388
▁bran	-9389
▁coup	-9390
▁dock	-9391
▁envy	-9392
▁hack	-9393
▁lamb	-9394
▁obst	-9395
▁pipe	-9396
▁shed	-9397
▁soda	-9398
▁wins	-9399
headed	-9400
pected	-9401
tering	-9402
unning	-9403
▁Czech	-9404
▁Dylan	-9405
▁Fight	-9406
▁Shang	-9407
▁Smart	-9408
▁THING	-9409
▁Wheel	-9410
▁amate	-9411
▁crush	-9412
▁decor	-9413
▁fleet	-9414
▁handy	-9415
▁hunch	-9416
▁ideal	-9417
▁naive	-9418
▁smugg	-9419
▁stalk	-9420
▁stamp	-9421
▁yacht	-9422
▁Inside	-9423
▁Report	-9424
▁Ripper	-9425
▁Stupid	-9426
▁System	-9427
▁Treves	-9428
▁Wizard	-9429
▁Yellow	-9430
▁chicks	-9431
▁deeply	-9432
▁fantas	-9433
▁fiance	-9434
▁jewels	-9435
▁passes	-9436
▁playin	-9437
▁relief	-9438
▁silent	-9439
▁singer	-9440
▁strain	-9441
▁unlike	-9442
▁Clarice	-9443
▁Houston	-9444
▁Marquis	-9445
▁Outside	-9446
▁Pacific	-9447
▁airline	-9448
▁anytime	-9449
▁butcher	-9450
▁deliber	-9451
▁deposit	-9452
▁holiday	-9453
▁injured	-9454
▁presume	-9455
▁rehears	-9456
▁shuttle	-9457
▁smaller	-9458
▁underst	-9459
▁workers	-9460
▁Morpheus	-9461
▁Napoleon	-9462
▁Republic	-9463
▁attached	-9464
▁ceremony	-9465
▁contrary	-9466
▁covering	-9467
▁creative	-9468
▁diamonds	-9469
▁identity	-9470
▁knocking	-9471
▁obsessed	-9472
▁sticking	-9473
▁Valentine	-9474
▁ambulance	-9475
▁effective	-9476
▁explosion	-9477
▁invisible	-9478
▁temporary	-9479
▁Kringelein	-9480
▁alternative	-9481
▁understands	-9482
▁0	-9483
ASD	-9484
ITZ	-9485
REE	-9486
bat	-9487
fun	-9488
mor	-9489
pot	-9490
ssa	-9491
▁IM	-9492
▁Il	-9493
▁OW	-9494
▁SO	-9495
LAIN	-9496
acks	-9497
dale	-9498
fire	-9499
gypt	-9500
mann	-9501
ooch	-9502
osis	-9503
phew	-9504
quet	-9505
thew	-9506
uana	-9507
umes	-9508
vage	-9509
xxxx	-9510
zard	-9511
zzle	-9512
▁Alp	-9513
▁Cry	-9514
▁EAT	-9515
▁Laz	-9516
▁Sex	-9517
▁Slo	-9518
▁VIC	-9519
▁bun	-9520
▁dug	-9521
▁gag	-9522
▁gym	-9523
▁jer	-9524
▁mud	-9525
▁pec	-9526
▁raz	-9527
▁rhy	-9528
▁sab	-9529
▁sla	-9530
▁voy	-9531
Jesus	-9532
adise	-9533
agers	-9534
agnan	-9535
aline	-9536
ansom	-9537
child	-9538
itual	-9539
natur	-9540
stock	-9541
▁Boyd	-9542
▁CALD	-9543
▁Card	-9544
▁Code	-9545
▁Feds	-9546
▁Hans	-9547
▁Hiya	-9548
▁July	-9549
▁KNOW	-9550
▁MART	-9551
▁Spen	-9552
▁Stri	-9553
▁Word	-9554
▁bike	-9555
▁coma	-9556
▁dame	-9557
▁folk	-9558
▁fork	-9559
▁foul	-9560
▁lion	-9561
▁plat	-9562
▁puke	-9563
▁rode	-9564
▁rose	-9565
▁tale	-9566
▁task	-9567
▁tore	-9568
▁tube	-9569
▁ware	-9570
▁weed	-9571
ASDALE	-9572
angers	-9573
eymour	-9574
vation	-9575
▁Alban	-9576
▁Boone	-9577
▁Champ	-9578
▁Davis	-9579
▁Dream	-9580
▁Molly	-9581
▁Stacy	-9582
▁Tracy	-9583
▁Witch	-9584
▁backs	-9585
▁bombs	-9586
▁booth	-9587
▁clerk	-9588
▁dynam	-9589
▁excit	-9590
▁fried	-9591
▁gifts	-9592
▁locks	-9593
▁patch	-9594
▁stunt	-9595
▁waves	-9596
▁youth	-9597
enstein	-9598
▁Bernie	-9599
▁Castle	-9600
▁Ladies	-9601
▁Leland	-9602
▁Sevent	-9603
▁behalf	-9604
▁bureau	-9605
▁candid	-9606
▁dishes	-9607
▁gloves	-9608
▁halluc	-9609
▁inject	-9610
▁junior	-9611
▁liquid	-9612
▁locate	-9613
▁muscle	-9614
▁nephew	-9615
▁parked	-9616
▁plants	-9617
▁repair	-9618
▁shovel	-9619
▁stinks	-9620
▁wheels	-9621
▁wisdom	-9622
Artagnan	-9623
aughters	-9624
▁Brandon	-9625
▁Dolores	-9626
▁Frankly	-9627
▁Gabriel	-9628
▁Grandpa	-9629
▁Indians	-9630
▁Matthew	-9631
▁accused	-9632
▁busting	-9633
▁costume	-9634
▁grabbed	-9635
▁granted	-9636
▁highway	-9637
▁improve	-9638
▁involve	-9639
▁monitor	-9640
▁neutral	-9641
▁shocked	-9642
▁thirsty	-9643
▁whistle	-9644
▁CALDWELL	-9645
▁Computer	-9646
▁Franklin	-9647
▁TEASDALE	-9648
▁announce	-9649
▁clothing	-9650
▁daylight	-9651
▁handling	-9652
▁peaceful	-9653
▁preacher	-9654
▁presents	-9655
▁screwing	-9656
▁struggle	-9657
▁Maranzano	-9658
▁curiosity	-9659
▁goddamnit	-9660
▁literally	-9661
▁directions	-9662
▁engagement	-9663
▁production	-9664
▁recognized	-9665
▁scientific	-9666
▁Information	-9667
▁description	-9668
▁differently	-9669
▁unbelievable	-9670
▁entertainment	-9671
AP	-9672
sk	-9673
uj	-9674
AAV	-9675
ANO	-9676
ATE	-9677
LEE	-9678
Not	-9679
aus	-9680
fly	-9681
isy	-9682
ndy	-9683
ria	-9684
sho	-9685
▁Si	-9686
▁ax	-9687
Bout	-9688
USEN	-9689
acle	-9690
acon	-9691
damn	-9692
elik	-9693
gher	-9694
hens	-9695
kers	-9696
lyde	-9697
nity	-9698
ogue	-9699
olve	-9700
oper	-9701
oria	-9702
phis	-9703
quer	-9704
▁Aud	-9705
▁Dog	-9706
▁Ext	-9707
▁Fan	-9708
▁Gun	-9709
▁HAD	-9710
▁HIM	-9711
▁Hoo	-9712
▁Ike	-9713
▁NOR	-9714
▁Pig	-9715
▁Pil	-9716
▁SHE	-9717
▁WAR	-9718
▁aid	-9719
▁cav	-9720
▁rap	-9721
▁tin	-9722
▁vib	-9723
AAVIK	-9724
EMBER	-9725
aghet	-9726
ansky	-9727
asses	-9728
burgh	-9729
iches	-9730
illac	-9731
mates	-9732
▁Cart	-9733
▁DARK	-9734
▁Duff	-9735
▁EDDY	-9736
▁Geez	-9737
▁Hawk	-9738
▁Jody	-9739
▁Kore	-9740
▁LOVE	-9741
▁LaPl	-9742
▁Moss	-9743
▁News	-9744
▁Rest	-9745
▁Ruiz	-9746
▁SADE	-9747
▁Sell	-9748
▁Sire	-9749
▁Stat	-9750
▁buys	-9751
▁lame	-9752
▁pigs	-9753
▁pimp	-9754
▁scal	-9755
▁slap	-9756
▁unex	-9757
HATTAN	-9758
ctions	-9759
encies	-9760
ifying	-9761
levant	-9762
orough	-9763
pering	-9764
▁Bloom	-9765
▁Brady	-9766
▁Canad	-9767
▁Egypt	-9768
▁FRANK	-9769
▁Falls	-9770
▁Myers	-9771
▁Smell	-9772
▁Swann	-9773
▁Tripp	-9774
▁abuse	-9775
▁burns	-9776
▁cried	-9777
▁dealt	-9778
▁drawn	-9779
▁drift	-9780
▁exped	-9781
▁frust	-9782
▁hopes	-9783
▁laser	-9784
▁logic	-9785
▁penis	-9786
▁suite	-9787
▁sympt	-9788
▁taxes	-9789
▁wagon	-9790
▁weigh	-9791
▁whack	-9792
bastian	-9793
diction	-9794
▁Adrian	-9795
▁DEUSEN	-9796
▁Engine	-9797
▁Fergus	-9798
▁Intell	-9799
▁Knight	-9800
▁Martha	-9801
▁Ronnie	-9802
▁SAAVIK	-9803
▁Santos	-9804
▁Simple	-9805
▁Square	-9806
▁apples	-9807
▁casual	-9808
▁clinic	-9809
▁combat	-9810
▁creeps	-9811
▁drives	-9812
▁hammer	-9813
▁humans	-9814
▁larger	-9815
▁marked	-9816
▁motive	-9817
▁racket	-9818
▁recent	-9819
▁strang	-9820
▁streak	-9821
▁subway	-9822
▁surviv	-9823
▁wounds	-9824
▁Careful	-9825
▁Control	-9826
▁Kubelik	-9827
▁Memphis	-9828
▁Montana	-9829
▁begging	-9830
▁cameras	-9831
▁chapter	-9832
▁comment	-9833
▁confirm	-9834
▁episode	-9835
▁measure	-9836
▁mothers	-9837
▁predict	-9838
▁reverse	-9839
▁scumbag	-9840
▁trailer	-9841
forcement	-9842
▁LaPlante	-9843
▁Reynolds	-9844
▁Schwartz	-9845
▁harmless	-9846
▁strictly	-9847
▁Different	-9848
▁MANHATTAN	-9849
▁Sebastian	-9850
▁answering	-9851
▁discussed	-9852
▁magazines	-9853
▁personnel	-9854
▁possessed	-9855
▁precisely	-9856
▁published	-9857
▁slightest	-9858
▁afterwards	-9859
▁detectives	-9860
▁straighten	-9861
▁CHAMBERLAIN	-9862
▁arrangement	-9863
▁competition	-9864
▁coordinates	-9865
▁independent	-9866
▁temperature	-9867
▁surveillance	-9868
▁communications	-9869
AU	-9870
KY	-9871
!--	-9872
AMN	-9873
ELV	-9874
WIN	-9875
eau	-9876
esy	-9877
fia	-9878
lah	-9879
mph	-9880
▁Ny	-9881
▁PG	-9882
BECK	-9883
Okay	-9884
USSE	-9885
alie	-9886
anta	-9887
cott	-9888
eted	-9889
half	-9890
ived	-9891
izon	-9892
mill	-9893
oran	-9894
▁Ash	-9895
▁Dix	-9896
▁Inc	-9897
▁Inn	-9898
▁LET	-9899
▁MER	-9900
▁Ooh	-9901
▁Pur	-9902
▁SAM	-9903
▁STR	-9904
▁Sad	-9905
▁Wat	-9906
▁Yeh	-9907
▁hip	-9908
▁mug	-9909
▁pup	-9910
▁ske	-9911
▁von	-9912
>...?	-9913
ATHER	-9914
ELVET	-9915
assed	-9916
atics	-9917
ichol	-9918
ifest	-9919
illed	-9920
store	-9921
ubber	-9922
ufact	-9923
uthin	-9924
▁Boat	-9925
▁Borg	-9926
▁Butt	-9927
▁Coke	-9928
▁Fant	-9929
▁Gene	-9930
▁KANE	-9931
▁Milo	-9932
▁Pope	-9933
▁Prot	-9934
▁Rita	-9935
▁Soph	-9936
▁Zone	-9937
▁anch	-9938
▁auto	-9939
▁barn	-9940
▁boom	-9941
▁bout	-9942
▁brut	-9943
▁deer	-9944
▁goal	-9945
▁jazz	-9946
▁lawn	-9947
▁leng	-9948
▁perf	-9949
▁ribb	-9950
▁sins	-9951
▁sire	-9952
▁tips	-9953
▁tops	-9954
▁vent	-9955
▁writ	-9956
▁zone	-9957
LEBECK	-9958
abelle	-9959
athryn	-9960
ijuana	-9961
itches	-9962
uction	-9963
▁Burns	-9964
▁Camer	-9965
▁Carla	-9966
▁Clyde	-9967
▁Const	-9968
▁Crane	-9969
▁Dante	-9970
▁Early	-9971
▁MAYER	-9972
▁Nazis	-9973
▁Raoul	-9974
▁Space	-9975
▁appet	-9976
▁apply	-9977
▁clubs	-9978
▁coach	-9979
▁daily	-9980
▁explo	-9981
▁haunt	-9982
▁inner	-9983
▁livin	-9984
▁nigga	-9985
▁reads	-9986
▁spark	-9987
▁swamp	-9988
▁tools	-9989
aghetti	-9990
chester	-9991
respect	-9992
▁Hardly	-9993
▁Making	-9994
▁Monica	-9995
▁Office	-9996
▁Reggie	-9997
▁Scotch	-9998
▁Trevor	-9999
▁VELVET	-10000
▁Vivian	-10001
▁Walker	-10002
▁beaten	-10003
▁francs	-10004
▁hooked	-10005
▁nicely	-10006
▁patrol	-10007
▁phrase	-10008
▁purcha	-10009
▁resent	-10010
▁severe	-10011
▁strate	-10012
▁whales	-10013
▁writes	-10014
▁Beckett	-10015
▁Friends	-10016
▁Kristen	-10017
▁Mallory	-10018
▁Seymour	-10019
▁assumed	-10020
▁charity	-10021
▁entered	-10022
▁expense	-10023
▁gravity	-10024
▁halfway	-10025
▁happier	-10026
▁instant	-10027
▁matches	-10028
▁musical	-10029
▁privacy	-10030
▁strikes	-10031
▁sweater	-10032
stitution	-10033
▁Cadillac	-10034
▁borrowed	-10035
▁certific	-10036
▁deserved	-10037
▁explains	-10038
▁forgiven	-10039
▁graduate	-10040
▁illusion	-10041
▁missiles	-10042
▁monsters	-10043
▁patterns	-10044
▁promises	-10045
▁services	-10046
▁slightly	-10047
▁Josephine	-10048
▁Secretary	-10049
▁bodyguard	-10050
▁conscious	-10051
▁counselor	-10052
▁executive	-10053
urisdiction	-10054
▁CASTLEBECK	-10055
▁assistance	-10056
▁philosophy	-10057
▁physically	-10058
▁retirement	-10059
▁suggesting	-10060
▁surrounded	-10061
▁communication	-10062
▁psychological	-10063
UE	-10064
rm	-10065
▁/	-10066
>--	-10067
IFF	-10068
IPS	-10069
ISS	-10070
NEY	-10071
OTH	-10072
ams	-10073
bus	-10074
cia	-10075
hmm	-10076
rus	-10077
▁Cu	-10078
IERI	-10079
SCRE	-10080
agle	-10081
hero	-10082
hich	-10083
obot	-10084
okay	-10085
omit	-10086
onia	-10087
rain	-10088
▁200	-10089
▁Cir	-10090
▁DOE	-10091
▁HEL	-10092
▁Kra	-10093
▁Lon	-10094
▁Mun	-10095
▁Non	-10096
▁Oct	-10097
▁POO	-10098
▁Pho	-10099
▁Pos	-10100
▁Rio	-10101
▁Umm	-10102
▁ank	-10103
▁biz	-10104
▁gro	-10105
▁hay	-10106
▁toe	-10107
,000.	-10108
angle	-10109
cknow	-10110
cktor	-10111
cript	-10112
eaton	-10113
fight	-10114
itzer	-10115
kward	-10116
olves	-10117
opath	-10118
osure	-10119
piece	-10120
quest	-10121
ruder	-10122
works	-10123
▁Arch	-10124
▁Bang	-10125
▁CHIN	-10126
▁Dyle	-10127
▁FEUR	-10128
▁Fact	-10129
▁Hook	-10130
▁Jedi	-10131
▁Join	-10132
▁Lost	-10133
▁Ohhh	-10134
▁Owen	-10135
▁SHUT	-10136
▁acts	-10137
▁bark	-10138
▁bold	-10139
▁frag	-10140
▁fuss	-10141
▁gods	-10142
▁grou	-10143
▁heav	-10144
▁palm	-10145
▁perm	-10146
▁reun	-10147
▁seed	-10148
▁tool	-10149
▁wars	-10150
▁whoa	-10151
SCREEN	-10152
course	-10153
igning	-10154
mighty	-10155
ulsive	-10156
▁Elect	-10157
▁Robin	-10158
▁Romul	-10159
▁Techn	-10160
▁Tough	-10161
▁disks	-10162
▁equal	-10163
▁filed	-10164
▁grief	-10165
▁hatch	-10166
▁meets	-10167
▁plumb	-10168
▁razor	-10169
▁reass	-10170
▁risks	-10171
▁sauce	-10172
▁sells	-10173
▁shred	-10174
▁sorta	-10175
▁strip	-10176
▁tense	-10177
▁traum	-10178
▁twist	-10179
▁types	-10180
natural	-10181
▁Afraid	-10182
▁Dudley	-10183
▁During	-10184
▁Keaton	-10185
▁Marvin	-10186
▁actors	-10187
▁callin	-10188
▁carpet	-10189
▁cities	-10190
▁coffin	-10191
▁corrid	-10192
▁coupla	-10193
▁handed	-10194
▁heroin	-10195
▁levels	-10196
▁nailed	-10197
▁nickel	-10198
▁plague	-10199
▁reject	-10200
▁rounds	-10201
▁worlds	-10202
cellency	-10203
▁Century	-10204
▁Lecktor	-10205
▁Project	-10206
▁SALIERI	-10207
▁Totally	-10208
▁alcohol	-10209
▁apology	-10210
▁battery	-10211
▁blowing	-10212
▁exagger	-10213
▁fooling	-10214
▁fuckers	-10215
▁gesture	-10216
▁include	-10217
▁leopard	-10218
▁opposed	-10219
▁returns	-10220
▁sailing	-10221
▁watches	-10222
▁Buckaroo	-10223
▁Straight	-10224
▁Thorwald	-10225
▁civilian	-10226
▁hostages	-10227
▁imagined	-10228
▁industry	-10229
▁internal	-10230
▁interrog	-10231
▁pointing	-10232
▁proposed	-10233
▁superior	-10234
▁Committee	-10235
▁associate	-10236
▁contracts	-10237
▁daughters	-10238
▁defensive	-10239
▁documents	-10240
▁exclusive	-10241
▁wandering	-10242
▁Personally	-10243
▁convenient	-10244
▁excitement	-10245
▁helicopter	-10246
▁homosexual	-10247
▁operations	-10248
▁settlement	-10249
▁experienced	-10250
▁fascinating	-10251
▁fingerprints	-10252
▁jurisdiction	-10253
BR	-10254
BS	-10255
TE	-10256
ZZ	-10257
bu	-10258
li	-10259
wh	-10260
></	-10261
BUR	-10262
CHE	-10263
Let	-10264
bes	-10265
bud	-10266
kel	-10267
leg	-10268
nic	-10269
oca	-10270
▁CR	-10271
▁IR	-10272
▁ey	-10273
bits	-10274
corn	-10275
eeks	-10276
eria	-10277
hant	-10278
ieth	-10279
izer	-10280
ocks	-10281
otte	-10282
riot	-10283
rity	-10284
rous	-10285
step	-10286
term	-10287
wall	-10288
▁Aff	-10289
▁Eug	-10290
▁Fra	-10291
▁Hah	-10292
▁Jay	-10293
▁Kit	-10294
▁LAN	-10295
▁Mum	-10296
▁POT	-10297
▁Ral	-10298
▁Shu	-10299
▁Sup	-10300
▁TAN	-10301
▁Tat	-10302
▁Vol	-10303
▁caf	-10304
▁nit	-10305
▁ski	-10306
▁suf	-10307
IFFER	-10308
backs	-10309
chair	-10310
elled	-10311
elson	-10312
ernon	-10313
going	-10314
imera	-10315
olved	-10316
phine	-10317
quire	-10318
riger	-10319
urate	-10320
▁Boom	-10321
▁CALL	-10322
▁Fats	-10323
▁Fish	-10324
▁Iris	-10325
▁Page	-10326
▁Papa	-10327
▁Pony	-10328
▁Pure	-10329
▁Rudy	-10330
▁Skip	-10331
▁Snow	-10332
▁Sout	-10333
▁Till	-10334
▁Wish	-10335
▁acce	-10336
▁cand	-10337
▁craz	-10338
▁curs	-10339
▁goof	-10340
▁gosh	-10341
▁hump	-10342
▁lugg	-10343
▁riot	-10344
▁sane	-10345
▁scum	-10346
▁sets	-10347
▁soil	-10348
▁trop	-10349
▁vari	-10350
▁warp	-10351
▁wors	-10352
USSEIN	-10353
handed	-10354
ilated	-10355
illyer	-10356
inging	-10357
twenty	-10358
▁Blade	-10359
▁Candy	-10360
▁Georg	-10361
▁Hawai	-10362
▁Lance	-10363
▁Latin	-10364
▁March	-10365
▁Pitts	-10366
▁Place	-10367
▁Radio	-10368
▁Rocky	-10369
▁STARS	-10370
▁Saint	-10371
▁Stuff	-10372
▁TOMMY	-10373
▁Weird	-10374
▁Woody	-10375
▁alike	-10376
▁booze	-10377
▁disgu	-10378
▁error	-10379
▁imper	-10380
▁overw	-10381
▁picks	-10382
▁porch	-10383
▁shine	-10384
▁souls	-10385
▁upper	-10386
▁wired	-10387
igation	-10388
ormally	-10389
▁Bandit	-10390
▁Calvin	-10391
▁FATHER	-10392
▁Galvin	-10393
▁Invest	-10394
▁POTATO	-10395
▁Selina	-10396
▁VICTOR	-10397
▁Willow	-10398
▁active	-10399
▁carbon	-10400
▁causes	-10401
▁consum	-10402
▁copies	-10403
▁drivin	-10404
▁faggot	-10405
▁fairly	-10406
▁favors	-10407
▁harbor	-10408
▁histor	-10409
▁jammed	-10410
▁magnet	-10411
▁manual	-10412
▁oldest	-10413
▁orphan	-10414
▁owners	-10415
▁peanut	-10416
▁proved	-10417
▁puttin	-10418
▁ransom	-10419
▁resour	-10420
▁sharks	-10421
▁sittin	-10422
▁status	-10423
▁tennis	-10424
▁termin	-10425
▁violin	-10426
▁waters	-10427
inations	-10428
together	-10429
▁Annette	-10430
▁Desmond	-10431
▁HUSSEIN	-10432
▁Hillyer	-10433
▁Martini	-10434
▁Medical	-10435
▁Scottie	-10436
▁Someday	-10437
▁appoint	-10438
▁attacks	-10439
▁awkward	-10440
▁breasts	-10441
▁causing	-10442
▁concert	-10443
▁consult	-10444
▁damaged	-10445
▁dragged	-10446
▁element	-10447
▁feature	-10448
▁honored	-10449
▁illness	-10450
▁landing	-10451
▁painted	-10452
▁perfume	-10453
▁physics	-10454
▁planted	-10455
▁pockets	-10456
▁prayers	-10457
▁quietly	-10458
▁servant	-10459
▁session	-10460
▁shortly	-10461
▁spoiled	-10462
▁travell	-10463
▁tremend	-10464
ibilities	-10465
▁SCHUYLER	-10466
▁advanced	-10467
▁compared	-10468
▁deserves	-10469
▁distinct	-10470
▁distress	-10471
▁priority	-10472
▁childhood	-10473
▁hamburger	-10474
▁operating	-10475
▁primitive	-10476
▁protected	-10477
▁reporters	-10478
▁surprises	-10479
▁suspected	-10480
▁aggressive	-10481
▁programmed	-10482
▁terrorists	-10483
▁magnificent	-10484
▁Frankenstein	-10485
*.	-10486
0,	-10487
IF	-10488
Re	-10489
eu	-10490
rs	-10491
GEN	-10492
NDY	-10493
alo	-10494
bey	-10495
ded	-10496
dog	-10497
iel	-10498
new	-10499
rot	-10500
▁CD	-10501
▁DU	-10502
▁Na	-10503
▁OH	-10504
BEAR	-10505
ENCE	-10506
Fuck	-10507
ICKS	-10508
Just	-10509
RIES	-10510
Your	-10511
ains	-10512
ammy	-10513
anor	-10514
arms	-10515
aska	-10516
bone	-10517
fall	-10518
gels	-10519
iser	-10520
issy	-10521
mere	-10522
owed	-10523
sell	-10524
▁Ace	-10525
▁Bed	-10526
▁Bul	-10527
▁Cop	-10528
▁Emb	-10529
▁LAL	-10530
▁Nam	-10531
▁OLD	-10532
▁Pad	-10533
▁Sum	-10534
▁TAY	-10535
▁Tow	-10536
▁Vit	-10537
▁cyn	-10538
▁emb	-10539
▁pic	-10540
DEMON	-10541
aphne	-10542
becca	-10543
chett	-10544
esome	-10545
icker	-10546
immer	-10547
ooded	-10548
tight	-10549
▁Dont	-10550
▁Ganz	-10551
▁Gino	-10552
▁Gone	-10553
▁Gran	-10554
▁HAND	-10555
▁Hong	-10556
▁Jord	-10557
▁Lang	-10558
▁Mayo	-10559
▁Mora	-10560
▁Mort	-10561
▁OPER	-10562
▁POOH	-10563
▁Tina	-10564
▁Vaug	-10565
▁bits	-10566
▁bour	-10567
▁lazy	-10568
▁limo	-10569
▁pear	-10570
▁pole	-10571
▁rein	-10572
▁wipe	-10573
eeches	-10574
icidal	-10575
istics	-10576
itated	-10577
keeper	-10578
lahoma	-10579
ndrome	-10580
orious	-10581
udding	-10582
ulting	-10583
▁ADAMS	-10584
▁BUNDY	-10585
▁COUNT	-10586
▁Cathy	-10587
▁Cindy	-10588
▁Creed	-10589
▁Donny	-10590
▁Fifth	-10591
▁Least	-10592
▁MCCAY	-10593
▁Maxie	-10594
▁McKen	-10595
▁Merry	-10596
▁REGAN	-10597
▁Ralph	-10598
▁Shhhh	-10599
▁Sloan	-10600
▁Snake	-10601
▁Snoop	-10602
▁Woman	-10603
▁airpl	-10604
▁beats	-10605
▁bonds	-10606
▁bonus	-10607
▁chill	-10608
▁chips	-10609
▁crown	-10610
▁ditch	-10611
▁dread	-10612
▁drops	-10613
▁goose	-10614
▁greet	-10615
▁initi	-10616
▁landl	-10617
▁nicer	-10618
▁obser	-10619
▁rumor	-10620
▁scoop	-10621
▁seein	-10622
▁simpl	-10623
▁slipp	-10624
▁smash	-10625
▁sting	-10626
▁sworn	-10627
▁wires	-10628
respons	-10629
▁Around	-10630
▁Bourne	-10631
▁Cotton	-10632
▁Daphne	-10633
▁Fettes	-10634
▁Finish	-10635
▁Fletch	-10636
▁Golden	-10637
▁MEMBER	-10638
▁OLIVER	-10639
▁Palmer	-10640
▁TAYLOR	-10641
▁Vernon	-10642
▁chairs	-10643
▁collap	-10644
▁comedy	-10645
▁dammit	-10646
▁discon	-10647
▁fooled	-10648
▁guitar	-10649
▁heroes	-10650
▁lifted	-10651
▁losers	-10652
▁mortal	-10653
▁nurses	-10654
▁pencil	-10655
▁region	-10656
▁ritual	-10657
▁rumors	-10658
▁stores	-10659
▁theirs	-10660
▁thread	-10661
▁waiter	-10662
atically	-10663
irmative	-10664
▁Addison	-10665
▁Connell	-10666
▁Council	-10667
▁Holland	-10668
▁Kathryn	-10669
▁Kendall	-10670
▁Klingon	-10671
▁Madison	-10672
▁Maurice	-10673
▁Rebecca	-10674
▁Vaughan	-10675
▁Whatcha	-10676
▁abandon	-10677
▁achieve	-10678
▁balloon	-10679
▁blaming	-10680
▁circuit	-10681
▁classic	-10682
▁excuses	-10683
▁exposed	-10684
▁follows	-10685
▁lawsuit	-10686
▁lecture	-10687
▁painful	-10688
▁primary	-10689
▁scaring	-10690
▁serving	-10691
▁spotted	-10692
▁stepped	-10693
▁sucking	-10694
▁Chairman	-10695
▁Highness	-10696
▁Pentagon	-10697
▁belonged	-10698
▁compound	-10699
▁contacts	-10700
▁division	-10701
▁gambling	-10702
▁ignorant	-10703
▁insulted	-10704
▁manufact	-10705
▁offended	-10706
▁previous	-10707
▁refriger	-10708
▁roommate	-10709
▁suffered	-10710
▁survival	-10711
▁theories	-10712
▁thorough	-10713
▁tracking	-10714
▁exhausted	-10715
▁passenger	-10716
▁requested	-10717
▁Impossible	-10718
▁accomplish	-10719
▁basketball	-10720
▁legitimate	-10721
▁lieutenant	-10722
▁officially	-10723
▁practicing	-10724
▁sandwiches	-10725
▁undercover	-10726
▁underneath	-10727
▁vulnerable	-10728
▁connections	-10729
▁Intelligence	-10730
▁international	-10731
0'	-10732
An	-10733
jo	-10734
tr	-10735
CIA	-10736
GHT	-10737
UNN	-10738
urb	-10739
via	-10740
▁</	-10741
▁Vo	-10742
▁pi	-10743
Farl	-10744
IDER	-10745
Look	-10746
NESS	-10747
OVER	-10748
ROAT	-10749
erie	-10750
even	-10751
gate	-10752
girl	-10753
ippi	-10754
kman	-10755
mart	-10756
onda	-10757
ooze	-10758
ucks	-10759
vous	-10760
▁ALE	-10761
▁Cro	-10762
▁DUN	-10763
▁Dru	-10764
▁Fol	-10765
▁HOW	-10766
▁Len	-10767
▁Tib	-10768
▁Vic	-10769
▁Wit	-10770
▁hyd	-10771
▁ink	-10772
▁mol	-10773
▁pad	-10774
▁wow	-10775
ERMAN	-10776
LDING	-10777
birds	-10778
chers	-10779
faced	-10780
secut	-10781
umble	-10782
▁Ariz	-10783
▁Beat	-10784
▁Bobo	-10785
▁Less	-10786
▁Marg	-10787
▁Pain	-10788
▁Poss	-10789
▁REDI	-10790
▁STOP	-10791
▁Stud	-10792
▁THEY	-10793
▁Worf	-10794
▁Zack	-10795
▁bent	-10796
▁cate	-10797
▁deed	-10798
▁fold	-10799
▁gray	-10800
▁heel	-10801
▁lick	-10802
▁pose	-10803
▁tire	-10804
▁toes	-10805
arship	-10806
ements	-10807
employ	-10808
fucker	-10809
icking	-10810
▁Asian	-10811
▁Beast	-10812
▁Group	-10813
▁HICKS	-10814
▁Heard	-10815
▁Logan	-10816
▁Orson	-10817
▁Penny	-10818
▁Round	-10819
▁Sport	-10820
▁Takes	-10821
▁anest	-10822
▁bench	-10823
▁brass	-10824
▁brush	-10825
▁disag	-10826
▁dummy	-10827
▁hitch	-10828
▁label	-10829
▁lungs	-10830
▁prett	-10831
▁queer	-10832
▁recru	-10833
▁royal	-10834
▁scent	-10835
▁shave	-10836
▁tanks	-10837
▁utter	-10838
Farlane	-10839
lection	-10840
▁Bright	-10841
▁Corpor	-10842
▁Eduard	-10843
▁Eugene	-10844
▁Mantan	-10845
▁Moraes	-10846
▁Nichol	-10847
▁Oliver	-10848
▁Powell	-10849
▁THROAT	-10850
▁accomp	-10851
▁addict	-10852
▁assemb	-10853
▁circle	-10854
▁cockro	-10855
▁colony	-10856
▁crimes	-10857
▁drawer	-10858
▁empire	-10859
▁expand	-10860
▁fields	-10861
▁golden	-10862
▁hooker	-10863
▁killin	-10864
▁lovers	-10865
▁rolled	-10866
▁skills	-10867
▁sphere	-10868
▁spider	-10869
▁stable	-10870
▁tables	-10871
▁visual	-10872
▁walkin	-10873
▁wealth	-10874
▁wished	-10875
resident	-10876
▁Arizona	-10877
▁Feeling	-10878
▁History	-10879
▁McKenna	-10880
▁Picture	-10881
▁Venkman	-10882
▁approve	-10883
▁bitches	-10884
▁dealers	-10885
▁kingdom	-10886
▁leather	-10887
▁needing	-10888
▁rolling	-10889
▁samples	-10890
▁smelled	-10891
▁sources	-10892
▁vicious	-10893
▁wrapped	-10894
▁COUNTESS	-10895
▁District	-10896
▁Fourteen	-10897
▁OPERATOR	-10898
▁Oklahoma	-10899
▁Patchett	-10900
▁Taransky	-10901
▁Terrance	-10902
▁absolute	-10903
▁addition	-10904
▁administ	-10905
▁assuming	-10906
▁climbing	-10907
▁dramatic	-10908
▁facility	-10909
▁overwhel	-10910
▁stations	-10911
▁ultimate	-10912
▁Annabelle	-10913
▁Chrissake	-10914
▁centuries	-10915
▁companies	-10916
▁countries	-10917
▁establish	-10918
▁generally	-10919
▁obsession	-10920
▁separated	-10921
▁Excellency	-10922
▁Harrington	-10923
▁MacFarlane	-10924
▁Sweetheart	-10925
▁commitment	-10926
▁discussing	-10927
▁electrical	-10928
▁expedition	-10929
▁importance	-10930
▁intentions	-10931
▁questioned	-10932
▁remarkable	-10933
▁authorities	-10934
▁remembering	-10935
▁deliberately	-10936
▁concentration	-10937
▁investigating	-10938
▁disappointment	-10939
!'	-10940
ok	-10941
ui	-10942
!</	-10943
--"	-10944
ECT	-10945
ERO	-10946
OUT	-10947
One	-10948
ZZI	-10949
had	-10950
hor	-10951
imo	-10952
orc	-10953
oto	-10954
pre	-10955
top	-10956
zil	-10957
▁PE	-10958
ELLY	-10959
HERE	-10960
ILIA	-10961
aney	-10962
aurs	-10963
azel	-10964
born	-10965
east	-10966
eton	-10967
fish	-10968
iana	-10969
inch	-10970
odka	-10971
opsy	-10972
rose	-10973
ylum	-10974
▁ATT	-10975
▁Aut	-10976
▁Esc	-10977
▁FEL	-10978
▁Fab	-10979
▁Fal	-10980
▁Hug	-10981
▁Ive	-10982
▁KAY	-10983
▁Mim	-10984
▁Rea	-10985
▁Sac	-10986
▁Sem	-10987
▁Sss	-10988
▁Syl	-10989
▁Vis	-10990
▁Wel	-10991
▁bru	-10992
▁dip	-10993
▁fax	-10994
▁hes	-10995
▁hug	-10996
▁pod	-10997
Hello	-10998
acing	-10999
armed	-11000
asket	-11001
rieve	-11002
shine	-11003
uliar	-11004
▁BACK	-11005
▁Bron	-11006
▁Cash	-11007
▁Cass	-11008
▁Dece	-11009
▁Fast	-11010
▁Food	-11011
▁GREY	-11012
▁Hald	-11013
▁Hind	-11014
▁JOSE	-11015
▁Jump	-11016
▁LEAD	-11017
▁Luck	-11018
▁Magn	-11019
▁Prep	-11020
▁SOME	-11021
▁SVEN	-11022
▁Suit	-11023
▁Thou	-11024
▁Whit	-11025
▁dork	-11026
▁fans	-11027
▁flip	-11028
▁fulf	-11029
▁gren	-11030
▁irre	-11031
▁mete	-11032
▁mini	-11033
▁nuns	-11034
▁pops	-11035
▁tack	-11036
active	-11037
atient	-11038
igator	-11039
ington	-11040
urious	-11041
urning	-11042
▁Argon	-11043
▁Beats	-11044
▁Benny	-11045
▁Blake	-11046
▁CHRIS	-11047
▁Crash	-11048
▁Creek	-11049
▁Field	-11050
▁Howdy	-11051
▁Johns	-11052
▁MARSH	-11053
▁Maria	-11054
▁Music	-11055
▁Opera	-11056
▁PHONE	-11057
▁Tibet	-11058
▁Twice	-11059
▁Union	-11060
▁Vader	-11061
▁Woods	-11062
▁arrog	-11063
▁codes	-11064
▁confl	-11065
▁defin	-11066
▁fraud	-11067
▁grows	-11068
▁liber	-11069
▁nails	-11070
▁orbit	-11071
▁puppy	-11072
▁radar	-11073
▁scout	-11074
▁sniff	-11075
▁spons	-11076
▁twins	-11077
▁vault	-11078
▁wiped	-11079
▁Bailey	-11080
▁Behind	-11081
▁Cecile	-11082
▁Cowboy	-11083
▁Cubans	-11084
▁Denver	-11085
▁GREENE	-11086
▁Gibson	-11087
▁Hoover	-11088
▁Jordan	-11089
▁Nicole	-11090
▁Planet	-11091
▁Public	-11092
▁SPIDER	-11093
▁Sophie	-11094
▁Spring	-11095
▁Stanwy	-11096
▁Travis	-11097
▁cigars	-11098
▁circus	-11099
▁cotton	-11100
▁formal	-11101
▁harass	-11102
▁impact	-11103
▁intact	-11104
▁madman	-11105
▁overhe	-11106
▁parlor	-11107
▁proves	-11108
▁ribbon	-11109
▁rising	-11110
▁select	-11111
▁voyage	-11112
▁waking	-11113
▁Austral	-11114
▁Jacques	-11115
▁Micheal	-11116
▁Rangers	-11117
▁Stevens	-11118
▁Theater	-11119
▁Usually	-11120
▁Wheeler	-11121
▁Winston	-11122
▁catches	-11123
▁chopped	-11124
▁content	-11125
▁crashed	-11126
▁dignity	-11127
▁discipl	-11128
▁drowned	-11129
▁interru	-11130
▁luggage	-11131
▁nearest	-11132
▁panties	-11133
▁praying	-11134
▁pudding	-11135
▁resting	-11136
▁ringing	-11137
▁romance	-11138
▁schools	-11139
▁smashed	-11140
▁stabbed	-11141
▁steward	-11142
▁various	-11143
▁Atlantic	-11144
▁Canadian	-11145
▁DARKNESS	-11146
▁Mayfield	-11147
▁Norville	-11148
▁abortion	-11149
▁analysis	-11150
▁captured	-11151
▁constant	-11152
▁dragging	-11153
▁elements	-11154
▁engineer	-11155
▁guessing	-11156
▁helpless	-11157
▁kindness	-11158
▁normally	-11159
▁proposal	-11160
▁readings	-11161
▁released	-11162
▁replaced	-11163
▁suspects	-11164
▁underest	-11165
▁anonymous	-11166
▁autograph	-11167
▁flattered	-11168
▁gratitude	-11169
▁suggested	-11170
▁therefore	-11171
▁Williamson	-11172
▁compromise	-11173
▁depressing	-11174
▁hysterical	-11175
▁unexpected	-11176
▁enforcement	-11177
▁satisfaction	-11178
Be	-11179
De	-11180
LY	-11181
Me	-11182
uu	-11183
AFO	-11184
Bye	-11185
IRD	-11186
ONS	-11187
UCE	-11188
UGO	-11189
cal	-11190
cou	-11191
hit	-11192
lda	-11193
mes	-11194
oty	-11195
rod	-11196
sex	-11197
sha	-11198
▁Kl	-11199
▁PL	-11200
AGIE	-11201
AMES	-11202
BACH	-11203
LLER	-11204
LOVA	-11205
ONDE	-11206
SINI	-11207
ener	-11208
eyed	-11209
long	-11210
mund	-11211
oons	-11212
ours	-11213
oust	-11214
pers	-11215
ssip	-11216
stop	-11217
ugos	-11218
▁Ced	-11219
▁Daw	-11220
▁Emm	-11221
▁FUL	-11222
▁Imm	-11223
▁JOR	-11224
▁Kar	-11225
▁LAZ	-11226
▁MAC	-11227
▁Oil	-11228
▁PEL	-11229
▁PIL	-11230
▁Rum	-11231
▁alp	-11232
▁cam	-11233
▁hen	-11234
▁ine	-11235
▁wax	-11236
...?!	-11237
ISTER	-11238
ROSEN	-11239
after	-11240
anity	-11241
ieves	-11242
ounty	-11243
owing	-11244
pture	-11245
rella	-11246
ropol	-11247
water	-11248
▁Beet	-11249
▁Bian	-11250
▁CHAS	-11251
▁CUST	-11252
▁Chet	-11253
▁Cook	-11254
▁EARL	-11255
▁Emma	-11256
▁Gang	-11257
▁Glen	-11258
▁HUGO	-11259
▁Incl	-11260
▁Indy	-11261
▁Jour	-11262
▁McCl	-11263
▁Nove	-11264
▁Prom	-11265
▁SPAU	-11266
▁Sull	-11267
▁arou	-11268
▁bald	-11269
▁bart	-11270
▁boil	-11271
▁clar	-11272
▁pier	-11273
▁rage	-11274
▁tort	-11275
▁worn	-11276
UIFFER	-11277
apping	-11278
arents	-11279
pshire	-11280
soever	-11281
▁Angel	-11282
▁BRUCE	-11283
▁Buffy	-11284
▁Charl	-11285
▁Dance	-11286
▁Duffy	-11287
▁Elena	-11288
▁Greek	-11289
▁Lilly	-11290
▁PERRY	-11291
▁SCHER	-11292
▁Swana	-11293
▁Write	-11294
▁album	-11295
▁amuse	-11296
▁bites	-11297
▁boost	-11298
▁chaos	-11299
▁choir	-11300
▁float	-11301
▁manip	-11302
▁niece	-11303
▁outer	-11304
▁remar	-11305
▁shove	-11306
▁skirt	-11307
▁slice	-11308
▁smack	-11309
▁surge	-11310
▁worms	-11311
respond	-11312
▁Bishop	-11313
▁Castro	-11314
▁Connie	-11315
▁Conway	-11316
▁FULTON	-11317
▁Gloria	-11318
▁HADLEY	-11319
▁Julian	-11320
▁Lowell	-11321
▁Murphy	-11322
▁ORLOVA	-11323
▁ORSINI	-11324
▁Philip	-11325
▁Picard	-11326
▁Plenty	-11327
▁Remind	-11328
▁WARHOL	-11329
▁Yankee	-11330
▁accent	-11331
▁advert	-11332
▁backup	-11333
▁barrel	-11334
▁branch	-11335
▁chains	-11336
▁chased	-11337
▁clouds	-11338
▁denied	-11339
▁expose	-11340
▁fabric	-11341
▁gossip	-11342
▁greedy	-11343
▁habits	-11344
▁height	-11345
▁hockey	-11346
▁hotels	-11347
▁inches	-11348
▁ladder	-11349
▁modest	-11350
▁needle	-11351
▁offers	-11352
▁purple	-11353
▁restra	-11354
▁stamps	-11355
▁teleph	-11356
▁treaty	-11357
▁unable	-11358
▁Academy	-11359
▁Between	-11360
▁CAPTAIN	-11361
▁Natalie	-11362
▁PELAGIE	-11363
▁Records	-11364
▁Running	-11365
▁Whether	-11366
▁altered	-11367
▁amusing	-11368
▁buttons	-11369
▁cabinet	-11370
▁crowded	-11371
▁curtain	-11372
▁dismiss	-11373
▁haircut	-11374
▁minimum	-11375
▁nanobot	-11376
▁niggers	-11377
▁outrage	-11378
▁reunion	-11379
▁savings	-11380
▁studies	-11381
▁touches	-11382
---------	-11383
ROSENBERG	-11384
▁Austrian	-11385
▁CUSTOMER	-11386
▁Channing	-11387
▁Koessler	-11388
▁Mountain	-11389
▁November	-11390
▁REDFIELD	-11391
▁Terrible	-11392
▁appetite	-11393
▁confront	-11394
▁district	-11395
▁employee	-11396
▁humanity	-11397
▁inconven	-11398
▁manifest	-11399
▁peculiar	-11400
▁punished	-11401
▁reliable	-11402
▁relieved	-11403
▁switched	-11404
▁symptoms	-11405
▁unemploy	-11406
▁Christine	-11407
▁Fantastic	-11408
▁Hampshire	-11409
▁SPAULDING	-11410
▁believing	-11411
▁breakdown	-11412
▁broadcast	-11413
▁delicious	-11414
▁organized	-11415
▁overnight	-11416
▁performed	-11417
▁warehouse	-11418
▁classified	-11419
▁registered	-11420
▁tremendous	-11421
▁disturbance	-11422
▁girlfriends	-11423
▁sentimental	-11424
▁Commissioner	-11425
▁headquarters	-11426
▁investigator	-11427
▁unfortunately	-11428
AC	-11429
Day	-11430
ERY	-11431
IEL	-11432
ISE	-11433
asp	-11434
aza	-11435
cet	-11436
cop	-11437
eem	-11438
ext	-11439
fus	-11440
hoo	-11441
lar	-11442
pro	-11443
say	-11444
uum	-11445
zak	-11446
▁Dw	-11447
▁ut	-11448
,...	-11449
ARUS	-11450
INDY	-11451
ITOR	-11452
LEIN	-11453
ctic	-11454
enix	-11455
eous	-11456
oded	-11457
post	-11458
ride	-11459
rise	-11460
twng	-11461
uaid	-11462
west	-11463
▁500	-11464
▁Ara	-11465
▁Ast	-11466
▁Bit	-11467
▁CLO	-11468
▁Cru	-11469
▁DET	-11470
▁Fil	-11471
▁Led	-11472
▁PMS	-11473
▁Rab	-11474
▁Wig	-11475
▁alt	-11476
▁mam	-11477
▁max	-11478
▁sof	-11479
ANDER	-11480
akers	-11481
arson	-11482
astle	-11483
atown	-11484
bling	-11485
class	-11486
heads	-11487
inkle	-11488
nails	-11489
nings	-11490
posed	-11491
rings	-11492
state	-11493
uyler	-11494
▁Cute	-11495
▁DEAL	-11496
▁DISH	-11497
▁Enzo	-11498
▁Fink	-11499
▁Into	-11500
▁MARY	-11501
▁Nash	-11502
▁Oooh	-11503
▁STUD	-11504
▁Shep	-11505
▁Sick	-11506
▁YERO	-11507
▁alib	-11508
▁ammo	-11509
▁bund	-11510
▁bush	-11511
▁chop	-11512
▁coin	-11513
▁cord	-11514
▁corp	-11515
▁cuts	-11516
▁hull	-11517
▁loaf	-11518
▁pros	-11519
▁slim	-11520
nesota	-11521
rehens	-11522
roying	-11523
teenth	-11524
▁Amber	-11525
▁Birth	-11526
▁Broad	-11527
▁CINDY	-11528
▁Ernie	-11529
▁FIELD	-11530
▁Flynn	-11531
▁KLEIN	-11532
▁Letty	-11533
▁SUGGS	-11534
▁Uhura	-11535
▁Worse	-11536
▁armor	-11537
▁aspir	-11538
▁award	-11539
▁blade	-11540
▁broom	-11541
▁burnt	-11542
▁cocon	-11543
▁cured	-11544
▁diagn	-11545
▁diary	-11546
▁goods	-11547
▁heels	-11548
▁hobby	-11549
▁persp	-11550
▁petty	-11551
▁roads	-11552
▁sabot	-11553
▁schol	-11554
▁shuff	-11555
▁spice	-11556
▁stair	-11557
▁swine	-11558
▁thats	-11559
▁tiger	-11560
▁toxic	-11561
essions	-11562
twngler	-11563
uations	-11564
▁Brazil	-11565
▁Butter	-11566
▁CHASEN	-11567
▁Cheers	-11568
▁Childs	-11569
▁Dawson	-11570
▁Dragon	-11571
▁Figure	-11572
▁Ginger	-11573
▁Harris	-11574
▁Hawaii	-11575
▁Hector	-11576
▁Iraqis	-11577
▁League	-11578
▁Mookie	-11579
▁Peters	-11580
▁Powers	-11581
▁Proble	-11582
▁Though	-11583
▁Wigand	-11584
▁acknow	-11585
▁bounce	-11586
▁cellar	-11587
▁claims	-11588
▁contra	-11589
▁conver	-11590
▁danced	-11591
▁debate	-11592
▁defeat	-11593
▁immort	-11594
▁infant	-11595
▁kindly	-11596
▁liable	-11597
▁parade	-11598
▁placed	-11599
▁rented	-11600
▁senses	-11601
▁skinny	-11602
▁smoked	-11603
▁tender	-11604
▁thumbs	-11605
▁virtue	-11606
pleasant	-11607
▁Allison	-11608
▁Connect	-11609
▁Embassy	-11610
▁Express	-11611
▁Figured	-11612
▁LAZARUS	-11613
▁Machine	-11614
▁Martins	-11615
▁amateur	-11616
▁capture	-11617
▁decides	-11618
▁declare	-11619
▁intimid	-11620
▁mankind	-11621
▁methods	-11622
▁payroll	-11623
▁pissing	-11624
▁pointed	-11625
▁porters	-11626
▁printed	-11627
▁satisfy	-11628
▁shootin	-11629
▁strings	-11630
▁tricked	-11631
▁worship	-11632
conscious	-11633
isticated	-11634
▁Chancell	-11635
▁Children	-11636
▁Lombardo	-11637
▁Schuyler	-11638
▁accurate	-11639
▁adorable	-11640
▁benefits	-11641
▁disgrace	-11642
▁drowning	-11643
▁examined	-11644
▁miracles	-11645
▁morphine	-11646
▁poisoned	-11647
▁producer	-11648
▁purposes	-11649
▁sacrific	-11650
▁Goddammit	-11651
▁Minnesota	-11652
▁Rothstein	-11653
▁SCHERBACH	-11654
▁attacking	-11655
▁batteries	-11656
▁briefcase	-11657
▁contacted	-11658
▁delighted	-11659
▁discovery	-11660
▁graduated	-11661
▁immediate	-11662
▁integrity	-11663
▁paperwork	-11664
▁permanent	-11665
▁preparing	-11666
▁principal	-11667
▁slaughter	-11668
▁spaghetti	-11669
▁survivors	-11670
▁Furtwngler	-11671
▁compassion	-11672
▁deposition	-11673
▁kidnapping	-11674
▁medication	-11675
▁represents	-11676
▁whatsoever	-11677
▁communicate	-11678
▁frightening	-11679
▁accomplished	-11680
fr	-11681
?!?	-11682
?</	-11683
Boy	-11684
Did	-11685
Get	-11686
IDE	-11687
OLL	-11688
bro	-11689
cin	-11690
cre	-11691
hey	-11692
jud	-11693
lle	-11694
nda	-11695
oni	-11696
ooh	-11697
rek	-11698
rik	-11699
run	-11700
sky	-11701
utt	-11702
vol	-11703
▁Ay	-11704
▁Lt	-11705
▁Ve	-11706
▁fo	-11707
When	-11708
amus	-11709
arre	-11710
fman	-11711
guin	-11712
hara	-11713
heim	-11714
iddy	-11715
iens	-11716
isle	-11717
itia	-11718
izzy	-11719
love	-11720
maid	-11721
mont	-11722
nick	-11723
rine	-11724
▁BEN	-11725
▁Bee	-11726
▁DAW	-11727
▁Dal	-11728
▁Dow	-11729
▁GAL	-11730
▁Gru	-11731
▁Hes	-11732
▁Hum	-11733
▁Ivy	-11734
▁JIM	-11735
▁Mid	-11736
▁RUM	-11737
▁Raz	-11738
▁Shi	-11739
▁Sin	-11740
▁Tru	-11741
▁fox	-11742
▁nav	-11743
▁num	-11744
▁pra	-11745
▁rod	-11746
▁sor	-11747
▁wad	-11748
▁yer	-11749
AYTON	-11750
ORTER	-11751
abama	-11752
amins	-11753
avitz	-11754
cribe	-11755
emann	-11756
estic	-11757
grove	-11758
hibit	-11759
inter	-11760
lfare	-11761
negan	-11762
oller	-11763
orthy	-11764
rades	-11765
▁Dell	-11766
▁EVER	-11767
▁Exec	-11768
▁GODD	-11769
▁Gabe	-11770
▁Hump	-11771
▁LIKE	-11772
▁Lion	-11773
▁Muse	-11774
▁Near	-11775
▁Poll	-11776
▁Test	-11777
▁bree	-11778
▁cruc	-11779
▁diff	-11780
▁drif	-11781
▁dyin	-11782
▁echo	-11783
▁evac	-11784
▁frog	-11785
▁goat	-11786
▁grey	-11787
▁groc	-11788
▁gull	-11789
▁keen	-11790
▁lean	-11791
▁rend	-11792
▁silk	-11793
▁spar	-11794
▁ties	-11795
▁toys	-11796
▁tuck	-11797
▁weep	-11798
icians	-11799
itizen	-11800
▁Bunny	-11801
▁Derek	-11802
▁Erica	-11803
▁Helms	-11804
▁Jonah	-11805
▁KELLY	-11806
▁Mafia	-11807
▁ROUND	-11808
▁SPITZ	-11809
▁Sarge	-11810
▁VRIES	-11811
▁WHERE	-11812
▁ambit	-11813
▁bears	-11814
▁cheek	-11815
▁chess	-11816
▁craft	-11817
▁crank	-11818
▁eager	-11819
▁fatal	-11820
▁groom	-11821
▁hills	-11822
▁memor	-11823
▁messy	-11824
▁overd	-11825
▁saint	-11826
▁sixth	-11827
▁slide	-11828
▁snoop	-11829
▁towel	-11830
▁tribe	-11831
▁vague	-11832
▁wrist	-11833
▁yield	-11834
ouraged	-11835
tenance	-11836
▁Audrey	-11837
▁Barney	-11838
▁Becker	-11839
▁Chewie	-11840
▁Columb	-11841
▁Commod	-11842
▁Domino	-11843
▁Eleven	-11844
▁Farmer	-11845
▁Fisher	-11846
▁Harvey	-11847
▁Hollis	-11848
▁Justin	-11849
▁Killed	-11850
▁Kirsty	-11851
▁Lauren	-11852
▁MARCIA	-11853
▁Marion	-11854
▁Mollie	-11855
▁Palace	-11856
▁Reilly	-11857
▁Ronald	-11858
▁Turkey	-11859
▁Welles	-11860
▁allerg	-11861
▁breast	-11862
▁charts	-11863
▁dancer	-11864
▁divine	-11865
▁feller	-11866
▁inspir	-11867
▁merger	-11868
▁nuthin	-11869
▁picnic	-11870
▁pilots	-11871
▁rating	-11872
▁sleeps	-11873
▁sleepy	-11874
American	-11875
anything	-11876
▁Against	-11877
▁Ambrose	-11878
▁Cameron	-11879
▁Clayton	-11880
▁Creator	-11881
▁Crystal	-11882
▁DRAYTON	-11883
▁Defense	-11884
▁Doctors	-11885
▁Germany	-11886
▁Hundred	-11887
▁Mueller	-11888
▁Phoenix	-11889
▁Stanwyk	-11890
▁Stewart	-11891
▁absence	-11892
▁chopper	-11893
▁cookies	-11894
▁elected	-11895
▁existed	-11896
▁farmers	-11897
▁fathers	-11898
▁filling	-11899
▁kilomet	-11900
▁precaut	-11901
▁retreat	-11902
▁scandal	-11903
▁testing	-11904
▁venture	-11905
▁watchin	-11906
▁welfare	-11907
▁whacked	-11908
▁Anywhere	-11909
▁Haldeman	-11910
▁Kentucky	-11911
▁Margaret	-11912
▁Somethin	-11913
▁admitted	-11914
▁bracelet	-11915
▁corridor	-11916
▁crossing	-11917
▁delicate	-11918
▁equipped	-11919
▁lipstick	-11920
▁mentally	-11921
▁programs	-11922
▁rational	-11923
▁talented	-11924
▁transmit	-11925
▁uniforms	-11926
▁Grunemann	-11927
▁Meanwhile	-11928
▁communist	-11929
▁confusing	-11930
▁described	-11931
▁fantasies	-11932
▁instincts	-11933
▁perimeter	-11934
▁qualified	-11935
▁rehearsal	-11936
▁standards	-11937
▁Chancellor	-11938
▁FIELDSTONE	-11939
▁activities	-11940
▁cocksucker	-11941
▁conclusion	-11942
▁interviews	-11943
▁wheelchair	-11944
▁psychiatric	-11945
▁straightened	-11946
Ex	-11947
Le	-11948
OK	-11949
PO	-11950
SP	-11951
gt	-11952
"--	-11953
Con	-11954
LEN	-11955
LOU	-11956
aby	-11957
axy	-11958
bby	-11959
cip	-11960
dan	-11961
hot	-11962
iah	-11963
kko	-11964
lem	-11965
olo	-11966
pay	-11967
rex	-11968
uey	-11969
ulz	-11970
▁AU	-11971
Come	-11972
FACE	-11973
MENT	-11974
OOOO	-11975
aldi	-11976
appy	-11977
azza	-11978
bute	-11979
cake	-11980
card	-11981
cers	-11982
chen	-11983
chet	-11984
cony	-11985
elli	-11986
ervo	-11987
fair	-11988
iots	-11989
ippe	-11990
made	-11991
ober	-11992
rape	-11993
turn	-11994
uled	-11995
unks	-11996
▁Bai	-11997
▁Dec	-11998
▁GAR	-11999
▁Gas	-12000
▁Inf	-12001
▁Kry	-12002
▁PAS	-12003
▁SIM	-12004
▁Sab	-12005
▁Tut	-12006
▁ath	-12007
▁bul	-12008
▁cuz	-12009
▁kit	-12010
▁mel	-12011
▁nom	-12012
▁roo	-12013
▁tan	-12014
▁yah	-12015
PHONE	-12016
RIGHT	-12017
adays	-12018
addle	-12019
arryl	-12020
borne	-12021
gered	-12022
icorn	-12023
iency	-12024
ifies	-12025
itate	-12026
ively	-12027
lands	-12028
leine	-12029
meyer	-12030
nesia	-12031
ooter	-12032
otics	-12033
print	-12034
udden	-12035
▁Ahhh	-12036
▁Amen	-12037
▁BETT	-12038
▁Bald	-12039
▁CART	-12040
▁Cust	-12041
▁Enid	-12042
▁Gree	-12043
▁Hasn	-12044
▁Hend	-12045
▁Lest	-12046
▁Mist	-12047
▁Parr	-12048
▁Pend	-12049
▁Puff	-12050
▁SHIT	-12051
▁Sept	-12052
▁Sway	-12053
▁Trib	-12054
▁Vall	-12055
▁anal	-12056
▁beds	-12057
▁choo	-12058
▁clip	-12059
▁cows	-12060
▁crop	-12061
▁flaw	-12062
▁jeep	-12063
▁laun	-12064
▁limb	-12065
▁lyin	-12066
▁merc	-12067
▁poll	-12068
▁tide	-12069
▁unne	-12070
▁unst	-12071
▁vest	-12072
CONNOR	-12073
Please	-12074
antern	-12075
called	-12076
earing	-12077
estern	-12078
master	-12079
ogical	-12080
sucker	-12081
▁Belle	-12082
▁Bless	-12083
▁Crime	-12084
▁DANNY	-12085
▁DOUGH	-12086
▁Gekko	-12087
▁JAMES	-12088
▁Lamar	-12089
▁Magua	-12090
▁Maude	-12091
▁Ocean	-12092
▁Regan	-12093
▁Rober	-12094
▁Tread	-12095
▁Vinci	-12096
▁beers	-12097
▁bribe	-12098
▁chrom	-12099
▁claws	-12100
▁dizzy	-12101
▁dudes	-12102
▁eatin	-12103
▁entry	-12104
▁fears	-12105
▁horny	-12106
▁innoc	-12107
▁kilos	-12108
▁lined	-12109
▁liver	-12110
▁mouse	-12111
▁roast	-12112
▁scars	-12113
▁scram	-12114
▁waits	-12115
ilation	-12116
incipal	-12117
instein	-12118
itchett	-12119
ouncing	-12120
▁Blonde	-12121
▁CONTRA	-12122
▁Change	-12123
▁Clevel	-12124
▁Cuervo	-12125
▁DEALER	-12126
▁Darryl	-12127
▁Democr	-12128
▁Dwight	-12129
▁Edmund	-12130
▁Eighty	-12131
▁Garden	-12132
▁Kastle	-12133
▁Monkey	-12134
▁Museum	-12135
▁Sandra	-12136
▁Smokey	-12137
▁adults	-12138
▁angels	-12139
▁brutal	-12140
▁bucket	-12141
▁cherry	-12142
▁dining	-12143
▁encoun	-12144
▁facing	-12145
▁farmer	-12146
▁gently	-12147
▁leavin	-12148
▁linger	-12149
▁meteor	-12150
▁mutual	-12151
▁phoned	-12152
▁prosec	-12153
▁reserv	-12154
▁retain	-12155
▁rocket	-12156
▁shares	-12157
▁smokes	-12158
▁spying	-12159
▁subtle	-12160
▁tragic	-12161
ximately	-12162
▁Alabama	-12163
▁Andrews	-12164
▁Bastard	-12165
▁Chimera	-12166
▁Collins	-12167
▁JACKSON	-12168
▁Liberty	-12169
▁Shangri	-12170
▁Spencer	-12171
▁arguing	-12172
▁autopsy	-12173
▁beloved	-12174
▁blocked	-12175
▁circles	-12176
▁explode	-12177
▁footage	-12178
▁freaked	-12179
▁freeway	-12180
▁friggin	-12181
▁genetic	-12182
▁grounds	-12183
▁intense	-12184
▁messing	-12185
▁mirrors	-12186
▁pension	-12187
▁persons	-12188
▁profits	-12189
▁rabbits	-12190
▁readers	-12191
▁ruining	-12192
▁sincere	-12193
▁stuffed	-12194
▁tearing	-12195
▁travels	-12196
▁washing	-12197
something	-12198
▁Anderson	-12199
▁Complete	-12200
▁airplane	-12201
▁conflict	-12202
▁dynamite	-12203
▁elephant	-12204
▁executed	-12205
▁faithful	-12206
▁gracious	-12207
▁infected	-12208
▁sickness	-12209
▁specimen	-12210
▁strategy	-12211
▁trusting	-12212
▁weekends	-12213
▁Basically	-12214
▁Chinatown	-12215
▁MARTINSON	-12216
▁Madeleine	-12217
▁Pritchett	-12218
▁chemicals	-12219
▁chemistry	-12220
▁contribut	-12221
▁dinosaurs	-12222
▁employees	-12223
▁fortunate	-12224
▁interpret	-12225
▁invention	-12226
▁murderers	-12227
▁offensive	-12228
▁referring	-12229
▁regarding	-12230
▁therapist	-12231
▁Pittsburgh	-12232
▁Understood	-12233
▁associates	-12234
▁disconnect	-12235
▁identified	-12236
▁procedures	-12237
▁punishment	-12238
▁unpleasant	-12239
▁celebration	-12240
▁investigate	-12241
▁respectable	-12242
▁International	-12243
▁misunderstood	-12244
▁sophisticated	-12245
BO	-12246
MER	-12247
OMB	-12248
PLE	-12249
eks	-12250
elf	-12251
god	-12252
hus	-12253
iki	-12254
iti	-12255
jam	-12256
job	-12257
mic	-12258
psy	-12259
uge	-12260
wan	-12261
▁fa	-12262
▁vi	-12263
AHAN	-12264
ANGE	-12265
BONE	-12266
OPLE	-12267
ayed	-12268
bath	-12269
care	-12270
core	-12271
hour	-12272
iary	-12273
inea	-12274
last	-12275
make	-12276
mine	-12277
obal	-12278
ooey	-12279
ovan	-12280
part	-12281
remy	-12282
rete	-12283
▁Age	-12284
▁CHE	-12285
▁Dim	-12286
▁Fix	-12287
▁GRO	-12288
▁LOW	-12289
▁Mob	-12290
▁Smo	-12291
▁Smy	-12292
▁TER	-12293
▁Tea	-12294
▁bee	-12295
▁bio	-12296
▁cad	-12297
▁fib	-12298
▁haf	-12299
▁loo	-12300
▁lux	-12301
▁neg	-12302
▁sip	-12303
▁tam	-12304
▁wig	-12305
....?	-12306
ALIAN	-12307
Maybe	-12308
aints	-12309
anoff	-12310
chess	-12311
elope	-12312
enses	-12313
illes	-12314
issue	-12315
itent	-12316
▁Asia	-12317
▁Bain	-12318
▁Erik	-12319
▁Eyes	-12320
▁Finn	-12321
▁GOOD	-12322
▁Gast	-12323
▁HALL	-12324
▁Hart	-12325
▁Huey	-12326
▁JUST	-12327
▁Kaye	-12328
▁LOOK	-12329
▁Lane	-12330
▁Mask	-12331
▁Narc	-12332
▁SCRU	-12333
▁STER	-12334
▁Salv	-12335
▁Side	-12336
▁WANT	-12337
▁Wars	-12338
▁cann	-12339
▁caps	-12340
▁drew	-12341
▁empt	-12342
▁hast	-12343
▁intr	-12344
▁mans	-12345
▁matt	-12346
▁nost	-12347
▁poly	-12348
▁pork	-12349
▁quad	-12350
▁robb	-12351
▁scul	-12352
▁slam	-12353
▁unre	-12354
▁visa	-12355
aughty	-12356
essert	-12357
icates	-12358
igeons	-12359
retion	-12360
▁Apple	-12361
▁Berke	-12362
▁Betsy	-12363
▁Bravo	-12364
▁Brody	-12365
▁Chase	-12366
▁Claus	-12367
▁Color	-12368
▁Cuban	-12369
▁DEMON	-12370
▁DOLEN	-12371
▁Ghost	-12372
▁MORAG	-12373
▁Neigh	-12374
▁PAZZI	-12375
▁Sound	-12376
▁Squad	-12377
▁THUND	-12378
▁Toddy	-12379
▁Vicki	-12380
▁Wells	-12381
▁Whist	-12382
▁arrow	-12383
▁attic	-12384
▁await	-12385
▁blond	-12386
▁choke	-12387
▁cough	-12388
▁dated	-12389
▁dicks	-12390
▁exhib	-12391
▁fires	-12392
▁flirt	-12393
▁funds	-12394
▁haird	-12395
▁irrit	-12396
▁lions	-12397
▁loses	-12398
▁maneu	-12399
▁mines	-12400
▁slack	-12401
▁snuff	-12402
▁spite	-12403
▁squid	-12404
▁subpo	-12405
▁tales	-12406
▁veins	-12407
aration	-12408
oiselle	-12409
onesome	-12410
▁Beavis	-12411
▁Castor	-12412
▁EDITOR	-12413
▁GALGEN	-12414
▁Gotham	-12415
▁Incred	-12416
▁LEADER	-12417
▁MILLER	-12418
▁Margie	-12419
▁PEOPLE	-12420
▁Prison	-12421
▁RUMACK	-12422
▁Rogers	-12423
▁Schulz	-12424
▁Series	-12425
▁Steady	-12426
▁anchor	-12427
▁burden	-12428
▁cooked	-12429
▁demons	-12430
▁depart	-12431
▁digest	-12432
▁divers	-12433
▁groups	-12434
▁growth	-12435
▁hunter	-12436
▁income	-12437
▁insect	-12438
▁knives	-12439
▁malfun	-12440
▁mature	-12441
▁mouths	-12442
▁obtain	-12443
▁perpet	-12444
▁pillow	-12445
▁rarely	-12446
▁sample	-12447
▁scotch	-12448
▁stayin	-12449
▁stoned	-12450
▁terrif	-12451
▁throne	-12452
▁throws	-12453
▁uptown	-12454
ashioned	-12455
▁Atlanta	-12456
▁Eastern	-12457
▁Gregory	-12458
▁ITALIAN	-12459
▁Maureen	-12460
▁October	-12461
▁Section	-12462
▁Sisters	-12463
▁Suspect	-12464
▁Valiant	-12465
▁anticip	-12466
▁balcony	-12467
▁battles	-12468
▁buzzing	-12469
▁conceal	-12470
▁corrupt	-12471
▁crystal	-12472
▁deepest	-12473
▁dischar	-12474
▁efforts	-12475
▁eternal	-12476
▁grocery	-12477
▁install	-12478
▁joining	-12479
▁massive	-12480
▁obliged	-12481
▁popcorn	-12482
▁pumping	-12483
▁restore	-12484
▁warrior	-12485
▁CALLAHAN	-12486
▁Cosgrove	-12487
▁Ministry	-12488
▁Positive	-12489
▁Scotland	-12490
▁Weathers	-12491
▁controls	-12492
▁deceased	-12493
▁definite	-12494
▁disposal	-12495
▁forehead	-12496
▁frighten	-12497
▁hardware	-12498
▁insisted	-12499
▁quitting	-12500
▁shithead	-12501
▁stinking	-12502
▁teachers	-12503
▁unnecess	-12504
▁Cleveland	-12505
▁Including	-12506
▁September	-12507
▁admission	-12508
▁affection	-12509
▁automatic	-12510
▁candidate	-12511
▁commander	-12512
▁conductor	-12513
▁confusion	-12514
▁construct	-12515
▁goodnight	-12516
▁household	-12517
▁psychotic	-12518
▁remembers	-12519
▁spiritual	-12520
▁superhero	-12521
▁suspended	-12522
▁suspicion	-12523
responsible	-12524
▁Manchester	-12525
▁controlled	-12526
▁destroying	-12527
▁disrespect	-12528
▁psychology	-12529
▁GALGENSTEIN	-12530
▁inspiration	-12531
▁expectations	-12532
▁photographer	-12533
▁assassination	-12534
▁congratulations	-12535
10	-12536
5,	-12537
BY	-12538
HH	-12539
PD	-12540
To	-12541
UP	-12542
..?	-12543
AGE	-12544
IFE	-12545
KIE	-12546
RUP	-12547
SEL	-12548
TEZ	-12549
UTE	-12550
cup	-12551
eee	-12552
ega	-12553
ico	-12554
imb	-12555
lay	-12556
mun	-12557
nia	-12558
nik	-12559
osa	-12560
rum	-12561
try	-12562
zes	-12563
zzo	-12564
▁Av	-12565
▁NY	-12566
ITCH	-12567
LEAF	-12568
REAK	-12569
STEN	-12570
abor	-12571
ails	-12572
alty	-12573
anes	-12574
anky	-12575
atra	-12576
chez	-12577
cula	-12578
eger	-12579
gins	-12580
harm	-12581
hell	-12582
hend	-12583
hier	-12584
iche	-12585
iggy	-12586
klin	-12587
omer	-12588
otto	-12589
oute	-12590
pass	-12591
rive	-12592
robe	-12593
thin	-12594
▁Aha	-12595
▁CBS	-12596
▁COW	-12597
▁Gro	-12598
▁HEY	-12599
▁Ich	-12600
▁Osc	-12601
▁Pee	-12602
▁RAY	-12603
▁Ssh	-12604
▁Tax	-12605
▁Uhh	-12606
▁VIK	-12607
▁gee	-12608
▁inn	-12609
▁jar	-12610
▁jaw	-12611
▁nag	-12612
▁sie	-12613
▁vag	-12614
ARLIE	-12615
cross	-12616
edict	-12617
ester	-12618
frame	-12619
hanie	-12620
hoven	-12621
iders	-12622
ierre	-12623
oodle	-12624
orted	-12625
riers	-12626
riors	-12627
thank	-12628
ugged	-12629
utive	-12630
which	-12631
▁...?	-12632
▁Acme	-12633
▁BELL	-12634
▁Bott	-12635
▁Burt	-12636
▁CARL	-12637
▁CLAR	-12638
▁Chap	-12639
▁Cult	-12640
▁DYER	-12641
▁Died	-12642
▁Eddy	-12643
▁FACE	-12644
▁Fear	-12645
▁Fill	-12646
▁Game	-12647
▁Grab	-12648
▁Jade	-12649
▁KISS	-12650
▁LIPS	-12651
▁Lime	-12652
▁Mand	-12653
▁Mess	-12654
▁NEWS	-12655
▁PAUL	-12656
▁Paso	-12657
▁Pity	-12658
▁Pops	-12659
▁Pray	-12660
▁REED	-12661
▁Sara	-12662
▁Scar	-12663
▁Shel	-12664
▁Skin	-12665
▁Spir	-12666
▁Team	-12667
▁Tele	-12668
▁Trou	-12669
▁WIFE	-12670
▁WOLL	-12671
▁Wing	-12672
▁cafe	-12673
▁carn	-12674
▁darn	-12675
▁lamp	-12676
▁mere	-12677
▁mour	-12678
▁negl	-12679
▁pard	-12680
▁rack	-12681
▁root	-12682
▁sear	-12683
▁shat	-12684
▁slob	-12685
▁sunk	-12686
▁tomb	-12687
▁urge	-12688
▁wack	-12689
▁wret	-12690
UNNING	-12691
abouts	-12692
aparte	-12693
couver	-12694
ichita	-12695
idance	-12696
igaret	-12697
quirer	-12698
really	-12699
rehend	-12700
▁Aaron	-12701
▁Allen	-12702
▁Artie	-12703
▁Baker	-12704
▁Cedar	-12705
▁Chang	-12706
▁Civil	-12707
▁Colon	-12708
▁Dodge	-12709
▁ELLEN	-12710
▁EMLEE	-12711
▁Folks	-12712
▁Guild	-12713
▁Keith	-12714
▁MAYOR	-12715
▁Magic	-12716
▁Mount	-12717
▁Nolan	-12718
▁Order	-12719
▁PASKI	-12720
▁Pract	-12721
▁Spain	-12722
▁Stens	-12723
▁adopt	-12724
▁aisle	-12725
▁alibi	-12726
▁alter	-12727
▁barra	-12728
▁beard	-12729
▁chart	-12730
▁cliff	-12731
▁debts	-12732
▁drain	-12733
▁flare	-12734
▁hesit	-12735
▁indul	-12736
▁jelly	-12737
▁kicks	-12738
▁optim	-12739
▁rehab	-12740
▁spine	-12741
▁theme	-12742
▁thigh	-12743
▁twent	-12744
▁wakes	-12745
chestra	-12746
issippi	-12747
raction	-12748
ulating	-12749
▁CORTEZ	-12750
▁COWBOY	-12751
▁Canyon	-12752
▁Direct	-12753
▁Heller	-12754
▁Massey	-12755
▁Merlin	-12756
▁Orange	-12757
▁Potter	-12758
▁Ranger	-12759
▁SISTER	-12760
▁Sandro	-12761
▁Smells	-12762
▁Strong	-12763
▁VIKTOR	-12764
▁WAITER	-12765
▁WILKIE	-12766
▁accuse	-12767
▁booked	-12768
▁bounty	-12769
▁brandy	-12770
▁chriss	-12771
▁condem	-12772
▁corpse	-12773
▁duties	-12774
▁enthus	-12775
▁fixing	-12776
▁forbid	-12777
▁hunger	-12778
▁injury	-12779
▁junkie	-12780
▁keepin	-12781
▁kidney	-12782
▁licked	-12783
▁mathem	-12784
▁poster	-12785
▁purely	-12786
▁pursue	-12787
▁sailor	-12788
▁seduce	-12789
▁shared	-12790
▁specif	-12791
▁stabil	-12792
▁stroll	-12793
▁tossed	-12794
▁trusts	-12795
▁unlock	-12796
▁wander	-12797
▁whatta	-12798
ferences	-12799
▁Already	-12800
▁Bateman	-12801
▁CHARLIE	-12802
▁Conklin	-12803
▁Counsel	-12804
▁Forever	-12805
▁Negroes	-12806
▁Nervous	-12807
▁Pleased	-12808
▁Sheldon	-12809
▁Supreme	-12810
▁Warrior	-12811
▁betting	-12812
▁bottles	-12813
▁convert	-12814
▁counted	-12815
▁cousins	-12816
▁cracked	-12817
▁cripple	-12818
▁crushed	-12819
▁decency	-12820
▁dessert	-12821
▁dresses	-12822
▁examine	-12823
▁experts	-12824
▁fiction	-12825
▁fireman	-12826
▁limited	-12827
▁longest	-12828
▁organic	-12829
▁raising	-12830
▁suckers	-12831
▁visitor	-12832
emoiselle	-12833
fashioned	-12834
▁December	-12835
▁Services	-12836
▁THUNDRUP	-12837
▁Upstairs	-12838
▁WOLLSTEN	-12839
▁allergic	-12840
▁avoiding	-12841
▁burglary	-12842
▁homeless	-12843
▁invasion	-12844
▁lonesome	-12845
▁mortgage	-12846
▁sneaking	-12847
▁subpoena	-12848
▁sweating	-12849
▁thrilled	-12850
▁tolerate	-12851
▁Bonaparte	-12852
▁Emergency	-12853
▁Institute	-12854
▁Insurance	-12855
▁Jefferson	-12856
▁Principal	-12857
▁Stephanie	-12858
▁Watergate	-12859
▁civilized	-12860
▁completed	-12861
▁continues	-12862
▁defendant	-12863
▁determine	-12864
▁encourage	-12865
▁expertise	-12866
▁forbidden	-12867
▁frequency	-12868
▁gathering	-12869
▁heartbeat	-12870
▁ignorance	-12871
▁judgement	-12872
▁principle	-12873
▁probation	-12874
▁recording	-12875
▁recovered	-12876
▁returning	-12877
▁terrorist	-12878
▁upsetting	-12879
▁CONTRACTOR	-12880
▁complaints	-12881
▁constantly	-12882
▁correspond	-12883
▁explosives	-12884
▁journalist	-12885
▁spacecraft	-12886
▁stewardess	-12887
▁Mississippi	-12888
▁electricity	-12889
▁fingernails	-12890
▁perspective	-12891
▁recommended	-12892
▁psychologist	-12893
*,	-12894
-5	-12895
CI	-12896
Go	-12897
NN	-12898
SA	-12899
lk	-12900
▁:	-12901
ATW	-12902
Are	-12903
CLO	-12904
IET	-12905
URT	-12906
bea	-12907
bid	-12908
cie	-12909
fol	-12910
gor	-12911
guy	-12912
him	-12913
isk	-12914
nor	-12915
rin	-12916
sir	-12917
uzu	-12918
wit	-12919
wyn	-12920
▁Dy	-12921
▁Es	-12922
▁NA	-12923
▁Pu	-12924
▁Wa	-12925
▁YE	-12926
Dear	-12927
OULD	-12928
UEEN	-12929
asis	-12930
augh	-12931
cest	-12932
cont	-12933
deal	-12934
done	-12935
ecil	-12936
etor	-12937
feit	-12938
fton	-12939
fuss	-12940
ijah	-12941
iors	-12942
ivan	-12943
kill	-12944
mers	-12945
ndon	-12946
neck	-12947
offs	-12948
ogen	-12949
only	-12950
orde	-12951
ques	-12952
roth	-12953
▁Alb	-12954
▁Aub	-12955
▁Dig	-12956
▁KEE	-12957
▁Mir	-12958
▁Miz	-12959
▁Moo	-12960
▁Nev	-12961
▁Ohh	-12962
▁Sop	-12963
▁Sox	-12964
▁bin	-12965
▁ego	-12966
▁fel	-12967
▁nod	-12968
▁sod	-12969
▁sum	-12970
▁tut	-12971
▁vit	-12972
▁wre	-12973
GEANT	-12974
archy	-12975
chant	-12976
chief	-12977
chter	-12978
could	-12979
elius	-12980
eteer	-12981
habet	-12982
incen	-12983
inder	-12984
issus	-12985
mitri	-12986
names	-12987
pered	-12988
river	-12989
uince	-12990
watch	-12991
would	-12992
▁ALVY	-12993
▁Base	-12994
▁Cops	-12995
▁DOWN	-12996
▁DUKE	-12997
▁Dary	-12998
▁Hair	-12999
▁Hide	-13000
▁Jury	-13001
▁Liar	-13002
▁Lill	-13003
▁MACK	-13004
▁MOLE	-13005
▁Musk	-13006
▁Shir	-13007
▁Soci	-13008
▁Soze	-13009
▁Todd	-13010
▁Wald	-13011
▁Wash	-13012
▁Whew	-13013
▁Zuzu	-13014
▁bore	-13015
▁cher	-13016
▁chin	-13017
▁dash	-13018
▁elim	-13019
▁fame	-13020
▁foss	-13021
▁fuse	-13022
▁horm	-13023
▁indu	-13024
▁leap	-13025
▁maps	-13026
▁maze	-13027
▁mush	-13028
▁obsc	-13029
▁raid	-13030
▁sofa	-13031
▁sust	-13032
▁vows	-13033
CASTER	-13034
antine	-13035
before	-13036
ezvous	-13037
giving	-13038
itable	-13039
lights	-13040
minded	-13041
resser	-13042
ricane	-13043
umbled	-13044
weight	-13045
▁BOATW	-13046
▁Bitch	-13047
▁Coman	-13048
▁DAVIS	-13049
▁DUNNE	-13050
▁Donna	-13051
▁Eagle	-13052
▁Finch	-13053
▁Human	-13054
▁Kathy	-13055
▁Kings	-13056
▁Lyssa	-13057
▁MONEY	-13058
▁Marla	-13059
▁Momma	-13060
▁NORTH	-13061
▁Ringo	-13062
▁Rough	-13063
▁Sever	-13064
▁Swiss	-13065
▁Weren	-13066
▁Years	-13067
▁added	-13068
▁advis	-13069
▁clues	-13070
▁colon	-13071
▁diver	-13072
▁filth	-13073
▁flame	-13074
▁flush	-13075
▁fries	-13076
▁lemon	-13077
▁meals	-13078
▁momma	-13079
▁peach	-13080
▁pipes	-13081
▁porno	-13082
▁probe	-13083
▁shack	-13084
▁slick	-13085
▁stool	-13086
▁tenth	-13087
▁theft	-13088
▁therm	-13089
▁trips	-13090
▁veter	-13091
HINGTON	-13092
believe	-13093
onsider	-13094
uddenly	-13095
vention	-13096
▁BLONDE	-13097
▁Brenda	-13098
▁COPPER	-13099
▁Colomb	-13100
▁DAWSON	-13101
▁Damone	-13102
▁Elijah	-13103
▁Ferrie	-13104
▁Gerald	-13105
▁Jeremy	-13106
▁Lestat	-13107
▁Murder	-13108
▁ORANGE	-13109
▁ROONEY	-13110
▁Repeat	-13111
▁Singer	-13112
▁Stella	-13113
▁Towler	-13114
▁Vincen	-13115
▁Wesley	-13116
▁amazed	-13117
▁begged	-13118
▁breach	-13119
▁caviar	-13120
▁deadly	-13121
▁deaths	-13122
▁define	-13123
▁diplom	-13124
▁ethics	-13125
▁floors	-13126
▁grades	-13127
▁helmet	-13128
▁humble	-13129
▁hustle	-13130
▁idiots	-13131
▁noises	-13132
▁outlaw	-13133
▁preach	-13134
▁prince	-13135
▁proven	-13136
▁puppet	-13137
▁reform	-13138
▁shirts	-13139
▁snakes	-13140
▁strand	-13141
▁submit	-13142
▁traced	-13143
igration	-13144
ographic	-13145
▁Chamber	-13146
▁Christy	-13147
▁Duchess	-13148
▁Holiday	-13149
▁January	-13150
▁Journal	-13151
▁Lynette	-13152
▁Mission	-13153
▁Monster	-13154
▁Nowhere	-13155
▁Pilgrim	-13156
▁Prepare	-13157
▁STUDENT	-13158
▁Whaddya	-13159
▁anxiety	-13160
▁bizarre	-13161
▁blessed	-13162
▁candles	-13163
▁central	-13164
▁cleaner	-13165
▁compare	-13166
▁congrat	-13167
▁cowboys	-13168
▁crooked	-13169
▁demands	-13170
▁drinkin	-13171
▁enlight	-13172
▁finance	-13173
▁implant	-13174
▁inherit	-13175
▁insight	-13176
▁jeopard	-13177
▁legally	-13178
▁liberty	-13179
▁lighter	-13180
▁motorcy	-13181
▁pirates	-13182
▁secured	-13183
▁seventh	-13184
▁shadows	-13185
▁sharing	-13186
▁skipped	-13187
President	-13188
aughtered	-13189
▁ANDERSON	-13190
▁Berkeley	-13191
▁CLARENCE	-13192
▁Costello	-13193
▁Einstein	-13194
▁European	-13195
▁Horseman	-13196
▁Nineteen	-13197
▁Panthers	-13198
▁SERGEANT	-13199
▁Sparazza	-13200
▁Together	-13201
▁Wherever	-13202
▁articles	-13203
▁channels	-13204
▁childish	-13205
▁concrete	-13206
▁critical	-13207
▁employed	-13208
▁farewell	-13209
▁grounded	-13210
▁implying	-13211
▁mainland	-13212
▁operator	-13213
▁ordering	-13214
▁promoted	-13215
▁reckless	-13216
▁recorded	-13217
▁speeches	-13218
▁sympathy	-13219
▁terminal	-13220
▁trousers	-13221
▁visitors	-13222
▁Beethoven	-13223
▁GREENLEAF	-13224
▁Phillippe	-13225
▁Precisely	-13226
▁Therefore	-13227
▁Vancouver	-13228
▁bartender	-13229
▁celebrity	-13230
▁impatient	-13231
▁molecular	-13232
▁physician	-13233
▁promising	-13234
▁reference	-13235
▁respected	-13236
▁thrusters	-13237
▁BOATWRIGHT	-13238
▁WASHINGTON	-13239
▁accountant	-13240
▁convincing	-13241
▁instrument	-13242
▁situations	-13243
▁sufficient	-13244
▁cooperation	-13245
▁experiences	-13246
▁experiments	-13247
▁millionaire	-13248
▁traditional	-13249
▁unnecessary	-13250
▁Mademoiselle	-13251
▁interrogation	-13252
▁irresponsible	-13253
▁motherfuckers	-13254
▁relationships	-13255
2,	-13256
GA	-13257
GS	-13258
On	-13259
*--	-13260
-11	-13261
>?!	-13262
Int	-13263
JOR	-13264
MMY	-13265
OFF	-13266
OLD	-13267
TWO	-13268
aaa	-13269
agg	-13270
aya	-13271
def	-13272
emb	-13273
hoe	-13274
hum	-13275
oli	-13276
pat	-13277
rag	-13278
ros	-13279
rup	-13280
syl	-13281
too	-13282
tub	-13283
uar	-13284
uin	-13285
▁1.	-13286
▁FA	-13287
▁JU	-13288
▁Ox	-13289
▁op	-13290
▁py	-13291
Head	-13292
PIER	-13293
REAM	-13294
Will	-13295
bted	-13296
butt	-13297
ccup	-13298
edge	-13299
erts	-13300
gant	-13301
helm	-13302
help	-13303
icon	-13304
ijou	-13305
ingu	-13306
inis	-13307
leen	-13308
lymp	-13309
ndel	-13310
neum	-13311
olyn	-13312
omis	-13313
ooky	-13314
phin	-13315
pick	-13316
rait	-13317
rien	-13318
roid	-13319
rown	-13320
type	-13321
uzzy	-13322
▁--"	-13323
▁Bag	-13324
▁Bir	-13325
▁Bug	-13326
▁Dee	-13327
▁Dod	-13328
▁ENG	-13329
▁Ear	-13330
▁Hav	-13331
▁JER	-13332
▁JUL	-13333
▁Joy	-13334
▁Kau	-13335
▁Loc	-13336
▁Lor	-13337
▁Lud	-13338
▁MIL	-13339
▁Nay	-13340
▁Pir	-13341
▁SEN	-13342
▁Sna	-13343
▁WHY	-13344
▁cum	-13345
▁etc	-13346
▁ham	-13347
▁hem	-13348
▁hmm	-13349
▁oak	-13350
▁pea	-13351
Amour	-13352
azeli	-13353
bborn	-13354
eable	-13355
erton	-13356
eshit	-13357
hardt	-13358
idays	-13359
ingly	-13360
maker	-13361
oning	-13362
paper	-13363
rants	-13364
rogen	-13365
tails	-13366
ugosi	-13367
visor	-13368
▁Crus	-13369
▁Dent	-13370
▁Emil	-13371
▁GOTT	-13372
▁Gate	-13373
▁Geor	-13374
▁Grey	-13375
▁Grow	-13376
▁HEND	-13377
▁Hana	-13378
▁Hush	-13379
▁Jazz	-13380
▁Lama	-13381
▁Leia	-13382
▁Loan	-13383
▁Lose	-13384
▁Marx	-13385
▁Nuke	-13386
▁Otho	-13387
▁Palm	-13388
▁Phys	-13389
▁Redi	-13390
▁Ridd	-13391
▁Tick	-13392
▁Trip	-13393
▁Webb	-13394
▁Whis	-13395
▁Zira	-13396
▁ages	-13397
▁bass	-13398
▁bolt	-13399
▁brat	-13400
▁brew	-13401
▁croc	-13402
▁grid	-13403
▁hass	-13404
▁lesb	-13405
▁loop	-13406
▁lust	-13407
▁mock	-13408
▁myth	-13409
▁owed	-13410
▁rang	-13411
▁reel	-13412
▁sang	-13413
▁sank	-13414
▁slit	-13415
▁stim	-13416
PIERRE	-13417
iculty	-13418
ifully	-13419
imated	-13420
listen	-13421
ontane	-13422
rieval	-13423
school	-13424
sylvan	-13425
thouse	-13426
uickly	-13427
ulator	-13428
unting	-13429
worthy	-13430
▁BURKE	-13431
▁Bijou	-13432
▁Bundy	-13433
▁CLARK	-13434
▁Dixie	-13435
▁Hardy	-13436
▁Kitty	-13437
▁Laval	-13438
▁MUMMY	-13439
▁Mummy	-13440
▁Paula	-13441
▁Raise	-13442
▁Shari	-13443
▁Shark	-13444
▁Spare	-13445
▁Sunny	-13446
▁Teach	-13447
▁Telly	-13448
▁Titan	-13449
▁bells	-13450
▁cance	-13451
▁crude	-13452
▁diner	-13453
▁exorc	-13454
▁fiend	-13455
▁hafta	-13456
▁handc	-13457
▁harsh	-13458
▁kings	-13459
▁layer	-13460
▁movin	-13461
▁prime	-13462
▁pulse	-13463
▁rises	-13464
▁scope	-13465
▁setup	-13466
▁spots	-13467
▁teams	-13468
▁typew	-13469
▁venge	-13470
▁vital	-13471
▁vodka	-13472
▁winds	-13473
IENTIST	-13474
hearted	-13475
ionship	-13476
▁Alaska	-13477
▁Amanda	-13478
▁Angelo	-13479
▁Bianca	-13480
▁Birdie	-13481
▁Carson	-13482
▁Cherry	-13483
▁Cookie	-13484
▁Delmar	-13485
▁Dmitri	-13486
▁Faster	-13487
▁Fourth	-13488
▁GROGAN	-13489
▁Gaston	-13490
▁Gregor	-13491
▁Loomis	-13492
▁Lovely	-13493
▁Others	-13494
▁Scared	-13495
▁Seeing	-13496
▁Sefton	-13497
▁Thinks	-13498
▁WILLIE	-13499
▁WILLIS	-13500
▁asylum	-13501
▁backed	-13502
▁bosses	-13503
▁broker	-13504
▁bundle	-13505
▁bushes	-13506
▁cannon	-13507
▁closes	-13508
▁compar	-13509
▁cruise	-13510
▁cursed	-13511
▁drapes	-13512
▁excess	-13513
▁flames	-13514
▁freaks	-13515
▁hazard	-13516
▁hollow	-13517
▁kidnap	-13518
▁listed	-13519
▁matrix	-13520
▁medium	-13521
▁misses	-13522
▁multip	-13523
▁mutant	-13524
▁offend	-13525
▁paraly	-13526
▁presum	-13527
▁resume	-13528
▁shells	-13529
▁smiles	-13530
▁tissue	-13531
▁tomato	-13532
▁unload	-13533
▁African	-13534
▁Barnett	-13535
▁Carlton	-13536
▁Colleen	-13537
▁Everett	-13538
▁Killing	-13539
▁Mustang	-13540
▁Problem	-13541
▁Rexroth	-13542
▁Romulan	-13543
▁Swedish	-13544
▁Talking	-13545
▁Waiting	-13546
▁Wichita	-13547
▁Wilhelm	-13548
▁adopted	-13549
▁arrives	-13550
▁bearing	-13551
▁coroner	-13552
▁devices	-13553
▁distant	-13554
▁electro	-13555
▁flowing	-13556
▁heavens	-13557
▁hookers	-13558
▁knights	-13559
▁majesty	-13560
▁naughty	-13561
▁observe	-13562
▁pervert	-13563
▁reactor	-13564
▁seeking	-13565
▁shuffle	-13566
▁tougher	-13567
▁tracked	-13568
▁typical	-13569
▁uptight	-13570
▁wealthy	-13571
▁writers	-13572
▁Albanian	-13573
▁Birthday	-13574
▁Killaine	-13575
▁Nicholas	-13576
▁Penelope	-13577
▁Pleasure	-13578
▁Torrance	-13579
▁ambition	-13580
▁approval	-13581
▁dinosaur	-13582
▁disagree	-13583
▁discreet	-13584
▁disguise	-13585
▁dreadful	-13586
▁estimate	-13587
▁exposure	-13588
▁gardener	-13589
▁increase	-13590
▁intimate	-13591
▁mattress	-13592
▁musician	-13593
▁nowadays	-13594
▁panicked	-13595
▁penitent	-13596
▁persuade	-13597
▁pressing	-13598
▁reaching	-13599
▁required	-13600
▁restrict	-13601
▁searched	-13602
▁splendid	-13603
▁stubborn	-13604
▁subjects	-13605
▁swinging	-13606
▁unstable	-13607
▁Australia	-13608
▁Cornelius	-13609
▁Greenleaf	-13610
▁HENDERSON	-13611
▁Narcissus	-13612
▁SCIENTIST	-13613
▁Seventeen	-13614
▁alcoholic	-13615
▁courtroom	-13616
▁dedicated	-13617
▁depending	-13618
▁dimension	-13619
▁elsewhere	-13620
▁evolution	-13621
▁infection	-13622
▁mainframe	-13623
▁realistic	-13624
▁reporting	-13625
▁terrified	-13626
▁Everywhere	-13627
▁Incredible	-13628
▁Treadstone	-13629
▁characters	-13630
▁conviction	-13631
▁discipline	-13632
▁passionate	-13633
▁population	-13634
▁prostitute	-13635
▁struggling	-13636
▁throughout	-13637
▁approaching	-13638
▁desperately	-13639
▁engineering	-13640
▁examination	-13641
▁maintenance	-13642
▁malfunction	-13643
▁operational	-13644
▁volunteered	-13645
▁acquaintance	-13646
▁interrupting	-13647
▁refrigerator	-13648
▁consideration	-13649
▁demonstration	-13650
As	-13651
Cl	-13652
En	-13653
SW	-13654
TA	-13655
yy	-13656
!..	-13657
--*	-13658
:00	-13659
ANS	-13660
Can	-13661
ELO	-13662
For	-13663
INO	-13664
IUS	-13665
Kay	-13666
LET	-13667
NAM	-13668
TOM	-13669
USE	-13670
acc	-13671
bad	-13672
bet	-13673
cus	-13674
emm	-13675
idy	-13676
irs	-13677
iry	-13678
kyo	-13679
lov	-13680
lsa	-13681
och	-13682
oes	-13683
pri	-13684
ubs	-13685
zon	-13686
▁00	-13687
▁GA	-13688
▁Kh	-13689
▁Ku	-13690
▁Wl	-13691
▁oo	-13692
...<	-13693
ABLE	-13694
ARCH	-13695
NETT	-13696
Take	-13697
aman	-13698
ario	-13699
aton	-13700
ayas	-13701
bean	-13702
club	-13703
dead	-13704
dest	-13705
doll	-13706
ecou	-13707
eeee	-13708
happ	-13709
inge	-13710
itol	-13711
kaya	-13712
need	-13713
olet	-13714
ooke	-13715
orne	-13716
rang	-13717
rari	-13718
them	-13719
uper	-13720
were	-13721
▁Ahm	-13722
▁Bog	-13723
▁CAM	-13724
▁Ent	-13725
▁Gor	-13726
▁HIS	-13727
▁Hir	-13728
▁Hob	-13729
▁Kob	-13730
▁Lip	-13731
▁Mod	-13732
▁PET	-13733
▁Phy	-13734
▁REP	-13735
▁Rap	-13736
▁dee	-13737
▁fug	-13738
▁gau	-13739
▁gor	-13740
▁hed	-13741
▁lin	-13742
▁que	-13743
▁rac	-13744
▁rib	-13745
▁sav	-13746
▁sax	-13747
▁tob	-13748
▁vot	-13749
▁vow	-13750
Every	-13751
RENCE	-13752
athan	-13753
enced	-13754
eness	-13755
erior	-13756
heast	-13757
human	-13758
icity	-13759
ilian	-13760
impse	-13761
itals	-13762
oline	-13763
react	-13764
riter	-13765
track	-13766
ueens	-13767
ulars	-13768
▁Asso	-13769
▁Away	-13770
▁Beau	-13771
▁Beer	-13772
▁Bont	-13773
▁Brig	-13774
▁COUR	-13775
▁Cond	-13776
▁Cort	-13777
▁Curt	-13778
▁Flet	-13779
▁Foot	-13780
▁HIRE	-13781
▁HOFF	-13782
▁Horn	-13783
▁Ilsa	-13784
▁Iran	-13785
▁Juan	-13786
▁LIND	-13787
▁LOMB	-13788
▁LULL	-13789
▁Lamb	-13790
▁Lets	-13791
▁Lynn	-13792
▁Mace	-13793
▁Mimi	-13794
▁Mong	-13795
▁Otto	-13796
▁Pole	-13797
▁Tram	-13798
▁User	-13799
▁Vamp	-13800
▁Ward	-13801
▁Wife	-13802
▁arse	-13803
▁arts	-13804
▁bats	-13805
▁bets	-13806
▁bunk	-13807
▁dupl	-13808
▁fist	-13809
▁hats	-13810
▁hosp	-13811
▁imbe	-13812
▁omel	-13813
▁peel	-13814
▁pent	-13815
▁ratt	-13816
▁slee	-13817
ANGELO	-13818
asters	-13819
bridge	-13820
engers	-13821
erserk	-13822
flower	-13823
hantom	-13824
harine	-13825
iggins	-13826
isfied	-13827
ivable	-13828
ivated	-13829
janoff	-13830
normal	-13831
rative	-13832
redict	-13833
things	-13834
uition	-13835
▁Anton	-13836
▁Bates	-13837
▁Breat	-13838
▁Casey	-13839
▁Cecil	-13840
▁Clare	-13841
▁Doris	-13842
▁Fresh	-13843
▁Hicks	-13844
▁Lando	-13845
▁Meeks	-13846
▁Moore	-13847
▁Needs	-13848
▁Olymp	-13849
▁PALEY	-13850
▁Perry	-13851
▁Store	-13852
▁Swear	-13853
▁Talby	-13854
▁Tokyo	-13855
▁accus	-13856
▁acres	-13857
▁alleg	-13858
▁bunny	-13859
▁cargo	-13860
▁cloak	-13861
▁depth	-13862
▁donut	-13863
▁drool	-13864
▁embra	-13865
▁horri	-13866
▁kiddo	-13867
▁loans	-13868
▁masks	-13869
▁monit	-13870
▁mount	-13871
▁pains	-13872
▁risky	-13873
▁sakes	-13874
▁sewer	-13875
▁tires	-13876
▁torch	-13877
▁whale	-13878
endment	-13879
through	-13880
umbling	-13881
visions	-13882
▁ALBERT	-13883
▁Assist	-13884
▁Bloody	-13885
▁Contin	-13886
▁Dieter	-13887
▁Disapp	-13888
▁Fazeli	-13889
▁Goddam	-13890
▁Gruber	-13891
▁Herman	-13892
▁JOSEPH	-13893
▁Jerome	-13894
▁Keyser	-13895
▁Landon	-13896
▁Maroon	-13897
▁Morris	-13898
▁Ninety	-13899
▁Patrol	-13900
▁Rather	-13901
▁STRACK	-13902
▁Smythe	-13903
▁Tucker	-13904
▁Turner	-13905
▁WILSON	-13906
▁Zavitz	-13907
▁allows	-13908
▁annual	-13909
▁ballet	-13910
▁blamed	-13911
▁boards	-13912
▁bullsh	-13913
▁candle	-13914
▁caring	-13915
▁creepy	-13916
▁crummy	-13917
▁establ	-13918
▁factor	-13919
▁fridge	-13920
▁galaxy	-13921
▁length	-13922
▁makeup	-13923
▁pigeon	-13924
▁pinned	-13925
▁polish	-13926
▁prejud	-13927
▁puzzle	-13928
▁saints	-13929
▁saloon	-13930
▁scored	-13931
▁shakes	-13932
▁shoots	-13933
▁slaves	-13934
▁spends	-13935
▁strung	-13936
▁temple	-13937
▁triump	-13938
▁upside	-13939
▁vacuum	-13940
▁wooden	-13941
▁yelled	-13942
AAAAAAAA	-13943
entially	-13944
sylvania	-13945
▁Anytime	-13946
▁Brenner	-13947
▁CUNNING	-13948
▁Citizen	-13949
▁Clement	-13950
▁Destroy	-13951
▁Donovan	-13952
▁Evening	-13953
▁Grendel	-13954
▁Horizon	-13955
▁Kaufman	-13956
▁Krypton	-13957
▁LOMBARD	-13958
▁Lechter	-13959
▁Lillian	-13960
▁Married	-13961
▁Maxwell	-13962
▁Playing	-13963
▁Reliant	-13964
▁Rosebud	-13965
▁Sanchez	-13966
▁Sherman	-13967
▁Theresa	-13968
▁Trouble	-13969
▁Wendell	-13970
▁advised	-13971
▁awesome	-13972
▁ceiling	-13973
▁comprom	-13974
▁constit	-13975
▁cynical	-13976
▁devoted	-13977
▁digital	-13978
▁disrupt	-13979
▁endless	-13980
▁hardest	-13981
▁haunted	-13982
▁hunters	-13983
▁located	-13984
▁madness	-13985
▁missile	-13986
▁monkeys	-13987
▁muscles	-13988
▁pigeons	-13989
▁pilgrim	-13990
▁pressed	-13991
▁prototy	-13992
▁quicker	-13993
▁refuses	-13994
▁relaxed	-13995
▁ripping	-13996
▁sensors	-13997
▁shining	-13998
▁slapped	-13999
▁tension	-14000
▁thieves	-14001
▁threats	-14002
▁tobacco	-14003
▁visited	-14004
urrection	-14005
▁Accident	-14006
▁Bastaldi	-14007
▁Bertrand	-14008
▁Bontecou	-14009
▁Campbell	-14010
▁Fletcher	-14011
▁Hamilton	-14012
▁Homicide	-14013
▁Jonathan	-14014
▁LAWRENCE	-14015
▁Roderick	-14016
▁Sullivan	-14017
▁Surprise	-14018
▁Thatcher	-14019
▁Thousand	-14020
▁Whistler	-14021
▁approved	-14022
▁backyard	-14023
▁blessing	-14024
▁careless	-14025
▁crippled	-14026
▁download	-14027
▁eternity	-14028
▁figuring	-14029
▁glorious	-14030
▁guidance	-14031
▁immortal	-14032
▁incompet	-14033
▁indicate	-14034
▁magician	-14035
▁nickname	-14036
▁plumbing	-14037
▁prettier	-14038
▁products	-14039
▁projects	-14040
▁resident	-14041
▁smartest	-14042
▁somewhat	-14043
▁stepping	-14044
▁vehicles	-14045
everything	-14046
▁Brilliant	-14047
▁Katharine	-14048
▁apologies	-14049
▁civilians	-14050
▁currently	-14051
▁goddammit	-14052
▁languages	-14053
▁lightning	-14054
▁proposing	-14055
▁qualities	-14056
▁resources	-14057
▁undressed	-14058
▁CUNNINGHAM	-14059
▁altogether	-14060
▁attraction	-14061
▁delightful	-14062
▁discretion	-14063
▁grandchild	-14064
▁humiliated	-14065
▁inspection	-14066
▁kilometers	-14067
▁literature	-14068
▁originally	-14069
▁passengers	-14070
▁psychopath	-14071
▁rendezvous	-14072
▁supposedly	-14073
▁surprising	-14074
▁understudy	-14075
▁hairdresser	-14076
▁instruments	-14077
▁significant	-14078
▁technically	-14079
▁Constitution	-14080
▁Unbelievable	-14081
▁supernatural	-14082
▁disappearance	-14083
GR	-14084
OE	-14085
Tw	-14086
ih	-14087
ASE	-14088
Any	-14089
ELY	-14090
ENS	-14091
INT	-14092
Jon	-14093
Man	-14094
ORT	-14095
apo	-14096
bok	-14097
cap	-14098
cco	-14099
dem	-14100
ebb	-14101
gey	-14102
gra	-14103
idt	-14104
ims	-14105
lon	-14106
orf	-14107
rep	-14108
rip	-14109
rut	-14110
xus	-14111
▁Ga	-14112
▁Op	-14113
▁RH	-14114
▁Ts	-14115
▁Yu	-14116
▁ec	-14117
▁ul	-14118
HEEM	-14119
Then	-14120
amma	-14121
anas	-14122
arez	-14123
arts	-14124
aver	-14125
azzo	-14126
baby	-14127
bott	-14128
bris	-14129
cade	-14130
coat	-14131
enda	-14132
fare	-14133
ialy	-14134
icut	-14135
idel	-14136
llis	-14137
nett	-14138
onto	-14139
oren	-14140
oule	-14141
pool	-14142
ptic	-14143
star	-14144
ught	-14145
uted	-14146
vich	-14147
vise	-14148
wide	-14149
wind	-14150
▁BAI	-14151
▁BUM	-14152
▁CAP	-14153
▁CON	-14154
▁DUD	-14155
▁Dub	-14156
▁Hab	-14157
▁IRS	-14158
▁Jas	-14159
▁Lar	-14160
▁Ori	-14161
▁Ped	-14162
▁SEC	-14163
▁Sig	-14164
▁TOM	-14165
▁cin	-14166
▁dod	-14167
▁era	-14168
▁fet	-14169
▁han	-14170
▁paw	-14171
▁sus	-14172
▁syn	-14173
▁vel	-14174
▁ven	-14175
▁vou	-14176
ddaya	-14177
elway	-14178
enson	-14179
eries	-14180
ested	-14181
front	-14182
gical	-14183
iator	-14184
idote	-14185
inton	-14186
oodoo	-14187
orial	-14188
roway	-14189
space	-14190
speed	-14191
▁BOSS	-14192
▁BURN	-14193
▁Brun	-14194
▁Bryn	-14195
▁COME	-14196
▁Cave	-14197
▁Core	-14198
▁Dowd	-14199
▁Duck	-14200
▁Fasc	-14201
▁Gide	-14202
▁Gulf	-14203
▁Jude	-14204
▁Luca	-14205
▁MILO	-14206
▁Merc	-14207
▁Mich	-14208
▁NEED	-14209
▁Nyah	-14210
▁PROF	-14211
▁Prec	-14212
▁Push	-14213
▁Rosa	-14214
▁Rule	-14215
▁Safe	-14216
▁Salt	-14217
▁Seen	-14218
▁Sent	-14219
▁TONS	-14220
▁Vigo	-14221
▁abdu	-14222
▁abst	-14223
▁bapt	-14224
▁chow	-14225
▁chum	-14226
▁cuff	-14227
▁eval	-14228
▁flee	-14229
▁flop	-14230
▁glam	-14231
▁gown	-14232
▁lane	-14233
▁lend	-14234
▁memo	-14235
▁outs	-14236
▁peep	-14237
▁raft	-14238
▁slug	-14239
▁sock	-14240
▁stro	-14241
▁swan	-14242
NAMARA	-14243
allows	-14244
antial	-14245
arians	-14246
bility	-14247
ebbels	-14248
ergast	-14249
erness	-14250
hasers	-14251
intend	-14252
isance	-14253
ocated	-14254
placed	-14255
remiah	-14256
rowave	-14257
stream	-14258
struct	-14259
▁Alpha	-14260
▁Arnie	-14261
▁Athos	-14262
▁Bialy	-14263
▁Cheer	-14264
▁Clock	-14265
▁Cosmo	-14266
▁Dutch	-14267
▁Fleet	-14268
▁Fredo	-14269
▁GUANO	-14270
▁Graff	-14271
▁Heavy	-14272
▁Lower	-14273
▁Maine	-14274
▁Nigel	-14275
▁Noooo	-14276
▁Oscar	-14277
▁Prime	-14278
▁Scout	-14279
▁Siber	-14280
▁Sooze	-14281
▁Track	-14282
▁Turns	-14283
▁Whitt	-14284
▁absor	-14285
▁adren	-14286
▁baked	-14287
▁blunt	-14288
▁chump	-14289
▁enhan	-14290
▁exter	-14291
▁flood	-14292
▁flown	-14293
▁goofy	-14294
▁hairs	-14295
▁ingen	-14296
▁intri	-14297
▁loads	-14298
▁maker	-14299
▁mayor	-14300
▁overs	-14301
▁panel	-14302
▁phase	-14303
▁pinch	-14304
▁prote	-14305
▁rides	-14306
▁rolls	-14307
▁roots	-14308
▁ropes	-14309
▁roses	-14310
▁rusty	-14311
▁scalp	-14312
▁schiz	-14313
▁scrat	-14314
▁scrub	-14315
▁squir	-14316
▁traps	-14317
▁valet	-14318
aintiff	-14319
husband	-14320
iversal	-14321
ropolis	-14322
writing	-14323
▁Action	-14324
▁Agreed	-14325
▁Associ	-14326
▁BAILEY	-14327
▁Conrad	-14328
▁Curtis	-14329
▁Duncan	-14330
▁FUCKIN	-14331
▁Jaeger	-14332
▁Mariet	-14333
▁Missus	-14334
▁Moving	-14335
▁RAHEEM	-14336
▁Sicily	-14337
▁Snoopy	-14338
▁Starck	-14339
▁Tuttle	-14340
▁Unlike	-14341
▁Wanted	-14342
▁atomic	-14343
▁barbar	-14344
▁betcha	-14345
▁bumped	-14346
▁classy	-14347
▁clowns	-14348
▁defect	-14349
▁errand	-14350
▁exceed	-14351
▁healed	-14352
▁images	-14353
▁insign	-14354
▁issued	-14355
▁linked	-14356
▁neural	-14357
▁observ	-14358
▁patron	-14359
▁pearls	-14360
▁pepper	-14361
▁rebels	-14362
▁riddle	-14363
▁scenes	-14364
▁shades	-14365
▁sorrow	-14366
▁starve	-14367
▁sunset	-14368
▁tapped	-14369
▁values	-14370
neumonia	-14371
▁Carolyn	-14372
▁Customs	-14373
▁Darrell	-14374
▁Ferrari	-14375
▁Georgia	-14376
▁Georgie	-14377
▁Harding	-14378
▁Hopkins	-14379
▁Keeping	-14380
▁Massach	-14381
▁Minutes	-14382
▁Protect	-14383
▁Ratched	-14384
▁Shirley	-14385
▁Society	-14386
▁Swayzak	-14387
▁acceler	-14388
▁admired	-14389
▁assured	-14390
▁banging	-14391
▁beaches	-14392
▁carryin	-14393
▁caution	-14394
▁chewing	-14395
▁claimed	-14396
▁confuse	-14397
▁consent	-14398
▁crashes	-14399
▁dearest	-14400
▁despite	-14401
▁evolved	-14402
▁farther	-14403
▁flipped	-14404
▁freight	-14405
▁fulfill	-14406
▁funding	-14407
▁glimpse	-14408
▁handles	-14409
▁harvest	-14410
▁islands	-14411
▁judging	-14412
▁lantern	-14413
▁microsc	-14414
▁natives	-14415
▁pageant	-14416
▁partial	-14417
▁reaches	-14418
▁relieve	-14419
▁robbers	-14420
▁schmuck	-14421
▁signals	-14422
▁sponsor	-14423
▁tempted	-14424
▁torment	-14425
▁transit	-14426
▁Eighteen	-14427
▁Goebbels	-14428
▁Jeremiah	-14429
▁MCNAMARA	-14430
▁Marshall	-14431
▁Neighbor	-14432
▁Paradise	-14433
▁Possibly	-14434
▁Splendid	-14435
▁Suddenly	-14436
▁Watching	-14437
▁alphabet	-14438
▁appeared	-14439
▁arriving	-14440
▁arrogant	-14441
▁cellular	-14442
▁courtesy	-14443
▁declared	-14444
▁freaking	-14445
▁happenin	-14446
▁happiest	-14447
▁holidays	-14448
▁imbecile	-14449
▁included	-14450
▁landlord	-14451
▁lingerie	-14452
▁paranoia	-14453
▁potatoes	-14454
▁radiator	-14455
▁recovery	-14456
▁repeated	-14457
▁requests	-14458
▁restless	-14459
▁retarded	-14460
▁sounding	-14461
▁teenager	-14462
▁traveled	-14463
▁vanished	-14464
▁wretched	-14465
▁Counselor	-14466
▁Godfather	-14467
▁Hudsucker	-14468
▁Mackelway	-14469
▁accidents	-14470
▁accompany	-14471
▁ambitious	-14472
▁colleague	-14473
▁convicted	-14474
▁encounter	-14475
▁execution	-14476
▁finishing	-14477
▁innocence	-14478
▁messenger	-14479
▁paintings	-14480
▁parasites	-14481
▁particles	-14482
▁pregnancy	-14483
▁specialty	-14484
▁torpedoes	-14485
▁Chrissakes	-14486
▁Eventually	-14487
▁Pendergast	-14488
▁authorized	-14489
▁colleagues	-14490
▁collecting	-14491
▁concerning	-14492
▁delivering	-14493
▁difficulty	-14494
▁disturbing	-14495
▁laboratory	-14496
▁management	-14497
▁membership	-14498
▁occasional	-14499
▁politician	-14500
▁travelling	-14501
▁Connecticut	-14502
▁Engineering	-14503
▁certificate	-14504
▁cockroaches	-14505
▁compartment	-14506
▁manufacture	-14507
▁permanently	-14508
▁Thanksgiving	-14509
▁appreciation	-14510
▁congratulate	-14511
▁underestimate	-14512
▁identification	-14513
1,	-14514
12	-14515
15	-14516
El	-14517
Sh	-14518
dn	-14519
eb	-14520
ev	-14521
ARR	-14522
BLE	-14523
EBI	-14524
ERS	-14525
ISC	-14526
LOW	-14527
LOY	-14528
OUS	-14529
See	-14530
ais	-14531
ati	-14532
cul	-14533
del	-14534
des	-14535
gil	-14536
gus	-14537
hew	-14538
hob	-14539
nov	-14540
oda	-14541
pil	-14542
rah	-14543
una	-14544
wer	-14545
yer	-14546
▁1/	-14547
▁Aa	-14548
▁Gw	-14549
▁IF	-14550
▁SR	-14551
▁TA	-14552
ALIO	-14553
BAUM	-14554
DMAN	-14555
Love	-14556
MUTE	-14557
Than	-14558
USOV	-14559
adek	-14560
ampa	-14561
arer	-14562
asel	-14563
aunt	-14564
boro	-14565
chev	-14566
cken	-14567
eged	-14568
emic	-14569
ffer	-14570
food	-14571
from	-14572
icit	-14573
iera	-14574
imps	-14575
izzo	-14576
nies	-14577
nuts	-14578
ouri	-14579
quil	-14580
rend	-14581
rina	-14582
send	-14583
stay	-14584
unez	-14585
user	-14586
warf	-14587
wash	-14588
word	-14589
▁Arm	-14590
▁Bol	-14591
▁CLE	-14592
▁Cuz	-14593
▁Dur	-14594
▁Eld	-14595
▁Exp	-14596
▁III	-14597
▁Jus	-14598
▁KUT	-14599
▁Num	-14600
▁Oui	-14601
▁POW	-14602
▁Ree	-14603
▁Rev	-14604
▁Sav	-14605
▁Sut	-14606
▁Tab	-14607
▁Tie	-14608
▁WOL	-14609
▁Wad	-14610
▁dil	-14611
▁gat	-14612
▁haw	-14613
▁hog	-14614
▁hoo	-14615
▁jab	-14616
▁nas	-14617
▁ort	-14618
▁psy	-14619
▁sap	-14620
▁tel	-14621
▁tol	-14622
▁umb	-14623
▁vig	-14624
BURTT	-14625
EBIUS	-14626
ORDON	-14627
ORNEY	-14628
allel	-14629
angel	-14630
antum	-14631
brush	-14632
cakes	-14633
cedes	-14634
ctors	-14635
doing	-14636
elfth	-14637
ensen	-14638
girls	-14639
gotta	-14640
ifact	-14641
iries	-14642
istan	-14643
ivate	-14644
lance	-14645
menza	-14646
obbes	-14647
oming	-14648
ority	-14649
rator	-14650
rical	-14651
speak	-14652
stead	-14653
uckle	-14654
uincy	-14655
usins	-14656
▁..."	-14657
▁Alma	-14658
▁BIRD	-14659
▁BLUM	-14660
▁Bean	-14661
▁Bras	-14662
▁COOK	-14663
▁Corb	-14664
▁DARL	-14665
▁Dawn	-14666
▁Days	-14667
▁Diam	-14668
▁Enri	-14669
▁Fool	-14670
▁Gest	-14671
▁Gina	-14672
▁HAMM	-14673
▁Hate	-14674
▁Hock	-14675
▁Hoff	-14676
▁Mans	-14677
▁Math	-14678
▁Penn	-14679
▁Pers	-14680
▁Piss	-14681
▁Scha	-14682
▁Sens	-14683
▁Suck	-14684
▁THEM	-14685
▁THEN	-14686
▁Teen	-14687
▁Vill	-14688
▁Warp	-14689
▁Wick	-14690
▁bind	-14691
▁cans	-14692
▁clap	-14693
▁clay	-14694
▁coop	-14695
▁crus	-14696
▁dose	-14697
▁epid	-14698
▁eyel	-14699
▁fade	-14700
▁geez	-14701
▁inex	-14702
▁jets	-14703
▁oven	-14704
▁rash	-14705
▁recl	-14706
▁sedu	-14707
▁stoo	-14708
▁tang	-14709
▁tech	-14710
▁turf	-14711
▁vibe	-14712
▁vine	-14713
▁xxxx	-14714
50,000	-14715
WINTER	-14716
celled	-14717
closed	-14718
formed	-14719
iology	-14720
istent	-14721
ithium	-14722
listed	-14723
namese	-14724
person	-14725
ribute	-14726
sexual	-14727
uarter	-14728
uestar	-14729
usting	-14730
wallis	-14731
▁Bingo	-14732
▁Block	-14733
▁Booth	-14734
▁Bronx	-14735
▁Butch	-14736
▁Greet	-14737
▁Hayes	-14738
▁Imper	-14739
▁Johan	-14740
▁Lives	-14741
▁Nexus	-14742
▁Nunez	-14743
▁Parry	-14744
▁Produ	-14745
▁Rizzo	-14746
▁Sissy	-14747
▁Split	-14748
▁Starl	-14749
▁Steal	-14750
▁TYLER	-14751
▁Total	-14752
▁adore	-14753
▁ankle	-14754
▁aster	-14755
▁catal	-14756
▁categ	-14757
▁corny	-14758
▁depri	-14759
▁dried	-14760
▁drums	-14761
▁exerc	-14762
▁fetch	-14763
▁finer	-14764
▁gates	-14765
▁grabs	-14766
▁hypot	-14767
▁insec	-14768
▁lease	-14769
▁madam	-14770
▁monst	-14771
▁pasta	-14772
▁quart	-14773
▁rapid	-14774
▁shaft	-14775
▁smear	-14776
▁sober	-14777
▁solar	-14778
▁tasty	-14779
▁valid	-14780
▁votes	-14781
▁whoop	-14782
blooded	-14783
cestors	-14784
enmeyer	-14785
ignment	-14786
inished	-14787
ounding	-14788
▁AMALIO	-14789
▁Arctic	-14790
▁Beauty	-14791
▁Brooke	-14792
▁Burger	-14793
▁CARVER	-14794
▁Casper	-14795
▁Disney	-14796
▁Dollar	-14797
▁Domini	-14798
▁Felson	-14799
▁GORDON	-14800
▁Geneva	-14801
▁Gideon	-14802
▁Harbor	-14803
▁Hobbes	-14804
▁Lugosi	-14805
▁MACKEY	-14806
▁McCord	-14807
▁Melvin	-14808
▁Middle	-14809
▁Nature	-14810
▁Nelson	-14811
▁Nigger	-14812
▁Polish	-14813
▁ROLLER	-14814
▁Rennie	-14815
▁Shorty	-14816
▁Stones	-14817
▁Warner	-14818
▁Wladek	-14819
▁astron	-14820
▁banana	-14821
▁beatin	-14822
▁blades	-14823
▁broads	-14824
▁burial	-14825
▁campus	-14826
▁cooler	-14827
▁courts	-14828
▁dances	-14829
▁dental	-14830
▁dishon	-14831
▁extent	-14832
▁faking	-14833
▁feared	-14834
▁fisher	-14835
▁global	-14836
▁hacker	-14837
▁hanged	-14838
▁hatred	-14839
▁hiring	-14840
▁hotter	-14841
▁huntin	-14842
▁jockey	-14843
▁kisses	-14844
▁lasted	-14845
▁liking	-14846
▁luxury	-14847
▁maiden	-14848
▁models	-14849
▁nearby	-14850
▁notion	-14851
▁phoney	-14852
▁picket	-14853
▁pickup	-14854
▁prices	-14855
▁resort	-14856
▁scound	-14857
▁serves	-14858
▁shifts	-14859
▁spells	-14860
▁taller	-14861
▁triple	-14862
▁whisky	-14863
▁whites	-14864
▁worshi	-14865
▁xxxxxx	-14866
asonable	-14867
clusions	-14868
itations	-14869
oulevard	-14870
▁Awright	-14871
▁Bennett	-14872
▁Bernard	-14873
▁Cigaret	-14874
▁Edmunds	-14875
▁Foreign	-14876
▁GODDAMN	-14877
▁Gardner	-14878
▁Grusins	-14879
▁KUTUSOV	-14880
▁Katrina	-14881
▁Leaving	-14882
▁Lindsey	-14883
▁MOEBIUS	-14884
▁Marines	-14885
▁Marshal	-14886
▁Parrish	-14887
▁Pauline	-14888
▁Phyllis	-14889
▁Praetor	-14890
▁Program	-14891
▁Respect	-14892
▁Riddick	-14893
▁Station	-14894
▁anyways	-14895
▁banking	-14896
▁bourbon	-14897
▁bugging	-14898
▁colonel	-14899
▁despise	-14900
▁economy	-14901
▁eyeball	-14902
▁feather	-14903
▁fiancee	-14904
▁gambler	-14905
▁heavily	-14906
▁leagues	-14907
▁mailbox	-14908
▁martini	-14909
▁masturb	-14910
▁patriot	-14911
▁pouring	-14912
▁protest	-14913
▁proving	-14914
▁reserve	-14915
▁richest	-14916
▁risking	-14917
▁salvage	-14918
▁signing	-14919
▁sinking	-14920
▁stashed	-14921
▁teaches	-14922
▁trading	-14923
▁traitor	-14924
▁unicorn	-14925
▁utterly	-14926
▁whisper	-14927
▁witches	-14928
▁wouldnt	-14929
▁ATTORNEY	-14930
▁Appleton	-14931
▁Benedict	-14932
▁Bluestar	-14933
▁Broadway	-14934
▁Checking	-14935
▁Clemenza	-14936
▁Commodus	-14937
▁Continue	-14938
▁Fortress	-14939
▁Michigan	-14940
▁Missouri	-14941
▁Northern	-14942
▁Prescott	-14943
▁Southern	-14944
▁accusing	-14945
▁affected	-14946
▁annoying	-14947
▁antidote	-14948
▁creating	-14949
▁creation	-14950
▁fighters	-14951
▁fountain	-14952
▁imperson	-14953
▁interior	-14954
▁magnetic	-14955
▁minister	-14956
▁monsieur	-14957
▁mornings	-14958
▁occupied	-14959
▁opinions	-14960
▁organism	-14961
▁overlook	-14962
▁paycheck	-14963
▁preserve	-14964
▁sabotage	-14965
▁sensible	-14966
▁shipment	-14967
▁shouting	-14968
▁sidewalk	-14969
▁starters	-14970
▁sympathi	-14971
▁tourists	-14972
▁troubled	-14973
WINTERMUTE	-14974
▁BLUMBURTT	-14975
▁Buljanoff	-14976
▁Executive	-14977
▁GREENBAUM	-14978
▁Retrieval	-14979
▁appointed	-14980
▁companion	-14981
▁complaint	-14982
▁defending	-14983
▁fashioned	-14984
▁functions	-14985
▁headaches	-14986
▁imagining	-14987
▁microwave	-14988
▁narcotics	-14989
▁orchestra	-14990
▁policemen	-14991
▁publisher	-14992
▁residence	-14993
▁scheduled	-14994
▁stupidity	-14995
▁unpredict	-14996
▁volunteer	-14997
appropriate	-14998
▁Bialystock	-14999
▁Cornwallis	-15000
▁Vietnamese	-15001
▁courthouse	-15002
▁definition	-15003
▁developing	-15004
▁employment	-15005
▁graduation	-15006
▁percentage	-15007
▁performing	-15008
▁principles	-15009
▁protective	-15010
▁statements	-15011
▁thoughtful	-15012
▁typewriter	-15013
▁underwater	-15014
▁Affirmative	-15015
▁Grusinskaya	-15016
▁Lindenmeyer	-15017
▁circulation	-15018
▁conclusions	-15019
▁humiliating	-15020
▁suggestions	-15021
▁entertaining	-15022
▁experimental	-15023
▁intellectual	-15024
▁interference	-15025
▁prescription	-15026
▁approximately	-15027
▁complications	-15028
▁misunderstand	-15029
▁opportunities	-15030
▁professionals	-15031
▁representation	-15032
▁transportation	-15033
AW	-15034
Bl	-15035
FT	-15036
Jo	-15037
ii	-15038
yo	-15039
▁x	-15040
.--	-15041
IDI	-15042
ILM	-15043
ITA	-15044
JAM	-15045
Joe	-15046
KIN	-15047
Out	-15048
VID	-15049
agl	-15050
ala	-15051
aud	-15052
bec	-15053
chm	-15054
dam	-15055
dro	-15056
ems	-15057
fty	-15058
iya	-15059
nge	-15060
nup	-15061
orp	-15062
reo	-15063
uda	-15064
vet	-15065
zel	-15066
▁2.	-15067
▁Vi	-15068
▁je	-15069
▁ze	-15070
CADE	-15071
CRET	-15072
ERTS	-15073
INPO	-15074
SHIT	-15075
UDER	-15076
amis	-15077
asia	-15078
avor	-15079
bear	-15080
bury	-15081
chai	-15082
does	-15083
fles	-15084
haha	-15085
hore	-15086
ikes	-15087
itas	-15088
list	-15089
omew	-15090
ooby	-15091
rams	-15092
rink	-15093
shed	-15094
sman	-15095
tage	-15096
told	-15097
weed	-15098
zini	-15099
▁--!	-15100
▁ACK	-15101
▁ANY	-15102
▁Ach	-15103
▁Ana	-15104
▁Ark	-15105
▁Beg	-15106
▁Bix	-15107
▁Dro	-15108
▁Fen	-15109
▁IAN	-15110
▁LAY	-15111
▁Lev	-15112
▁NBA	-15113
▁NSA	-15114
▁OAT	-15115
▁PUN	-15116
▁PUP	-15117
▁Pea	-15118
▁Raw	-15119
▁Sis	-15120
▁TAS	-15121
▁TOE	-15122
▁TRE	-15123
▁TUR	-15124
▁Typ	-15125
▁UND	-15126
▁Ugh	-15127
▁Woo	-15128
▁YES	-15129
▁Zoe	-15130
▁axe	-15131
▁bog	-15132
▁cue	-15133
▁dub	-15134
▁gon	-15135
▁jan	-15136
▁lid	-15137
▁mig	-15138
▁oct	-15139
▁pry	-15140
▁ram	-15141
▁sty	-15142
▁voc	-15143
Brien	-15144
ENDER	-15145
Somet	-15146
USTER	-15147
ainey	-15148
amine	-15149
asury	-15150
atore	-15151
chach	-15152
close	-15153
endar	-15154
erman	-15155
forty	-15156
great	-15157
hello	-15158
hound	-15159
ibles	-15160
ieval	-15161
igent	-15162
ilate	-15163
inery	-15164
inzon	-15165
ishes	-15166
ndown	-15167
ocrat	-15168
pless	-15169
pling	-15170
rates	-15171
retti	-15172
shirt	-15173
steps	-15174
storm	-15175
▁Anti	-15176
▁BARB	-15177
▁Born	-15178
▁CHIL	-15179
▁Copy	-15180
▁DEAD	-15181
▁DOLL	-15182
▁Desp	-15183
▁Dogs	-15184
▁Drey	-15185
▁Dumb	-15186
▁Elle	-15187
▁FALK	-15188
▁Feed	-15189
▁GILL	-15190
▁Goes	-15191
▁Hugo	-15192
▁LAPD	-15193
▁LEFF	-15194
▁Marv	-15195
▁Mets	-15196
▁Noir	-15197
▁RHOD	-15198
▁Rafe	-15199
▁Remo	-15200
▁Rene	-15201
▁SHOT	-15202
▁Schm	-15203
▁Seal	-15204
▁Shoe	-15205
▁Skye	-15206
▁Soul	-15207
▁Tatt	-15208
▁Vito	-15209
▁anat	-15210
▁ants	-15211
▁beep	-15212
▁brow	-15213
▁duct	-15214
▁emer	-15215
▁hamm	-15216
▁heir	-15217
▁hick	-15218
▁hike	-15219
▁isnt	-15220
▁masc	-15221
▁mule	-15222
▁obey	-15223
▁pans	-15224
▁papa	-15225
▁pron	-15226
▁rebu	-15227
▁rely	-15228
▁rice	-15229
▁sole	-15230
▁sung	-15231
▁vain	-15232
▁walt	-15233
▁wont	-15234
00,000	-15235
BERMAN	-15236
Christ	-15237
apable	-15238
asions	-15239
assing	-15240
ensity	-15241
iddown	-15242
llozzo	-15243
neider	-15244
ometer	-15245
renton	-15246
shield	-15247
uating	-15248
▁Adams	-15249
▁Alive	-15250
▁Along	-15251
▁Angie	-15252
▁Artoo	-15253
▁Basil	-15254
▁Becky	-15255
▁Blair	-15256
▁Brill	-15257
▁Broke	-15258
▁CHICK	-15259
▁Chili	-15260
▁Chill	-15261
▁Crazy	-15262
▁DAVID	-15263
▁Freud	-15264
▁Geoff	-15265
▁Gordo	-15266
▁Huron	-15267
▁Joyce	-15268
▁Korea	-15269
▁LOUIS	-15270
▁Lotte	-15271
▁Lucas	-15272
▁Marry	-15273
▁Paper	-15274
▁RINPO	-15275
▁Salvy	-15276
▁Sayer	-15277
▁Speed	-15278
▁Steed	-15279
▁Swell	-15280
▁Tammy	-15281
▁Tired	-15282
▁Whale	-15283
▁Works	-15284
▁blend	-15285
▁blink	-15286
▁boast	-15287
▁curve	-15288
▁cycle	-15289
▁drama	-15290
▁eject	-15291
▁erase	-15292
▁faced	-15293
▁glove	-15294
▁graph	-15295
▁gravy	-15296
▁grill	-15297
▁hyper	-15298
▁jerks	-15299
▁jumps	-15300
▁knots	-15301
▁layin	-15302
▁motto	-15303
▁multi	-15304
▁nause	-15305
▁packs	-15306
▁payin	-15307
▁pharm	-15308
▁pumps	-15309
▁semin	-15310
▁sings	-15311
▁sling	-15312
▁spear	-15313
▁squaw	-15314
▁stove	-15315
▁taped	-15316
▁tramp	-15317
▁uncon	-15318
▁verge	-15319
▁whats	-15320
holomew	-15321
inction	-15322
issions	-15323
million	-15324
mingway	-15325
ointing	-15326
parents	-15327
rateful	-15328
rations	-15329
related	-15330
vitable	-15331
without	-15332
▁ARCADE	-15333
▁Archie	-15334
▁Aubrey	-15335
▁Beyond	-15336
▁Buttle	-15337
▁Cancer	-15338
▁Damnit	-15339
▁Decker	-15340
▁Doucet	-15341
▁FARMER	-15342
▁Franky	-15343
▁Gillis	-15344
[...]
