<unk>	0
<s>	0
</s>	0
▁a	-0
▁t	-1
er	-2
en	-3
in	-4
es	-5
on	-6
▁c	-7
▁d	-8
▁s	-9
▁p	-10
or	-11
▁th	-12
ar	-13
an	-14
at	-15
re	-16
▁l	-17
▁m	-18
it	-19
al	-20
is	-21
▁the	-22
as	-23
▁o	-24
▁de	-25
▁f	-26
ic	-27
▁e	-28
ou	-29
▁an	-30
os	-31
▁w	-32
▁b	-33
ent	-34
ing	-35
ed	-36
un	-37
▁in	-38
▁h	-39
om	-40
ion	-41
▁y	-42
▁and	-43
▁to	-44
le	-45
ac	-46
qu	-47
ro	-48
ad	-49
▁n	-50
el	-51
▁of	-52
us	-53
id	-54
il	-55
im	-56
ec	-57
et	-58
▁un	-59
am	-60
▁g	-61
▁re	-62
▁con	-63
▁la	-64
ol	-65
▁qu	-66
▁v	-67
▁en	-68
▁T	-69
ut	-70
ur	-71
▁I	-72
est	-73
▁you	-74
▁A	-75
iv	-76
ig	-77
ch	-78
▁is	-79
▁S	-80
te	-81
▁r	-82
ir	-83
▁com	-84
ers	-85
ul	-86
▁que	-87
if	-88
▁for	-89
▁pro	-90
ot	-91
od	-92
▁п	-93
ow	-94
▁E	-95
▁C	-96
tr	-97
▁al	-98
ab	-99
ation	-100
em	-101
um	-102
ст	-103
ci	-104
▁Th	-105
▁el	-106
▁P	-107
▁в	-108
ter	-109
▁se	-110
▁that	-111
ay	-112
▁be	-113
ce	-114
▁as	-115
ón	-116
ag	-117
▁и	-118
▁su	-119
▁par	-120
▁с	-121
th	-122
▁on	-123
▁-	-124
ant	-125
ct	-126
▁ex	-127
но	-128
ess	-129
ith	-130
то	-131
av	-132
▁1	-133
ly	-134
▁it	-135
ни	-136
▁or	-137
▁can	-138
ist	-139
▁us	-140
▁es	-141
end	-142
▁wh	-143
▁L	-144
▁M	-145
pl	-146
iz	-147
▁(	-148
and	-149
ра	-150
▁D	-151
на	-152
▁with	-153
ie	-154
ate	-155
ро	-156
▁are	-157
▁"	-158
▁H	-159
st	-160
ere	-161
ect	-162
ke	-163
ко	-164
▁tr	-165
ib	-166
ap	-167
▁im	-168
ort	-169
ver	-170
▁B	-171
▁о	-172
▁pr	-173
op	-174
ión	-175
oc	-176
ain	-177
▁st	-178
ud	-179
▁W	-180
ld	-181
ich	-182
▁est	-183
▁una	-184
ет	-185
▁2	-186
▁ch	-187
▁The	-188
▁F	-189
▁your	-190
▁para	-191
▁R	-192
ment	-193
▁м	-194
▁comp	-195
▁los	-196
ies	-197
ре	-198
▁G	-199
ill	-200
▁д	-201
ть	-202
ity	-203
ли	-204
per	-205
те	-206
ht	-207
ip	-208
ient	-209
▁по	-210
не	-211
▁fr	-212
▁me	-213
▁le	-214
▁ne	-215
for	-216
og	-217
▁res	-218
▁des	-219
▁k	-220
▁imp	-221
ue	-222
ine	-223
ны	-224
ia	-225
ль	-226
▁*	-227
act	-228
ва	-229
▁pl	-230
ould	-231
se	-232
ive	-233
▁N	-234
ación	-235
▁so	-236
ial	-237
ure	-238
ка	-239
▁j	-240
▁=	-241
ave	-242
▁O	-243
all	-244
ang	-245
--	-246
го	-247
ell	-248
ри	-249
ien	-250
▁pu	-251
our	-252
ide	-253
ions	-254
ado	-255
▁на	-256
ult	-257
oun	-258
▁ab	-259
idad	-260
▁sp	-261
age	-262
ome	-263
▁ar	-264
▁no	-265
▁per	-266
▁In	-267
▁ap	-268
to	-269
▁U	-270
▁del	-271
ore	-272
▁3	-273
gr	-274
▁sh	-275
ле	-276
▁ad	-277
cl	-278
io	-279
able	-280
form	-281
ific	-282
ind	-283
``	-284
ight	-285
▁by	-286
pt	-287
▁ser	-288
▁las	-289
ve	-290
▁have	-291
ach	-292
▁б	-293
ual	-294
ier	-295
▁not	-296
du	-297
ens	-298
ust	-299
▁gr	-300
ame	-301
▁we	-302
▁te	-303
ás	-304
fer	-305
ical	-306
во	-307
00	-308
ía	-309
▁cre	-310
▁at	-311
▁ч	-312
▁und	-313
ans	-314
та	-315
ло	-316
▁wor	-317
▁cons	-318
▁em	-319
▁dis	-320
out	-321
▁pre	-322
ica	-323
ak	-324
ire	-325
▁pued	-326
▁cl	-327
▁from	-328
▁ac	-329
ки	-330
▁lo	-331
▁cont	-332
▁do	-333
ener	-334
ra	-335
за	-336
ys	-337
ard	-338
ass	-339
▁man	-340
up	-341
ile	-342
▁J	-343
▁por	-344
ces	-345
▁не	-346
are	-347
ен	-348
▁ко	-349
ack	-350
▁dif	-351
ти	-352
cr	-353
pr	-354
ada	-355
▁mod	-356
tem	-357
ся	-358
so	-359
▁Y	-360
▁this	-361
ta	-362
▁he	-363
▁import	-364
ff	-365
ari	-366
ase	-367
▁V	-368
▁inter	-369
ля	-370
ations	-371
▁|	-372
ign	-373
ous	-374
art	-375
▁more	-376
ake	-377
ther	-378
▁4	-379
▁dat	-380
▁am	-381
aj	-382
ge	-383
▁у	-384
ite	-385
▁fun	-386
ple	-387
ла	-388
▁como	-389
ost	-390
▁has	-391
▁ent	-392
▁This	-393
ber	-394
да	-395
iones	-396
ime	-397
her	-398
▁z	-399
▁мо	-400
ks	-401
de	-402
▁It	-403
ional	-404
lo	-405
▁ob	-406
▁pers	-407
де	-408
▁hel	-409
ente	-410
ance	-411
int	-412
ech	-413
▁all	-414
ese	-415
**	-416
▁En	-417
▁5	-418
ми	-419
▁li	-420
▁their	-421
vel	-422
ace	-423
▁K	-424
▁which	-425
▁was	-426
▁э	-427
че	-428
▁incl	-429
▁if	-430
▁rec	-431
▁help	-432
▁use	-433
ound	-434
cess	-435
cia	-436
pe	-437
go	-438
▁some	-439
ción	-440
xt	-441
▁fe	-442
▁may	-443
uch	-444
▁ev	-445
▁más	-446
▁pos	-447
ice	-448
▁str	-449
▁such	-450
ante	-451
▁про	-452
ular	-453
▁go	-454
ния	-455
▁other	-456
ne	-457
▁ра	-458
▁will	-459
▁Wh	-460
ер	-461
▁form	-462
oug	-463
ated	-464
▁but	-465
мо	-466
les	-467
по	-468
▁person	-469
ци	-470
ft	-471
ence	-472
ру	-473
ong	-474
tic	-475
ction	-476
▁**	-477
ode	-478
▁1.	-479
▁col	-480
▁any	-481
▁cu	-482
ви	-483
же	-484
▁Es	-485
ug	-486
▁за	-487
ons	-488
ord	-489
▁ro	-490
▁sol	-491
que	-492
ido	-493
ok	-494
ater	-495
ando	-496
gun	-497
▁also	-498
ory	-499
▁they	-500
now	-501
▁An	-502
ely	-503
▁pe	-504
▁La	-505
▁со	-506
ten	-507
ps	-508
▁would	-509
▁like	-510
mo	-511
▁comm	-512
one	-513
▁#	-514
▁rel	-515
▁ver	-516
▁vari	-517
▁resp	-518
бо	-519
az	-520
▁prov	-521
▁к	-522
plic	-523
ible	-524
▁``	-525
ary	-526
ма	-527
▁out	-528
----	-529
ores	-530
▁progr	-531
olog	-532
con	-533
bre	-534
ors	-535
der	-536
ние	-537
▁son	-538
▁```	-539
//	-540
▁about	-541
▁die	-542
ast	-543
ди	-544
eng	-545
▁2.	-546
▁ка	-547
▁op	-548
▁что	-549
▁Un	-550
▁act	-551
ject	-552
▁cr	-553
he	-554
arn	-555
▁gener	-556
▁hum	-557
atur	-558
▁model	-559
ystem	-560
ung	-561
▁inform	-562
▁need	-563
▁int	-564
ub	-565
▁об	-566
ep	-567
ough	-568
▁et	-569
▁You	-570
ll	-571
we	-572
ста	-573
yth	-574
▁ele	-575
▁up	-576
util	-577
..	-578
aus	-579
amb	-580
▁а	-581
fic	-582
▁its	-583
▁know	-584
▁there	-585
▁3.	-586
▁sim	-587
▁val	-588
▁i	-589
▁data	-590
сти	-591
ados	-592
▁{	-593
▁der	-594
▁them	-595
▁time	-596
ве	-597
▁used	-598
▁spec	-599
ales	-600
ents	-601
ov	-602
ider	-603
▁includ	-604
▁Ch	-605
▁от	-606
▁util	-607
do	-608
▁how	-609
▁вы	-610
▁program	-611
чи	-612
dit	-613
ры	-614
ble	-615
▁real	-616
ert	-617
▁As	-618
ose	-619
▁é	-620
▁um	-621
▁bet	-622
▁differ	-623
▁е	-624
▁inv	-625
▁esp	-626
ão	-627
▁exam	-628
▁one	-629
put	-630
▁could	-631
ath	-632
▁<	-633
▁car	-634
port	-635
ме	-636
▁using	-637
ida	-638
uc	-639
▁How	-640
▁В	-641
▁ind	-642
ating	-643
low	-644
▁si	-645
хо	-646
()	-647
ics	-648
▁при	-649
▁ein	-650
▁comple	-651
▁El	-652
▁my	-653
ize	-654
▁requ	-655
▁co	-656
ail	-657
до	-658
era	-659
▁6	-660
▁то	-661
én	-662
▁med	-663
__	-664
pend	-665
сто	-666
▁ag	-667
▁produ	-668
ful	-669
▁puede	-670
▁я	-671
abil	-672
▁av	-673
ero	-674
ings	-675
ios	-676
res	-677
▁system	-678
pro	-679
ear	-680
erm	-681
▁new	-682
po	-683
▁exper	-684
▁make	-685
velop	-686
▁}	-687
▁ins	-688
▁into	-689
▁reg	-690
és	-691
▁over	-692
bl	-693
eg	-694
ython	-695
▁cor	-696
),	-697
▁num	-698
▁bas	-699
).	-700
▁во	-701
iend	-702
▁br	-703
▁до	-704
▁met	-705
",	-706
▁ke	-707
ick	-708
err	-709
ish	-710
ных	-711
▁4.	-712
▁Al	-713
uy	-714
▁ph	-715
▁St	-716
▁[	-717
erg	-718
▁dec	-719
▁та	-720
си	-721
ann	-722
ond	-723
ise	-724
▁cap	-725
▁utiliz	-726
elf	-727
ativ	-728
ree	-729
angu	-730
▁cal	-731
▁tu	-732
crip	-733
ча	-734
▁If	-735
ied	-736
iel	-737
cul	-738
▁pod	-739
▁important	-740
▁это	-741
ern	-742
со	-743
fr	-744
▁Est	-745
▁way	-746
▁def	-747
▁trans	-748
▁po	-749
urn	-750
зо	-751
▁these	-752
oy	-753
ild	-754
▁what	-755
сть	-756
▁¿	-757
ark	-758
▁sign	-759
▁work	-760
iento	-761
echn	-762
uct	-763
▁0	-764
▁pol	-765
ange	-766
ates	-767
com	-768
▁human	-769
ts	-770
ina	-771
cial	-772
▁nec	-773
uest	-774
▁ty	-775
encia	-776
cre	-777
▁'	-778
ivers	-779
▁learn	-780
▁П	-781
ку	-782
ду	-783
▁20	-784
▁eff	-785
ico	-786
лю	-787
ше	-788
▁те	-789
▁different	-790
ги	-791
tern	-792
inal	-793
▁tem	-794
fl	-795
ще	-796
▁`	-797
ever	-798
▁zu	-799
▁much	-800
лу	-801
igh	-802
▁langu	-803
▁Here	-804
erst	-805
▁+	-806
▁di	-807
ities	-808
cript	-809
▁develop	-810
amente	-811
▁list	-812
ian	-813
ware	-814
án	-815
ement	-816
za	-817
pos	-818
▁expl	-819
▁бы	-820
ну	-821
▁who	-822
ry	-823
ower	-824
му	-825
);	-826
ные	-827
▁bu	-828
▁Ad	-829
▁his	-830
row	-831
▁consider	-832
▁les	-833
wor	-834
ros	-835
▁т	-836
▁для	-837
▁aut	-838
▁code	-839
hr	-840
get	-841
▁мож	-842
its	-843
blem	-844
ix	-845
▁tien	-846
ши	-847
ura	-848
co	-849
▁set	-850
ict	-851
▁should	-852
▁ва	-853
oth	-854
uf	-855
ages	-856
▁bl	-857
▁process	-858
жи	-859
als	-860
▁than	-861
▁don	-862
▁example	-863
aciones	-864
▁ф	-865
▁10	-866
ative	-867
▁bec	-868
▁techn	-869
▁dur	-870
pres	-871
ют	-872
▁7	-873
▁result	-874
la	-875
▁из	-876
pen	-877
▁ре	-878
вать	-879
▁sec	-880
▁кото	-881
ink	-882
▁when	-883
▁fol	-884
urr	-885
ender	-886
ced	-887
▁web	-888
▁De	-889
ism	-890
▁play	-891
▁5.	-892
ade	-893
rol	-894
▁раз	-895
▁many	-896
▁19	-897
льно	-898
▁8	-899
▁quest	-900
ob	-901
▁ej	-902
▁AI	-903
▁sup	-904
▁ис	-905
▁For	-906
den	-907
ential	-908
▁fl	-909
ik	-910
▁get	-911
▁each	-912
▁з	-913
▁min	-914
uer	-915
▁part	-916
▁thr	-917
ument	-918
ér	-919
ople	-920
▁Re	-921
▁depend	-922
ras	-923
ock	-924
ambi	-925
▁pres	-926
▁hab	-927
▁sobre	-928
par	-929
▁pot	-930
entes	-931
ments	-932
▁lar	-933
ont	-934
▁Н	-935
cept	-936
mente	-937
pre	-938
▁Pro	-939
ene	-940
▁deb	-941
ood	-942
ues	-943
▁world	-944
ско	-945
ador	-946
▁create	-947
ias	-948
rit	-949
▁pop	-950
▁art	-951
own	-952
▁ass	-953
▁add	-954
▁fil	-955
aking	-956
▁comput	-957
▁What	-958
▁problem	-959
▁otr	-960
▁serv	-961
▁seg	-962
▁sub	-963
▁poss	-964
ais	-965
▁có	-966
▁ret	-967
▁lib	-968
adas	-969
▁where	-970
erstand	-971
ior	-972
▁hac	-973
ween	-974
▁sal	-975
▁entre	-976
▁dr	-977
▁find	-978
▁acc	-979
af	-980
▁inst	-981
▁dem	-982
се	-983
▁specific	-984
вы	-985
га	-986
jet	-987
▁most	-988
▁provide	-989
▁ist	-990
▁Ar	-991
ting	-992
▁contr	-993
▁between	-994
ph	-995
empl	-996
▁algun	-997
▁sin	-998
▁want	-999
▁people	-1000
▁hist	-1001
):	-1002
▁language	-1003
▁through	-1004
ax	-1005
可以	-1006
ices	-1007
ется	-1008
lich	-1009
wn	-1010
▁О	-1011
erc	-1012
▁dire	-1013
▁ide	-1014
▁char	-1015
por	-1016
ux	-1017
ife	-1018
▁just	-1019
vent	-1020
ata	-1021
▁sc	-1022
▁plan	-1023
▁С	-1024
gan	-1025
▁К	-1026
▁ay	-1027
▁However	-1028
▁alg	-1029
reat	-1030
ause	-1031
me	-1032
▁id	-1033
irst	-1034
▁fact	-1035
pect	-1036
▁sus	-1037
▁function	-1038
ows	-1039
▁$	-1040
▁been	-1041
ays	-1042
urs	-1043
▁equ	-1044
▁espec	-1045
▁ayud	-1046
▁while	-1047
idades	-1048
▁high	-1049
▁opt	-1050
▁information	-1051
сь	-1052
ный	-1053
▁bo	-1054
▁understand	-1055
▁Q	-1056
ем	-1057
20	-1058
▁gu	-1059
▁tw	-1060
▁pas	-1061
iente	-1062
enc	-1063
▁cas	-1064
▁vis	-1065
ara	-1066
▁then	-1067
▁Com	-1068
▁da	-1069
iment	-1070
ale	-1071
▁tod	-1072
▁signific	-1073
▁text	-1074
cu	-1075
ctr	-1076
▁ste	-1077
▁à	-1078
ount	-1079
icas	-1080
▁Python	-1081
ition	-1082
ún	-1083
▁как	-1084
▁her	-1085
▁experien	-1086
://	-1087
ной	-1088
гу	-1089
ере	-1090
▁Z	-1091
▁follow	-1092
▁No	-1093
▁cult	-1094
▁или	-1095
ivid	-1096
▁mat	-1097
mer	-1098
▁бо	-1099
ique	-1100
▁start	-1101
▁sm	-1102
▁let	-1103
ds	-1104
icht	-1105
ambién	-1106
ты	-1107
▁mej	-1108
acter	-1109
мен	-1110
ски	-1111
omet	-1112
erv	-1113
ств	-1114
ins	-1115
▁well	-1116
che	-1117
▁Le	-1118
duc	-1119
▁prof	-1120
▁sur	-1121
▁energ	-1122
▁пре	-1123
па	-1124
▁Ex	-1125
▁pueden	-1126
▁г	-1127
▁af	-1128
iem	-1129
▁recom	-1130
▁loc	-1131
iss	-1132
▁best	-1133
ature	-1134
ção	-1135
min	-1136
▁good	-1137
▁mus	-1138
ivo	-1139
olv	-1140
▁difer	-1141
inci	-1142
ato	-1143
▁neces	-1144
ür	-1145
▁Con	-1146
▁class	-1147
ution	-1148
▁To	-1149
▁du	-1150
ías	-1151
ex	-1152
▁hay	-1153
bo	-1154
▁pat	-1155
ня	-1156
tps	-1157
▁может	-1158
▁general	-1159
und	-1160
--------	-1161
enci	-1162
щи	-1163
▁vers	-1164
▁das	-1165
це	-1166
▁back	-1167
▁game	-1168
▁two	-1169
▁x	-1170
ines	-1171
añ	-1172
▁main	-1173
lease	-1174
iqu	-1175
ного	-1176
▁importante	-1177
icos	-1178
ples	-1179
▁но	-1180
▁ha	-1181
▁prom	-1182
▁env	-1183
ety	-1184
▁including	-1185
ftware	-1186
yn	-1187
▁sk	-1188
▁mov	-1189
ify	-1190
▁power	-1191
▁perm	-1192
▁Se	-1193
▁ин	-1194
▁adv	-1195
пе	-1196
▁Tr	-1197
▁There	-1198
▁/	-1199
aje	-1200
("	-1201
▁partic	-1202
▁long	-1203
itar	-1204
▁contin	-1205
▁den	-1206
▁file	-1207
▁да	-1208
▁were	-1209
пи	-1210
istem	-1211
ank	-1212
▁Si	-1213
ized	-1214
aining	-1215
▁dist	-1216
▁//	-1217
▁He	-1218
▁mejor	-1219
orm	-1220
ource	-1221
fore	-1222
be	-1223
til	-1224
ones	-1225
ures	-1226
▁return	-1227
▁number	-1228
▁ever	-1229
▁first	-1230
izar	-1231
▁Pr	-1232
ament	-1233
lect	-1234
iron	-1235
cion	-1236
▁popular	-1237
▁tas	-1238
▁own	-1239
ww	-1240
▁которы	-1241
▁hand	-1242
alth	-1243
▁von	-1244
crib	-1245
▁Be	-1246
▁го	-1247
поль	-1248
uro	-1249
▁life	-1250
▁9	-1251
▁princi	-1252
".	-1253
ious	-1254
бы	-1255
wer	-1256
ario	-1257
▁sit	-1258
▁prim	-1259
▁lim	-1260
▁mon	-1261
са	-1262
ness	-1263
▁cent	-1264
▁run	-1265
жа	-1266
work	-1267
сли	-1268
▁Can	-1269
▁Por	-1270
br	-1271
hod	-1272
▁design	-1273
▁ма	-1274
▁ejempl	-1275
ava	-1276
ger	-1277
▁exist	-1278
▁er	-1279
▁perform	-1280
▁ref	-1281
lement	-1282
ables	-1283
red	-1284
lev	-1285
▁pero	-1286
line	-1287
▁comb	-1288
▁appro	-1289
istant	-1290
▁complex	-1291
▁conf	-1292
▁bel	-1293
▁:	-1294
iew	-1295
▁term	-1296
▁see	-1297
▁ge	-1298
enta	-1299
▁Fr	-1300
ту	-1301
▁our	-1302
▁mult	-1303
▁eine	-1304
▁сво	-1305
▁Open	-1306
▁only	-1307
ena	-1308
▁provid	-1309
arm	-1310
▁objet	-1311
000	-1312
-1	-1313
▁water	-1314
▁oper	-1315
▁cada	-1316
▁personal	-1317
про	-1318
▁eng	-1319
▁sch	-1320
igo	-1321
зы	-1322
vers	-1323
anto	-1324
aph	-1325
ís	-1326
aterial	-1327
ences	-1328
ей	-1329
akes	-1330
▁mit	-1331
▁does	-1332
▁impro	-1333
▁learning	-1334
ources	-1335
ner	-1336
▁prot	-1337
▁activ	-1338
ility	-1339
▁We	-1340
ars	-1341
▁ме	-1342
▁natur	-1343
▁ans	-1344
▁commun	-1345
▁print	-1346
▁open	-1347
▁They	-1348
▁sig	-1349
▁individ	-1350
▁software	-1351
▁typ	-1352
▁ve	-1353
▁sistem	-1354
tica	-1355
▁key	-1356
other	-1357
bar	-1358
▁исполь	-1359
gen	-1360
▁bus	-1361
ство	-1362
▁effect	-1363
▁require	-1364
▁fam	-1365
▁take	-1366
ze	-1367
gg	-1368
▁Д	-1369
:**	-1370
▁product	-1371
quí	-1372
▁control	-1373
ito	-1374
▁anim	-1375
▁leng	-1376
▁pa	-1377
▁tip	-1378
▁.	-1379
ym	-1380
▁hacer	-1381
arch	-1382
▁mem	-1383
▁method	-1384
▁mo	-1385
ton	-1386
мы	-1387
read	-1388
ology	-1389
old	-1390
▁си	-1391
▁lead	-1392
ily	-1393
жно	-1394
▁6.	-1395
▁had	-1396
▁econ	-1397
▁rem	-1398
▁tener	-1399
▁Gr	-1400
▁being	-1401
зу	-1402
▁fin	-1403
iendo	-1404
ua	-1405
tes	-1406
▁off	-1407
▁const	-1408
вет	-1409
▁try	-1410
▁corre	-1411
ana	-1412
nect	-1413
rite	-1414
▁These	-1415
▁apr	-1416
ться	-1417
ции	-1418
."	-1419
hing	-1420
▁cam	-1421
ertain	-1422
ora	-1423
▁object	-1424
▁build	-1425
▁based	-1426
ca	-1427
jo	-1428
▁light	-1429
text	-1430
▁point	-1431
▁feel	-1432
="	-1433
orn	-1434
ically	-1435
▁algor	-1436
▁sent	-1437
▁ens	-1438
▁organ	-1439
▁possible	-1440
ustr	-1441
roll	-1442
uev	-1443
▁both	-1444
▁incre	-1445
▁direct	-1446
ward	-1447
▁even	-1448
▁applic	-1449
▁And	-1450
▁down	-1451
uel	-1452
ita	-1453
▁att	-1454
▁soci	-1455
ets	-1456
▁publ	-1457
uir	-1458
▁podr	-1459
imiento	-1460
uego	-1461
ols	-1462
▁stud	-1463
▁Т	-1464
▁auf	-1465
▁often	-1466
ody	-1467
▁men	-1468
arr	-1469
":	-1470
ization	-1471
▁call	-1472
▁sci	-1473
▁cho	-1474
ural	-1475
вля	-1476
▁pour	-1477
fect	-1478
▁include	-1479
▁ident	-1480
▁está	-1481
▁\	-1482
▁might	-1483
▁top	-1484
arte	-1485
ateg	-1486
▁input	-1487
urrent	-1488
ather	-1489
ino	-1490
▁datos	-1491
▁ext	-1492
ciones	-1493
▁So	-1494
▁forma	-1495
▁dos	-1496
ным	-1497
▁support	-1498
▁tom	-1499
▁под	-1500
ital	-1501
▁eas	-1502
▁бу	-1503
idos	-1504
▁Pl	-1505
▁дру	-1506
▁material	-1507
▁mas	-1508
▁year	-1509
ió	-1510
ty	-1511
...	-1512
▁spe	-1513
▁так	-1514
▁environ	-1515
ven	-1516
ability	-1517
hip	-1518
atures	-1519
▁project	-1520
chen	-1521
antes	-1522
▁vide	-1523
ational	-1524
iar	-1525
ited	-1526
▁fut	-1527
▁electr	-1528
▁individual	-1529
iempo	-1530
▁también	-1531
ased	-1532
eck	-1533
▁net	-1534
▁prop	-1535
▁potential	-1536
any	-1537
li	-1538
▁este	-1539
app	-1540
unt	-1541
▁Des	-1542
ор	-1543
▁infl	-1544
ithm	-1545
ак	-1546
▁(1	-1547
▁ст	-1548
ng	-1549
▁test	-1550
▁М	-1551
▁Is	-1552
▁health	-1553
▁social	-1554
▁Los	-1555
▁trab	-1556
▁Cl	-1557
▁ht	-1558
▁deter	-1559
▁ли	-1560
▁look	-1561
▁anal	-1562
ually	-1563
▁ll	-1564
amiento	-1565
ute	-1566
▁end	-1567
▁right	-1568
▁repres	-1569
ditional	-1570
ja	-1571
oid	-1572
▁univers	-1573
▁ви	-1574
▁sum	-1575
▁here	-1576
▁small	-1577
мер	-1578
ator	-1579
▁ing	-1580
▁inte	-1581
atch	-1582
▁Ne	-1583
一个	-1584
гра	-1585
pon	-1586
▁type	-1587
▁ejemplo	-1588
▁pract	-1589
▁bre	-1590
ismo	-1591
▁И	-1592
об	-1593
▁dev	-1594
▁princip	-1595
led	-1596
▁trav	-1597
ño	-1598
ress	-1599
▁log	-1600
▁puedes	-1601
▁tiempo	-1602
▁rest	-1603
ued	-1604
lt	-1605
▁По	-1606
uss	-1607
▁impact	-1608
iques	-1609
▁super	-1610
зи	-1611
kt	-1612
ientes	-1613
',	-1614
ames	-1615
▁pass	-1616
▁known	-1617
▁mach	-1618
ality	-1619
▁enc	-1620
▁beh	-1621
▁trad	-1622
чески	-1623
au	-1624
net	-1625
▁amb	-1626
вле	-1627
▁«	-1628
oss	-1629
▁X	-1630
▁red	-1631
press	-1632
ний	-1633
▁coun	-1634
da	-1635
▁mi	-1636
▁uma	-1637
els	-1638
▁user	-1639
▁access	-1640
▁around	-1641
cc	-1642
uz	-1643
▁Ass	-1644
▁могу	-1645
▁лю	-1646
▁Cre	-1647
edad	-1648
▁Sch	-1649
▁better	-1650
▁—	-1651
▁vida	-1652
▁все	-1653
▁пере	-1654
▁А	-1655
oria	-1656
ров	-1657
trib	-1658
▁read	-1659
▁value	-1660
ря	-1661
ivos	-1662
▁esta	-1663
ives	-1664
**:	-1665
▁os	-1666
▁det	-1667
ats	-1668
сле	-1669
▁large	-1670
ilar	-1671
##	-1672
▁cual	-1673
amos	-1674
earch	-1675
▁arr	-1676
▁orig	-1677
▁conoc	-1678
▁mean	-1679
▁ya	-1680
▁desar	-1681
▁development	-1682
▁simple	-1683
aut	-1684
▁name	-1685
▁¡	-1686
self	-1687
hn	-1688
tract	-1689
йте	-1690
▁otros	-1691
чно	-1692
▁tus	-1693
undo	-1694
▁ou	-1695
val	-1696
▁On	-1697
iter	-1698
anc	-1699
▁inc	-1700
eta	-1701
▁ве	-1702
ope	-1703
iva	-1704
ming	-1705
▁conc	-1706
▁self	-1707
▁vol	-1708
▁información	-1709
▁proper	-1710
сно	-1711
▁Java	-1712
▁tiene	-1713
▁public	-1714
▁aplic	-1715
▁because	-1716
truct	-1717
▁color	-1718
ape	-1719
ird	-1720
2.	-1721
▁Sure	-1722
▁very	-1723
▁invest	-1724
▁mar	-1725
▁кон	-1726
PI	-1727
ál	-1728
▁respon	-1729
ants	-1730
▁somet	-1731
▁questions	-1732
::	-1733
▁few	-1734
▁il	-1735
▁trabaj	-1736
▁without	-1737
▁dass	-1738
ды	-1739
gar	-1740
ense	-1741
▁cle	-1742
▁give	-1743
bol	-1744
▁une	-1745
▁same	-1746
itt	-1747
ocus	-1748
▁für	-1749
▁caus	-1750
▁mark	-1751
▁day	-1752
▁Im	-1753
▁phys	-1754
▁before	-1755
ply	-1756
▁ess	-1757
▁Some	-1758
▁current	-1759
ños	-1760
ша	-1761
▁Sin	-1762
ín	-1763
▁environment	-1764
▁made	-1765
▁energy	-1766
▁esc	-1767
▁every	-1768
▁redu	-1769
▁stat	-1770
▁che	-1771
▁muy	-1772
▁cir	-1773
▁range	-1774
ren	-1775
▁nú	-1776
▁Go	-1777
▁algorithm	-1778
▁kann	-1779
▁chall	-1780
▁implement	-1781
bers	-1782
вер	-1783
▁great	-1784
▁mot	-1785
▁chang	-1786
▁still	-1787
▁ris	-1788
ately	-1789
▁answer	-1790
ream	-1791
▁making	-1792
tro	-1793
▁natural	-1794
▁hard	-1795
ains	-1796
▁sure	-1797
▁correct	-1798
car	-1799
▁she	-1800
▁Sie	-1801
▁>	-1802
▁Sp	-1803
▁ten	-1804
▁connect	-1805
itive	-1806
ugar	-1807
▁fre	-1808
▁interest	-1809
▁gen	-1810
ificial	-1811
су	-1812
▁pregun	-1813
▁various	-1814
▁leg	-1815
▁systems	-1816
▁Э	-1817
ways	-1818
adores	-1819
▁ста	-1820
▁ми	-1821
las	-1822
23	-1823
ista	-1824
10	-1825
AI	-1826
▁7.	-1827
▁mag	-1828
▁dest	-1829
éc	-1830
arth	-1831
endo	-1832
тель	-1833
▁found	-1834
▁sever	-1835
▁belie	-1836
▁ask	-1837
▁research	-1838
ön	-1839
▁На	-1840
▁common	-1841
▁decis	-1842
▁са	-1843
ano	-1844
▁But	-1845
digo	-1846
▁comun	-1847
▁question	-1848
▁food	-1849
▁pal	-1850
men	-1851
▁exp	-1852
▁econom	-1853
▁де	-1854
ке	-1855
▁lí	-1856
▁defin	-1857
ning	-1858
▁https	-1859
▁concept	-1860
▁free	-1861
tail	-1862
▁lengu	-1863
▁diferentes	-1864
hl	-1865
▁ú	-1866
acy	-1867
emos	-1868
▁allow	-1869
▁struct	-1870
1,	-1871
In	-1872
1.	-1873
▁qui	-1874
▁помо	-1875
▁mundo	-1876
xim	-1877
▁бе	-1878
▁following	-1879
▁Para	-1880
ства	-1881
▁arg	-1882
enn	-1883
▁crear	-1884
▁Р	-1885
iven	-1886
ola	-1887
trar	-1888
▁integr	-1889
тельно	-1890
alk	-1891
ная	-1892
ек	-1893
⠀⠀	-1894
▁bene	-1895
▁else	-1896
▁fiel	-1897
PT	-1898
ición	-1899
▁again	-1900
▁arch	-1901
")	-1902
let	-1903
▁código	-1904
▁sistema	-1905
▁хо	-1906
▁especial	-1907
▁writ	-1908
▁respons	-1909
▁sich	-1910
▁grow	-1911
▁Е	-1912
▁command	-1913
▁involv	-1914
▁character	-1915
omb	-1916
ustom	-1917
需要	-1918
▁cur	-1919
▁пред	-1920
тов	-1921
▁doc	-1922
gin	-1923
▁install	-1924
▁ich	-1925
ases	-1926
▁pur	-1927
encias	-1928
при	-1929
▁ce	-1930
cil	-1931
▁cos	-1932
▁ни	-1933
▁compr	-1934
▁level	-1935
▁oder	-1936
____	-1937
ances	-1938
los	-1939
▁mé	-1940
ires	-1941
▁manera	-1942
▁several	-1943
би	-1944
tra	-1945
arse	-1946
▁proces	-1947
▁зна	-1948
elig	-1949
ought	-1950
▁Em	-1951
ved	-1952
бе	-1953
▁iss	-1954
ists	-1955
ained	-1956
imes	-1957
mend	-1958
▁bien	-1959
iness	-1960
лько	-1961
sh	-1962
▁experience	-1963
▁á	-1964
▁estr	-1965
ser	-1966
▁think	-1967
▁situ	-1968
ões	-1969
ска	-1970
▁focus	-1971
▁computer	-1972
▁mil	-1973
iving	-1974
anz	-1975
▁significant	-1976
▁rev	-1977
зова	-1978
▁dig	-1979
▁быть	-1980
▁able	-1981
▁Sh	-1982
▁libr	-1983
▁webs	-1984
ombre	-1985
▁sea	-1986
▁cómo	-1987
▁prefer	-1988
▁tec	-1989
▁рас	-1990
▁dise	-1991
▁avail	-1992
aro	-1993
▁gl	-1994
))	-1995
▁ча	-1996
▁those	-1997
▁Te	-1998
▁ment	-1999
ull	-2000
▁err	-2001
▁skill	-2002
▁resources	-2003
emás	-2004
thers	-2005
рова	-2006
play	-2007
▁че	-2008
▁neg	-2009
▁nicht	-2010
▁personas	-2011
ello	-2012
гда	-2013
▁similar	-2014
▁features	-2015
▁line	-2016
▁hasta	-2017
átic	-2018
ieren	-2019
aces	-2020
▁па	-2021
▁incluy	-2022
▁change	-2023
▁necess	-2024
▁contrib	-2025
▁Do	-2026
▁cost	-2027
▁temper	-2028
yle	-2029
▁Qu	-2030
▁которые	-2031
▁idea	-2032
ma	-2033
▁sa	-2034
The	-2035
нии	-2036
▁video	-2037
50	-2038
ungen	-2039
▁grand	-2040
ories	-2041
usion	-2042
arios	-2043
ga	-2044
inux	-2045
▁represent	-2046
of	-2047
▁during	-2048
▁keep	-2049
▁algunos	-2050
ency	-2051
▁priv	-2052
▁minut	-2053
▁cuenta	-2054
ots	-2055
▁calcul	-2056
vert	-2057
▁воз	-2058
▁story	-2059
irt	-2060
▁base	-2061
▁autom	-2062
▁embar	-2063
ally	-2064
abor	-2065
▁чтобы	-2066
önn	-2067
▁influ	-2068
ogr	-2069
entr	-2070
▁always	-2071
ento	-2072
▁?	-2073
▁Ap	-2074
ствен	-2075
▁less	-2076
▁care	-2077
▁sugg	-2078
▁detail	-2079
ходи	-2080
uck	-2081
▁element	-2082
ium	-2083
▁ком	-2084
lex	-2085
▁жи	-2086
сы	-2087
▁diffic	-2088
лее	-2089
▁factors	-2090
▁nuev	-2091
▁something	-2092
2,	-2093
itud	-2094
▁sens	-2095
▁things	-2096
▁certain	-2097
▁pap	-2098
urity	-2099
▁years	-2100
▁función	-2101
▁вре	-2102
oup	-2103
88	-2104
ús	-2105
hor	-2106
▁challeng	-2107
▁quant	-2108
▁training	-2109
ogle	-2110
▁Assistant	-2111
lish	-2112
▁mom	-2113
▁place	-2114
ula	-2115
▁source	-2116
▁suggest	-2117
▁interact	-2118
▁image	-2119
▁fa	-2120
▁after	-2121
▁actual	-2122
▁countr	-2123
▁ensure	-2124
▁understanding	-2125
íst	-2126
▁könn	-2127
▁under	-2128
▁response	-2129
▁Me	-2130
▁When	-2131
▁refer	-2132
▁space	-2133
▁improve	-2134
ves	-2135
▁же	-2136
agen	-2137
▁friend	-2138
ole	-2139
rop	-2140
ющи	-2141
▁means	-2142
▁effic	-2143
зда	-2144
▁solo	-2145
▁disc	-2146
▁inde	-2147
тив	-2148
ember	-2149
▁•	-2150
▁One	-2151
▁compon	-2152
зна	-2153
▁Bl	-2154
▁mess	-2155
бу	-2156
ken	-2157
▁encon	-2158
▁artificial	-2159
pa	-2160
▁plat	-2161
ites	-2162
word	-2163
ífic	-2164
▁final	-2165
▁sigu	-2166
▁aus	-2167
▁могут	-2168
▁recommend	-2169
ination	-2170
▁lik	-2171
▁gran	-2172
▁обра	-2173
js	-2174
пра	-2175
▁custom	-2176
使用	-2177
▁Or	-2178
fin	-2179
ются	-2180
▁steps	-2181
▁sind	-2182
▁consum	-2183
iste	-2184
▁optim	-2185
▁models	-2186
quier	-2187
▁others	-2188
avor	-2189
ución	-2190
ours	-2191
ells	-2192
0,	-2193
uras	-2194
▁performance	-2195
land	-2196
ellig	-2197
++	-2198
▁saf	-2199
▁network	-2200
▁се	-2201
ную	-2202
сте	-2203
unto	-2204
▁mind	-2205
▁poder	-2206
▁lugar	-2207
less	-2208
▁available	-2209
▁compar	-2210
▁ach	-2211
▁wer	-2212
▁output	-2213
ss	-2214
ima	-2215
▁gre	-2216
cle	-2217
ule	-2218
▁difficult	-2219
cer	-2220
raft	-2221
ece	-2222
idas	-2223
▁Aquí	-2224
▁его	-2225
▁mill	-2226
▁Use	-2227
ба	-2228
тся	-2229
▁sl	-2230
▁programming	-2231
mos	-2232
кой	-2233
▁prote	-2234
itor	-2235
нных	-2236
▁dies	-2237
▁vez	-2238
▁case	-2239
('	-2240
▁describ	-2241
▁18	-2242
▁machine	-2243
apt	-2244
▁body	-2245
just	-2246
▁mais	-2247
▁embargo	-2248
ень	-2249
▁рабо	-2250
▁Er	-2251
indows	-2252
▁him	-2253
▁пра	-2254
ube	-2255
шь	-2256
ling	-2257
▁air	-2258
▁condit	-2259
▁script	-2260
▁capac	-2261
пу	-2262
▁protect	-2263
▁desde	-2264
▁now	-2265
▁constr	-2266
▁examples	-2267
aving	-2268
face	-2269
▁tecn	-2270
▁called	-2271
▁utiliza	-2272
▁particular	-2273
ícul	-2274
▁local	-2275
▁Am	-2276
▁prob	-2277
▁Please	-2278
▁Además	-2279
▁Я	-2280
▁divers	-2281
</	-2282
лове	-2283
▁todo	-2284
ama	-2285
▁API	-2286
▁due	-2287
Script	-2288
▁tienes	-2289
мя	-2290
▁Ver	-2291
▁fac	-2292
ccess	-2293
www	-2294
ai	-2295
ication	-2296
amient	-2297
emat	-2298
▁pi	-2299
▁aud	-2300
▁must	-2301
▁write	-2302
▁content	-2303
▁approach	-2304
▁tools	-2305
▁While	-2306
▁order	-2307
▁math	-2308
▁funct	-2309
▁distrib	-2310
ulation	-2311
▁Linux	-2312
att	-2313
▁online	-2314
ches	-2315
▁todos	-2316
▁estos	-2317
▁bi	-2318
▁100	-2319
▁future	-2320
▁allows	-2321
▁ро	-2322
ными	-2323
▁needs	-2324
serv	-2325
▁port	-2326
ór	-2327
ades	-2328
itos	-2329
▁боль	-2330
ides	-2331
▁wie	-2332
▁technology	-2333
▁applications	-2334
▁another	-2335
▁aw	-2336
ash	-2337
ibil	-2338
▁mayor	-2339
▁respuest	-2340
▁norm	-2341
▁pred	-2342
▁abs	-2343
▁request	-2344
not	-2345
▁usar	-2346
urther	-2347
нима	-2348
▁too	-2349
▁сло	-2350
▁did	-2351
▁sab	-2352
▁ant	-2353
vern	-2354
▁size	-2355
▁ways	-2356
uring	-2357
дет	-2358
tre	-2359
▁Cons	-2360
▁manag	-2361
▁uno	-2362
▁auch	-2363
ems	-2364
▁engine	-2365
стви	-2366
▁hor	-2367
▁usu	-2368
▁event	-2369
ml	-2370
▁tasks	-2371
▁multip	-2372
igen	-2373
▁200	-2374
▁aff	-2375
▁works	-2376
https	-2377
▁etc	-2378
ledge	-2379
thing	-2380
ength	-2381
▁lenguaje	-2382
▁server	-2383
bal	-2384
кие	-2385
▁qué	-2386
ON	-2387
ция	-2388
าร	-2389
▁су	-2390
ige	-2391
ancia	-2392
▁stand	-2393
▁lab	-2394
▁behav	-2395
SS	-2396
ha	-2397
▁voc	-2398
^2	-2399
name	-2400
▁anything	-2401
▁país	-2402
une	-2403
cel	-2404
ству	-2405
ements	-2406
▁non	-2407
▁That	-2408
▁determin	-2409
ben	-2410
▁prec	-2411
▁vel	-2412
▁achie	-2413
▁conse	-2414
na	-2415
▁ci	-2416
duct	-2417
▁document	-2418
▁market	-2419
illa	-2420
▁users	-2421
▁dar	-2422
▁mant	-2423
▁uses	-2424
▁“	-2425
ek	-2426
ían	-2427
▁regular	-2428
▁lay	-2429
▁scient	-2430
▁unique	-2431
▁div	-2432
▁tar	-2433
▁ed	-2434
▁come	-2435
ное	-2436
ouse	-2437
▁201	-2438
▁если	-2439
▁Esto	-2440
▁fund	-2441
стро	-2442
echan	-2443
▁можно	-2444
▁оп	-2445
▁pel	-2446
▁plus	-2447
▁sw	-2448
add	-2449
▁obt	-2450
▁sem	-2451
utions	-2452
ER	-2453
ho	-2454
фи	-2455
ogn	-2456
▁sound	-2457
▁industr	-2458
▁cant	-2459
▁note	-2460
▁platform	-2461
iert	-2462
▁инте	-2463
▁hope	-2464
▁8.	-2465
▁Wor	-2466
ología	-2467
odo	-2468
ву	-2469
可能	-2470
cción	-2471
ients	-2472
▁become	-2473
▁Это	-2474
▁algo	-2475
▁types	-2476
▁propor	-2477
▁Let	-2478
▁please	-2479
▁ayudar	-2480
▁reas	-2481
▁Jo	-2482
▁werden	-2483
ización	-2484
▁Yes	-2485
ified	-2486
▁dom	-2487
▁present	-2488
▁Las	-2489
▁equip	-2490
▁hy	-2491
▁vi	-2492
▁cuando	-2493
back	-2494
▁rad	-2495
клю	-2496
▁search	-2497
▁reci	-2498
istic	-2499
▁modern	-2500
▁mal	-2501
imate	-2502
0.	-2503
no	-2504
▁persona	-2505
▁Col	-2506
▁tell	-2507
ck	-2508
▁ideas	-2509
▁HT	-2510
eces	-2511
ность	-2512
▁continu	-2513
▁З	-2514
ption	-2515
▁созда	-2516
▁By	-2517
──	-2518
ove	-2519
▁челове	-2520
▁Una	-2521
▁utilizar	-2522
▁strong	-2523
▁sym	-2524
oph	-2525
xto	-2526
ican	-2527
▁until	-2528
vol	-2529
eros	-2530
zen	-2531
▁provides	-2532
▁limit	-2533
▁lista	-2534
▁fue	-2535
дер	-2536
org	-2537
▁educ	-2538
▁profess	-2539
aba	-2540
ery	-2541
load	-2542
nea	-2543
ções	-2544
],	-2545
yr	-2546
ush	-2547
iate	-2548
idade	-2549
▁techniques	-2550
▁12	-2551
▁dé	-2552
ilos	-2553
▁als	-2554
uj	-2555
▁uso	-2556
▁други	-2557
▁pattern	-2558
ár	-2559
med	-2560
▁vous	-2561
▁tipo	-2562
▁polit	-2563
▁context	-2564
▁Б	-2565
come	-2566
ether	-2567
▁say	-2568
▁durante	-2569
tal	-2570
mero	-2571
iza	-2572
▁aprend	-2573
сси	-2574
▁music	-2575
va	-2576
нет	-2577
▁mis	-2578
raw	-2579
▁check	-2580
ired	-2581
▁altern	-2582
iten	-2583
ane	-2584
▁Eng	-2585
▁pack	-2586
▁helps	-2587
▁love	-2588
amp	-2589
▁ni	-2590
▁accur	-2591
от	-2592
▁сто	-2593
▁donde	-2594
▁glo	-2595
▁meas	-2596
▁show	-2597
▁history	-2598
inar	-2599
▁likely	-2600
▁–	-2601
▁ди	-2602
▁Este	-2603
ков	-2604
▁historia	-2605
▁explor	-2606
▁knowledge	-2607
3.	-2608
▁state	-2609
▁thought	-2610
▁head	-2611
gos	-2612
▁sing	-2613
elt	-2614
▁veg	-2615
▁estud	-2616
▁mechan	-2617
▁convers	-2618
▁website	-2619
ecut	-2620
▁estas	-2621
▁veloc	-2622
▁reduce	-2623
OS	-2624
▁offer	-2625
▁changes	-2626
▁At	-2627
▁desarroll	-2628
ком	-2629
▁их	-2630
▁cualquier	-2631
▁Ge	-2632
▁ability	-2633
pet	-2634
sch	-2635
▁pain	-2636
▁prev	-2637
▁Если	-2638
ientras	-2639
ée	-2640
amm	-2641
óm	-2642
▁вам	-2643
▁parte	-2644
▁speed	-2645
▁Google	-2646
ха	-2647
▁более	-2648
фор	-2649
▁success	-2650
ploy	-2651
▁skills	-2652
ща	-2653
▁Esper	-2654
än	-2655
▁habil	-2656
▁tanto	-2657
ibr	-2658
▁algunas	-2659
osa	-2660
ên	-2661
▁finan	-2662
▁rob	-2663
▁wid	-2664
▁frame	-2665
5,	-2666
▁це	-2667
зво	-2668
▁Additional	-2669
ML	-2670
▁tre	-2671
▁efect	-2672
▁address	-2673
▁0.	-2674
ights	-2675
ности	-2676
▁número	-2677
ait	-2678
▁gar	-2679
▁occ	-2680
▁meaning	-2681
iere	-2682
▁Br	-2683
▁values	-2684
▁within	-2685
▁With	-2686
▁programación	-2687
▁resum	-2688
▁aprender	-2689
▁tienen	-2690
▁multiple	-2691
▁==	-2692
▁Over	-2693
anced	-2694
dr	-2695
▁prompt	-2696
▁strateg	-2697
▁creating	-2698
▁u	-2699
onal	-2700
works	-2701
▁Die	-2702
▁resol	-2703
▁original	-2704
óg	-2705
leg	-2706
ret	-2707
ident	-2708
▁polí	-2709
ibles	-2710
ческо	-2711
▁prevent	-2712
99	-2713
ensive	-2714
wh	-2715
sc	-2716
сту	-2717
▁why	-2718
логи	-2719
▁Earth	-2720
▁luz	-2721
▁second	-2722
▁structure	-2723
ят	-2724
ards	-2725
▁mejorar	-2726
ํา	-2727
▁relev	-2728
col	-2729
jos	-2730
▁relations	-2731
▁Lo	-2732
▁прои	-2733
gether	-2734
▁together	-2735
fo	-2736
iles	-2737
▁field	-2738
▁puedo	-2739
▁security	-2740
▁од	-2741
▁años	-2742
▁modelo	-2743
▁intelig	-2744
▁na	-2745
▁deep	-2746
tead	-2747
▁war	-2748
▁bot	-2749
▁further	-2750
oud	-2751
▁short	-2752
▁mes	-2753
▁benef	-2754
str	-2755
▁app	-2756
чения	-2757
▁fu	-2758
▁cause	-2759
ws	-2760
▁Ч	-2761
нию	-2762
▁также	-2763
tar	-2764
▁low	-2765
▁remo	-2766
▁Additionally	-2767
▁je	-2768
----------------	-2769
▁My	-2770
▁IA	-2771
ric	-2772
by	-2773
ecu	-2774
▁interpre	-2775
▁así	-2776
▁están	-2777
лы	-2778
луча	-2779
itect	-2780
▁experiment	-2781
PU	-2782
zar	-2783
inter	-2784
▁fo	-2785
▁явля	-2786
▁turn	-2787
ี่	-2788
▁words	-2789
▁express	-2790
ona	-2791
ursos	-2792
▁Euro	-2793
hen	-2794
▁US	-2795
▁teor	-2796
▁JavaScript	-2797
▁16	-2798
ience	-2799
▁terr	-2800
问题	-2801
▁sie	-2802
▁caracter	-2803
über	-2804
▁yourself	-2805
ving	-2806
▁appe	-2807
path	-2808
▁Mar	-2809
▁cour	-2810
ун	-2811
▁tend	-2812
▁palab	-2813
je	-2814
▁aspect	-2815
ector	-2816
▁dans	-2817
▁grav	-2818
▁intellig	-2819
GPT	-2820
oks	-2821
อง	-2822
▁She	-2823
▁bal	-2824
▁encontrar	-2825
ети	-2826
▁plant	-2827
▁considered	-2828
ift	-2829
▁herr	-2830
▁issues	-2831
pose	-2832
▁variety	-2833
▁</	-2834
▁име	-2835
▁happ	-2836
▁antes	-2837
eter	-2838
▁study	-2839
oco	-2840
▁camb	-2841
lar	-2842
cular	-2843
ificar	-2844
▁visual	-2845
man	-2846
пол	-2847
▁files	-2848
ono	-2849
▁есть	-2850
▁avoid	-2851
我们	-2852
▁intern	-2853
ью	-2854
▁У	-2855
▁pode	-2856
ters	-2857
▁role	-2858
▁Dis	-2859
▁otro	-2860
▁salud	-2861
▁quality	-2862
▁aquí	-2863
python	-2864
▁humans	-2865
▁respect	-2866
▁Rec	-2867
▁Windows	-2868
dic	-2869
▁press	-2870
▁transform	-2871
itch	-2872
▁&	-2873
▁día	-2874
AR	-2875
tas	-2876
▁amount	-2877
▁чи	-2878
▁fall	-2879
ru	-2880
fort	-2881
▁agua	-2882
▁esto	-2883
ention	-2884
imient	-2885
▁nature	-2886
▁язы	-2887
▁Amer	-2888
нием	-2889
untos	-2890
ном	-2891
▁Per	-2892
▁desc	-2893
acters	-2894
▁vo	-2895
aster	-2896
ете	-2897
▁Pued	-2898
77	-2899
▁precis	-2900
itas	-2901
▁govern	-2902
▁depending	-2903
лек	-2904
▁Ph	-2905
▁вопро	-2906
Qu	-2907
▁mir	-2908
▁línea	-2909
ffe	-2910
циа	-2911
ám	-2912
date	-2913
andom	-2914
▁nos	-2915
▁three	-2916
▁professional	-2917
▁pes	-2918
▁_	-2919
▁ampl	-2920
▁muchos	-2921
aries	-2922
▁options	-2923
▁использу	-2924
▁Thank	-2925
▁assist	-2926
▁wel	-2927
▁juego	-2928
▁virt	-2929
posit	-2930
ajes	-2931
▁debe	-2932
acion	-2933
▁break	-2934
▁proporcion	-2935
▁clear	-2936
进行	-2937
▁fal	-2938
пример	-2939
▁relationship	-2940
▁15	-2941
▁herramient	-2942
py	-2943
ран	-2944
▁land	-2945
▁maint	-2946
▁posible	-2947
ца	-2948
学习	-2949
▁ré	-2950
ological	-2951
▁mientras	-2952
▁Jap	-2953
▁adapt	-2954
▁makes	-2955
ams	-2956
▁ты	-2957
▁behavior	-2958
▁Ste	-2959
▁favor	-2960
aten	-2961
▁han	-2962
▁languages	-2963
▁explain	-2964
▁methods	-2965
▁begin	-2966
▁media	-2967
▁terms	-2968
▁involves	-2969
">	-2970
▁dir	-2971
▁observ	-2972
一些	-2973
▁via	-2974
▁view	-2975
ivel	-2976
bs	-2977
提供	-2978
▁ir	-2979
▁encu	-2980
fe	-2981
▁30	-2982
izing	-2983
▁mor	-2984
▁easy	-2985
▁company	-2986
▁characters	-2987
▁Esta	-2988
сло	-2989
▁ciud	-2990
▁können	-2991
joy	-2992
▁reduc	-2993
▁Str	-2994
▁nut	-2995
▁sort	-2996
луч	-2997
▁post	-2998
ibility	-2999
▁спо	-3000
▁gust	-3001
▁version	-3002
the	-3003
вя	-3004
ffic	-3005
▁special	-3006
ering	-3007
oms	-3008
▁estar	-3009
▁cultural	-3010
oca	-3011
▁business	-3012
▁mathemat	-3013
▁sun	-3014
▁También	-3015
▁jug	-3016
▁affect	-3017
▁subject	-3018
ively	-3019
▁otras	-3020
iet	-3021
грам	-3022
▁reach	-3023
ход	-3024
▁respuesta	-3025
▁next	-3026
ém	-3027
▁podría	-3028
ler	-3029
soci	-3030
▁bar	-3031
▁true	-3032
่า	-3033
▁ку	-3034
▁summ	-3035
▁home	-3036
▁compet	-3037
реде	-3038
▁он	-3039
ione	-3040
▁numbers	-3041
цио	-3042
▁total	-3043
如果	-3044
pañ	-3045
дь	-3046
▁fís	-3047
icios	-3048
▁fuer	-3049
ording	-3050
▁recomend	-3051
▁sense	-3052
▁separ	-3053
set	-3054
▁physical	-3055
ltim	-3056
▁caso	-3057
数据	-3058
▁conditions	-3059
▁step	-3060
▁designed	-3061
лен	-3062
11	-3063
▁relativ	-3064
▁quick	-3065
▁series	-3066
▁theory	-3067
gre	-3068
ром	-3069
aves	-3070
time	-3071
ules	-3072
▁services	-3073
▁additional	-3074
▁cab	-3075
▁old	-3076
▁empres	-3077
▁nombre	-3078
ury	-3079
▁пи	-3080
▁emot	-3081
▁wird	-3082
leep	-3083
▁against	-3084
alu	-3085
▁ответ	-3086
ких	-3087
▁verd	-3088
')	-3089
▁capt	-3090
▁famil	-3091
▁nuest	-3092
▁din	-3093
▁mismo	-3094
▁permite	-3095
▁bro	-3096
acional	-3097
▁generate	-3098
4.	-3099
fica	-3100
hal	-3101
ney	-3102
uesto	-3103
▁cook	-3104
▁aliment	-3105
▁necessary	-3106
ground	-3107
▁sor	-3108
语言	-3109
▁intro	-3110
▁quantum	-3111
▁given	-3112
2)	-3113
▁inn	-3114
▁cy	-3115
▁Ко	-3116
umn	-3117
▁dese	-3118
▁kind	-3119
▁ayudarte	-3120
▁ну	-3121
▁side	-3122
▁quier	-3123
▁memory	-3124
ibt	-3125
erse	-3126
▁Pre	-3127
▁tradit	-3128
▁problems	-3129
adr	-3130
use	-3131
▁elements	-3132
écn	-3133
unque	-3134
▁cannot	-3135
igur	-3136
wend	-3137
ysis	-3138
▁contain	-3139
aps	-3140
▁pan	-3141
▁aument	-3142
30	-3143
aría	-3144
▁evid	-3145
▁который	-3146
▁explic	-3147
▁través	-3148
head	-3149
▁cop	-3150
▁dam	-3151
智能	-3152
▁фи	-3153
iene	-3154
▁мы	-3155
лей	-3156
▁instr	-3157
ça	-3158
соб	-3159
▁Chat	-3160
▁coll	-3161
стоя	-3162
▁edit	-3163
спе	-3164
oma	-3165
каза	-3166
▁prepar	-3167
▁choice	-3168
rollo	-3169
▁path	-3170
▁fundament	-3171
ні	-3172
▁hat	-3173
▁осно	-3174
▁attack	-3175
▁Reg	-3176
▁target	-3177
cha	-3178
▁move	-3179
▁ey	-3180
▁bat	-3181
ação	-3182
▁específic	-3183
iver	-3184
торы	-3185
▁arm	-3186
▁individuals	-3187
▁Mod	-3188
ahr	-3189
file	-3190
▁since	-3191
▁detect	-3192
▁Once	-3193
▁mass	-3194
▁Final	-3195
▁enough	-3196
oj	-3197
▁funcion	-3198
ral	-3199
based	-3200
iencia	-3201
зовать	-3202
▁harm	-3203
▁llev	-3204
▁community	-3205
▁style	-3206
iod	-3207
ucle	-3208
▁application	-3209
▁llam	-3210
▁ra	-3211
▁aqu	-3212
▁объ	-3213
istr	-3214
模型	-3215
▁Sol	-3216
ample	-3217
▁World	-3218
▁будет	-3219
▁universe	-3220
▁valor	-3221
▁Dr	-3222
ius	-3223
▁building	-3224
▁Г	-3225
una	-3226
ที่	-3227
▁9.	-3228
▁ca	-3229
▁squ	-3230
▁perspect	-3231
вой	-3232
();	-3233
ograph	-3234
▁working	-3235
▁efficient	-3236
▁Create	-3237
ron	-3238
ume	-3239
▁oc	-3240
▁minutes	-3241
ende	-3242
eras	-3243
▁ear	-3244
▁science	-3245
▁challenges	-3246
▁indic	-3247
▁takes	-3248
▁area	-3249
унк	-3250
▁realizar	-3251
ID	-3252
itle	-3253
▁syn	-3254
▁powerful	-3255
3,	-3256
▁tool	-3257
▁digital	-3258
▁Rem	-3259
▁images	-3260
▁técn	-3261
▁child	-3262
▁Su	-3263
▁эти	-3264
▁word	-3265
▁ц	-3266
agr	-3267
▁oil	-3268
ension	-3269
▁minim	-3270
cover	-3271
▁neur	-3272
▁sust	-3273
wards	-3274
▁confl	-3275
▁results	-3276
три	-3277
▁max	-3278
ently	-3279
▁ofre	-3280
▁consult	-3281
▁mic	-3282
▁útil	-3283
▁Res	-3284
▁otra	-3285
▁свои	-3286
▁einen	-3287
▁cantidad	-3288
oney	-3289
▁interes	-3290
ilt	-3291
▁never	-3292
▁principal	-3293
▁init	-3294
▁message	-3295
▁points	-3296
html	-3297
нные	-3298
][	-3299
▁Cal	-3300
▁string	-3301
бра	-3302
aging	-3303
▁cat	-3304
▁games	-3305
▁muchas	-3306
▁looking	-3307
чь	-3308
можно	-3309
ela	-3310
ived	-3311
▁shar	-3312
aria	-3313
yect	-3314
cient	-3315
▁basic	-3316
▁Не	-3317
orial	-3318
шо	-3319
cio	-3320
ypt	-3321
▁Il	-3322
▁conv	-3323
▁variable	-3324
pu	-3325
▁risk	-3326
ischen	-3327
▁graph	-3328
цию	-3329
data	-3330
▁increase	-3331
▁job	-3332
▁vary	-3333
ág	-3334
cos	-3335
pir	-3336
ère	-3337
etic	-3338
ativo	-3339
▁block	-3340
▁Par	-3341
▁über	-3342
▁того	-3343
▁goals	-3344
▁essential	-3345
▁interpret	-3346
ending	-3347
▁evalu	-3348
▁relig	-3349
帮助	-3350
▁Ke	-3351
icio	-3352
▁sido	-3353
cal	-3354
▁segur	-3355
atic	-3356
▁scre	-3357
▁Algun	-3358
▁jo	-3359
▁heart	-3360
▁combin	-3361
ude	-3362
ática	-3363
ät	-3364
ité	-3365
ival	-3366
าม	-3367
▁typically	-3368
▁menos	-3369
▁objects	-3370
áp	-3371
elle	-3372
▁task	-3373
▁wind	-3374
ool	-3375
▁film	-3376
imientos	-3377
▁aplicaciones	-3378
ross	-3379
▁mús	-3380
glich	-3381
▁created	-3382
▁Fl	-3383
4,	-3384
Ch	-3385
▁sat	-3386
▁Ich	-3387
▁flo	-3388
▁моде	-3389
ан	-3390
▁Min	-3391
ges	-3392
▁sources	-3393
▁програм	-3394
▁problemas	-3395
▁eth	-3396
ification	-3397
▁progress	-3398
ties	-3399
▁associ	-3400
ровать	-3401
▁table	-3402
▁trabajo	-3403
▁mét	-3404
▁мне	-3405
▁writing	-3406
▁consist	-3407
▁library	-3408
▁identify	-3409
▁nivel	-3410
▁aj	-3411
自己	-3412
▁blo	-3413
ellen	-3414
▁decir	-3415
▁group	-3416
vo	-3417
▁Your	-3418
▁normal	-3419
80	-3420
▁global	-3421
▁bás	-3422
▁energía	-3423
▁і	-3424
▁exact	-3425
▁tab	-3426
▁tare	-3427
ета	-3428
нов	-3429
▁repl	-3430
ping	-3431
▁internet	-3432
▁travel	-3433
▁einer	-3434
LE	-3435
жен	-3436
▁crit	-3437
▁feed	-3438
portun	-3439
▁recursos	-3440
▁times	-3441
▁proyect	-3442
▁estruct	-3443
St	-3444
acias	-3445
дей	-3446
การ	-3447
▁conten	-3448
QL	-3449
▁chat	-3450
over	-3451
▁Ins	-3452
▁New	-3453
▁HTML	-3454
▁зада	-3455
▁Add	-3456
▁bit	-3457
▁sequ	-3458
cho	-3459
num	-3460
▁areas	-3461
ilosoph	-3462
ologies	-3463
▁requires	-3464
▁tra	-3465
▁25	-3466
▁дол	-3467
▁single	-3468
▁materials	-3469
-2	-3470
onom	-3471
▁пер	-3472
▁qual	-3473
log	-3474
▁10.	-3475
▁effects	-3476
▁desarrollo	-3477
▁hig	-3478
mod	-3479
▁Man	-3480
▁vent	-3481
▁enjoy	-3482
úbl	-3483
igual	-3484
▁algorithms	-3485
ah	-3486
бя	-3487
技术	-3488
view	-3489
atura	-3490
▁era	-3491
▁John	-3492
▁investig	-3493
▁proceso	-3494
▁someone	-3495
▁fá	-3496
▁1,	-3497
▁Red	-3498
▁dep	-3499
▁stor	-3500
▁format	-3501
cy	-3502
ulo	-3503
▁lot	-3504
ivil	-3505
том	-3506
iction	-3507
▁family	-3508
▁escrib	-3509
▁objetos	-3510
▁intelligence	-3511
▁maj	-3512
equ	-3513
▁regul	-3514
▁veget	-3515
вых	-3516
ST	-3517
▁adecu	-3518
▁instead	-3519
▁left	-3520
AN	-3521
lection	-3522
▁economic	-3523
жения	-3524
▁done	-3525
Cl	-3526
amed	-3527
▁wide	-3528
▁polic	-3529
II	-3530
▁ol	-3531
▁alm	-3532
▁mel	-3533
▁Espero	-3534
▁resumen	-3535
▁Us	-3536
▁complet	-3537
vis	-3538
▁mol	-3539
istas	-3540
▁today	-3541
▁determ	-3542
▁сле	-3543
▁service	-3544
▁ún	-3545
imin	-3546
форма	-3547
▁Make	-3548
▁produce	-3549
▁email	-3550
anks	-3551
▁brain	-3552
▁todas	-3553
ísticas	-3554
▁pregunta	-3555
мени	-3556
▁lat	-3557
empre	-3558
▁team	-3559
▁record	-3560
/2	-3561
verage	-3562
▁orden	-3563
▁expect	-3564
ped	-3565
öglich	-3566
▁они	-3567
▁ayuda	-3568
▁track	-3569
son	-3570
amento	-3571
▁Car	-3572
▁card	-3573
▁Trans	-3574
bit	-3575
▁city	-3576
▁jour	-3577
▁society	-3578
▁va	-3579
▁Set	-3580
asing	-3581
▁benefits	-3582
▁sistemas	-3583
▁habilidades	-3584
▁202	-3585
▁exc	-3586
▁texto	-3587
En	-3588
▁running	-3589
▁song	-3590
▁error	-3591
▁мен	-3592
▁ciudad	-3593
hol	-3594
▁clean	-3595
▁All	-3596
▁hace	-3597
▁ingred	-3598
▁capacidad	-3599
eno	-3600
jar	-3601
▁Bu	-3602
▁ur	-3603
▁exerc	-3604
▁habit	-3605
▁functions	-3606
echo	-3607
isis	-3608
board	-3609
▁Cont	-3610
▁action	-3611
▁poco	-3612
▁ps	-3613
ynam	-3614
▁rece	-3615
▁needed	-3616
▁entr	-3617
▁siempre	-3618
Qué	-3619
tico	-3620
▁friends	-3621
rem	-3622
áct	-3623
▁solar	-3624
sp	-3625
gest	-3626
▁depends	-3627
▁Sal	-3628
▁fig	-3629
▁concl	-3630
,"	-3631
](	-3632
iff	-3633
▁whether	-3634
▁esper	-3635
▁choose	-3636
,,	-3637
AT	-3638
▁17	-3639
▁fast	-3640
▁Japan	-3641
▁practice	-3642
oman	-3643
▁dark	-3644
▁случа	-3645
arning	-3646
olve	-3647
▁imag	-3648
key	-3649
емы	-3650
тер	-3651
▁baj	-3652
ativa	-3653
▁incor	-3654
▁virtual	-3655
▁includes	-3656
▁traditional	-3657
▁agr	-3658
▁teoría	-3659
▁opportun	-3660
IN	-3661
ids	-3662
ends	-3663
▁sein	-3664
чение	-3665
▁Claro	-3666
▁scientific	-3667
zy	-3668
▁sou	-3669
▁planet	-3670
▁rather	-3671
▁Af	-3672
▁away	-3673
▁Мо	-3674
erson	-3675
▁teng	-3676
▁peque	-3677
▁events	-3678
▁convert	-3679
ui	-3680
бле	-3681
вает	-3682
▁book	-3683
ote	-3684
▁Hay	-3685
▁Puedes	-3686
▁calidad	-3687
agon	-3688
▁fácil	-3689
▁higher	-3690
▁permit	-3691
irm	-3692
ierra	-3693
▁opin	-3694
▁использовать	-3695
▁flu	-3696
▁countries	-3697
▁х	-3698
▁United	-3699
▁recogn	-3700
▁использова	-3701
▁Ind	-3702
▁Sim	-3703
▁обу	-3704
▁share	-3705
▁player	-3706
▁sí	-3707
ocol	-3708
roso	-3709
ittle	-3710
▁period	-3711
iger	-3712
▁você	-3713
▁importantes	-3714
19	-3715
中国	-3716
ira	-3717
▁(2	-3718
abilidad	-3719
▁Од	-3720
▁culture	-3721
▁independ	-3722
是一	-3723
ablish	-3724
▁having	-3725
▁far	-3726
▁efic	-3727
▁время	-3728
▁positive	-3729
▁siguiente	-3730
((	-3731
unk	-3732
▁above	-3733
60	-3734
нако	-3735
▁каж	-3736
▁cort	-3737
AM	-3738
▁При	-3739
▁dispon	-3740
▁apro	-3741
▁histor	-3742
▁helpful	-3743
▁distance	-3744
▁inteligencia	-3745
вые	-3746
izes	-3747
▁seguir	-3748
▁функ	-3749
▁datas	-3750
▁especially	-3751
1)	-3752
▁Ein	-3753
▁reason	-3754
▁tomar	-3755
▁argument	-3756
RE	-3757
▁cuer	-3758
tom	-3759
▁really	-3760
▁determine	-3761
▁uns	-3762
▁пла	-3763
ises	-3764
▁players	-3765
▁тех	-3766
▁draw	-3767
▁flex	-3768
▁vot	-3769
▁analy	-3770
▁multi	-3771
▁novel	-3772
▁position	-3773
тре	-3774
▁(20	-3775
▁Are	-3776
ators	-3777
▁valid	-3778
▁particip	-3779
ques	-3780
▁concern	-3781
▁significa	-3782
▁emp	-3783
▁last	-3784
▁big	-3785
▁related	-3786
▁Л	-3787
udo	-3788
еть	-3789
▁espac	-3790
▁posit	-3791
lic	-3792
vas	-3793
cias	-3794
▁ball	-3795
▁achieve	-3796
▁mucho	-3797
.,	-3798
roid	-3799
▁Aut	-3800
terior	-3801
▁является	-3802
▁python	-3803
uegos	-3804
▁brow	-3805
▁option	-3806
▁obtener	-3807
▁previous	-3808
▁ho	-3809
▁Вы	-3810
рабо	-3811
▁coc	-3812
▁вас	-3813
priate	-3814
▁Overall	-3815
anger	-3816
▁Mon	-3817
▁Int	-3818
▁Les	-3819
▁жиз	-3820
▁array	-3821
▁react	-3822
▁aprendiz	-3823
ugg	-3824
▁2,	-3825
▁easier	-3826
▁processing	-3827
▁bei	-3828
▁egg	-3829
▁advant	-3830
ées	-3831
▁мно	-3832
▁áre	-3833
▁тре	-3834
▁sleep	-3835
▁analysis	-3836
▁pens	-3837
▁offers	-3838
entro	-3839
▁black	-3840
▁datab	-3841
▁growth	-3842
什么	-3843
▁objeto	-3844
▁random	-3845
▁опреде	-3846
▁alt	-3847
▁patterns	-3848
▁ráp	-3849
▁loss	-3850
▁continue	-3851
ouble	-3852
▁predict	-3853
██	-3854
▁Fe	-3855
▁major	-3856
▁после	-3857
▁gas	-3858
▁gibt	-3859
▁once	-3860
▁Intern	-3861
▁requirements	-3862
▁Inst	-3863
▁mental	-3864
▁philosoph	-3865
вить	-3866
▁lado	-3867
▁resist	-3868
▁perfect	-3869
ัน	-3870
▁%	-3871
以下	-3872
▁Could	-3873
不同	-3874
point	-3875
▁provided	-3876
cont	-3877
▁innov	-3878
▁weight	-3879
▁evidence	-3880
ache	-3881
▁utilizando	-3882
12	-3883
edia	-3884
down	-3885
▁temperature	-3886
▁talk	-3887
▁és	-3888
▁phot	-3889
人工	-3890
geb	-3891
▁ру	-3892
▁financial	-3893
▁--	-3894
▁Ка	-3895
▁saber	-3896
▁course	-3897
▁palabras	-3898
▁Ob	-3899
▁put	-3900
▁flow	-3901
▁electric	-3902
isp	-3903
▁segun	-3904
▁Europe	-3905
▁capital	-3906
▁hardware	-3907
ungs	-3908
▁ang	-3909
unch	-3910
▁não	-3911
ключа	-3912
▁Españ	-3913
5.	-3914
ід	-3915
esch	-3916
▁mism	-3917
▁matem	-3918
aur	-3919
pués	-3920
icial	-3921
▁меня	-3922
cent	-3923
▁grup	-3924
▁según	-3925
сов	-3926
imens	-3927
▁alguna	-3928
▁Ра	-3929
ba	-3930
▁paper	-3931
▁ground	-3932
▁attention	-3933
▁agre	-3934
▁param	-3935
▁__	-3936
0%	-3937
abe	-3938
uments	-3939
▁won	-3940
▁bed	-3941
ither	-3942
▁clos	-3943
zo	-3944
▁ti	-3945
acht	-3946
▁rap	-3947
▁Inter	-3948
-3	-3949
▁Germ	-3950
кра	-3951
▁Now	-3952
▁му	-3953
▁communication	-3954
▁conj	-3955
▁неско	-3956
▁hi	-3957
▁raz	-3958
ych	-3959
abilities	-3960
▁Art	-3961
▁Mic	-3962
▁compan	-3963
通过	-3964
ocr	-3965
▁Со	-3966
▁going	-3967
cription	-3968
pond	-3969
нее	-3970
▁highly	-3971
▁started	-3972
ko	-3973
side	-3974
ด้	-3975
кры	-3976
▁dog	-3977
▁escr	-3978
odes	-3979
▁stop	-3980
ection	-3981
▁location	-3982
▁management	-3983
вания	-3984
▁four	-3985
▁entren	-3986
▁useful	-3987
▁au	-3988
▁guid	-3989
ission	-3990
▁estable	-3991
▁quickly	-3992
ün	-3993
opt	-3994
่อ	-3995
这个	-3996
тро	-3997
▁sn	-3998
шу	-3999
▁ma	-4000
rist	-4001
rosoft	-4002
▁einem	-4003
▁country	-4004
▁fres	-4005
▁devices	-4006
▁disposit	-4007
▁tecnología	-4008
zt	-4009
▁Rust	-4010
▁grad	-4011
▁stay	-4012
▁strength	-4013
▁force	-4014
▁demand	-4015
▁taking	-4016
uit	-4017
▁discuss	-4018
▁11	-4019
▁employ	-4020
▁species	-4021
▁experiences	-4022
▁пу	-4023
utton	-4024
▁ling	-4025
▁durch	-4026
alle	-4027
▁tut	-4028
ici	-4029
▁compos	-4030
▁ле	-4031
▁ful	-4032
▁discover	-4033
ief	-4034
omen	-4035
▁goal	-4036
dition	-4037
которы	-4038
-4	-4039
ós	-4040
▁###	-4041
light	-4042
▁train	-4043
▁Expl	-4044
mit	-4045
▁effort	-4046
ticas	-4047
▁properties	-4048
urt	-4049
▁Je	-4050
▁face	-4051
▁store	-4052
▁adjust	-4053
ológ	-4054
▁age	-4055
▁full	-4056
▁across	-4057
▁configur	-4058
▁political	-4059
▁aseg	-4060
▁live	-4061
▁measure	-4062
like	-4063
▁neural	-4064
▁только	-4065
TP	-4066
▁viv	-4067
ência	-4068
▁band	-4069
▁encuent	-4070
▁background	-4071
▁ter	-4072
▁frequ	-4073
▁little	-4074
▁money	-4075
▁14	-4076
▁jed	-4077
▁Of	-4078
▁dream	-4079
▁liter	-4080
▁ChatGPT	-4081
▁account	-4082
▁фор	-4083
▁az	-4084
▁moment	-4085
这些	-4086
▁2023	-4087
▁你	-4088
bon	-4089
atos	-4090
▁projects	-4091
▁production	-4092
aw	-4093
ella	-4094
▁sont	-4095
▁igual	-4096
▁System	-4097
▁ба	-4098
ison	-4099
▁collect	-4100
▁Gu	-4101
▁информа	-4102
ilo	-4103
▁иг	-4104
▁Ab	-4105
▁War	-4106
▁peut	-4107
▁свя	-4108
▁past	-4109
▁trying	-4110
alla	-4111
▁dud	-4112
▁españ	-4113
пы	-4114
дела	-4115
чить	-4116
нения	-4117
▁seguridad	-4118
▁Bo	-4119
ready	-4120
▁trat	-4121
▁стра	-4122
▁column	-4123
ред	-4124
▁seen	-4125
▁música	-4126
▁effective	-4127
▁è	-4128
▁1:	-4129
▁tal	-4130
⠀⠀⠀⠀	-4131
▁near	-4132
▁разли	-4133
ühr	-4134
▁np	-4135
ema	-4136
▁After	-4137
▁prior	-4138
▁advanced	-4139
ático	-4140
▁gest	-4141
▁rock	-4142
▁shape	-4143
▁levels	-4144
▁contact	-4145
fully	-4146
▁days	-4147
ким	-4148
▁pay	-4149
entar	-4150
▁Да	-4151
▁matter	-4152
▁trained	-4153
вто	-4154
list	-4155
▁evol	-4156
ionales	-4157
▁profes	-4158
▁widely	-4159
▁government	-4160
▁Another	-4161
▁relacion	-4162
imm	-4163
▁Vis	-4164
aling	-4165
inary	-4166
▁along	-4167
▁ale	-4168
Te	-4169
าก	-4170
meros	-4171
▁solution	-4172
agn	-4173
▁=>	-4174
▁said	-4175
▁Estos	-4176
▁cient	-4177
orno	-4178
▁viol	-4179
▁providing	-4180
жде	-4181
▁mu	-4182
isch	-4183
▁loop	-4184
▁select	-4185
▁display	-4186
▁aprendizaje	-4187
input	-4188
▁meet	-4189
ibilidad	-4190
ony	-4191
▁law	-4192
▁momento	-4193
писа	-4194
▁among	-4195
▁hacia	-4196
▁least	-4197
16	-4198
ette	-4199
▁lower	-4200
▁variables	-4201
iante	-4202
lin	-4203
вая	-4204
être	-4205
▁aber	-4206
▁relevant	-4207
▁2:	-4208
▁Ser	-4209
▁imm	-4210
can	-4211
size	-4212
▁incluyendo	-4213
▁características	-4214
▁(19	-4215
▁details	-4216
рая	-4217
▁vie	-4218
▁полу	-4219
▁parts	-4220
ls	-4221
▁States	-4222
▁purpose	-4223
tw	-4224
new	-4225
▁зави	-4226
▁manip	-4227
▁!	-4228
ische	-4229
▁обще	-4230
▁appropriate	-4231
▁Cu	-4232
▁doesn	-4233
▁maintain	-4234
▁remember	-4235
odr	-4236
inas	-4237
▁Gener	-4238
▁cases	-4239
▁treat	-4240
▁matr	-4241
▁públ	-4242
▁данных	-4243
▁varios	-4244
▁negative	-4245
▁elementos	-4246
▁ger	-4247
▁tér	-4248
▁white	-4249
.)	-4250
ivas	-4251
▁mix	-4252
chied	-4253
ensión	-4254
▁punto	-4255
▁Co	-4256
人工智能	-4257
▁evitar	-4258
izations	-4259
▁directory	-4260
':	-4261
信息	-4262
▁plac	-4263
▁believe	-4264
▁required	-4265
ника	-4266
▁simpl	-4267
▁mantener	-4268
day	-4269
sel	-4270
▁Pol	-4271
▁само	-4272
▁usually	-4273
EN	-4274
▁chem	-4275
▁civil	-4276
itation	-4277
▁económ	-4278
чень	-4279
▁deber	-4280
▁países	-4281
ste	-4282
▁исто	-4283
▁largo	-4284
▁fill	-4285
▁introdu	-4286
▁bring	-4287
▁Как	-4288
▁ско	-4289
▁handle	-4290
▁Х	-4291
eda	-4292
▁Pe	-4293
▁Um	-4294
▁mys	-4295
▁haben	-4296
▁night	-4297
▁avec	-4298
▁необ	-4299
▁actions	-4300
▁práct	-4301
▁safety	-4302
OR	-4303
oo	-4304
echa	-4305
▁consci	-4306
▁states	-4307
▁fit	-4308
ended	-4309
▁initial	-4310
▁PC	-4311
onstr	-4312
▁root	-4313
▁можете	-4314
▁возможно	-4315
Pro	-4316
▁upd	-4317
▁emoc	-4318
▁host	-4319
ille	-4320
▁problema	-4321
▁resultado	-4322
▁Note	-4323
pass	-4324
▁Progr	-4325
▁обла	-4326
▁labor	-4327
▁medio	-4328
▁nucle	-4329
нь	-4330
iency	-4331
▁length	-4332
▁leading	-4333
▁associated	-4334
ips	-4335
body	-4336
▁rot	-4337
▁Univers	-4338
!"	-4339
OM	-4340
▁0;	-4341
▁elé	-4342
▁cross	-4343
▁overall	-4344
7.	-4345
▁ней	-4346
▁eleg	-4347
▁already	-4348
hre	-4349
ike	-4350
ror	-4351
是一个	-4352
▁teach	-4353
él	-4354
стра	-4355
▁God	-4356
▁cru	-4357
icate	-4358
ister	-4359
▁simul	-4360
reg	-4361
▁videos	-4362
▁developed	-4363
cep	-4364
isf	-4365
▁wr	-4366
▁буду	-4367
yst	-4368
▁noch	-4369
elling	-4370
ficial	-4371
▁becom	-4372
▁explore	-4373
цес	-4374
▁Но	-4375
▁happy	-4376
▁больше	-4377
ificación	-4378
])	-4379
▁named	-4380
px	-4381
▁vac	-4382
▁grandes	-4383
▁activities	-4384
▁components	-4385
▁heat	-4386
itable	-4387
▁regard	-4388
▁archivo	-4389
lying	-4390
ump	-4391
zcl	-4392
ómo	-4393
▁вс	-4394
▁чем	-4395
▁YouT	-4396
▁respond	-4397
tructions	-4398
▁,	-4399
eso	-4400
keit	-4401
▁Why	-4402
▁Что	-4403
ierto	-4404
▁extra	-4405
▁solve	-4406
▁architect	-4407
ació	-4408
▁sua	-4409
ставля	-4410
▁establish	-4411
ือ	-4412
orte	-4413
▁safe	-4414
▁sets	-4415
▁суще	-4416
нный	-4417
▁tips	-4418
แล	-4419
met	-4420
▁Ва	-4421
▁sett	-4422
▁feedback	-4423
▁fundamental	-4424
iden	-4425
▁slow	-4426
▁estado	-4427
▁casa	-4428
▁beaut	-4429
▁emerg	-4430
▁appear	-4431
▁números	-4432
人类	-4433
тери	-4434
▁тем	-4435
▁comen	-4436
▁concepts	-4437
hora	-4438
▁199	-4439
▁nach	-4440
15	-4441
Ex	-4442
▁Web	-4443
▁legal	-4444
ña	-4445
ype	-4446
och	-4447
▁má	-4448
itude	-4449
illo	-4450
▁vor	-4451
▁summary	-4452
▁surface	-4453
▁products	-4454
uerra	-4455
________	-4456
AD	-4457
usto	-4458
▁Das	-4459
▁Val	-4460
▁nav	-4461
source	-4462
▁comes	-4463
adamente	-4464
aron	-4465
▁diet	-4466
▁hold	-4467
▁дела	-4468
▁items	-4469
▁física	-4470
▁describe	-4471
fs	-4472
uta	-4473
book	-4474
тому	-4475
▁facil	-4476
▁hours	-4477
▁difference	-4478
är	-4479
щё	-4480
系统	-4481
бли	-4482
▁fix	-4483
ajas	-4484
▁cer	-4485
▁Однако	-4486
ET	-4487
IT	-4488
▁corres	-4489
seg	-4490
▁produc	-4491
▁velocidad	-4492
▁За	-4493
▁welcome	-4494
▁lle	-4495
▁сер	-4496
▁cells	-4497
▁expres	-4498
ال	-4499
例如	-4500
▁var	-4501
encies	-4502
▁doing	-4503
▁España	-4504
▁humanos	-4505
▁Remember	-4506
дов	-4507
ything	-4508
▁American	-4509
▁Bit	-4510
▁center	-4511
▁generally	-4512
RL	-4513
▁Ele	-4514
ів	-4515
izza	-4516
▁Como	-4517
▁micro	-4518
].	-4519
igos	-4520
▁clar	-4521
vest	-4522
▁hol	-4523
▁seek	-4524
▁estim	-4525
▁differences	-4526
▁idi	-4527
▁том	-4528
dom	-4529
▁afect	-4530
▁monitor	-4531
?"	-4532
чита	-4533
tempt	-4534
▁layer	-4535
▁May	-4536
ativas	-4537
▁позво	-4538
▁我	-4539
你的	-4540
▁inf	-4541
ession	-4542
elo	-4543
istics	-4544
▁animals	-4545
▁cambi	-4546
▁últim	-4547
▁got	-4548
▁bias	-4549
▁corr	-4550
▁early	-4551
▁pueda	-4552
▁either	-4553
▁industry	-4554
▁contenido	-4555
▁motiv	-4556
ít	-4557
ago	-4558
тра	-4559
лучше	-4560
▁enem	-4561
▁sorry	-4562
▁porque	-4563
17	-4564
▁complete	-4565
▁starting	-4566
orr	-4567
▁cup	-4568
▁vul	-4569
▁arqu	-4570
▁patr	-4571
▁usuario	-4572
25	-4573
▁merc	-4574
▁grande	-4575
ny	-4576
▁đ	-4577
▁sil	-4578
▁maxim	-4579
▁herramientas	-4580
其他	-4581
пера	-4582
▁bud	-4583
вления	-4584
▁buena	-4585
▁larger	-4586
▁необходи	-4587
▁Net	-4588
ivity	-4589
izado	-4590
▁cool	-4591
uk	-4592
▁hid	-4593
▁longer	-4594
▁เ	-4595
▁Don	-4596
▁seu	-4597
print	-4598
▁room	-4599
▁towards	-4600
appen	-4601
irect	-4602
▁следу	-4603
▁términ	-4604
▁entender	-4605
6.	-4606
iro	-4607
▁difí	-4608
▁eléctr	-4609
ección	-4610
▁когда	-4611
▁plants	-4612
▁limited	-4613
bed	-4614
idd	-4615
▁Во	-4616
atoes	-4617
▁heav	-4618
ческие	-4619
▁acces	-4620
▁Thanks	-4621
▁variedad	-4622
рит	-4623
liche	-4624
▁living	-4625
▁pip	-4626
▁clim	-4627
▁интере	-4628
▁decision	-4629
▁operating	-4630
ник	-4631
odos	-4632
▁Met	-4633
▁decl	-4634
len	-4635
ision	-4636
▁cuán	-4637
▁technologies	-4638
пер	-4639
▁50	-4640
game	-4641
▁har	-4642
▁surv	-4643
▁futuro	-4644
▁screen	-4645
▁assistant	-4646
LL	-4647
▁ox	-4648
▁hal	-4649
ocker	-4650
▁walk	-4651
▁debido	-4652
▁fields	-4653
▁consequ	-4654
▁companies	-4655
ör	-4656
oso	-4657
onic	-4658
test	-4659
áfic	-4660
▁Stud	-4661
▁secure	-4662
▁addition	-4663
▁allowing	-4664
aken	-4665
ensor	-4666
▁Dies	-4667
▁review	-4668
▁particularly	-4669
▁Для	-4670
eters	-4671
▁ваше	-4672
▁damage	-4673
▁Certain	-4674
`.	-4675
air	-4676
▁ese	-4677
▁veh	-4678
▁tres	-4679
▁этом	-4680
▁ellos	-4681
@@	-4682
▁hot	-4683
жение	-4684
▁device	-4685
▁которо	-4686
omm	-4687
▁ones	-4688
ichtig	-4689
чество	-4690
▁built	-4691
▁button	-4692
▁Microsoft	-4693
▁transport	-4694
ners	-4695
нить	-4696
▁ren	-4697
▁zum	-4698
ounts	-4699
▁blue	-4700
▁комп	-4701
▁sociedad	-4702
6,	-4703
ับ	-4704
▁difícil	-4705
ably	-4706
▁вер	-4707
▁pasos	-4708
▁animal	-4709
▁просто	-4710
icación	-4711
▁garant	-4712
มี	-4713
кти	-4714
ibli	-4715
▁tema	-4716
▁aunque	-4717
▁database	-4718
div	-4719
йти	-4720
▁пробле	-4721
▁YouTube	-4722
▁processes	-4723
应用	-4724
aim	-4725
tax	-4726
▁Так	-4727
ecraft	-4728
iers	-4729
▁grat	-4730
▁expos	-4731
▁Start	-4732
▁English	-4733
adem	-4734
value	-4735
▁fail	-4736
▁thing	-4737
▁colors	-4738
▁contra	-4739
▁usuarios	-4740
▁developers	-4741
[0	-4742
eln	-4743
▁bran	-4744
▁tipos	-4745
▁очень	-4746
▁stream	-4747
ala	-4748
ман	-4749
esta	-4750
▁rom	-4751
▁разви	-4752
▁functional	-4753
40	-4754
▁тек	-4755
▁intr	-4756
▁rate	-4757
order	-4758
▁inclus	-4759
▁average	-4760
▁getting	-4761
==	-4762
ault	-4763
cios	-4764
▁nuevo	-4765
▁работа	-4766
▁ejemplos	-4767
fol	-4768
eles	-4769
▁amor	-4770
▁Write	-4771
▁этого	-4772
тия	-4773
care	-4774
▁empresa	-4775
▁несколько	-4776
▁Py	-4777
строй	-4778
▁expand	-4779
▁É	-4780
ocal	-4781
льные	-4782
▁expert	-4783
▁smaller	-4784
▁platforms	-4785
anos	-4786
▁ancient	-4787
▁attempt	-4788
formation	-4789
akt	-4790
▁Ze	-4791
▁Apr	-4792
▁alta	-4793
▁networks	-4794
▁utilizan	-4795
");	-4796
igu	-4797
▁pou	-4798
arily	-4799
▁crucial	-4800
AS	-4801
▁cum	-4802
▁процес	-4803
isten	-4804
вести	-4805
▁categ	-4806
▁medic	-4807
▁accept	-4808
▁written	-4809
▁preguntas	-4810
ED	-4811
хи	-4812
жду	-4813
▁muest	-4814
▁Dep	-4815
▁mos	-4816
ionar	-4817
▁être	-4818
▁simply	-4819
atr	-4820
▁поль	-4821
▁robot	-4822
▁stress	-4823
▁varias	-4824
▁balance	-4825
▁incluyen	-4826
▁был	-4827
▁Finally	-4828
▁0,	-4829
....	-4830
▁sue	-4831
▁worth	-4832
▁happen	-4833
▁которая	-4834
▁factores	-4835
нной	-4836
▁без	-4837
▁square	-4838
lab	-4839
▁13	-4840
esso	-4841
▁кла	-4842
▁behind	-4843
▁satisf	-4844
▁objetivo	-4845
рии	-4846
юще	-4847
▁ду	-4848
▁Mens	-4849
▁ajud	-4850
▁warm	-4851
▁cosas	-4852
▁votre	-4853
▁height	-4854
▁window	-4855
▁preferences	-4856
时间	-4857
▁lives	-4858
▁rules	-4859
▁зависи	-4860
▁comfort	-4861
▁challenging	-4862
▁smo	-4863
▁valores	-4864
选择	-4865
ader	-4866
▁testing	-4867
fen	-4868
▁aim	-4869
▁gén	-4870
▁decid	-4871
▁detall	-4872
▁itself	-4873
▁minutos	-4874
дин	-4875
▁гра	-4876
Hello	-4877
ished	-4878
▁carr	-4879
▁iter	-4880
▁opción	-4881
▁accurate	-4882
▁aplicación	-4883
---	-4884
▁Ag	-4885
phas	-4886
▁situation	-4887
zas	-4888
стру	-4889
▁ley	-4890
льных	-4891
▁collabor	-4892
▁compared	-4893
tp	-4894
▁1)	-4895
▁issue	-4896
▁redes	-4897
▁humano	-4898
▁climate	-4899
▁experiencia	-4900
ます	-4901
jas	-4902
▁sex	-4903
▁package	-4904
包括	-4905
мати	-4906
▁são	-4907
▁Pero	-4908
▁grou	-4909
▁mens	-4910
▁diese	-4911
▁define	-4912
▁imagen	-4913
็น	-4914
ett	-4915
ocks	-4916
▁dynam	-4917
ataform	-4918
▁medical	-4919
▁physics	-4920
▁programs	-4921
▁practices	-4922
方法	-4923
ask	-4924
▁correspond	-4925
▁necesidades	-4926
8.	-4927
An	-4928
El	-4929
bot	-4930
hes	-4931
▁dol	-4932
antas	-4933
▁vulner	-4934
inen	-4935
▁fon	-4936
▁atmos	-4937
▁automat	-4938
▁Consider	-4939
▁standard	-4940
▁link	-4941
áticas	-4942
▁mezcl	-4943
▁opciones	-4944
ให	-4945
้า	-4946
▁año	-4947
▁algorit	-4948
Re	-4949
lec	-4950
зыва	-4951
▁Name	-4952
▁Part	-4953
▁throughout	-4954
▁zur	-4955
plica	-4956
▁себя	-4957
▁нужно	-4958
▁extern	-4959
▁distribution	-4960
`,	-4961
ès	-4962
чу	-4963
发展	-4964
▁IP	-4965
▁Act	-4966
▁pow	-4967
▁spread	-4968
рт	-4969
▁cuerpo	-4970
▁computing	-4971
pes	-4972
▁систе	-4973
根据	-4974
▁Bar	-4975
▁méd	-4976
▁dich	-4977
▁desired	-4978
ит	-4979
▁Tw	-4980
▁enh	-4981
▁tro	-4982
▁esté	-4983
▁fire	-4984
8,	-4985
rate	-4986
▁pon	-4987
aming	-4988
▁visit	-4989
▁guitar	-4990
▁fel	-4991
▁отно	-4992
▁;	-4993
сла	-4994
ffee	-4995
▁cut	-4996
▁eyes	-4997
ческих	-4998
▁apply	-4999
▁Develop	-5000
▁weather	-5001
คว	-5002
isms	-5003
▁sería	-5004
▁factor	-5005
▁cultura	-5006
▁solutions	-5007
没有	-5008
enas	-5009
▁помощ	-5010
▁включа	-5011
▁everyone	-5012
▁requests	-5013
▁principales	-5014
▁Git	-5015
▁mut	-5016
illas	-5017
▁audio	-5018
▁author	-5019
▁помочь	-5020
▁wood	-5021
▁central	-5022
лом	-5023
ecer	-5024
echos	-5025
▁divid	-5026
▁cin	-5027
▁van	-5028
▁reli	-5029
ได้	-5030
▁нау	-5031
clude	-5032
▁ejecut	-5033
▁transl	-5034
ван	-5035
icken	-5036
▁circu	-5037
▁entire	-5038
▁impres	-5039
ray	-5040
сты	-5041
▁3,	-5042
alls	-5043
eren	-5044
3)	-5045
туа	-5046
▁Def	-5047
▁mer	-5048
▁mehr	-5049
▁match	-5050
▁друго	-5051
SC	-5052
▁healthy	-5053
▁hom	-5054
▁scen	-5055
iation	-5056
ículas	-5057
▁First	-5058
▁diseño	-5059
▁verwend	-5060
▁pet	-5061
adora	-5062
▁bill	-5063
▁cerc	-5064
▁сдела	-5065
▁разрабо	-5066
▁influence	-5067
ях	-5068
▁спе	-5069
ágina	-5070
▁logr	-5071
▁compil	-5072
▁though	-5073
▁dataset	-5074
▁quieres	-5075
▁constant	-5076
▁familiar	-5077
▁incorpor	-5078
▁complexity	-5079
ём	-5080
▁Ф	-5081
▁Ro	-5082
genes	-5083
ucción	-5084
▁различ	-5085
▁private	-5086
ступ	-5087
▁реа	-5088
▁topic	-5089
▁explan	-5090
▁Med	-5091
▁directly	-5092
方面	-5093
▁Fun	-5094
▁activity	-5095
▁cel	-5096
▁Про	-5097
▁Mark	-5098
button	-5099
▁close	-5100
▁students	-5101
ops	-5102
heit	-5103
▁Der	-5104
▁gan	-5105
▁lic	-5106
▁tou	-5107
ге	-5108
know	-5109
oper	-5110
▁Not	-5111
▁rend	-5112
▁save	-5113
▁repet	-5114
Tr	-5115
año	-5116
▁cell	-5117
▁conduct	-5118
▁programa	-5119
фф	-5120
้น	-5121
好的	-5122
Open	-5123
ield	-5124
pite	-5125
льта	-5126
atives	-5127
▁manage	-5128
▁tareas	-5129
жда	-5130
▁Har	-5131
▁Que	-5132
▁fat	-5133
▁desaf	-5134
tructure	-5135
▁journey	-5136
64	-5137
100	-5138
▁им	-5139
ière	-5140
acción	-5141
▁ejerc	-5142
▁primer	-5143
▁report	-5144
De	-5145
ét	-5146
wik	-5147
ares	-5148
▁kil	-5149
▁tri	-5150
▁людей	-5151
▁прави	-5152
▁reality	-5153
▁Also	-5154
▁estás	-5155
▁forms	-5156
▁такие	-5157
uth	-5158
▁led	-5159
▁нет	-5160
▁subst	-5161
▁método	-5162
▁mention	-5163
Cu	-5164
aza	-5165
▁km	-5166
кого	-5167
▁CSS	-5168
▁libraries	-5169
ระ	-5170
alt	-5171
▁extr	-5172
▁young	-5173
▁sustain	-5174
ці	-5175
term	-5176
▁Data	-5177
▁date	-5178
▁rich	-5179
▁estructura	-5180
];	-5181
ete	-5182
вый	-5183
inct	-5184
веде	-5185
▁rout	-5186
▁уста	-5187
▁dentro	-5188
▁equipo	-5189
▁ethical	-5190
isión	-5191
▁danger	-5192
▁formas	-5193
▁способ	-5194
▁framework	-5195
▁interface	-5196
他们	-5197
────	-5198
▁alc	-5199
▁jog	-5200
▁Then	-5201
▁earth	-5202
▁console	-5203
▁reflect	-5204
▁download	-5205
▁sociales	-5206
คุ	-5207
eler	-5208
▁Keep	-5209
▁quer	-5210
lichen	-5211
▁approxim	-5212
▁Mus	-5213
▁mac	-5214
ticos	-5215
ativos	-5216
álisis	-5217
▁medida	-5218
14	-5219
кое	-5220
рга	-5221
▁español	-5222
▁Ok	-5223
▁Acc	-5224
▁nur	-5225
▁infin	-5226
▁compre	-5227
▁faster	-5228
▁página	-5229
▁profund	-5230
重要	-5231
asc	-5232
▁aire	-5233
▁buscar	-5234
▁descub	-5235
▁extract	-5236
▁opportunities	-5237
CT	-5238
uted	-5239
▁més	-5240
▁books	-5241
▁relationships	-5242
影响	-5243
领域	-5244
iddle	-5245
▁circ	-5246
▁aproxim	-5247
▁detailed	-5248
▁ao	-5249
▁relación	-5250
或者	-5251
ieron	-5252
▁ther	-5253
▁speak	-5254
▁strategies	-5255
ka	-5256
ёт	-5257
▁els	-5258
▁movie	-5259
▁resolver	-5260
iam	-5261
жет	-5262
▁cod	-5263
▁кра	-5264
usión	-5265
▁void	-5266
▁million	-5267
▁alternative	-5268
лся	-5269
ager	-5270
tery	-5271
▁school	-5272
▁supuesto	-5273
9.	-5274
代码	-5275
vez	-5276
▁Av	-5277
iful	-5278
▁gro	-5279
▁map	-5280
▁сист	-5281
▁contro	-5282
▁easily	-5283
▁partir	-5284
世界	-5285
▁tim	-5286
▁salt	-5287
▁shap	-5288
▁мето	-5289
▁topics	-5290
▁century	-5291
▁espacio	-5292
▁interested	-5293
▁interesting	-5294
arg	-5295
raf	-5296
▁Cr	-5297
ceite	-5298
▁potentially	-5299
='	-5300
▁вос	-5301
place	-5302
▁board	-5303
▁privacy	-5304
中的	-5305
rel	-5306
▁Dec	-5307
▁instal	-5308
▁reasons	-5309
▁Learning	-5310
▁buy	-5311
▁soll	-5312
▁numer	-5313
▁playing	-5314
▁ге	-5315
▁Port	-5316
▁lines	-5317
▁cheese	-5318
▁conflict	-5319
Ar	-5320
▁Sk	-5321
自己的	-5322
otec	-5323
ortun	-5324
▁tree	-5325
▁drink	-5326
▁everything	-5327
iano	-5328
ocket	-5329
encial	-5330
▁случае	-5331
wid	-5332
▁Вот	-5333
igate	-5334
inder	-5335
▁page	-5336
▁segu	-5337
▁asegur	-5338
▁property	-5339
▁necesario	-5340
9,	-5341
plo	-5342
aine	-5343
▁bad	-5344
chaft	-5345
▁miss	-5346
▁later	-5347
▁symbol	-5348
เป	-5349
dis	-5350
▁ال	-5351
стве	-5352
▁Dur	-5353
▁Sec	-5354
▁groups	-5355
▁generar	-5356
▁escribir	-5357
▁efficiency	-5358
мет	-5359
ней	-5360
▁std	-5361
▁wir	-5362
▁infr	-5363
▁некоторы	-5364
hy	-5365
лет	-5366
обще	-5367
▁дей	-5368
ствует	-5369
▁Tierra	-5370
▁sel	-5371
▁других	-5372
▁feeling	-5373
▁чу	-5374
ющие	-5375
▁pad	-5376
▁tor	-5377
▁diff	-5378
▁artic	-5379
▁calor	-5380
ม่	-5381
Con	-5382
part	-5383
rupt	-5384
yond	-5385
▁ill	-5386
▁Estas	-5387
▁mathematical	-5388
33	-5389
azo	-5390
▁tax	-5391
uciones	-5392
▁Therefore	-5393
▁computers	-5394
env	-5395
ähr	-5396
ций	-5397
▁24	-5398
▁GPT	-5399
▁involved	-5400
enge	-5401
▁ben	-5402
▁lif	-5403
atory	-5404
▁debes	-5405
▁cambio	-5406
▁compat	-5407
▁combination	-5408
▁между	-5409
▁budget	-5410
▁currently	-5411
▁decisions	-5412
umb	-5413
▁py	-5414
▁scr	-5415
▁tan	-5416
▁prem	-5417
▁whole	-5418
▁children	-5419
▁plataform	-5420
фе	-5421
рет	-5422
▁haya	-5423
▁huev	-5424
▁recon	-5425
▁emphas	-5426
▁Certainly	-5427
70	-5428
des	-5429
eto	-5430
▁Sou	-5431
▁enf	-5432
шения	-5433
▁reducir	-5434
▁actually	-5435
cohol	-5436
action	-5437
▁chord	-5438
▁commonly	-5439
sv	-5440
кую	-5441
▁Russ	-5442
▁нача	-5443
▁оста	-5444
▁Check	-5445
▁primera	-5446
LP	-5447
▁caf	-5448
гла	-5449
érica	-5450
urround	-5451
▁education	-5452
▁Sc	-5453
NA	-5454
теля	-5455
▁tam	-5456
▁Comm	-5457
▁después	-5458
▁diferencia	-5459
.**	-5460
nis	-5461
бой	-5462
anas	-5463
▁Get	-5464
▁Spr	-5465
▁cover	-5466
▁pressure	-5467
▁tecnolog	-5468
▁operations	-5469
▁alle	-5470
▁green	-5471
▁double	-5472
▁audience	-5473
iga	-5474
vant	-5475
▁Seg	-5476
▁enfr	-5477
▁авто	-5478
▁vector	-5479
рав	-5480
edor	-5481
▁sty	-5482
ising	-5483
▁gain	-5484
▁load	-5485
▁выпол	-5486
▁вопрос	-5487
▁encuentra	-5488
5)	-5489
цы	-5490
amin	-5491
▁seem	-5492
▁consequences	-5493
▁эк	-5494
▁pep	-5495
ágenes	-5496
▁ajust	-5497
▁siguientes	-5498
▁ещё	-5499
▁React	-5500
▁taste	-5501
▁implic	-5502
ших	-5503
▁Sw	-5504
▁Son	-5505
▁empe	-5506
▁lack	-5507
▁40	-5508
▁ак	-5509
▁Pot	-5510
▁gal	-5511
▁hora	-5512
▁unos	-5513
▁wenn	-5514
▁tutorial	-5515
▁productos	-5516
▁Nor	-5517
▁count	-5518
▁Algunos	-5519
▁Например	-5520
▁пе	-5521
▁bir	-5522
▁Util	-5523
▁auth	-5524
▁forest	-5525
▁particles	-5526
ím	-5527
▁JS	-5528
▁mad	-5529
ará	-5530
▁Он	-5531
ienda	-5532
▁adic	-5533
▁upon	-5534
▁tengo	-5535
▁mediante	-5536
▁él	-5537
▁би	-5538
▁blood	-5539
▁podemos	-5540
ай	-5541
кий	-5542
▁hier	-5543
▁mist	-5544
▁accom	-5545
▁много	-5546
ception	-5547
▁inside	-5548
▁increasing	-5549
».	-5550
uls	-5551
бор	-5552
flow	-5553
▁...	-5554
imento	-5555
▁connection	-5556
8888	-5557
▁Just	-5558
▁Wenn	-5559
▁Fre	-5560
льной	-5561
▁instance	-5562
▁sequence	-5563
▁temperatura	-5564
IM	-5565
смо	-5566
юсь	-5567
▁2)	-5568
вого	-5569
▁Pract	-5570
▁avanz	-5571
▁deben	-5572
ilities	-5573
▁according	-5574
▁principles	-5575
▁ша	-5576
▁fib	-5577
▁campo	-5578
▁origin	-5579
▁compart	-5580
▁позволя	-5581
▁environmental	-5582
weet	-5583
▁spir	-5584
▁было	-5585
▁utilis	-5586
▁concentr	-5587
▁millones	-5588
▁->	-5589
hold	-5590
iner	-5591
▁yet	-5592
▁обе	-5593
能力	-5594
lés	-5595
▁menc	-5596
▁pros	-5597
▁restaur	-5598
▁anterior	-5599
▁universo	-5600
ío	-5601
▁ecu	-5602
right	-5603
entral	-5604
▁almac	-5605
▁colon	-5606
▁serie	-5607
▁importance	-5608
7,	-5609
ложи	-5610
▁días	-5611
▁retr	-5612
▁коли	-5613
▁libro	-5614
▁destac	-5615
▁execut	-5616
▁imágenes	-5617
них	-5618
▁peu	-5619
uerda	-5620
▁death	-5621
▁dedic	-5622
▁recommended	-5623
18	-5624
▁front	-5625
▁names	-5626
▁pizza	-5627
▁comport	-5628
▁contribute	-5629
32	-5630
ms	-5631
生成	-5632
▁setting	-5633
ск	-5634
处理	-5635
rect	-5636
ífica	-5637
▁Hola	-5638
▁week	-5639
▁виде	-5640
▁гово	-5641
friend	-5642
ispiel	-5643
▁ideal	-5644
▁integral	-5645
icar	-5646
▁vit	-5647
▁watch	-5648
▁combust	-5649
df	-5650
ól	-5651
用户	-5652
▁haber	-5653
▁theor	-5654
▁depende	-5655
DE	-5656
▁Rep	-5657
arias	-5658
▁sean	-5659
▁disfr	-5660
▁animales	-5661
way	-5662
anza	-5663
▁señ	-5664
▁misma	-5665
▁alimentos	-5666
▁ти	-5667
▁cast	-5668
La	-5669
inks	-5670
▁comme	-5671
▁luego	-5672
▁времени	-5673
emplo	-5674
▁float	-5675
▁podrías	-5676
▁conocido	-5677
дно	-5678
▁Her	-5679
▁лучше	-5680
▁concerns	-5681
▁instructions	-5682
aa	-5683
eme	-5684
▁Aus	-5685
▁где	-5686
chain	-5687
▁appl	-5688
▁contains	-5689
▁electrón	-5690
▁architecture	-5691
itz	-5692
▁fish	-5693
зульта	-5694
▁price	-5695
ography	-5696
▁cuanto	-5697
▁abilities	-5698
host	-5699
imos	-5700
▁fine	-5701
▁поня	-5702
▁humor	-5703
▁became	-5704
▁involve	-5705
▁necesitas	-5706
лия	-5707
icle	-5708
▁clave	-5709
▁fully	-5710
▁conect	-5711
▁existen	-5712
ффек	-5713
▁обо	-5714
ponse	-5715
▁нейро	-5716
▁conscious	-5717
кус	-5718
мент	-5719
▁cond	-5720
selves	-5721
PS	-5722
urg	-5723
▁lie	-5724
▁apar	-5725
▁vuel	-5726
fun	-5727
кла	-5728
avas	-5729
ring	-5730
рить	-5731
▁пол	-5732
держи	-5733
▁объек	-5734
ln	-5735
非常	-5736
цен	-5737
dent	-5738
коно	-5739
▁Good	-5740
▁encr	-5741
▁común	-5742
▁strategy	-5743
gal	-5744
untu	-5745
▁фак	-5746
▁risks	-5747
▁таких	-5748
SD	-5749
зом	-5750
ulate	-5751
▁remove	-5752
▁capture	-5753
▁musical	-5754
Com	-5755
чен	-5756
▁Problem	-5757
▁aspects	-5758
▁responses	-5759
kr	-5760
нг	-5761
社会	-5762
eder	-5763
▁algún	-5764
▁guide	-5765
▁amplia	-5766
▁intens	-5767
▁ambiente	-5768
що	-5769
bert	-5770
▁eso	-5771
oking	-5772
▁Play	-5773
▁filos	-5774
▁formula	-5775
iu	-5776
ві	-5777
fil	-5778
ork	-5779
дом	-5780
ьте	-5781
▁Mach	-5782
▁Techn	-5783
▁equil	-5784
▁index	-5785
plement	-5786
▁juegos	-5787
спо	-5788
และ	-5789
ให้	-5790
▁Was	-5791
▁ses	-5792
world	-5793
ления	-5794
рования	-5795
▁oportun	-5796
▁developing	-5797
GB	-5798
user	-5799
▁cou	-5800
▁Each	-5801
odrías	-5802
▁clase	-5803
▁advent	-5804
▁emotions	-5805
▁herramienta	-5806
13	-5807
ешь	-5808
▁3:	-5809
▁roll	-5810
▁tamb	-5811
▁month	-5812
fficient	-5813
ota	-5814
▁Ро	-5815
angle	-5816
▁coffee	-5817
▁filter	-5818
▁tempor	-5819
▁materiales	-5820
项目	-5821
คุณ	-5822
▁<<	-5823
mitt	-5824
дова	-5825
▁box	-5826
▁tur	-5827
▁rele	-5828
▁modelos	-5829
Im	-5830
['	-5831
-19	-5832
sen	-5833
▁Gre	-5834
▁valu	-5835
▁token	-5836
▁modify	-5837
▁themselves	-5838
imo	-5839
List	-5840
aged	-5841
omas	-5842
льный	-5843
▁laws	-5844
▁pant	-5845
▁seas	-5846
▁bibli	-5847
▁orient	-5848
FT	-5849
ij	-5850
▁Du	-5851
▁може	-5852
▁repro	-5853
▁colores	-5854
▁científic	-5855
▁mechanics	-5856
▁continuación	-5857
ils	-5858
▁80	-5859
тите	-5860
▁она	-5861
quest	-5862
▁house	-5863
▁encour	-5864
▁threat	-5865
▁construct	-5866
лі	-5867
iado	-5868
лиза	-5869
title	-5870
uchar	-5871
▁magn	-5872
▁deriv	-5873
▁quite	-5874
▁movement	-5875
▁proyecto	-5876
▁surround	-5877
▁structures	-5878
▁ét	-5879
ctor	-5880
ined	-5881
▁esa	-5882
мента	-5883
▁Text	-5884
▁usando	-5885
▁произво	-5886
▁Menschen	-5887
ский	-5888
▁enfer	-5889
▁static	-5890
ih	-5891
ared	-5892
▁CPU	-5893
▁eggs	-5894
▁nada	-5895
▁relax	-5896
▁beyond	-5897
▁promot	-5898
▁compreh	-5899
▁follows	-5900
▁técnicas	-5901
▁decisiones	-5902
能够	-5903
agem	-5904
дите	-5905
phere	-5906
▁West	-5907
▁hear	-5908
ใน	-5909
▁SE	-5910
idor	-5911
▁dens	-5912
▁pron	-5913
▁smart	-5914
▁existe	-5915
▁websites	-5916
▁populares	-5917
Por	-5918
aja	-5919
bro	-5920
▁чере	-5921
▁moral	-5922
▁psych	-5923
esis	-5924
▁Out	-5925
▁domin	-5926
▁scale	-5927
▁seems	-5928
▁estilo	-5929
▁gracias	-5930
енно	-5931
▁false	-5932
程序	-5933
Str	-5934
cher	-5935
▁них	-5936
мости	-5937
▁enter	-5938
▁client	-5939
です	-5940
cas	-5941
inc	-5942
uto	-5943
▁od	-5944
▁sac	-5945
▁vir	-5946
▁сов	-5947
▁strugg	-5948
▁trabajar	-5949
kl	-5950
зм	-5951
доб	-5952
роят	-5953
▁perspective	-5954
▁ep	-5955
▁ал	-5956
aleza	-5957
нечно	-5958
ходит	-5959
▁имеет	-5960
▁компью	-5961
▁desarrollar	-5962
gent	-5963
iting	-5964
▁From	-5965
▁partes	-5966
▁feature	-5967
IA	-5968
OT	-5969
рі	-5970
тя	-5971
▁fab	-5972
width	-5973
▁aceite	-5974
▁accuracy	-5975
▁population	-5976
тки	-5977
▁ju	-5978
icious	-5979
▁пример	-5980
arlo	-5981
estr	-5982
▁198	-5983
▁sau	-5984
▁soy	-5985
▁magic	-5986
▁interf	-5987
▁calculate	-5988
▁rep	-5989
ername	-5990
▁понима	-5991
▁forward	-5992
▁constante	-5993
▁objetivos	-5994
▁resultados	-5995
ags	-5996
▁CO	-5997
▁plug	-5998
▁condition	-5999
计算	-6000
lie	-6001
oto	-6002
▁terminal	-6003
▁arquitect	-6004
▁capabilities	-6005
fit	-6006
isa	-6007
Name	-6008
coin	-6009
umin	-6010
стей	-6011
▁ult	-6012
▁aten	-6013
▁active	-6014
▁advice	-6015
▁например	-6016
▁пользова	-6017
hnen	-6018
▁tail	-6019
▁chann	-6020
▁Android	-6021
▁mercado	-6022
▁interests	-6023
фо	-6024
▁Brit	-6025
▁assum	-6026
▁conte	-6027
▁keine	-6028
▁другие	-6029
▁funciones	-6030
alia	-6031
▁letter	-6032
▁libros	-6033
▁impacto	-6034
▁controll	-6035
▁результа	-6036
知识	-6037
box	-6038
вно	-6039
▁Sí	-6040
▁mó	-6041
лись	-6042
▁mane	-6043
▁ries	-6044
▁creación	-6045
▁suitable	-6046
uan	-6047
▁вз	-6048
Cómo	-6049
aily	-6050
ball	-6051
▁tun	-6052
▁barr	-6053
undial	-6054
▁smooth	-6055
▁financi	-6056
▁propied	-6057
▁conjunto	-6058
▁demonstr	-6059
ya	-6060
preci	-6061
▁coord	-6062
▁increased	-6063
ден	-6064
▁Mo	-6065
▁ban	-6066
▁gir	-6067
▁mec	-6068
ening	-6069
ombres	-6070
▁trust	-6071
▁жизни	-6072
▁Christ	-6073
▁condic	-6074
▁podrían	-6075
主要	-6076
2023	-6077
image	-6078
▁sehr	-6079
▁conversation	-6080
22	-6081
▁+=	-6082
atas	-6083
attle	-6084
▁JSON	-6085
▁plot	-6086
▁therap	-6087
▁aumentar	-6088
▁existing	-6089
жу	-6090
您的	-6091
ging	-6092
▁всё	-6093
▁capable	-6094
osten	-6095
этому	-6096
▁send	-6097
▁gustaría	-6098
▁ingredients	-6099
工作	-6100
▁tit	-6101
▁ана	-6102
cional	-6103
▁drive	-6104
▁customer	-6105
▁dispositivos	-6106
Pr	-6107
my	-6108
off	-6109
лось	-6110
▁mob	-6111
▁obst	-6112
▁grupo	-6113
▁diverse	-6114
▁promote	-6115
ляр	-6116
▁Sup	-6117
▁taken	-6118
▁third	-6119
▁storage	-6120
▁graphics	-6121
▁component	-6122
▁suggestions	-6123
fig	-6124
▁II	-6125
▁fem	-6126
▁veces	-6127
▁сторо	-6128
▁outside	-6129
▁reducing	-6130
SP	-6131
ไม่	-6132
▁Afr	-6133
▁SQL	-6134
▁Try	-6135
ously	-6136
▁Many	-6137
anning	-6138
▁diseñ	-6139
▁Comput	-6140
▁puntos	-6141
▁returns	-6142
";	-6143
[1	-6144
ipe	-6145
▁GPU	-6146
▁carbon	-6147
▁played	-6148
▁videoj	-6149
▁proporcionar	-6150
oro	-6151
real	-6152
reib	-6153
ktion	-6154
uction	-6155
▁noise	-6156
▁inglés	-6157
▁creates	-6158
▁however	-6159
oles	-6160
tein	-6161
▁hip	-6162
▁rais	-6163
▁Apple	-6164
▁fight	-6165
Ap	-6166
mp	-6167
าย	-6168
aren	-6169
▁cele	-6170
▁equal	-6171
▁menor	-6172
▁query	-6173
▁sigue	-6174
▁caused	-6175
▁fuente	-6176
▁cambios	-6177
▁chemical	-6178
▁instrument	-6179
45	-6180
}{	-6181
яс	-6182
▁Та	-6183
culo	-6184
▁nun	-6185
▁font	-6186
string	-6187
▁alcohol	-6188
▁действи	-6189
▁existence	-6190
服务	-6191
理解	-6192
ющих	-6193
▁Ing	-6194
▁высо	-6195
though	-6196
▁propos	-6197
▁password	-6198
▁win	-6199
▁paso	-6200
▁орга	-6201
▁Austr	-6202
▁piece	-6203
▁техно	-6204
▁equilibr	-6205
▁términos	-6206
▁historical	-6207
อย	-6208
bas	-6209
uff	-6210
iche	-6211
izer	-6212
▁farm	-6213
▁viel	-6214
▁papel	-6215
▁áreas	-6216
▁complic	-6217
自然	-6218
ley	-6219
шин	-6220
hlen	-6221
ните	-6222
▁ple	-6223
▁тво	-6224
▁calcular	-6225
▁parameters	-6226
▁在	-6227
了解	-6228
回答	-6229
ним	-6230
▁},	-6231
▁хоро	-6232
▁refers	-6233
▁Internet	-6234
▁Japanese	-6235
▁healthcare	-6236
▁responsible	-6237
AC	-6238
▁eat	-6239
ética	-6240
▁autor	-6241
▁attract	-6242
▁beliefs	-6243
▁advantage	-6244
▁Po	-6245
utes	-6246
▁Test	-6247
▁weap	-6248
▁variar	-6249
txt	-6250
▁occur	-6251
leccion	-6252
▁greater	-6253
▁implementation	-6254
Fr	-6255
\*	-6256
生活	-6257
дук	-6258
▁rule	-6259
▁элек	-6260
ческой	-6261
▁extrem	-6262
▁valuable	-6263
HT	-6264
cur	-6265
plot	-6266
wise	-6267
ская	-6268
▁Pers	-6269
▁arte	-6270
▁Hello	-6271
▁ки	-6272
////	-6273
▁эле	-6274
▁pick	-6275
▁интер	-6276
duction	-6277
▁exercise	-6278
▁bibliotec	-6279
ีย	-6280
▁Fin	-6281
▁Anal	-6282
emente	-6283
▁protein	-6284
如何	-6285
建议	-6286
руп	-6287
iera	-6288
▁Real	-6289
▁люди	-6290
issions	-6291
▁render	-6292
▁attacks	-6293
ég	-6294
раз	-6295
uman	-6296
wers	-6297
▁Mac	-6298
▁San	-6299
▁update	-6300
Th	-6301
任务	-6302
研究	-6303
atz	-6304
var	-6305
тно	-6306
чки	-6307
ieve	-6308
astic	-6309
▁node	-6310
▁discr	-6311
▁nuclear	-6312
asp	-6313
лез	-6314
cipl	-6315
▁Cho	-6316
▁Hier	-6317
▁liber	-6318
▁pesso	-6319
▁instit	-6320
▁pieces	-6321
▁möglich	-6322
▁humanity	-6323
目标	-6324
ograf	-6325
▁rein	-6326
▁purch	-6327
▁inspir	-6328
▁sounds	-6329
▁verdad	-6330
▁thoughts	-6331
▁statement	-6332
ció	-6333
ying	-6334
▁Cop	-6335
▁уже	-6336
▁prue	-6337
▁democr	-6338
▁análisis	-6339
▁Det	-6340
▁URL	-6341
▁hon	-6342
▁соб	-6343
▁buen	-6344
▁echo	-6345
ipedia	-6346
▁properly	-6347
ford	-6348
▁Mag	-6349
▁иде	-6350
▁bajo	-6351
▁pobl	-6352
▁cloud	-6353
▁serve	-6354
▁dimens	-6355
▁transfer	-6356
▁Minecraft	-6357
▁conocimiento	-6358
作为	-6359
äch	-6360
тен	-6361
grad	-6362
เป็น	-6363
▁senc	-6364
▁claim	-6365
▁prime	-6366
▁tendr	-6367
▁cultures	-6368
ัง	-6369
azon	-6370
▁wur	-6371
▁vast	-6372
▁proced	-6373
▁personajes	-6374
▁international	-6375
aban	-6376
ians	-6377
▁---	-6378
▁glad	-6379
▁skin	-6380
▁пока	-6381
▁свой	-6382
▁naturaleza	-6383
▁effectively	-6384
因为	-6385
лов	-6386
imal	-6387
pare	-6388
medad	-6389
▁align	-6390
▁sched	-6391
▁finding	-6392
▁realidad	-6393
lib	-6394
ความ	-6395
ounds	-6396
пасно	-6397
▁Build	-6398
▁temas	-6399
▁wichtig	-6400
▁proyectos	-6401
Un	-6402
方式	-6403
▁Char	-6404
▁sufic	-6405
▁producción	-6406
▁engineering	-6407
实现	-6408
sche	-6409
жалу	-6410
▁cebol	-6411
▁invent	-6412
▁transpar	-6413
IP	-6414
hi	-6415
ทํา	-6416
▁Pi	-6417
▁mount	-6418
▁located	-6419
**.	-6420
▁Ac	-6421
води	-6422
▁bow	-6423
▁astr	-6424
ческий	-6425
▁comer	-6426
▁histór	-6427
▁rights	-6428
▁creative	-6429
▁movimiento	-6430
вод	-6431
write	-6432
script	-6433
▁через	-6434
▁OpenAI	-6435
▁moving	-6436
▁Oh	-6437
fill	-6438
pire	-6439
▁bis	-6440
olved	-6441
▁Take	-6442
▁связа	-6443
▁adding	-6444
▁almacen	-6445
▁responder	-6446
▁successful	-6447
▁organizations	-6448
anç	-6449
▁Ed	-6450
etch	-6451
enden	-6452
▁daily	-6453
▁metal	-6454
▁comenzar	-6455
▁человека	-6456
▁nu	-6457
hmen	-6458
orge	-6459
▁som	-6460
жалуй	-6461
▁Gree	-6462
▁China	-6463
▁Great	-6464
iciones	-6465
include	-6466
▁planeta	-6467
▁emotional	-6468
aced	-6469
▁1/2	-6470
arian	-6471
▁verb	-6472
▁эффек	-6473
▁Engine	-6474
▁container	-6475
acer	-6476
ulos	-6477
▁обы	-6478
ответ	-6479
▁servicios	-6480
▁Prim	-6481
▁отли	-6482
essage	-6483
▁Define	-6484
▁themes	-6485
▁sentido	-6486
Ass	-6487
▁Cor	-6488
▁bin	-6489
▁mole	-6490
▁уров	-6491
ocolate	-6492
ands	-6493
вест	-6494
▁Sub	-6495
úrate	-6496
olving	-6497
▁comunes	-6498
▁entrada	-6499
▁According	-6500
▁dangerous	-6501
▁)	-6502
род	-6503
ored	-6504
▁Cuando	-6505
▁invers	-6506
pression	-6507
▁verschied	-6508
55	-6509
рь	-6510
ações	-6511
▁pand	-6512
▁appreci	-6513
gu	-6514
ugs	-6515
тор	-6516
▁её	-6517
ague	-6518
plit	-6519
стью	-6520
▁kom	-6521
▁masa	-6522
▁этой	-6523
▁ofrece	-6524
▁region	-6525
▁atención	-6526
▁considerar	-6527
рен	-6528
реди	-6529
inger	-6530
▁sino	-6531
▁added	-6532
▁horas	-6533
▁revol	-6534
eth	-6535
utz	-6536
▁Mi	-6537
▁etw	-6538
itary	-6539
▁push	-6540
▁gusto	-6541
▁descubr	-6542
▁catch	-6543
▁horiz	-6544
▁libert	-6545
▁policy	-6546
因此	-6547
дол	-6548
ของ	-6549
▁Bus	-6550
▁reb	-6551
▁mode	-6552
itions	-6553
▁elabor	-6554
▁generation	-6555
ums	-6556
▁King	-6557
▁Prov	-6558
▁había	-6559
▁всего	-6560
支持	-6561
iana	-6562
▁ped	-6563
▁pie	-6564
▁гла	-6565
▁смо	-6566
▁Person	-6567
▁believed	-6568
▁equation	-6569
éf	-6570
但是	-6571
hib	-6572
ками	-6573
▁restr	-6574
▁откры	-6575
▁incluir	-6576
▁mejores	-6577
▁lenguajes	-6578
90	-6579
aint	-6580
peed	-6581
ской	-6582
▁Run	-6583
▁предо	-6584
yl	-6585
こと	-6586
ями	-6587
alsa	-6588
etes	-6589
▁eye	-6590
level	-6591
▁nutr	-6592
ounter	-6593
▁llegar	-6594
▁mezcla	-6595
▁cambiar	-6596
▁marketing	-6597
公司	-6598
用于	-6599
ást	-6600
кономи	-6601
▁apart	-6602
▁oppos	-6603
▁causes	-6604
▁improv	-6605
▁signal	-6606
▁resource	-6607
▁enfermedad	-6608
gas	-6609
ánd	-6610
▁чув	-6611
▁fair	-6612
▁ning	-6613
▁упра	-6614
▁acceso	-6615
▁помощью	-6616
▁measures	-6617
▁technical	-6618
▁technique	-6619
aga	-6620
▁añ	-6621
berry	-6622
▁trou	-6623
▁Ultim	-6624
▁absor	-6625
▁phone	-6626
▁sport	-6627
anguage	-6628
▁stories	-6629
▁política	-6630
yp	-6631
เร	-6632
icia	-6633
▁rat	-6634
▁hands	-6635
▁peace	-6636
▁множе	-6637
▁потре	-6638
ministr	-6639
жалуйста	-6640
▁образом	-6641
▁thinking	-6642
▁mentioned	-6643
▁ш	-6644
cen	-6645
isk	-6646
uar	-6647
▁ла	-6648
bles	-6649
medi	-6650
omic	-6651
▁dry	-6652
▁liqu	-6653
▁rain	-6654
▁site	-6655
esearch	-6656
▁specifically	-6657
ар	-6658
ugh	-6659
▁4,	-6660
frac	-6661
▁Lat	-6662
▁déc	-6663
▁eta	-6664
▁vibr	-6665
▁безо	-6666
▁Using	-6667
▁fantas	-6668
▁recent	-6669
▁модели	-6670
▁Beispiel	-6671
▁creation	-6672
»,	-6673
lay	-6674
mes	-6675
emon	-6676
type	-6677
used	-6678
▁cit	-6679
▁tel	-6680
▁тру	-6681
itter	-6682
azione	-6683
▁inclu	-6684
▁motor	-6685
▁celebr	-6686
▁fuerza	-6687
▁idioma	-6688
▁authent	-6689
▁machines	-6690
情况	-6691
我的	-6692
raz	-6693
▁ép	-6694
ники	-6695
▁kaj	-6696
ellow	-6697
комен	-6698
▁qued	-6699
ческого	-6700
▁feelings	-6701
Ad	-6702
▁Ü	-6703
жать	-6704
ierno	-6705
▁Daten	-6706
▁podem	-6707
▁trees	-6708
▁счита	-6709
▁Aunque	-6710
▁amigos	-6711
▁organization	-6712
Le	-6713
ised	-6714
▁hyp	-6715
▁ella	-6716
▁star	-6717
▁recipe	-6718
▁direction	-6719
nes	-6720
cles	-6721
enses	-6722
▁alto	-6723
▁meat	-6724
▁wrong	-6725
▁Ultimately	-6726
▁assistance	-6727
▁dependiendo	-6728
หร	-6729
dir	-6730
eres	-6731
json	-6732
▁});	-6733
izada	-6734
нение	-6735
▁repe	-6736
sk	-6737
кро	-6738
iced	-6739
indo	-6740
oute	-6741
pload	-6742
▁pair	-6743
▁challenge	-6744
enz	-6745
▁Math	-6746
▁algu	-6747
▁cold	-6748
▁предпо	-6749
▁creativ	-6750
gt	-6751
00,	-6752
uly	-6753
íos	-6754
▁##	-6755
▁Lu	-6756
▁yo	-6757
acci	-6758
irse	-6759
emple	-6760
▁даже	-6761
▁этот	-6762
▁medium	-6763
▁siendo	-6764
ee	-6765
提高	-6766
ili	-6767
нен	-6768
idge	-6769
▁ord	-6770
циона	-6771
▁Vers	-6772
▁flat	-6773
▁cuadr	-6774
▁width	-6775
щу	-6776
จะ	-6777
▁То	-6778
▁fer	-6779
▁haz	-6780
itual	-6781
▁wear	-6782
▁hablar	-6783
▁velocity	-6784
▁conclusion	-6785
以及	-6786
同时	-6787
▁Form	-6788
▁HTTP	-6789
▁dead	-6790
▁exec	-6791
▁aware	-6792
▁palabra	-6793
▁conceptos	-6794
▁atmosphere	-6795
▁comprensión	-6796
';	-6797
Es	-6798
ках	-6799
▁Tom	-6800
▁lost	-6801
▁avent	-6802
▁encontr	-6803
▁сделать	-6804
▁человек	-6805
应该	-6806
üss	-6807
pair	-6808
pers	-6809
▁cere	-6810
▁phen	-6811
▁Ident	-6812
▁estén	-6813
▁solid	-6814
▁communities	-6815
erd	-6816
ining	-6817
▁será	-6818
▁depth	-6819
▁scene	-6820
▁многи	-6821
▁geomet	-6822
▁remains	-6823
avascript	-6824
▁Transform	-6825
We	-6826
Wh	-6827
elen	-6828
ench	-6829
стато	-6830
▁Luego	-6831
▁stock	-6832
▁switch	-6833
▁relatively	-6834
fü	-6835
▁há	-6836
▁ru	-6837
open	-6838
▁bee	-6839
ícula	-6840
ского	-6841
▁Code	-6842
▁blan	-6843
▁mich	-6844
icamente	-6845
▁Recuerda	-6846
▁changing	-6847
▁messages	-6848
▁comunidad	-6849
▁description	-6850
安全	-6851
**,	-6852
дар	-6853
forc	-6854
▁Next	-6855
▁Pres	-6856
▁pret	-6857
▁corpor	-6858
▁empezar	-6859
▁critical	-6860
▁explicar	-6861
CP	-6862
ว่า	-6863
ails	-6864
▁Mal	-6865
▁sav	-6866
known	-6867
where	-6868
▁milk	-6869
вление	-6870
▁какие	-6871
▁represents	-6872
24	-6873
具有	-6874
开发	-6875
▁спи	-6876
▁five	-6877
▁crypt	-6878
▁producto	-6879
▁requiere	-6880
▁respuestas	-6881
65	-6882
▁IN	-6883
▁zw	-6884
▁га	-6885
▁cad	-6886
▁изо	-6887
▁Plan	-6888
▁neut	-6889
▁estoy	-6890
▁errors	-6891
▁intent	-6892
▁explanation	-6893
ír	-6894
▁60	-6895
▁Kr	-6896
▁cm	-6897
ienen	-6898
▁значи	-6899
▁chicken	-6900
US	-6901
具体	-6902
нер	-6903
ufact	-6904
▁Sant	-6905
▁слож	-6906
▁часто	-6907
astructure	-6908
▁необходимо	-6909
▁kn	-6910
uits	-6911
▁Aqu	-6912
▁Step	-6913
▁rise	-6914
▁asist	-6915
▁libre	-6916
▁guerra	-6917
▁generated	-6918
▁programas	-6919
▁RE	-6920
▁Ur	-6921
uses	-6922
▁hoy	-6923
▁unl	-6924
▁ecos	-6925
▁excl	-6926
▁nuevas	-6927
▁members	-6928
▁обучения	-6929
ям	-6930
dern	-6931
culos	-6932
ников	-6933
▁Mars	-6934
▁half	-6935
▁kill	-6936
▁самы	-6937
▁began	-6938
▁elect	-6939
▁tenga	-6940
▁послед	-6941
▁reference	-6942
main	-6943
▁pun	-6944
ление	-6945
▁Mart	-6946
▁foods	-6947
▁shows	-6948
▁estrateg	-6949
▁@	-6950
▁ло	-6951
чему	-6952
▁Alg	-6953
▁drag	-6954
▁foot	-6955
amples	-6956
ponent	-6957
▁enton	-6958
▁voice	-6959
▁asking	-6960
▁продук	-6961
▁beautiful	-6962
存在	-6963
希望	-6964
ged	-6965
quer	-6966
ющий	-6967
▁Rob	-6968
ierte	-6969
▁padd	-6970
▁humana	-6971
▁disease	-6972
▁соответ	-6973
▁settings	-6974
▁resulting	-6975
▁expression	-6976
->	-6977
图像	-6978
ajo	-6979
etr	-6980
ème	-6981
кру	-6982
▁pac	-6983
style	-6984
uries	-6985
▁didn	-6986
▁habl	-6987
▁purs	-6988
▁hecho	-6989
▁juntos	-6990
▁distint	-6991
-0	-6992
AP	-6993
▁ши	-6994
▁pen	-6995
▁pic	-6996
gebra	-6997
poses	-6998
▁soft	-6999
▁soon	-7000
▁wait	-7001
change	-7002
▁lingu	-7003
▁German	-7004
▁replace	-7005
▁системы	-7006
▁collection	-7007
▁comfortable	-7008
PN	-7009
():	-7010
ted	-7011
▁Sm	-7012
urch	-7013
лага	-7014
▁Mer	-7015
▁commit	-7016
крет	-7017
enced	-7018
горит	-7019
▁усло	-7020
▁Super	-7021
▁Would	-7022
▁коман	-7023
▁pantalla	-7024
▁policies	-7025
▁disponibles	-7026
rc	-7027
vi	-7028
ità	-7029
рти	-7030
тек	-7031
мина	-7032
чина	-7033
▁demás	-7034
▁breath	-7035
▁pepper	-7036
▁инстру	-7037
▁becomes	-7038
Er	-7039
▁ци	-7040
inst	-7041
▁cha	-7042
▁aquell	-7043
▁обеспе	-7044
▁nuestra	-7045
Sh	-7046
่ง	-7047
▁ja	-7048
ango	-7049
ário	-7050
▁leer	-7051
▁places	-7052
▁classes	-7053
▁posición	-7054
ân	-7055
าน	-7056
▁5,	-7057
egin	-7058
ioso	-7059
▁His	-7060
▁atr	-7061
endant	-7062
ightly	-7063
onacci	-7064
ваться	-7065
▁adult	-7066
▁quien	-7067
▁criter	-7068
▁forces	-7069
▁allowed	-7070
▁construir	-7071
▁utilizado	-7072
▁consistent	-7073
▁situations	-7074
gn	-7075
das	-7076
uten	-7077
veis	-7078
▁уве	-7079
▁cert	-7080
▁nave	-7081
▁shad	-7082
▁adopt	-7083
▁fresh	-7084
▁tempo	-7085
▁official	-7086
▁sometimes	-7087
▁condiciones	-7088
паси	-7089
▁aún	-7090
▁Time	-7091
▁apps	-7092
▁linear	-7093
▁peuvent	-7094
▁jugadores	-7095
它们	-7096
-20	-7097
uts	-7098
▁1/	-7099
code	-7100
uper	-7101
роме	-7102
▁Ang	-7103
▁primero	-7104
▁especialmente	-7105
äre	-7106
itat	-7107
▁sky	-7108
льного	-7109
▁Since	-7110
▁notes	-7111
▁sympt	-7112
▁слова	-7113
quality	-7114
▁stable	-7115
▁distinct	-7116
▁entonces	-7117
▁permitir	-7118
▁políticas	-7119
▁технологи	-7120
关系	-7121
分析	-7122
▁ax	-7123
cord	-7124
ería	-7125
▁Hol	-7126
▁bes	-7127
▁bod	-7128
▁nom	-7129
verse	-7130
áfica	-7131
▁feet	-7132
▁refr	-7133
▁weak	-7134
▁label	-7135
▁Choose	-7136
▁устрой	-7137
▁nuestro	-7138
▁chocolate	-7139
▁connected	-7140
Al	-7141
eper	-7142
▁kon	-7143
▁nar	-7144
oring	-7145
▁infer	-7146
▁default	-7147
▁gravity	-7148
▁limitations	-7149
HP	-7150
不同的	-7151
ffer	-7152
hand	-7153
шить	-7154
▁faz	-7155
▁від	-7156
ifica	-7157
▁Crea	-7158
▁obra	-7159
▁каче	-7160
▁extre	-7161
▁Bitcoin	-7162
▁alguien	-7163
▁refiere	-7164
']	-7165
▁Up	-7166
link	-7167
otos	-7168
tres	-7169
zing	-7170
▁197	-7171
estar	-7172
yption	-7173
▁concre	-7174
▁fabric	-7175
▁tamaño	-7176
▁superior	-7177
▁sustainable	-7178
ey	-7179
”,	-7180
uge	-7181
öch	-7182
гля	-7183
▁oh	-7184
▁inj	-7185
▁item	-7186
cience	-7187
▁Greek	-7188
▁доступ	-7189
▁работы	-7190
▁práctica	-7191
UR	-7192
pi	-7193
itan	-7194
▁Und	-7195
▁deg	-7196
weise	-7197
▁tour	-7198
▁vill	-7199
▁freed	-7200
▁thread	-7201
▁cebolla	-7202
▁mencion	-7203
▁insights	-7204
▁investment	-7205
▁específicas	-7206
21	-7207
需求	-7208
ñas	-7209
Cont	-7210
cribe	-7211
icult	-7212
▁Serv	-7213
▁fuel	-7214
▁Machine	-7215
▁prompts	-7216
▁distancia	-7217
▁expensive	-7218
▁practical	-7219
▁profesional	-7220
注意	-7221
dos	-7222
вое	-7223
ื่อ	-7224
inos	-7225
▁цен	-7226
▁burn	-7227
▁usage	-7228
▁growing	-7229
▁incluso	-7230
▁Software	-7231
-8	-7232
函数	-7233
nal	-7234
aper	-7235
icing	-7236
▁race	-7237
▁tard	-7238
▁branch	-7239
▁gather	-7240
▁nothing	-7241
▁vegetables	-7242
▁Prom	-7243
▁bomb	-7244
▁trata	-7245
▁viaje	-7246
▁advantages	-7247
wind	-7248
▁доба	-7249
▁casos	-7250
▁jugador	-7251
▁mathematics	-7252
itu	-7253
mon	-7254
Data	-7255
▁fasc	-7256
elines	-7257
▁rapid	-7258
▁sentence	-7259
▁approximately	-7260
AL	-7261
eds	-7262
▁RAM	-7263
ühren	-7264
▁cogn	-7265
▁miles	-7266
connect	-7267
▁transm	-7268
▁proteín	-7269
▁external	-7270
bst	-7271
▁eu	-7272
ível	-7273
риан	-7274
тера	-7275
телей	-7276
▁bank	-7277
▁goes	-7278
▁Energ	-7279
urrency	-7280
▁apolog	-7281
▁layers	-7282
friendly	-7283
▁scientists	-7284
лё	-7285
ิด	-7286
iny	-7287
uda	-7288
хра	-7289
▁pró	-7290
▁Eins	-7291
▁absol	-7292
▁frecu	-7293
▁única	-7294
▁reward	-7295
▁contrast	-7296
▁ри	-7297
▁Bat	-7298
▁área	-7299
▁diagn	-7300
▁estad	-7301
▁academ	-7302
▁advanc	-7303
▁jedoch	-7304
▁leaves	-7305
▁manten	-7306
▁styles	-7307
▁contexto	-7308
▁regularly	-7309
NN	-7310
内容	-7311
мой	-7312
ряд	-7313
▁gratu	-7314
ducción	-7315
▁alcanz	-7316
▁famous	-7317
▁neuron	-7318
▁supply	-7319
▁answers	-7320
▁primary	-7321
▁экономи	-7322
▁situación	-7323
▁electrical	-7324
mm	-7325
cor	-7326
тем	-7327
amen	-7328
йтесь	-7329
▁asyn	-7330
▁galax	-7331
▁moder	-7332
▁llevar	-7333
▁shared	-7334
▁benefic	-7335
ban	-7336
igr	-7337
cean	-7338
▁cro	-7339
▁cub	-7340
▁High	-7341
▁dann	-7342
пасибо	-7343
▁costs	-7344
▁touch	-7345
▁Germany	-7346
▁largest	-7347
▁конкрет	-7348
▁separate	-7349
▁entrenamiento	-7350
uv	-7351
▁ok	-7352
▁Ter	-7353
eline	-7354
elles	-7355
грани	-7356
▁muer	-7357
▁Which	-7358
▁busca	-7359
▁специа	-7360
▁analyze	-7361
▁purposes	-7362
▁preguntar	-7363
uber	-7364
úsqu	-7365
▁Haz	-7366
▁row	-7367
вание	-7368
▁проек	-7369
example	-7370
▁probable	-7371
▁improving	-7372
mic	-7373
pat	-7374
▁Auf	-7375
▁Ger	-7376
▁bon	-7377
porte	-7378
▁quím	-7379
ership	-7380
▁Power	-7381
▁ingen	-7382
▁meant	-7383
▁flavor	-7384
▁latest	-7385
▁master	-7386
▁amounts	-7387
▁supports	-7388
▁creatures	-7389
▁comprehensive	-7390
(2	-7391
▁Ej	-7392
▁Pa	-7393
▁ár	-7394
▁wür	-7395
▁Они	-7396
▁deseas	-7397
▁volume	-7398
bi	-7399
▁ее	-7400
ulas	-7401
▁bound	-7402
▁click	-7403
▁dieta	-7404
amientos	-7405
▁causing	-7406
▁matemáticas	-7407
▁environments	-7408
кси	-7409
pace	-7410
▁abr	-7411
▁aux	-7412
▁сти	-7413
▁alred	-7414
▁stars	-7415
▁básicos	-7416
▁Research	-7417
▁manufact	-7418
esse	-7419
▁ihr	-7420
▁кри	-7421
color	-7422
▁luch	-7423
▁изме	-7424
▁Algunas	-7425
▁military	-7426
▁Information	-7427
uye	-7428
вати	-7429
allel	-7430
reich	-7431
▁siglo	-7432
▁chance	-7433
▁formal	-7434
▁funciona	-7435
▁solución	-7436
ifications	-7437
่ว	-7438
之间	-7439
相关	-7440
gram	-7441
лить	-7442
icles	-7443
▁Cada	-7444
▁rect	-7445
▁tout	-7446
▁trig	-7447
iantes	-7448
▁efecto	-7449
▁European	-7450
▁installed	-7451
SQL	-7452
▁Max	-7453
acing	-7454
etical	-7455
▁abord	-7456
▁excel	-7457
▁Invest	-7458
▁counter	-7459
▁formato	-7460
▁protection	-7461
▁infrastructure	-7462
อา	-7463
する	-7464
sub	-7465
▁ги	-7466
▁фо	-7467
▁Ten	-7468
▁ann	-7469
▁Node	-7470
▁apoy	-7471
▁luck	-7472
▁solic	-7473
▁основ	-7474
▁andere	-7475
▁calend	-7476
▁motion	-7477
▁equipment	-7478
sm	-7479
erve	-7480
▁Lim	-7481
▁bur	-7482
ublic	-7483
▁Will	-7484
▁acid	-7485
▁clas	-7486
▁priorit	-7487
""	-7488
定的	-7489
кая	-7490
▁3)	-7491
endre	-7492
utter	-7493
▁Intro	-7494
▁проис	-7495
▁vision	-7496
▁Gracias	-7497
▁release	-7498
▁presence	-7499
▁diferencias	-7500
UT	-7501
nen	-7502
pan	-7503
гре	-7504
тие	-7505
ссии	-7506
▁bul	-7507
▁cál	-7508
▁knew	-7509
▁tort	-7510
▁dudes	-7511
▁except	-7512
▁cooking	-7513
▁focused	-7514
▁técnica	-7515
LM	-7516
ßen	-7517
quir	-7518
▁500	-7519
▁Leg	-7520
▁sho	-7521
▁тра	-7522
▁modo	-7523
▁emple	-7524
▁sauce	-7525
▁construcción	-7526
人的	-7527
äng	-7528
ллек	-7529
шение	-7530
▁сред	-7531
▁bater	-7532
▁equival	-7533
▁identity	-7534
0)	-7535
训练	-7536
▁Agre	-7537
▁auto	-7538
ística	-7539
▁jugar	-7540
▁logic	-7541
▁anyone	-7542
▁tecnologías	-7543
▁consciousness	-7544
MD	-7545
ço	-7546
uen	-7547
дра	-7548
жны	-7549
▁Те	-7550
erte	-7551
▁Tok	-7552
▁tele	-7553
▁estre	-7554
▁gives	-7555
▁tabla	-7556
▁truth	-7557
▁ciencia	-7558
▁вопросы	-7559
SI	-7560
mar	-7561
▁ub	-7562
▁Big	-7563
▁были	-7564
String	-7565
length	-7566
▁commer	-7567
▁compare	-7568
▁reading	-7569
▁позволяет	-7570
▁rendimiento	-7571
して	-7572
aud	-7573
▁ха	-7574
чной	-7575
▁Other	-7576
▁acerc	-7577
▁búsqu	-7578
▁hidden	-7579
-5	-7580
icy	-7581
apor	-7582
avel	-7583
▁(200	-7584
▁peso	-7585
▁поли	-7586
▁физи	-7587
▁Unity	-7588
▁fuego	-7589
▁sugar	-7590
▁иссле	-7591
▁pygame	-7592
▁secret	-7593
▁anderen	-7594
▁incluye	-7595
▁talking	-7596
▁classical	-7597
文本	-7598
zie	-7599
plex	-7600
▁End	-7601
▁Opt	-7602
▁usa	-7603
▁Face	-7604
▁sides	-7605
▁lograr	-7606
▁conserv	-7607
▁engaging	-7608
▁eficiente	-7609
▁probability	-7610
文化	-7611
更加	-7612
().	-7613
дой	-7614
▁Da	-7615
▁muj	-7616
itate	-7617
ремен	-7618
▁scal	-7619
▁guard	-7620
▁nunca	-7621
▁ready	-7622
▁title	-7623
agement	-7624
▁seguro	-7625
▁mainten	-7626
PE	-7627
ii	-7628
vil	-7629
base	-7630
ibly	-7631
onds	-7632
▁Kon	-7633
duino	-7634
▁core	-7635
▁vert	-7636
▁capaz	-7637
▁escal	-7638
▁социа	-7639
▁требу	-7640
gentina	-7641
▁bright	-7642
▁economy	-7643
▁llamado	-7644
iso	-7645
вым	-7646
more	-7647
▁дви	-7648
▁Both	-7649
▁dial	-7650
▁lect	-7651
▁всех	-7652
▁Roman	-7653
▁компа	-7654
Element	-7655
▁figure	-7656
▁economía	-7657
▁comunicación	-7658
RI	-7659
rad	-7660
atro	-7661
umas	-7662
▁impr	-7663
áticos	-7664
▁plane	-7665
▁viele	-7666
▁gráfic	-7667
▁público	-7668
▁reliable	-7669
▁theories	-7670
▁frameworks	-7671
▁identificar	-7672
azu	-7673
▁Fal	-7674
▁Game	-7675
▁habe	-7676
▁vict	-7677
▁America	-7678
▁hacerlo	-7679
▁released	-7680
▁blockchain	-7681
шим	-7682
是一种	-7683
ocar	-7684
▁gol	-7685
inese	-7686
▁basa	-7687
▁любо	-7688
▁preoc	-7689
▁sweet	-7690
▁vista	-7691
▁deploy	-7692
▁enhance	-7693
▁Language	-7694
▁symptoms	-7695
89	-7696
zz	-7697
ác	-7698
่น	-7699
▁rh	-7700
вается	-7701
▁Unidos	-7702
▁ajudar	-7703
▁entorno	-7704
Assistant	-7705
▁alrededor	-7706
▁completely	-7707
SV	-7708
apa	-7709
dro	-7710
вра	-7711
роб	-7712
ects	-7713
нови	-7714
▁ice	-7715
▁ont	-7716
icher	-7717
▁Mich	-7718
▁cumpl	-7719
▁könnte	-7720
▁wanted	-7721
▁browser	-7722
▁disfrut	-7723
▁efectos	-7724
▁studies	-7725
▁traffic	-7726
plication	-7727
UI	-7728
xy	-7729
рой	-7730
іль	-7731
icks	-7732
вают	-7733
▁Ens	-7734
▁особ	-7735
▁score	-7736
▁investigación	-7737
▁ар	-7738
▁як	-7739
iling	-7740
▁Type	-7741
▁Word	-7742
ifying	-7743
▁seres	-7744
▁sitio	-7745
▁написа	-7746
▁muestra	-7747
▁métodos	-7748
▁eventually	-7749
▁componentes	-7750
▁configuration	-7751
izz	-7752
roz	-7753
▁TV	-7754
Hola	-7755
ensa	-7756
▁Ges	-7757
▁свое	-7758
halten	-7759
▁resid	-7760
▁descar	-7761
▁вероят	-7762
▁derechos	-7763
▁superfic	-7764
▁diferente	-7765
ück	-7766
▁Os	-7767
▁sé	-7768
▁Wie	-7769
apter	-7770
▁sample	-7771
▁segundo	-7772
▁restrict	-7773
▁subjective	-7774
▁actividades	-7775
oi	-7776
лки	-7777
find	-7778
iens	-7779
▁LED	-7780
▁пло	-7781
index	-7782
жений	-7783
▁conex	-7784
▁cours	-7785
▁приме	-7786
▁gender	-7787
▁expected	-7788
▁guidance	-7789
▁accessible	-7790
网络	-7791
设计	-7792
▁DE	-7793
▁Gl	-7794
room	-7795
▁pag	-7796
▁herm	-7797
▁stra	-7798
▁weiter	-7799
▁reconoc	-7800
▁empresas	-7801
▁naturales	-7802
▁algoritmos	-7803
▁regulations	-7804
文件	-7805
▁Gal	-7806
▁einf	-7807
▁enfo	-7808
▁gard	-7809
ностью	-7810
▁trade	-7811
▁опера	-7812
▁Calcul	-7813
▁извест	-7814
▁learned	-7815
api	-7816
▁що	-7817
▁pul	-7818
▁пси	-7819
ithub	-7820
rough	-7821
▁памя	-7822
▁arquitectura	-7823
No	-7824
▁éx	-7825
нять	-7826
▁кни	-7827
▁ihre	-7828
server	-7829
▁Amazon	-7830
▁huevos	-7831
▁projet	-7832
▁inicial	-7833
▁maximum	-7834
▁aproximadamente	-7835
Me	-7836
üt	-7837
▒▒	-7838
ads	-7839
uno	-7840
кон	-7841
чный	-7842
▁fen	-7843
asure	-7844
umber	-7845
▁asked	-7846
▁прило	-7847
▁debate	-7848
▁servidor	-7849
▁customers	-7850
▁Artificial	-7851
▁conocimientos	-7852
编程	-7853
▁cv	-7854
▁iz	-7855
▁Pal	-7856
▁lech	-7857
▁toma	-7858
▁Exper	-7859
▁butter	-7860
▁tables	-7861
▁Despite	-7862
▁conflic	-7863
▁keyword	-7864
▁consumption	-7865
DF	-7866
ez	-7867
rt	-7868
рия	-7869
aire	-7870
iser	-7871
▁Bre	-7872
▁еще	-7873
▁над	-7874
▁ahora	-7875
▁compl	-7876
ossible	-7877
▁syntax	-7878
ucciones	-7879
经济	-7880
▁AR	-7881
▁Ви	-7882
iors	-7883
otal	-7884
ahren	-7885
▁один	-7886
▁ambos	-7887
▁carne	-7888
▁woman	-7889
ocument	-7890
▁Docker	-7891
▁spaces	-7892
▁модель	-7893
更多	-7894
ском	-7895
▁fear	-7896
▁была	-7897
▁glass	-7898
▁France	-7899
▁cliente	-7900
▁preocup	-7901
forcement	-7902
▁apologize	-7903
▁ecosystem	-7904
AB	-7905
Id	-7906
bu	-7907
++)	-7908
rot	-7909
лиз	-7910
่าง	-7911
aste	-7912
iero	-7913
▁изу	-7914
▁оши	-7915
▁café	-7916
▁templ	-7917
▁helped	-7918
▁speech	-7919
▁dynamic	-7920
▁controlar	-7921
▁exploration	-7922
%%	-7923
4)	-7924
75	-7925
CE	-7926
~~	-7927
▁《	-7928
dig	-7929
omin	-7930
▁gut	-7931
▁Wass	-7932
▁leur	-7933
▁года	-7934
▁anime	-7935
▁cette	-7936
▁falta	-7937
▁imper	-7938
▁looks	-7939
▁salsa	-7940
▁matrix	-7941
▁consejos	-7942
▁Implement	-7943
管理	-7944
onna	-7945
craft	-7946
▁máqu	-7947
▁свою	-7948
keiten	-7949
▁Также	-7950
isation	-7951
▁engage	-7952
▁defined	-7953
▁filosof	-7954
▁section	-7955
äh	-7956
▁fi	-7957
▁Eth	-7958
▁PHP	-7959
▁ges	-7960
▁lon	-7961
▁Alex	-7962
▁felt	-7963
▁torn	-7964
append	-7965
▁внима	-7966
▁стоит	-7967
▁credit	-7968
▁nuevos	-7969
▁flexible	-7970
ró	-7971
yo	-7972
过程	-7973
mas	-7974
▁||	-7975
▁От	-7976
▁Deb	-7977
etros	-7978
Res	-7979
áng	-7980
▁Ir	-7981
amil	-7982
ität	-7983
▁ign	-7984
array	-7985
▁ense	-7986
▁late	-7987
▁soil	-7988
urance	-7989
▁agent	-7990
▁angle	-7991
▁dific	-7992
▁fecha	-7993
▁heavy	-7994
▁radio	-7995
▁mayoría	-7996
▁serious	-7997
ibilities	-7998
▁cuántica	-7999
▁ensuring	-8000
▁implications	-8001
可能会	-8002
aden	-8003
kens	-8004
zeug	-8005
▁Ent	-8006
▁king	-8007
▁своей	-8008
▁decide	-8009
▁eating	-8010
▁elegir	-8011
▁услови	-8012
oir	-8013
000,	-8014
esto	-8015
▁wild	-8016
atural	-8017
▁máxim	-8018
▁unter	-8019
▁будут	-8020
▁attrib	-8021
▁filled	-8022
iffusion	-8023
▁conocer	-8024
▁keyboard	-8025
tu	-8026
▁df	-8027
anda	-8028
etas	-8029
лась	-8030
phone	-8031
▁Aseg	-8032
▁Hand	-8033
▁hair	-8034
▁regr	-8035
▁tall	-8036
▁стро	-8037
▁Ingred	-8038
▁expans	-8039
▁primarily	-8040
ql	-8041
▁Ub	-8042
ielo	-8043
▁Sur	-8044
▁наи	-8045
going	-8046
▁came	-8047
▁году	-8048
▁module	-8049
▁updated	-8050
▁búsqueda	-8051
▁soluciones	-8052
▁collaboration	-8053
不是	-8054
大的	-8055
:00	-8056
acia	-8057
este	-8058
▁jud	-8059
leich	-8060
▁Eine	-8061
▁York	-8062
result	-8063
▁colle	-8064
▁faire	-8065
▁сообще	-8066
▁archivos	-8067
▁protagon	-8068
▁proteger	-8069
▁ingredientes	-8070
Mod	-8071
▁22	-8072
icon	-8073
▁Sor	-8074
▁kit	-8075
antum	-8076
▁cart	-8077
▁weit	-8078
▁выра	-8079
izados	-8080
▁gramm	-8081
▁incom	-8082
process	-8083
▁матери	-8084
▁продол	-8085
▁Estados	-8086
▁discipl	-8087
▁regions	-8088
▁población	-8089
▁underlying	-8090
"?	-8091
▁Ш	-8092
未来	-8093
рак	-8094
fera	-8095
ходя	-8096
▁Sir	-8097
▁Tod	-8098
▁Who	-8099
▁уда	-8100
▁gaming	-8101
▁landsc	-8102
▁stored	-8103
▁множество	-8104
▁determined	-8105
49	-8106
任何	-8107
环境	-8108
这种	-8109
');	-8110
::::	-8111
item	-8112
orus	-8113
▁crí	-8114
▁raí	-8115
twort	-8116
▁diam	-8117
▁menudo	-8118
▁органи	-8119
▁Install	-8120
▁carefully	-8121
▁exercises	-8122
▁количество	-8123
eld	-8124
AION	-8125
▁hit	-8126
▁дости	-8127
ibonacci	-8128
▁mostrar	-8129
▁алгорит	-8130
▁программи	-8131
▁específico	-8132
▁personales	-8133
▁recommendations	-8134
以下是	-8135
тить	-8136
▁Lar	-8137
▁Star	-8138
▁fore	-8139
▁editor	-8140
▁trabal	-8141
▁Antwort	-8142
▁Arduino	-8143
▁definit	-8144
▁freedom	-8145
▁diseases	-8146
▁Argentina	-8147
▁некоторые	-8148
解决	-8149
Col	-8150
iko	-8151
enen	-8152
▁gob	-8153
▁pin	-8154
▁dice	-8155
▁sold	-8156
ografía	-8157
▁exactly	-8158
▁harmful	-8159
▁student	-8160
▁рекомен	-8161
▁characteristics	-8162
67	-8163
HE	-8164
ki	-8165
▁Well	-8166
▁sand	-8167
▁ciert	-8168
▁einige	-8169
▁gravit	-8170
▁hypoth	-8171
▁Program	-8172
▁classic	-8173
▁editing	-8174
▁genetic	-8175
▁verduras	-8176
▁привести	-8177
▁continues	-8178
▁philosophy	-8179
!!	-8180
▁isn	-8181
▁зву	-8182
▁защи	-8183
▁eines	-8184
▁спосо	-8185
▁mother	-8186
▁definition	-8187
▁determinar	-8188
▁documentation	-8189
aco	-8190
она	-8191
чные	-8192
Error	-8193
▁Ever	-8194
▁cand	-8195
▁sart	-8196
apping	-8197
▁acord	-8198
▁gases	-8199
▁stack	-8200
▁inputs	-8201
▁rápido	-8202
▁Instead	-8203
▁therapy	-8204
▁безопасно	-8205
Se	-8206
poon	-8207
rown	-8208
tegr	-8209
áles	-8210
▁Black	-8211
▁éxito	-8212
▁flight	-8213
▁também	-8214
▁acciones	-8215
▁discrimin	-8216
▁seleccion	-8217
url	-8218
▁ту	-8219
Your	-8220
azón	-8221
bash	-8222
ened	-8223
ioni	-8224
power	-8225
▁Juan	-8226
▁news	-8227
▁took	-8228
▁Кроме	-8229
iveness	-8230
position	-8231
▁функции	-8232
▁favorite	-8233
war	-8234
нно	-8235
---|	-8236
atus	-8237
osen	-8238
▁joy	-8239
▁пои	-8240
▁Harry	-8241
▁nueva	-8242
▁thank	-8243
▁wurde	-8244
▁ситуа	-8245
▁precio	-8246
▁adecuada	-8247
▁importancia	-8248
Ph	-8249
mark	-8250
▁Dan	-8251
start	-8252
▁bird	-8253
▁nerv	-8254
▁себе	-8255
▁pollo	-8256
▁Europa	-8257
▁comien	-8258
▁folder	-8259
▁navigate	-8260
▁planning	-8261
▁expresión	-8262
мі	-8263
мов	-8264
нем	-8265
▁тер	-8266
uchen	-8267
▁narr	-8268
▁toda	-8269
▁стре	-8270
▁искус	-8271
▁critic	-8272
▁preserv	-8273
▁permiten	-8274
ße	-8275
init	-8276
utas	-8277
osing	-8278
ítulo	-8279
тельных	-8280
▁String	-8281
▁вариан	-8282
▁efforts	-8283
▁extension	-8284
▁comprender	-8285
()`	-8286
-10	-8287
iot	-8288
▁Hi	-8289
▁ví	-8290
erry	-8291
тами	-8292
чных	-8293
▁Pos	-8294
▁Sun	-8295
cepto	-8296
plies	-8297
▁sono	-8298
abular	-8299
▁pelig	-8300
▁stick	-8301
▁kannst	-8302
▁último	-8303
▁abstract	-8304
▁эффектив	-8305
èn	-8306
API	-8307
cing	-8308
xico	-8309
туры	-8310
Claro	-8311
being	-8312
▁euro	-8313
▁perd	-8314
weight	-8315
▁найти	-8316
▁income	-8317
▁agregar	-8318
▁letters	-8319
▁estimate	-8320
▁encounter	-8321
▁influenced	-8322
对于	-8323
pha	-8324
ref	-8325
▁ta	-8326
▁DNA	-8327
▁dic	-8328
▁god	-8329
▁circum	-8330
▁memoria	-8331
▁commands	-8332
/0	-8333
GI	-8334
cm	-8335
▁4:	-8336
ogen	-8337
osas	-8338
▁Ber	-8339
▁Cat	-8340
▁Chr	-8341
▁json	-8342
▁limp	-8343
▁lleg	-8344
▁mixt	-8345
▁теле	-8346
ishing	-8347
▁Excel	-8348
▁circle	-8349
▁launch	-8350
▁weights	-8351
▁ecuación	-8352
▁improved	-8353
▁electricity	-8354
35	-8355
历史	-8356
ott	-8357
top	-8358
osta	-8359
▁cré	-8360
▁сте	-8361
ilder	-8362
▁drop	-8363
▁onto	-8364
▁свет	-8365
entran	-8366
▁giving	-8367
▁Chinese	-8368
имо	-8369
ять	-8370
7777	-8371
osos	-8372
стре	-8373
▁lóg	-8374
▁наз	-8375
менты	-8376
рения	-8377
▁South	-8378
▁below	-8379
▁obten	-8380
▁всегда	-8381
▁overview	-8382
▁patrones	-8383
人们	-8384
oci	-8385
вую	-8386
ding	-8387
ktop	-8388
▁вне	-8389
click	-8390
▁Pour	-8391
▁Model	-8392
▁flour	-8393
▁pasta	-8394
▁synth	-8395
▁попро	-8396
▁расска	-8397
▁slightly	-8398
▁expertise	-8399
▁encryption	-8400
▁communicate	-8401
öt	-8402
▁这	-8403
Cre	-8404
your	-8405
ifies	-8406
▁пара	-8407
Python	-8408
▁inher	-8409
▁excess	-8410
▁puedan	-8411
▁strings	-8412
▁researchers	-8413
úa	-8414
cons	-8415
this	-8416
▁Look	-8417
▁rank	-8418
iments	-8419
▁dance	-8420
▁видео	-8421
▁comida	-8422
▁sosten	-8423
▁ограни	-8424
▁состоя	-8425
▁engines	-8426
▁medidas	-8427
▁treatment	-8428
▁approaches	-8429
▁encuentran	-8430
▁functionality	-8431
▁philosophical	-8432
To	-8433
▁н	-8434
())	-8435
quil	-8436
▁важ	-8437
ifier	-8438
lines	-8439
▁poem	-8440
▁gente	-8441
▁mouse	-8442
▁reply	-8443
areness	-8444
▁becoming	-8445
ин	-8446
aby	-8447
mal	-8448
▁sug	-8449
▁égal	-8450
▁decre	-8451
▁leave	-8452
▁plazo	-8453
▁manual	-8454
▁consumo	-8455
▁aspectos	-8456
▁handling	-8457
▁commercial	-8458
▁impossible	-8459
PL	-8460
тр	-8461
Time	-8462
aven	-8463
eless	-8464
overs	-8465
▁попу	-8466
▁Where	-8467
▁career	-8468
▁office	-8469
▁sentir	-8470
volution	-8471
ставляет	-8472
▁operation	-8473
▁suficiente	-8474
▁interactions	-8475
各种	-8476
的是	-8477
通常	-8478
0000	-8479
haps	-8480
umen	-8481
▁Its	-8482
▁sod	-8483
▁Union	-8484
▁razón	-8485
▁estaba	-8486
▁muerte	-8487
▁переда	-8488
▁applied	-8489
▁segunda	-8490
▁contract	-8491
▁continued	-8492
▁religious	-8493
▁verwendet	-8494
หน	-8495
pty	-8496
▁дан	-8497
▁эмо	-8498
ander	-8499
uesta	-8500
▁edge	-8501
▁gold	-8502
▁дума	-8503
▁cycle	-8504
▁dough	-8505
iamente	-8506
▁canvas	-8507
▁elimin	-8508
▁remain	-8509
▁debería	-8510
产生	-8511
dad	-8512
▁45	-8513
erta	-8514
หรือ	-8515
▁11.	-8516
▁Day	-8517
▁слу	-8518
ammen	-8519
▁Does	-8520
▁True	-8521
itudes	-8522
▁upload	-8523
▁являются	-8524
เก	-8525
agg	-8526
Pued	-8527
лаго	-8528
твер	-8529
▁Cap	-8530
▁nov	-8531
▁org	-8532
▁вме	-8533
▁дли	-8534
trans	-8535
▁этих	-8536
ecause	-8537
▁North	-8538
▁carry	-8539
▁cloth	-8540
▁criar	-8541
▁della	-8542
▁compañ	-8543
aspberry	-8544
▁aquellos	-8545
认为	-8546
run	-8547
слу	-8548
####	-8549
ável	-8550
▁Ret	-8551
▁hob	-8552
▁код	-8553
▁фай	-8554
uerzo	-8555
держа	-8556
▁dejo	-8557
▁trip	-8558
▁went	-8559
ividad	-8560
▁Their	-8561
▁myself	-8562
▁thanks	-8563
▁другой	-8564
▁практи	-8565
статочно	-8566
▁abierto	-8567
▁arguments	-8568
▁biblioteca	-8569
csv	-8570
vor	-8571
сса	-8572
цеп	-8573
arme	-8574
ceed	-8575
гово	-8576
▁0.0	-8577
label	-8578
▁Best	-8579
▁Zeit	-8580
▁isol	-8581
▁unit	-8582
ancias	-8583
ectors	-8584
▁recib	-8585
▁acción	-8586
▁blocks	-8587
▁doctor	-8588
▁mobile	-8589
▁sexual	-8590
▁Durante	-8591
▁parallel	-8592
▁probably	-8593
▁connections	-8594
▁computational	-8595
66	-8596
DO	-8597
["	-8598
所以	-8599
oren	-8600
atter	-8601
▁bowl	-8602
▁volt	-8603
▁alter	-8604
▁señal	-8605
▁conver	-8606
▁respir	-8607
▁estudio	-8608
▁dirección	-8609
▁recognition	-8610
84	-8611
MM	-8612
是否	-8613
aff	-8614
fre	-8615
пре	-8616
adir	-8617
▁ces	-8618
▁lit	-8619
ersto	-8620
ieder	-8621
▁Find	-8622
▁möch	-8623
ждения	-8624
▁какой	-8625
▁French	-8626
▁patient	-8627
▁posibles	-8628
▁videojuegos	-8629
▁optimization	-8630
▁]	-8631
лли	-8632
пла	-8633
сом	-8634
pack	-8635
▁Dev	-8636
▁fan	-8637
▁рус	-8638
rasil	-8639
éxico	-8640
▁alone	-8641
▁dados	-8642
▁mater	-8643
▁Stable	-8644
▁infect	-8645
▁comment	-8646
▁nombres	-8647
▁разработ	-8648
▁innovation	-8649
หม	-8650
aca	-8651
ыта	-8652
▁AD	-8653
▁Lib	-8654
▁Pas	-8655
▁USB	-8656
▁whe	-8657
▁лег	-8658
acidad	-8659
казать	-8660
▁James	-8661
▁claro	-8662
▁Ubuntu	-8663
▁bacter	-8664
▁propia	-8665
▁sartén	-8666
▁sharing	-8667
▁собствен	-8668
▁habilidad	-8669
คร	-8670
▁Ц	-8671
识别	-8672
ién	-8673
▁Из	-8674
isto	-8675
quis	-8676
ught	-8677
wiki	-8678
▁bem	-8679
▁deux	-8680
ierung	-8681
▁During	-8682
▁assess	-8683
▁fruits	-8684
▁электро	-8685
VID	-8686
mut	-8687
▁Vo	-8688
sequ	-8689
ured	-8690
обра	-8691
▁Tur	-8692
▁liv	-8693
▁кто	-8694
▁mang	-8695
ancing	-8696
▁dolor	-8697
▁fruit	-8698
▁thick	-8699
▁truly	-8700
▁agricult	-8701
▁programar	-8702
▁également	-8703
一种	-8704
órm	-8705
จาก	-8706
▁ye	-8707
▁Imag	-8708
▁стру	-8709
ellent	-8710
orithm	-8711
▁orbit	-8712
▁conven	-8713
▁magnet	-8714
▁billion	-8715
▁создания	-8716
imensional	-8717
▁universal	-8718
▁Finalmente	-8719
1>	-8720
MA	-8721
▁Á	-8722
▁ó	-8723
▁Bob	-8724
▁Mas	-8725
grees	-8726
ierta	-8727
▁girl	-8728
▁suger	-8729
▁contem	-8730
▁societ	-8731
▁status	-8732
password	-8733
▁efectiva	-8734
IG	-8735
工具	-8736
For	-8737
ini	-8738
max	-8739
ancy	-8740
chem	-8741
enty	-8742
life	-8743
▁Jack	-8744
▁moon	-8745
▁Ahora	-8746
▁immer	-8747
▁config	-8748
▁dinero	-8749
▁superficie	-8750
▁correctamente	-8751
pm	-8752
⣿⣿	-8753
就是	-8754
últ	-8755
шки	-8756
▁tk	-8757
sten	-8758
▁vas	-8759
aints	-8760
etime	-8761
ículo	-8762
▁menu	-8763
▁Über	-8764
▁summar	-8765
▁familia	-8766
▁предста	-8767
TX	-8768
zu	-8769
ิน	-8770
科学	-8771
oll	-8772
▁ze	-8773
úcar	-8774
front	-8775
idores	-8776
▁demas	-8777
▁стать	-8778
▁cooper	-8779
▁straight	-8780
▁пожалуйста	-8781
85	-8782
▁😊	-8783
算法	-8784
Hub	-8785
bin	-8786
amer	-8787
enda	-8788
here	-8789
кими	-8790
▁saw	-8791
▁Раз	-8792
▁Much	-8793
▁zero	-8794
▁Gesch	-8795
▁displ	-8796
▁mecán	-8797
▁telev	-8798
▁battle	-8799
▁tomate	-8800
▁изобра	-8801
▁courses	-8802
▁zwischen	-8803
▁:)	-8804
фика	-8805
▁sop	-8806
/2023	-8807
▁Arch	-8808
▁Kann	-8809
▁Nach	-8810
▁stim	-8811
▁Electr	-8812
▁assign	-8813
▁native	-8814
▁coordin	-8815
▁protocol	-8816
▁established	-8817
RO	-8818
基于	-8819
aux	-8820
roy	-8821
▁san	-8822
▁sir	-8823
adrid	-8824
comes	-8825
▁bear	-8826
agraph	-8827
▁shown	-8828
▁centro	-8829
▁dreams	-8830
▁разных	-8831
▁channel	-8832
▁schedule	-8833
▁businesses	-8834
▁controvers	-8835
▁enfermedades	-8836
无法	-8837
полни	-8838
▁Ital	-8839
▁mort	-8840
▁brand	-8841
▁brief	-8842
▁важно	-8843
▁Design	-8844
▁fascin	-8845
▁América	-8846
▁adecuado	-8847
▁educación	-8848
▁University	-8849
▁partículas	-8850
▁opportunity	-8851
▁significantly	-8852
▁comportamiento	-8853
IC	-8854
Ne	-8855
开源	-8856
所有	-8857
▁Ma	-8858
你可以	-8859
egen	-8860
uros	-8861
▁yog	-8862
force	-8863
scale	-8864
anging	-8865
▁Desde	-8866
▁propr	-8867
▁такое	-8868
lección	-8869
▁extens	-8870
▁middle	-8871
▁ambient	-8872
▁которое	-8873
▁correctly	-8874
▁exploring	-8875
▁используется	-8876
/)	-8877
td	-8878
เพ	-8879
部分	-8880
лок	-8881
beit	-8882
▁bol	-8883
istry	-8884
uming	-8885
▁Give	-8886
▁недо	-8887
▁Según	-8888
▁encant	-8889
▁helfen	-8890
▁nutrit	-8891
▁большо	-8892
username	-8893
▁routine	-8894
▁described	-8895
▁plataforma	-8896
SO	-8897
功能	-8898
iant	-8899
ixel	-8900
▁12.	-8901
▁mid	-8902
▁Spec	-8903
▁cars	-8904
▁evil	-8905
▁enseñ	-8906
▁binary	-8907
▁degree	-8908
▁útiles	-8909
cimiento	-8910
▁impress	-8911
▁humanidad	-8912
gue	-8913
กับ	-8914
нами	-8915
▁nor	-8916
lectr	-8917
▁busc	-8918
▁suas	-8919
iendas	-8920
▁Organ	-8921
▁bread	-8922
▁moves	-8923
▁Altern	-8924
▁shapes	-8925
▁получа	-8926
▁signals	-8927
▁Facebook	-8928
▁simulation	-8929
控制	-8930
нци	-8931
wich	-8932
личи	-8933
▁rac	-8934
▁fort	-8935
▁quel	-8936
▁demos	-8937
▁lugares	-8938
▁reduced	-8939
▁updates	-8940
▁desafíos	-8941
▁evolution	-8942
▁зависимости	-8943
国家	-8944
政治	-8945
Val	-8946
gers	-8947
▁NLP	-8948
▁бес	-8949
ommen	-8950
ствие	-8951
▁carb	-8952
▁tens	-8953
outube	-8954
▁argue	-8955
▁tests	-8956
▁biases	-8957
▁camino	-8958
▁reglas	-8959
▁mixture	-8960
▁potatoes	-8961
▁printing	-8962
▁considering	-8963
},	-8964
上的	-8965
cop	-8966
try	-8967
гру	-8968
geno	-8969
uate	-8970
vere	-8971
пиши	-8972
чего	-8973
▁Hab	-8974
▁lyr	-8975
▁учи	-8976
▁copy	-8977
▁deal	-8978
▁mano	-8979
▁terc	-8980
▁clara	-8981
▁rates	-8982
▁помога	-8983
ivamente	-8984
▁algebra	-8985
▁llamada	-8986
▁receive	-8987
▁willing	-8988
▁representation	-8989
200	-8990
дый	-8991
ança	-8992
шать	-8993
▁cri	-8994
▁tea	-8995
▁Hist	-8996
▁George	-8997
▁beauty	-8998
▁grupos	-8999
▁ingres	-9000
▁inters	-9001
▁основе	-9002
yt	-9003
lla	-9004
▁21	-9005
teil	-9006
бира	-9007
▁Jos	-9008
▁pér	-9009
agram	-9010
ceder	-9011
▁etwas	-9012
▁свобо	-9013
▁combat	-9014
▁хотите	-9015
▁artists	-9016
▁implica	-9017
▁precios	-9018
▁personaje	-9019
▁specified	-9020
PA	-9021
อบ	-9022
▁Di	-9023
Text	-9024
orch	-9025
будь	-9026
▁здо	-9027
▁тео	-9028
▁gall	-9029
▁brown	-9030
▁cuest	-9031
▁links	-9032
▁части	-9033
▁prices	-9034
▁benefit	-9035
▁precisa	-9036
▁supervis	-9037
▁Raspberry	-9038
▁complement	-9039
▁representa	-9040
▁experienced	-9041
ael	-9042
ees	-9043
pol	-9044
ups	-9045
▁ut	-9046
rest	-9047
нера	-9048
▁ваш	-9049
▁диа	-9050
utsch	-9051
▁влия	-9052
usammen	-9053
▁radius	-9054
▁siento	-9055
▁chatbot	-9056
▁texture	-9057
▁individu	-9058
▁específica	-9059
▁industrial	-9060
69	-9061
vid	-9062
anes	-9063
▁смы	-9064
ffect	-9065
uelve	-9066
uerdo	-9067
▁Mult	-9068
▁hero	-9069
▁mood	-9070
▁múlt	-9071
▁seus	-9072
stream	-9073
зможно	-9074
▁имеют	-9075
▁полез	-9076
▁произ	-9077
▁desenv	-9078
▁enable	-9079
▁parece	-9080
▁season	-9081
▁sorted	-9082
▁versat	-9083
▁numerous	-9084
▁administr	-9085
ню	-9086
个人	-9087
新的	-9088
ить	-9089
▁Хо	-9090
▁Sil	-9091
▁Back	-9092
▁узна	-9093
▁women	-9094
▁garlic	-9095
▁requis	-9096
▁exemple	-9097
▁optimize	-9098
Bu	-9099
(0,	-9100
ouds	-9101
▁вот	-9102
щения	-9103
▁defe	-9104
▁eres	-9105
▁erst	-9106
▁ellas	-9107
▁stage	-9108
▁sueño	-9109
▁такой	-9110
▁digest	-9111
▁muscle	-9112
▁degrees	-9113
▁simples	-9114
▁academic	-9115
▁internal	-9116
▁frequency	-9117
▁efficiently	-9118
▁maintaining	-9119
lig	-9120
nel	-9121
сут	-9122
▁До	-9123
loat	-9124
▁Dif	-9125
▁VPN	-9126
▁ton	-9127
anges	-9128
ários	-9129
▁Land	-9130
▁azul	-9131
▁clic	-9132
▁edad	-9133
▁Unter	-9134
▁chain	-9135
Podrías	-9136
atively	-9137
▁manner	-9138
▁starts	-9139
▁oficial	-9140
▁visible	-9141
▁dificult	-9142
▁followed	-9143
▁compatible	-9144
Gr	-9145
很多	-9146
▁:=	-9147
▁Ве	-9148
▁Ис	-9149
льку	-9150
▁Bas	-9151
▁Cle	-9152
▁dro	-9153
▁Span	-9154
▁pier	-9155
igkeit	-9156
▁niños	-9157
▁würde	-9158
▁Madrid	-9159
▁sonido	-9160
cripción	-9161
▁acceler	-9162
▁National	-9163
▁emissions	-9164
▁garantizar	-9165
igt	-9166
верх	-9167
▁Все	-9168
achen	-9169
▁blog	-9170
▁poll	-9171
▁день	-9172
▁cream	-9173
▁bottom	-9174
▁pouvez	-9175
▁Intellig	-9176
▁películas	-9177
▁информации	-9178
ไป	-9179
้อ	-9180
dem	-9181
ohn	-9182
free	-9183
гото	-9184
▁Ukr	-9185
▁Qual	-9186
▁dazu	-9187
▁html	-9188
▁iron	-9189
▁join	-9190
▁голо	-9191
celona	-9192
▁essay	-9193
▁fixed	-9194
▁waste	-9195
▁fuentes	-9196
▁clientes	-9197
íc	-9198
▁ск	-9199
asts	-9200
uary	-9201
▁Mem	-9202
▁Wol	-9203
ieres	-9204
▁Fire	-9205
▁More	-9206
▁cuid	-9207
▁dess	-9208
▁door	-9209
▁fórm	-9210
actions	-9211
▁member	-9212
▁wonder	-9213
▁данные	-9214
▁aplicar	-9215
▁Спасибо	-9216
▁complejos	-9217
▁perspectives	-9218
▁contributions	-9219
ky	-9220
ใช	-9221
шен	-9222
hydr	-9223
iosa	-9224
▁dor	-9225
▁hog	-9226
ename	-9227
много	-9228
▁nego	-9229
▁reve	-9230
▁музы	-9231
nesses	-9232
▁nodes	-9233
▁temps	-9234
▁árbol	-9235
▁coding	-9236
▁melhor	-9237
ствовать	-9238
▁recover	-9239
▁actividad	-9240
dy	-9241
ตั	-9242
bra	-9243
heet	-9244
сона	-9245
▁Ben	-9246
▁cot	-9247
▁fic	-9248
▁jobs	-9249
▁sudo	-9250
forder	-9251
▁views	-9252
▁afford	-9253
▁suelen	-9254
▁Programm	-9255
▁national	-9256
▁guidelines	-9257
▁situaciones	-9258
▁Бо	-9259
▁ін	-9260
uste	-9261
нуть	-9262
▁Dav	-9263
▁Рас	-9264
▁кор	-9265
esser	-9266
idity	-9267
ltima	-9268
venir	-9269
▁Date	-9270
▁crea	-9271
▁pelo	-9272
▁subs	-9273
▁Diese	-9274
▁reput	-9275
▁tarea	-9276
▁источ	-9277
▁deeper	-9278
▁presid	-9279
▁termin	-9280
▁обычно	-9281
▁neurons	-9282
terschied	-9283
▁suggests	-9284
ภา	-9285
来说	-9286
Get	-9287
vey	-9288
▁Ре	-9289
дума	-9290
▁bos	-9291
▁git	-9292
▁rés	-9293
▁лет	-9294
atrix	-9295
вайте	-9296
▁1000	-9297
▁dorm	-9298
▁gram	-9299
▁hombre	-9300
▁movies	-9301
▁passed	-9302
▁riesgo	-9303
▁Quantum	-9304
▁overcome	-9305
▁transmit	-9306
▁regarding	-9307
▁transportation	-9308
цу	-9309
开始	-9310
osp	-9311
сур	-9312
iros	-9313
oder	-9314
▁beg	-9315
▁поя	-9316
████	-9317
house	-9318
iores	-9319
pected	-9320
▁leads	-9321
▁жизнь	-9322
▁declar	-9323
▁limits	-9324
▁origen	-9325
▁puedas	-9326
▁quiero	-9327
▁Because	-9328
▁Möglich	-9329
▁outcomes	-9330
▁Asegúrate	-9331
▁Diffusion	-9332
▁incorrect	-9333
▁popularity	-9334
许多	-9335
量的	-9336
hab	-9337
xic	-9338
▁Az	-9339
цией	-9340
lands	-9341
▁cosa	-9342
▁elim	-9343
▁meal	-9344
▁poor	-9345
▁#####	-9346
▁mente	-9347
erstood	-9348
рование	-9349
тельные	-9350
▁coming	-9351
▁concepto	-9352
▁produced	-9353
▁mechanism	-9354
▁significance	-9355
产品	-9356
isl	-9357
sec	-9358
abel	-9359
перь	-9360
▁Ihr	-9361
▁Sov	-9362
可以帮助	-9363
▁runs	-9364
▁одно	-9365
▁leyes	-9366
▁party	-9367
▁fuerte	-9368
▁himself	-9369
▁dispositivo	-9370
▁implementing	-9371
(1	-9372
▁bra	-9373
▁oft	-9374
语言模型	-9375
▁pict	-9376
▁memor	-9377
▁ultim	-9378
▁Before	-9379
▁assume	-9380
▁perman	-9381
▁eventos	-9382
▁manipul	-9383
▁pessoas	-9384
▁visitar	-9385
▁analizar	-9386
▁película	-9387
▁necesidad	-9388
▁realistic	-9389
▁eficiencia	-9390
▁recomiendo	-9391
▁информацию	-9392
▁interesante	-9393
▁oportunidades	-9394
27	-9395
自动	-9396
ham	-9397
duce	-9398
eten	-9399
rows	-9400
▁ven	-9401
aches	-9402
urtle	-9403
▁Isso	-9404
▁elev	-9405
▁horm	-9406
▁sole	-9407
▁tras	-9408
▁víde	-9409
▁wish	-9410
▁скоро	-9411
▁tradic	-9412
▁поэтому	-9413
▁detalles	-9414
▁automatically	-9415
ู้	-9416
▁·	-9417
完成	-9418
rog	-9419
ประ	-9420
dict	-9421
▁SEO	-9422
▁dim	-9423
▁нас	-9424
count	-9425
▁Pros	-9426
▁keys	-9427
▁lang	-9428
▁отве	-9429
▁Const	-9430
▁deine	-9431
▁frase	-9432
▁rough	-9433
▁leaving	-9434
▁manager	-9435
▁seconds	-9436
▁зависит	-9437
▁developer	-9438
▁vocabular	-9439
▁dimensions	-9440
已经	-9441
uma	-9442
ння	-9443
нут	-9444
้อง	-9445
нная	-9446
▁Bol	-9447
uting	-9448
▁dish	-9449
format	-9450
▁fuera	-9451
▁inten	-9452
▁powers	-9453
▁última	-9454
▁Explain	-9455
▁interés	-9456
▁filosofía	-9457
▁funcional	-9458
▁temperatures	-9459
By	-9460
[0]	-9461
bor	-9462
ker	-9463
oli	-9464
щая	-9465
ries	-9466
legal	-9467
oster	-9468
▁Prot	-9469
▁pure	-9470
▁brind	-9471
▁decor	-9472
▁Empire	-9473
▁género	-9474
▁incred	-9475
▁unable	-9476
▁choices	-9477
▁области	-9478
▁interior	-9479
▁personality	-9480
▁principalmente	-9481
37	-9482
▁ers	-9483
pired	-9484
riter	-9485
▁pref	-9486
▁цвет	-9487
number	-9488
▁Based	-9489
▁Estoy	-9490
▁Space	-9491
▁craft	-9492
▁heard	-9493
▁lived	-9494
▁своих	-9495
▁целом	-9496
▁dieser	-9497
▁divert	-9498
▁tengas	-9499
▁appears	-9500
▁particle	-9501
db	-9502
ös	-9503
asa	-9504
chl	-9505
ший	-9506
ição	-9507
тать	-9508
▁Así	-9509
▁bek	-9510
▁dia	-9511
чного	-9512
▁тебя	-9513
▁outros	-9514
ualmente	-9515
▁Science	-9516
▁careful	-9517
▁experts	-9518
▁weapons	-9519
▁elemento	-9520
▁fonction	-9521
▁ejercicio	-9522
86	-9523
って	-9524
▁kg	-9525
root	-9526
▁Ess	-9527
▁dej	-9528
▁вла	-9529
ormal	-9530
prise	-9531
▁hour	-9532
▁спра	-9533
making	-9534
▁Learn	-9535
▁birth	-9536
▁leche	-9537
▁Guerra	-9538
▁principio	-9539
▁tutorials	-9540
▁transition	-9541
▁recomendable	-9542
更好	-9543
hop	-9544
еди	-9545
▁vs	-9546
сить	-9547
стой	-9548
▁été	-9549
▁эта	-9550
frame	-9551
uster	-9552
▁müss	-9553
▁wall	-9554
▁лишь	-9555
ментов	-9556
▁перед	-9557
▁enfoque	-9558
▁conocida	-9559
▁packages	-9560
▁Barcelona	-9561
▁encourage	-9562
▁maintenance	-9563
▁resistencia	-9564
*.	-9565
DB	-9566
TE	-9567
确保	-9568
bum	-9569
eks	-9570
▁90	-9571
▁Sn	-9572
@@@@	-9573
▁Cam	-9574
▁Jul	-9575
▁Vor	-9576
▁мог	-9577
▁2020	-9578
▁crim	-9579
output	-9580
▁bases	-9581
▁tarjet	-9582
▁battery	-9583
▁Practice	-9584
▁exposure	-9585
▁phenomen	-9586
▁sensitive	-9587
▁stability	-9588
▁discovered	-9589
▁generating	-9590
不断	-9591
нах	-9592
▁Ba	-9593
▁Kl	-9594
▁fis	-9595
льным	-9596
▁Four	-9597
▁diss	-9598
▁zona	-9599
ческая	-9600
▁beans	-9601
▁noting	-9602
▁driving	-9603
▁evaluate	-9604
▁neuronal	-9605
▁propiedad	-9606
▁appreciate	-9607
▁creativity	-9608
▁específicos	-9609
'.	-9610
1:	-9611
ox	-9612
行为	-9613
▁0)	-9614
Cuál	-9615
king	-9616
osis	-9617
unge	-9618
тора	-9619
▁LLM	-9620
▁ble	-9621
▁dan	-9622
state	-9623
▁Ihre	-9624
▁None	-9625
▁clás	-9626
▁teas	-9627
▁жела	-9628
uestos	-9629
forward	-9630
▁Social	-9631
▁Wasser	-9632
▁listen	-9633
▁Western	-9634
▁confirm	-9635
▁fiction	-9636
▁intended	-9637
▁appearance	-9638
▁preferencias	-9639
平台	-9640
ede	-9641
зма	-9642
cado	-9643
rich	-9644
▁Air	-9645
organ	-9646
stand	-9647
▁cred	-9648
▁donc	-9649
▁tran	-9650
▁oliva	-9651
▁Contin	-9652
▁GitHub	-9653
▁People	-9654
▁lyrics	-9655
▁делать	-9656
▁Después	-9657
▁seeking	-9658
▁programm	-9659
▁purchase	-9660
▁competition	-9661
▁personalized	-9662
▁procesamiento	-9663
??	-9664
йн	-9665
-12	-9666
ält	-9667
▁ИИ	-9668
мети	-9669
чать	-9670
▁Esp	-9671
▁List	-9672
▁gets	-9673
▁road	-9674
orning	-9675
▁beste	-9676
ference	-9677
▁Visual	-9678
▁crisis	-9679
▁sicher	-9680
▁vertical	-9681
▁utilizados	-9682
+1	-9683
ji	-9684
зе	-9685
▁~	-9686
结构	-9687
rez	-9688
оте	-9689
той	-9690
▁cél	-9691
▁вза	-9692
более	-9693
▁niño	-9694
▁stre	-9695
▁живо	-9696
▁LAION	-9697
▁acept	-9698
▁junto	-9699
itación	-9700
скольку	-9701
▁comando	-9702
▁niveles	-9703
▁интерес	-9704
тельности	-9705
▁capacity	-9706
市场	-9707
机器	-9708
inn	-9709
пас	-9710
hips	-9711
льное	-9712
▁Fall	-9713
▁sang	-9714
▁wave	-9715
icular	-9716
▁maybe	-9717
▁teléf	-9718
▁Tensor	-9719
▁border	-9720
▁propio	-9721
▁распро	-9722
▁gestión	-9723
▁opening	-9724
▁walking	-9725
▁destacar	-9726
▁interval	-9727
▁recognize	-9728
Fi	-9729
考虑	-9730
ami	-9731
рот	-9732
▁36	-9733
▁Eu	-9734
▁Hy	-9735
▁tú	-9736
▁如果	-9737
udio	-9738
▁App	-9739
▁глу	-9740
ental	-9741
▁Econ	-9742
▁conn	-9743
▁ojos	-9744
▁oven	-9745
▁olive	-9746
▁único	-9747
istical	-9748
▁extend	-9749
▁sollte	-9750
▁wealth	-9751
▁находи	-9752
ulations	-9753
▁concise	-9754
▁reposit	-9755
▁triangle	-9756
▁remaining	-9757
зь	-9758
计划	-9759
speed	-9760
▁Aqui	-9761
▁City	-9762
▁Have	-9763
▁town	-9764
▁сети	-9765
ствуют	-9766
▁pasar	-9767
▁верси	-9768
▁cooked	-9769
▁escape	-9770
▁requer	-9771
▁полити	-9772
▁Existen	-9773
▁achieved	-9774
▁movements	-9775
不能	-9776
Est	-9777
您可以	-9778
ills	-9779
step	-9780
unci	-9781
▁beb	-9782
ading	-9783
illos	-9784
onald	-9785
числе	-9786
▁Most	-9787
▁capa	-9788
ionado	-9789
▁Avoid	-9790
▁guess	-9791
▁hyper	-9792
▁Brasil	-9793
▁consecu	-9794
▁ongoing	-9795
OP	-9796
对话	-9797
比较	-9798
▁só	-9799
aker	-9800
érie	-9801
▁Enc	-9802
▁aid	-9803
▁nie	-9804
otion	-9805
▁окру	-9806
▁Ihnen	-9807
▁arroz	-9808
▁asoci	-9809
▁inequ	-9810
▁noche	-9811
▁paint	-9812
▁raise	-9813
▁cuales	-9814
▁Provide	-9815
▁changed	-9816
▁ejercicios	-9817
▁phenomenon	-9818
▁prioritize	-9819
SE	-9820
izo	-9821
▁23	-9822
zahl	-9823
стри	-9824
тели	-9825
▁Our	-9826
▁mou	-9827
▁mág	-9828
▁plt	-9829
▁vin	-9830
tesis	-9831
▁myth	-9832
▁филь	-9833
▁miner	-9834
▁refle	-9835
▁cultiv	-9836
▁salida	-9837
acciones	-9838
▁материа	-9839
▁популяр	-9840
▁datasets	-9841
▁received	-9842
▁ventajas	-9843
1%	-9844
▁(3	-9845
▁27	-9846
▁Ин	-9847
,,,,	-9848
ecks	-9849
rase	-9850
▁Gen	-9851
▁Rub	-9852
▁ded	-9853
▁пов	-9854
менно	-9855
▁dels	-9856
▁fest	-9857
unning	-9858
▁cards	-9859
▁múlti	-9860
▁харак	-9861
▁получи	-9862
▁Further	-9863
▁accompl	-9864
▁errores	-9865
^^	-9866
保持	-9867
шей	-9868
acks	-9869
bing	-9870
left	-9871
чает	-9872
▁Rom	-9873
▁уча	-9874
▁firm	-9875
▁muss	-9876
▁spin	-9877
forest	-9878
▁Stand	-9879
ocation	-9880
▁Commun	-9881
▁ofrecer	-9882
▁included	-9883
▁libertad	-9884
▁relaciones	-9885
▁crecimiento	-9886
▁independent	-9887
▁specialized	-9888
DR	-9889
xi	-9890
หล	-9891
ัก	-9892
基本	-9893
的人	-9894
สาม	-9895
▁Eg	-9896
iele	-9897
isen	-9898
class	-9899
торов	-9900
▁Asia	-9901
нибудь	-9902
▁Graph	-9903
▁cryst	-9904
▁сохра	-9905
▁parado	-9906
▁selbst	-9907
▁pequeño	-9908
▁Einstein	-9909
▁consiste	-9910
▁presento	-9911
▁tomatoes	-9912
▁Algorithm	-9913
▁advancements	-9914
วิ	-9915
OST	-9916
ahl	-9917
▁và	-9918
▁Ant	-9919
▁pré	-9920
iance	-9921
ствия	-9922
▁muse	-9923
▁tone	-9924
▁rhyth	-9925
▁época	-9926
▁объяс	-9927
▁azúcar	-9928
▁cuatro	-9929
▁domain	-9930
▁tokens	-9931
▁trends	-9932
▁afectar	-9933
▁comprar	-9934
▁minimum	-9935
▁landscape	-9936
▁mechanisms	-9937
фа	-9938
——	-9939
bits	-9940
take	-9941
wick	-9942
wort	-9943
▁Она	-9944
▁Luna	-9945
▁alien	-9946
▁hydro	-9947
▁chosen	-9948
▁considera	-9949
▁различных	-9950
▁meditation	-9951
▁principios	-9952
▁ultimately	-9953
▁plataformas	-9954
DP	-9955
nh	-9956
нд	-9957
之一	-9958
复杂	-9959
导致	-9960
dev	-9961
тру	-9962
▁lu	-9963
ideo	-9964
rics	-9965
▁Ale	-9966
▁Bud	-9967
▁ber	-9968
▁bor	-9969
▁cám	-9970
▁più	-9971
gener	-9972
token	-9973
ético	-9974
▁fert	-9975
▁grab	-9976
▁joke	-9977
▁etiqu	-9978
▁pages	-9979
▁perce	-9980
▁Spanish	-9981
▁exemplo	-9982
▁explores	-9983
▁pequeños	-9984
▁destination	-9985
▁technological	-9986
44	-9987
82	-9988
500	-9989
enos	-9990
urer	-9991
▁Mil	-9992
▁oxy	-9993
eting	-9994
outer	-9995
▁(199	-9996
▁shop	-9997
▁тебе	-9998
person	-9999
▁genre	-10000
▁причи	-10001
▁ресур	-10002
▁receta	-10003
▁British	-10004
▁Twitter	-10005
▁alcanzar	-10006
▁ingenier	-10007
üc	-10008
故事	-10009
blo	-10010
▁wo	-10011
sole	-10012
event	-10013
ielen	-10014
▁Deep	-10015
▁bott	-10016
▁puzz	-10017
fortun	-10018
▁Defin	-10019
▁Sorry	-10020
▁fazer	-10021
▁plays	-10022
▁enemies	-10023
▁exchange	-10024
▁requisitos	-10025
▁resistance	-10026
结果	-10027
输入	-10028
ria	-10029
bage	-10030
math	-10031
тура	-10032
▁Che	-10033
▁sud	-10034
▁vos	-10035
gress	-10036
▁Comp	-10037
▁sint	-10038
▁plans	-10039
▁además	-10040
▁должен	-10041
▁padding	-10042
wikipedia	-10043
▁completo	-10044
▁procesos	-10045
▁foundation	-10046
▁combinación	-10047
利用	-10048
基础	-10049
简单	-10050
блю	-10051
сок	-10052
▁6,	-10053
▁[]	-10054
paign	-10055
пусти	-10056
▁ello	-10057
▁carga	-10058
▁loved	-10059
▁obras	-10060
▁queso	-10061
▁sheet	-10062
▁языке	-10063
related	-10064
▁insert	-10065
▁magical	-10066
▁persist	-10067
▁adventure	-10068
▁disfrutar	-10069
▁verwenden	-10070
▁достаточно	-10071
def	-10072
qrt	-10073
ฉัน	-10074
ução	-10075
▁mur	-10076
▁ска	-10077
cules	-10078
▁bast	-10079
▁gato	-10080
▁alegr	-10081
▁camera	-10082
▁clouds	-10083
▁fórmula	-10084
▁descript	-10085
▁interess	-10086
▁employees	-10087
▁excellent	-10088
▁objective	-10089
He	-10090
ieg	-10091
std	-10092
ugu	-10093
вом	-10094
▁32	-10095
▁là	-10096
тных	-10097
▁Nov	-10098
▁сме	-10099
pread	-10100
ptions	-10101
ículos	-10102
▁eigen	-10103
▁therm	-10104
▁meeting	-10105
▁plastic	-10106
▁solving	-10107
▁affected	-10108
▁calories	-10109
▁explorar	-10110
▁Esperanto	-10111
bt	-10112
hm	-10113
共同	-10114
并且	-10115
ati	-10116
чем	-10117
чет	-10118
ารถ	-10119
▁Sa	-10120
▁emb	-10121
▁esf	-10122
▁kle	-10123
error	-10124
▁2022	-10125
▁Even	-10126
▁secu	-10127
▁taza	-10128
github	-10129
height	-10130
▁trial	-10131
ionante	-10132
▁consid	-10133
▁aumento	-10134
▁helping	-10135
▁weitere	-10136
▁managing	-10137
▁производ	-10138
▁delicious	-10139
知道	-10140
还有	-10141
▁VR	-10142
Chat	-10143
ских	-10144
скую	-10145
▁foi	-10146
▁len	-10147
▁rod	-10148
apped	-10149
uelle	-10150
▁dado	-10151
▁sell	-10152
▁энер	-10153
advant	-10154
▁machen	-10155
▁oxygen	-10156
▁remote	-10157
▁terror	-10158
▁называ	-10159
▁acuerdo	-10160
▁focuses	-10161
▁informed	-10162
▁strengths	-10163
▁completamente	-10164
"]	-10165
ND	-10166
íp	-10167
ье	-10168
然后	-10169
abei	-10170
halt	-10171
oken	-10172
▁Día	-10173
ством	-10174
▁Когда	-10175
▁языко	-10176
▁campos	-10177
▁cities	-10178
▁liquid	-10179
▁проблемы	-10180
▁happiness	-10181
▁revolution	-10182
▁interpretation	-10183
([	-10184
alo	-10185
cht	-10186
▁sól	-10187
oding	-10188
преде	-10189
▁chess	-10190
▁comed	-10191
▁marca	-10192
▁Potter	-10193
▁atract	-10194
▁cuchar	-10195
▁months	-10196
▁Through	-10197
▁massive	-10198
▁opinions	-10199
▁cognitive	-10200
▁emociones	-10201
▁beneficial	-10202
▁constraints	-10203
▁instrucciones	-10204
TH	-10205
lam	-10206
****	-10207
urre	-10208
вьте	-10209
держ	-10210
▁Off	-10211
▁fot	-10212
▁hem	-10213
▁hin	-10214
files	-10215
stell	-10216
▁suma	-10217
▁unex	-10218
▁игра	-10219
สามารถ	-10220
▁prove	-10221
▁библи	-10222
acement	-10223
▁reform	-10224
▁región	-10225
▁cerebro	-10226
▁gráfica	-10227
▁mundial	-10228
▁animation	-10229
▁beginning	-10230
▁literature	-10231
▁resolution	-10232
▁recomendaciones	-10233
87	-10234
nd	-10235
▁แ	-10236
比如	-10237
▁nh	-10238
▁Spe	-10239
▁Blue	-10240
▁clima	-10241
▁spend	-10242
▁thous	-10243
▁cancer	-10244
▁exists	-10245
▁obtain	-10246
▁suffer	-10247
enciales	-10248
▁mindful	-10249
▁circumst	-10250
▁elección	-10251
▁frecuencia	-10252
▁relevantes	-10253
▁integration	-10254
itr	-10255
sin	-10256
▁Ca	-10257
▁Et	-10258
▁你好	-10259
orre	-10260
▁Sum	-10261
▁sen	-10262
▁Gran	-10263
▁Mant	-10264
▁груп	-10265
▁пита	-10266
ughter	-10267
▁Water	-10268
▁dejar	-10269
▁roles	-10270
▁secre	-10271
▁благо	-10272
▁собой	-10273
▁México	-10274
▁immedi	-10275
▁African	-10276
▁prepare	-10277
▁combined	-10278
▁Fibonacci	-10279
▁использования	-10280
цо	-10281
omo	-10282
▁Ма	-10283
роде	-10284
▁Del	-10285
▁Vol	-10286
▁Dark	-10287
▁Flas	-10288
▁Like	-10289
▁perí	-10290
▁wäre	-10291
direct	-10292
itorio	-10293
▁digit	-10294
▁Studio	-10295
▁phrase	-10296
▁России	-10297
▁Process	-10298
▁стороны	-10299
▁темпера	-10300
▁beginner	-10301
▁caliente	-10302
▁horizont	-10303
▁scenario	-10304
▁получить	-10305
▁algoritmo	-10306
▁promoting	-10307
▁standards	-10308
▁mechanical	-10309
▁comparación	-10310
▁总	-10311
操作	-10312
法律	-10313
ald	-10314
map	-10315
▁pd	-10316
ernel	-10317
achten	-10318
acking	-10319
▁fluid	-10320
▁Newton	-10321
▁robust	-10322
▁titles	-10323
▁Network	-10324
▁fulfill	-10325
▁mensaje	-10326
▁Although	-10327
▁интеллек	-10328
▁positions	-10329
CH	-10330
yd	-10331
css	-10332
шие	-10333
▁$$	-10334
▁400	-10335
▁Ans	-10336
▁hes	-10337
▁pil	-10338
▁дет	-10339
нного	-10340
▁Life	-10341
▁dogs	-10342
▁ошиб	-10343
yright	-10344
▁naveg	-10345
▁songs	-10346
▁illegal	-10347
▁versión	-10348
▁создать	-10349
▁studying	-10350
▁demasiado	-10351
▁necesitar	-10352
▁paragraph	-10353
▁accurately	-10354
▁estrategia	-10355
▁científicos	-10356
▁predictions	-10357
ี้	-10358
▁请	-10359
因素	-10360
час	-10361
лизи	-10362
▁Att	-10363
▁кар	-10364
▁fict	-10365
тывать	-10366
▁estão	-10367
▁minor	-10368
▁vitam	-10369
amentos	-10370
ственно	-10371
▁bodies	-10372
▁servers	-10373
▁complejo	-10374
▁minimize	-10375
▁alternatives	-10376
▁professionals	-10377
39	-10378
pg	-10379
した	-10380
成为	-10381
都是	-10382
ERT	-10383
uns	-10384
viv	-10385
▁Ha	-10386
igua	-10387
▁Dem	-10388
▁rig	-10389
ismos	-10390
issen	-10391
▁2000	-10392
▁Main	-10393
▁wire	-10394
config	-10395
▁adequ	-10396
▁canal	-10397
▁geben	-10398
▁описа	-10399
lectual	-10400
▁reader	-10401
ependant	-10402
▁survive	-10403
▁включая	-10404
▁campaign	-10405
▁contamin	-10406
▁gobierno	-10407
▁survival	-10408
▁therefore	-10409
▁existencia	-10410
6)	-10411
Py	-10412
ye	-10413
▁q	-10414
适合	-10415
peg	-10416
uso	-10417
пло	-10418
====	-10419
Flow	-10420
ющей	-10421
▁196	-10422
▁Tele	-10423
mental	-10424
▁desen	-10425
▁empty	-10426
▁setup	-10427
▁exclus	-10428
▁photos	-10429
▁Regular	-10430
▁decided	-10431
▁sunlight	-10432
▁continuous	-10433
▁internacional	-10434
Bl	-10435
[1]	-10436
▁Ol	-10437
▁Су	-10438
char	-10439
utos	-10440
▁300	-10441
▁cul	-10442
Image	-10443
ichte	-10444
▁Cent	-10445
▁Muse	-10446
estyle	-10447
▁ocean	-10448
▁Russia	-10449
▁baking	-10450
▁lights	-10451
▁occurs	-10452
▁pandas	-10453
▁powder	-10454
▁Connect	-10455
▁categor	-10456
▁passion	-10457
▁Australia	-10458
เล	-10459
情感	-10460
(),	-10461
▁0:	-10462
apar	-10463
arts	-10464
▁195	-10465
▁adm	-10466
unden	-10467
▁2021	-10468
▁Welt	-10469
▁cats	-10470
▁duda	-10471
▁rice	-10472
elsius	-10473
ugment	-10474
▁Human	-10475
▁brill	-10476
▁машин	-10477
▁точно	-10478
▁Access	-10479
▁almost	-10480
▁cierto	-10481
▁différ	-10482
▁fueron	-10483
▁propag	-10484
▁evolved	-10485
▁integer	-10486
▁которых	-10487
▁contiene	-10488
▁instalar	-10489
▁dedicated	-10490
▁considerado	-10491
▁estructuras	-10492
▁improvement	-10493
5%	-10494
Be	-10495
App	-10496
har	-10497
kit	-10498
▁5:	-10499
▁<!	-10500
▁EU	-10501
▁SS	-10502
fall	-10503
ginx	-10504
iest	-10505
▁six	-10506
acles	-10507
local	-10508
ósito	-10509
▁pose	-10510
▁causa	-10511
▁coche	-10512
▁round	-10513
▁устано	-10514
▁segment	-10515
▁articles	-10516
▁intentar	-10517
▁producir	-10518
▁внимание	-10519
dimensional	-10520
^3	-10521
游戏	-10522
要求	-10523
dot	-10524
ijo	-10525
sum	-10526
▁GN	-10527
onym	-10528
ueve	-10529
▁dou	-10530
unter	-10531
графи	-10532
стран	-10533
▁frag	-10534
▁Incre	-10535
▁cielo	-10536
▁intel	-10537
display	-10538
▁müssen	-10539
▁specify	-10540
⠀⠀⠀⠀⠀⠀⠀⠀	-10541
▁centuries	-10542
▁Ev	-10543
的问题	-10544
edge	-10545
▁Esc	-10546
▁hop	-10547
▁nas	-10548
▁Mess	-10549
▁Tell	-10550
▁neuro	-10551
▁иметь	-10552
▁candid	-10553
▁repair	-10554
▁General	-10555
▁outline	-10556
▁ciudades	-10557
▁consists	-10558
▁gravedad	-10559
▁indicate	-10560
▁locations	-10561
▁industries	-10562
健康	-10563
性和	-10564
ipt	-10565
▁Cy	-10566
gung	-10567
▁cic	-10568
▁jap	-10569
▁osc	-10570
▁pue	-10571
antic	-10572
ологи	-10573
▁Além	-10574
▁bere	-10575
▁pull	-10576
▁веще	-10577
▁gerne	-10578
▁напра	-10579
▁Chorus	-10580
▁dinosa	-10581
▁prueba	-10582
▁carrera	-10583
▁compress	-10584
▁awareness	-10585
类型	-10586
тка	-10587
etro	-10588
führ	-10589
oter	-10590
▁Tre	-10591
▁się	-10592
allow	-10593
ikely	-10594
▁Cult	-10595
▁Free	-10596
▁Phys	-10597
▁Vari	-10598
▁enth	-10599
▁lapt	-10600
▁sizes	-10601
message	-10602
ológico	-10603
▁sitios	-10604
▁tierra	-10605
▁article	-10606
▁colabor	-10607
▁система	-10608
▁conexión	-10609
▁formation	-10610
▁equilibrio	-10611
▁neuronales	-10612
ocs	-10613
вед	-10614
▁ры	-10615
▁сы	-10616
http	-10617
imir	-10618
▁Fol	-10619
▁Jes	-10620
▁Non	-10621
▁вну	-10622
close	-10623
ступа	-10624
▁calm	-10625
▁impl	-10626
▁ohne	-10627
▁pint	-10628
▁thor	-10629
▁ведь	-10630
izadas	-10631
▁Train	-10632
▁basis	-10633
▁broad	-10634
▁hacen	-10635
▁Таким	-10636
current	-10637
ificado	-10638
▁couldn	-10639
▁depart	-10640
▁parent	-10641
▁yellow	-10642
▁начина	-10643
▁acceder	-10644
▁máquina	-10645
▁painting	-10646
▁recordar	-10647
▁наиболее	-10648
▁económico	-10649
▁matemática	-10650
▁directamente	-10651
Pl	-10652
umes	-10653
вали	-10654
рави	-10655
▁CSV	-10656
▁lun	-10657
▁пор	-10658
▁Dear	-10659
▁líqu	-10660
▁poly	-10661
▁навы	-10662
Puedes	-10663
teries	-10664
▁Crear	-10665
▁belle	-10666
▁cerca	-10667
▁llama	-10668
▁sites	-10669
▁units	-10670
istance	-10671
▁habits	-10672
▁reflex	-10673
▁sports	-10674
▁можешь	-10675
▁Deutsch	-10676
▁greatly	-10677
▁militar	-10678
▁Конечно	-10679
▁Computer	-10680
▁retrieve	-10681
▁equations	-10682
▁proteínas	-10683
▁activation	-10684
▁distributed	-10685
-6	-10686
关于	-10687
кан	-10688
join	-10689
lass	-10690
pert	-10691
sort	-10692
with	-10693
▁coe	-10694
▁hub	-10695
actor	-10696
▁adds	-10697
▁vend	-10698
▁мире	-10699
▁Integr	-10700
▁robots	-10701
▁Control	-10702
▁Discord	-10703
▁substit	-10704
▁últimos	-10705
▁решения	-10706
▁electron	-10707
erstanding	-10708
▁consultar	-10709
▁introduced	-10710
▁computadora	-10711
▁implemented	-10712
><	-10713
าง	-10714
▁م	-10715
мож	-10716
рую	-10717
▁ог	-10718
之间的	-10719
▁150	-10720
▁мир	-10721
▁нео	-10722
влека	-10723
▁cham	-10724
▁curv	-10725
▁embr	-10726
▁isso	-10727
▁mand	-10728
▁nice	-10729
▁успе	-10730
▁Light	-10731
▁bucle	-10732
▁curve	-10733
▁muito	-10734
▁shift	-10735
▁vegan	-10736
▁blanco	-10737
▁stores	-10738
▁ventana	-10739
▁Material	-10740
▁modified	-10741
▁offering	-10742
▁provider	-10743
▁современ	-10744
▁analyzing	-10745
▁meaningful	-10746
▁validation	-10747
▁immediately	-10748
-9	-10749
ady	-10750
bes	-10751
esa	-10752
iox	-10753
▁ID	-10754
▁Wi	-10755
更好地	-10756
igue	-10757
isme	-10758
raid	-10759
▁10,	-10760
▁Dar	-10761
▁Mit	-10762
Press	-10763
iales	-10764
iller	-10765
▁Oper	-10766
▁dein	-10767
▁disp	-10768
▁fans	-10769
▁none	-10770
▁inner	-10771
▁proof	-10772
▁seria	-10773
content	-10774
▁divide	-10775
▁replic	-10776
▁должны	-10777
▁Blender	-10778
▁Mundial	-10779
▁enfrent	-10780
▁minimal	-10781
▁outputs	-10782
▁session	-10783
▁calendar	-10784
▁распростра	-10785
到了	-10786
实际	-10787
数学	-10788
10,	-10789
ême	-10790
lete	-10791
ucht	-10792
▁Fil	-10793
▁spr	-10794
▁сим	-10795
ámica	-10796
▁100%	-10797
▁Copy	-10798
▁baja	-10799
▁ease	-10800
▁parám	-10801
holders	-10802
ographic	-10803
▁comprom	-10804
▁optimal	-10805
▁interfaz	-10806
▁respecto	-10807
PC	-10808
кт	-10809
ใช้	-10810
▁жа	-10811
ingu	-10812
onas	-10813
▁Tem	-10814
▁pig	-10815
agens	-10816
▁sans	-10817
▁озна	-10818
▁amigo	-10819
▁letra	-10820
▁ocurr	-10821
▁психо	-10822
▁altura	-10823
▁attach	-10824
▁dishes	-10825
▁desktop	-10826
▁trigger	-10827
▁beginners	-10828
▁extremely	-10829
fa	-10830
гии	-10831
лий	-10832
▁4)	-10833
▁Fa	-10834
acas	-10835
ania	-10836
ogue	-10837
▁Bel	-10838
▁Wel	-10839
Phone	-10840
ucket	-10841
▁born	-10842
▁cono	-10843
object	-10844
reiben	-10845
▁Imper	-10846
▁delle	-10847
▁tried	-10848
▁запро	-10849
▁antigu	-10850
▁escrit	-10851
▁serves	-10852
▁disrupt	-10853
▁execute	-10854
▁keeping	-10855
▁simpler	-10856
อก	-10857
Des	-10858
ded	-10859
▁AMD	-10860
▁Env	-10861
▁fle	-10862
▁ray	-10863
venue	-10864
water	-10865
icidad	-10866
random	-10867
▁Terra	-10868
▁botón	-10869
▁numpy	-10870
▁plate	-10871
▁waves	-10872
▁convent	-10873
▁grammar	-10874
▁justice	-10875
сс	-10876
▁当	-10877
yal	-10878
▁};	-10879
What	-10880
etzt	-10881
icip	-10882
lier	-10883
lung	-10884
yram	-10885
дить	-10886
▁Div	-10887
деюсь	-10888
▁Sing	-10889
▁elif	-10890
▁него	-10891
depend	-10892
помина	-10893
ческое	-10894
▁India	-10895
▁catal	-10896
▁контро	-10897
enschaft	-10898
▁reverse	-10899
▁diversos	-10900
▁millions	-10901
▁parameter	-10902
fortunately	-10903
▁inequality	-10904
▁estudiantes	-10905
47	-10906
arc	-10907
imas	-10908
▁rég	-10909
iking	-10910
зывает	-10911
▁asign	-10912
▁deliv	-10913
▁flujo	-10914
▁génér	-10915
▁older	-10916
▁semana	-10917
▁algumas	-10918
▁possess	-10919
▁персона	-10920
▁decisión	-10921
▁documents	-10922
▁potencial	-10923
▁различные	-10924
▁proporciona	-10925
▁circumstances	-10926
нт	-10927
あり	-10928
那么	-10929
щий	-10930
▁Mc	-10931
▁ic	-10932
▁ос	-10933
bind	-10934
case	-10935
comm	-10936
long	-10937
plan	-10938
▁Bro	-10939
▁Sand	-10940
▁fait	-10941
▁rely	-10942
▁trop	-10943
▁куль	-10944
▁Entre	-10945
▁centr	-10946
▁coher	-10947
▁disso	-10948
▁pesar	-10949
▁Online	-10950
▁básica	-10951
▁closed	-10952
▁относи	-10953
▁einfach	-10954
▁finally	-10955
▁voltage	-10956
▁criteria	-10957
▁refriger	-10958
▁sentiment	-10959
▁simplemente	-10960
wo	-10961
}$	-10962
ดี	-10963
出现	-10964
工程	-10965
执行	-10966
мом	-10967
ого	-10968
▁<=	-10969
▁GB	-10970
▁OR	-10971
▁Ты	-10972
▁зо	-10973
((((	-10974
from	-10975
olic	-10976
year	-10977
ливо	-10978
▁són	-10979
▁voz	-10980
▁два	-10981
iring	-10982
▁cake	-10983
▁cela	-10984
▁psic	-10985
▁Every	-10986
▁carbo	-10987
▁signs	-10988
▁split	-10989
▁поста	-10990
▁совет	-10991
▁notice	-10992
▁próxim	-10993
▁periods	-10994
▁relative	-10995
▁desenvolv	-10996
▁industria	-10997
▁equivalent	-10998
▁statements	-10999
▁classification	-11000
政府	-11001
тах	-11002
▁28	-11003
▁ot	-11004
我可以	-11005
Line	-11006
ests	-11007
ufen	-11008
▁ссы	-11009
backs	-11010
änder	-11011
▁anti	-11012
ángulo	-11013
▁async	-11014
▁citiz	-11015
▁teams	-11016
▁cadena	-11017
▁conseg	-11018
▁meters	-11019
▁welche	-11020
▁именно	-11021
▁облада	-11022
▁обрабо	-11023
▁impacts	-11024
▁дополни	-11025
izaciones	-11026
▁modeling	-11027
▁corriente	-11028
29	-11029
资源	-11030
▁Ep	-11031
isse	-11032
spec	-11033
пита	-11034
рите	-11035
ские	-11036
▁Rad	-11037
▁ago	-11038
▁akt	-11039
estic	-11040
haust	-11041
ielle	-11042
▁Conf	-11043
▁Core	-11044
▁стан	-11045
ffeine	-11046
▁Grand	-11047
▁birds	-11048
▁meses	-11049
ionally	-11050
▁incent	-11051
▁plenty	-11052
▁rápida	-11053
▁realiza	-11054
▁haciendo	-11055
▁eléctrica	-11056
▁highlight	-11057
▁múltiples	-11058
▁implementar	-11059
▁безопасности	-11060
лн	-11061
":"	-11062
pas	-11063
uga	-11064
▁-1	-11065
▁][	-11066
▁Ну	-11067
inge	-11068
▁Mor	-11069
▁vom	-11070
ambda	-11071
netes	-11072
rooms	-11073
льная	-11074
▁Sign	-11075
▁trib	-11076
▁улуч	-11077
▁desem	-11078
▁merge	-11079
▁ratio	-11080
▁afraid	-11081
▁invert	-11082
▁greatest	-11083
▁struggle	-11084
▁unlikely	-11085
▁containing	-11086
äll	-11087
oven	-11088
umul	-11089
▁NFT	-11090
▁dib	-11091
▁rut	-11092
▁sed	-11093
anted	-11094
retch	-11095
table	-11096
uning	-11097
брать	-11098
nehmen	-11099
▁форма	-11100
▁contar	-11101
▁convol	-11102
▁layout	-11103
▁взаимо	-11104
▁constit	-11105
▁convirt	-11106
▁parents	-11107
▁парамет	-11108
▁completa	-11109
▁estudiar	-11110
▁published	-11111
▁saludable	-11112
▁biological	-11113
▁repository	-11114
ёр	-11115
表示	-11116
iat	-11117
jud	-11118
▁()	-11119
berg	-11120
меня	-11121
муни	-11122
▁Hel	-11123
▁zwe	-11124
▁вой	-11125
自然语言	-11126
param	-11127
▁Auto	-11128
▁pela	-11129
▁Class	-11130
▁ambas	-11131
▁meine	-11132
▁charge	-11133
▁dormir	-11134
▁saying	-11135
▁servir	-11136
▁принци	-11137
▁Ukraine	-11138
▁highest	-11139
▁organic	-11140
▁reviews	-11141
▁thorough	-11142
▁diffusion	-11143
▁derivative	-11144
▁transporte	-11145
▁construction	-11146
IX	-11147
生物	-11148
del	-11149
▁35	-11150
True	-11151
such	-11152
umer	-11153
мень	-11154
ному	-11155
▁Bra	-11156
▁fly	-11157
▁gew	-11158
▁Зем	-11159
▁http	-11160
▁меди	-11161
▁чего	-11162
cripts	-11163
▁Image	-11164
▁champ	-11165
▁tenía	-11166
▁cursos	-11167
▁explos	-11168
▁Example	-11169
▁combine	-11170
▁plantas	-11171
▁содержа	-11172
▁calculus	-11173
▁cleaning	-11174
▁geometry	-11175
▁reactions	-11176
information	-11177
36	-11178
ев	-11179
ไร	-11180
Dis	-11181
iba	-11182
oon	-11183
▁pá	-11184
▁té	-11185
anch	-11186
bens	-11187
edio	-11188
tros	-11189
деть	-11190
▁Hey	-11191
▁aer	-11192
▁erg	-11193
▁sín	-11194
anned	-11195
emble	-11196
ейчас	-11197
▁Bang	-11198
▁Merc	-11199
▁Park	-11200
▁mush	-11201
чества	-11202
▁boost	-11203
▁entry	-11204
▁invol	-11205
▁advert	-11206
▁belief	-11207
idamente	-11208
▁resolve	-11209
▁другими	-11210
▁choosing	-11211
▁excelente	-11212
ึง	-11213
”.	-11214
以上	-11215
щую	-11216
▁64	-11217
infl	-11218
opol	-11219
tera	-11220
▁AGI	-11221
▁Pan	-11222
▁Rel	-11223
▁sow	-11224
orter	-11225
▁Kore	-11226
▁adap	-11227
▁ases	-11228
▁hole	-11229
▁legs	-11230
▁mont	-11231
▁unas	-11232
▁Maybe	-11233
ecurity	-11234
▁acerca	-11235
▁pretty	-11236
▁каждый	-11237
▁хорошо	-11238
▁multiplic	-11239
▁precisión	-11240
▁компьютер	-11241
▁establecer	-11242
'(	-11243
[]	-11244
▁Ж	-11245
▁IT	-11246
нным	-11247
ombia	-11248
örper	-11249
▁grid	-11250
▁held	-11251
▁jest	-11252
▁поло	-11253
autres	-11254
roller	-11255
темати	-11256
▁Famil	-11257
▁gusta	-11258
▁suele	-11259
▁suelo	-11260
▁export	-11261
▁permet	-11262
▁tomato	-11263
response	-11264
▁density	-11265
▁presión	-11266
ubernetes	-11267
▁correcta	-11268
▁criminal	-11269
▁особенно	-11270
($	-11271
php	-11272
rie	-11273
тур	-11274
apes	-11275
igma	-11276
umna	-11277
ómen	-11278
рода	-11279
▁guar	-11280
▁schn	-11281
▁число	-11282
▁clases	-11283
▁sintax	-11284
▁diction	-11285
▁izquier	-11286
▁trading	-11287
▁preparar	-11288
▁lifestyle	-11289
▁corresponding	-11290
ika	-11291
nec	-11292
чей	-11293
File	-11294
▁Tex	-11295
▁Wik	-11296
▁nad	-11297
▁yes	-11298
▁Okay	-11299
▁Post	-11300
▁bits	-11301
▁thus	-11302
▁Пере	-11303
▁пыта	-11304
active	-11305
▁Somet	-11306
▁floor	-11307
▁Чтобы	-11308
▁распо	-11309
которые	-11310
▁Kannst	-11311
▁medios	-11312
▁probar	-11313
▁wieder	-11314
▁здоров	-11315
▁многих	-11316
▁evaluar	-11317
▁imagine	-11318
▁matches	-11319
▁queries	-11320
▁accepted	-11321
▁presente	-11322
▁template	-11323
▁elaborate	-11324
▁TensorFlow	-11325
▁constantly	-11326
▁surrounding	-11327
*,	-11328
FF	-11329
IV	-11330
OL	-11331
им	-11332
hec	-11333
wir	-11334
ють	-11335
▁мя	-11336
uela	-11337
▁mín	-11338
▁sacr	-11339
▁язык	-11340
▁языка	-11341
▁reserv	-11342
────────	-11343
▁circuit	-11344
▁fenómen	-11345
▁tenemos	-11346
▁diversas	-11347
▁sencilla	-11348
▁behaviors	-11349
▁increases	-11350
▁intelligent	-11351
▁interactive	-11352
▁relacionados	-11353
▁Informationen	-11354
้ว	-11355
一下	-11356
rom	-11357
дии	-11358
▁Op	-11359
▁Ty	-11360
cido	-11361
▁най	-11362
oting	-11363
▁APIs	-11364
▁club	-11365
▁dict	-11366
▁donn	-11367
▁мень	-11368
▁широ	-11369
▁Chile	-11370
▁crist	-11371
▁место	-11372
▁female	-11373
▁frutas	-11374
▁médico	-11375
▁respet	-11376
▁tratar	-11377
▁worked	-11378
▁materia	-11379
▁percent	-11380
▁proport	-11381
▁конечно	-11382
▁balanced	-11383
▁vehicles	-11384
▁necessarily	-11385
▁propiedades	-11386
▁considerations	-11387
nt	-11388
zi	-11389
ษา	-11390
成本	-11391
这样	-11392
Man	-11393
год	-11394
▁né	-11395
▁{}	-11396
нача	-11397
▁Pop	-11398
▁SSD	-11399
▁lev	-11400
▁paz	-11401
ienes	-11402
▁gent	-11403
▁друг	-11404
points	-11405
ährend	-11406
▁divis	-11407
▁seine	-11408
▁visión	-11409
▁autonom	-11410
▁failure	-11411
▁процесс	-11412
▁político	-11413
▁supported	-11414
▁disponible	-11415
▁understood	-11416
▁vulnerabilities	-11417
`:	-11418
dh	-11419
How	-11420
oke	-11421
zer	-11422
щих	-11423
▁Ja	-11424
ayer	-11425
боль	-11426
arauf	-11427
avors	-11428
creen	-11429
illet	-11430
train	-11431
xiety	-11432
▁Educ	-11433
▁Init	-11434
▁acab	-11435
▁crow	-11436
▁gama	-11437
▁lanz	-11438
▁tact	-11439
adoras	-11440
orders	-11441
▁Optim	-11442
▁hello	-11443
▁líder	-11444
▁moist	-11445
▁onion	-11446
▁básico	-11447
▁Michael	-11448
▁opinion	-11449
▁Cependant	-11450
▁conseguir	-11451
▁streaming	-11452
▁automático	-11453
▁electrónicos	-11454
▁successfully	-11455
▁authentication	-11456
▁implementación	-11457
其中	-11458
bly	-11459
щен	-11460
▁Ни	-11461
uler	-11462
zeit	-11463
▁13.	-11464
▁ASC	-11465
▁Top	-11466
▁tot	-11467
Frame	-11468
▁Plat	-11469
▁acom	-11470
▁einz	-11471
▁lose	-11472
▁syst	-11473
▁temp	-11474
▁embed	-11475
▁invas	-11476
▁circul	-11477
▁simult	-11478
ственный	-11479
▁tortilla	-11480
▁detection	-11481
▁selection	-11482
▁dependencies	-11483
▁desarrolladores	-11484
79	-11485
ku	-11486
中文	-11487
确定	-11488
жна	-11489
▁26	-11490
▁Ci	-11491
▁KI	-11492
anal	-11493
▁194	-11494
▁III	-11495
▁Soy	-11496
▁Voc	-11497
▁lím	-11498
▁rit	-11499
▁unc	-11500
▁рав	-11501
nisse	-11502
▁cabo	-11503
▁gave	-11504
▁gena	-11505
▁male	-11506
▁повы	-11507
izable	-11508
▁Verse	-11509
▁dress	-11510
▁goods	-11511
▁máximo	-11512
▁Utiliza	-11513
▁compens	-11514
▁corazón	-11515
▁neutral	-11516
▁parties	-11517
▁branches	-11518
▁emocional	-11519
-.	-11520
PG	-11521
вь	-11522
ATE	-11523
uum	-11524
ток	-11525
▁ba	-11526
lado	-11527
▁Log	-11528
▁Veg	-11529
▁até	-11530
▁raw	-11531
▁бра	-11532
▁User	-11533
▁игры	-11534
▁incon	-11535
▁resil	-11536
▁cuidad	-11537
▁facing	-11538
▁outras	-11539
▁strict	-11540
▁памяти	-11541
▁destroy	-11542
▁exhaust	-11543
▁morning	-11544
▁necesita	-11545
▁versions	-11546
▁convertir	-11547
▁fictional	-11548
▁Furthermore	-11549
▁flexibility	-11550
▁возможность	-11551
▁verschiedene	-11552
rat	-11553
щие	-11554
▁XX	-11555
dida	-11556
otes	-11557
▁Any	-11558
▁wen	-11559
▁Link	-11560
▁detr	-11561
▁dust	-11562
▁enab	-11563
▁told	-11564
▁warr	-11565
illion	-11566
nombre	-11567
▁sales	-11568
▁Fragen	-11569
▁desire	-11570
▁indica	-11571
▁leader	-11572
▁Aprende	-11573
▁backend	-11574
▁consens	-11575
▁ofrecen	-11576
▁outcome	-11577
▁которой	-11578
▁distract	-11579
▁estudios	-11580
▁observed	-11581
▁WordPress	-11582
Em	-11583
Ops	-11584
YPE	-11585
fas	-11586
enez	-11587
sing	-11588
тиво	-11589
▁оче	-11590
iding	-11591
rolog	-11592
▁Such	-11593
▁says	-11594
▁huevo	-11595
▁lucha	-11596
▁каждо	-11597
▁компо	-11598
▁Import	-11599
▁causar	-11600
▁forget	-11601
▁indeed	-11602
▁истори	-11603
▁призна	-11604
▁ajustar	-11605
▁consume	-11606
▁kilomet	-11607
▁propias	-11608
▁lighting	-11609
▁teaspoon	-11610
▁contempor	-11611
▁electrons	-11612
▁ordenador	-11613
▁frequently	-11614
▁innovative	-11615
▁unexpected	-11616
▁availability	-11617
34	-11618
增加	-11619
表达	-11620
urb	-11621
▁70	-11622
有什么	-11623
amas	-11624
ince	-11625
neas	-11626
▁Jan	-11627
▁эту	-11628
alada	-11629
iados	-11630
twick	-11631
▁snow	-11632
phones	-11633
▁besch	-11634
▁torch	-11635
▁новых	-11636
▁одной	-11637
▁Custom	-11638
▁chords	-11639
▁dismin	-11640
▁essere	-11641
▁быстро	-11642
88888888	-11643
▁electro	-11644
▁ejecutar	-11645
▁spending	-11646
▁diversity	-11647
▁intereses	-11648
▁beneficios	-11649
▁monitoring	-11650
▁referencia	-11651
28	-11652
ído	-11653
的发展	-11654
llas	-11655
тори	-11656
▁дву	-11657
▁клю	-11658
▁уче	-11659
essen	-11660
▁Coun	-11661
▁Mond	-11662
▁preci	-11663
▁satur	-11664
▁После	-11665
дования	-11666
▁darauf	-11667
▁podrás	-11668
▁Support	-11669
▁earlier	-11670
▁breaking	-11671
▁depender	-11672
▁mistakes	-11673
▁presenta	-11674
▁поддержи	-11675
▁eléctrico	-11676
▁gradually	-11677
▁propósito	-11678
▁necesarios	-11679
________________	-11680
准备	-11681
推荐	-11682
ARK	-11683
imp	-11684
пря	-11685
▁LA	-11686
enew	-11687
ester	-11688
itors	-11689
itted	-11690
iture	-11691
thern	-11692
▁Mont	-11693
▁fond	-11694
▁mesa	-11695
▁unif	-11696
▁тому	-11697
▁poner	-11698
▁toler	-11699
▁achiev	-11700
▁físico	-11701
▁pourra	-11702
▁quiere	-11703
▁designs	-11704
▁windows	-11705
▁supplies	-11706
▁políticos	-11707
▁statistical	-11708
My	-11709
mi	-11710
éd	-11711
▁Mat	-11712
▁ata	-11713
▁enl	-11714
▁Hard	-11715
▁gast	-11716
▁тоже	-11717
center	-11718
▁antic	-11719
▁feels	-11720
▁hayas	-11721
▁plano	-11722
▁renov	-11723
▁форму	-11724
almente	-11725
imienta	-11726
▁Soviet	-11727
▁dispos	-11728
ológicos	-11729
▁destino	-11730
▁focusing	-11731
▁infinite	-11732
▁работает	-11733
▁molecules	-11734
▁regardless	-11735
tt	-11736
zó	-11737
ตร	-11738
建立	-11739
用的	-11740
det	-11741
img	-11742
▁Са	-11743
▁уг	-11744
post	-11745
whel	-11746
▁típ	-11747
árias	-11748
▁Coll	-11749
▁Rest	-11750
▁Focus	-11751
▁Place	-11752
▁agrad	-11753
▁cable	-11754
▁exhib	-11755
▁lleva	-11756
▁printf	-11757
▁задачи	-11758
▁fantasy	-11759
▁precise	-11760
▁buildings	-11761
▁económica	-11762
▁extensive	-11763
▁insurance	-11764
▁increasingly	-11765
投资	-11766
how	-11767
лем	-11768
ั้น	-11769
▁ai	-11770
десь	-11771
хода	-11772
▁180	-11773
▁Den	-11774
▁кре	-11775
скажи	-11776
▁beef	-11777
▁stir	-11778
▁воды	-11779
▁пода	-11780
aturas	-11781
irtual	-11782
▁Voici	-11783
▁вашей	-11784
▁подоб	-11785
▁recurs	-11786
function	-11787
ventajas	-11788
▁anxiety	-11789
▁registr	-11790
▁Security	-11791
▁guarante	-11792
▁библиоте	-11793
▁интернет	-11794
▁asistente	-11795
▁emergency	-11796
▁introduce	-11797
▁principle	-11798
ês	-11799
一般	-11800
nie	-11801
ycl	-11802
▁1-	-11803
▁1;	-11804
计算机	-11805
cies	-11806
ités	-11807
тере	-11808
▁IPv	-11809
▁пря	-11810
льную	-11811
пуска	-11812
▁beat	-11813
▁mein	-11814
▁забо	-11815
▁опти	-11816
schein	-11817
▁alert	-11818
▁deals	-11819
▁navig	-11820
▁margin	-11821
▁recuper	-11822
▁strange	-11823
▁keywords	-11824
▁formación	-11825
▁sentences	-11826
▁cantidades	-11827
▁Intelligence	-11828
数字	-11829
目前	-11830
));	-11831
▁"$	-11832
▁AB	-11833
▁IV	-11834
▁Tu	-11835
ardo	-11836
bots	-11837
iled	-11838
▁Mov	-11839
estre	-11840
geben	-11841
▁Cloud	-11842
▁Impro	-11843
▁Japón	-11844
▁explo	-11845
▁finds	-11846
▁horno	-11847
▁panel	-11848
▁virus	-11849
utional	-11850
▁Agrega	-11851
▁advers	-11852
▁узнать	-11853
▁batería	-11854
▁although	-11855
▁astronom	-11856
▁electrom	-11857
▁overwhel	-11858
▁probabil	-11859
▁religión	-11860
▁Некоторые	-11861
▁verschiedenen	-11862
เด	-11863
▁×	-11864
此外	-11865
Net	-11866
nam	-11867
▁Ra	-11868
Tree	-11869
bols	-11870
▁1/4	-11871
▁Law	-11872
▁Mad	-11873
using	-11874
▁Wars	-11875
▁esos	-11876
▁ASCII	-11877
▁State	-11878
▁ahead	-11879
▁apoyo	-11880
▁recip	-11881
entials	-11882
▁Church	-11883
▁Determ	-11884
▁descon	-11885
▁escala	-11886
▁lógica	-11887
▁почему	-11888
▁разные	-11889
▁mission	-11890
▁planets	-11891
▁término	-11892
▁поможет	-11893
▁aventura	-11894
▁category	-11895
▁поскольку	-11896
▁Kubernetes	-11897
▁ingeniería	-11898
▁interaction	-11899
▁progression	-11900
({	-11901
={	-11902
Hz	-11903
最后	-11904
设备	-11905
erk	-11906
öff	-11907
▁ul	-11908
▁ór	-11909
▁Об	-11910
ecen	-11911
mbol	-11912
▁Abs	-11913
azing	-11914
ichen	-11915
▁Dios	-11916
▁Musk	-11917
▁gene	-11918
aching	-11919
▁calls	-11920
▁gonna	-11921
▁tells	-11922
▁текст	-11923
▁cardio	-11924
▁estrés	-11925
▁turned	-11926
▁turtle	-11927
▁cryptoc	-11928
▁equipos	-11929
▁notable	-11930
▁patatas	-11931
▁bacteria	-11932
▁prepared	-11933
▁teléfono	-11934
▁evolución	-11935
▁utilizada	-11936
▁integración	-11937
▁oportunidad	-11938
▁institutions	-11939
▁possibilities	-11940
2]	-11941
зя	-11942
из	-11943
准确	-11944
uas	-11945
гов	-11946
кам	-11947
edas	-11948
fast	-11949
iona	-11950
ools	-11951
ueto	-11952
▁atm	-11953
▁nac	-11954
adura	-11955
etter	-11956
ihood	-11957
illed	-11958
ubble	-11959
▁Know	-11960
▁soul	-11961
▁facts	-11962
▁monta	-11963
▁Какие	-11964
uetooth	-11965
▁basics	-11966
▁entend	-11967
▁настро	-11968
▁pruebas	-11969
▁shorter	-11970
▁математи	-11971
▁развития	-11972
▁compartir	-11973
▁confusion	-11974
▁tradition	-11975
▁accomplish	-11976
▁privacidad	-11977
▁significado	-11978
WS	-11979
gi	-11980
▁ä	-11981
▁的	-11982
输出	-11983
сер	-11984
шая	-11985
▁сай	-11986
▁сни	-11987
íveis	-11988
▁Wind	-11989
▁auss	-11990
▁earn	-11991
▁hast	-11992
▁href	-11993
angers	-11994
▁cinco	-11995
▁funny	-11996
▁madre	-11997
▁verde	-11998
▁edific	-11999
▁extreme	-12000
▁workers	-12001
▁следует	-12002
тельность	-12003
▁planetas	-12004
▁servicio	-12005
▁intricate	-12006
▁presencia	-12007
▁Transformer	-12008
▁characterized	-12009
-7	-12010
mt	-12011
深度	-12012
ông	-12013
▁Ps	-12014
atür	-12015
▁PDF	-12016
▁lig	-12017
▁éta	-12018
chron	-12019
ianza	-12020
ências	-12021
▁crime	-12022
▁neigh	-12023
▁belong	-12024
▁acordes	-12025
▁drawing	-12026
▁simplic	-12027
▁tension	-12028
▁inspired	-12029
entralized	-12030
▁describes	-12031
▁investing	-12032
▁sensación	-12033
▁manipulate	-12034
▁possibility	-12035
Go	-12036
也是	-12037
ako	-12038
nos	-12039
olf	-12040
qué	-12041
▁Ce	-12042
▁om	-12043
auen	-12044
izan	-12045
▁anc	-12046
▁nou	-12047
▁кли	-12048
▁сет	-12049
ainer	-12050
learn	-12051
▁amen	-12052
ugging	-12053
▁False	-12054
▁enemy	-12055
▁expon	-12056
▁espect	-12057
▁Intelig	-12058
▁belleza	-12059
▁bestimm	-12060
▁happens	-12061
▁idiomas	-12062
ственного	-12063
▁contrato	-12064
▁controls	-12065
▁director	-12066
▁copyright	-12067
▁similares	-12068
▁traditions	-12069
▁adicionales	-12070
▁influential	-12071
▁responsable	-12072
Ob	-12073
Sp	-12074
主义	-12075
现在	-12076
afe	-12077
gov	-12078
png	-12079
tos	-12080
bres	-12081
▁inm	-12082
▁мар	-12083
begin	-12084
ernen	-12085
stack	-12086
▁miem	-12087
▁suis	-12088
▁режи	-12089
▁Quest	-12090
▁faced	-12091
▁shell	-12092
▁исход	-12093
▁струк	-12094
▁assets	-12095
▁confid	-12096
▁listed	-12097
▁tengan	-12098
▁typing	-12099
▁derecho	-12100
▁Поэтому	-12101
▁entertain	-12102
▁organisms	-12103
▁científica	-12104
▁protección	-12105
tx	-12106
几个	-12107
条件	-12108
aya	-12109
vin	-12110
вай	-12111
нта	-12112
щее	-12113
▁*/	-12114
resh	-12115
▁pov	-12116
▁sad	-12117
query	-12118
судар	-12119
▁cuis	-12120
▁spot	-12121
▁surg	-12122
▁thin	-12123
search	-12124
▁Frank	-12125
▁batch	-12126
println	-12127
▁breaks	-12128
▁spirit	-12129
▁момент	-12130
▁theorem	-12131
▁Colombia	-12132
▁friendly	-12133
▁stronger	-12134
▁otherwise	-12135
▁программы	-12136
▁gravitational	-12137
''	-12138
sl	-12139
มา	-12140
两个	-12141
提出	-12142
").	-12143
IGHT	-12144
▁Dat	-12145
build	-12146
grade	-12147
▁Fakt	-12148
▁ends	-12149
▁exit	-12150
▁ruta	-12151
▁tant	-12152
▁tren	-12153
▁прав	-12154
icleta	-12155
▁Puede	-12156
▁atmós	-12157
▁disap	-12158
▁medir	-12159
mediate	-12160
▁cámara	-12161
▁kernel	-12162
▁encrypt	-12163
▁establece	-12164
5/	-12165
äd	-12166
рю	-12167
▁€	-12168
专业	-12169
-15	-12170
Ser	-12171
hid	-12172
▁7,	-12173
grid	-12174
▁Mex	-12175
▁Sep	-12176
▁tir	-12177
▁осо	-12178
istro	-12179
peare	-12180
ència	-12181
▁Mort	-12182
▁Work	-12183
▁bond	-12184
▁diab	-12185
▁hash	-12186
▁kids	-12187
▁park	-12188
▁reps	-12189
▁très	-12190
зывать	-12191
ложить	-12192
▁advoc	-12193
▁genes	-12194
▁manos	-12195
▁metab	-12196
▁revis	-12197
▁aceler	-12198
▁europe	-12199
▁orange	-12200
▁ayudará	-12201
▁carbono	-12202
▁conform	-12203
▁definir	-12204
▁поддерж	-12205
▁explicit	-12206
▁violence	-12207
▁expansion	-12208
▁versatile	-12209
▁происходит	-12210
43	-12211
8)	-12212
BA	-12213
UN	-12214
ริ	-12215
เข	-12216
ION	-12217
Int	-12218
Que	-12219
นี้	-12220
▁Añ	-12221
Path	-12222
View	-12223
onos	-12224
▁Eas	-12225
▁Ide	-12226
▁Num	-12227
▁cyl	-12228
▁kid	-12229
▁Мне	-12230
range	-12231
▁Last	-12232
▁aims	-12233
▁rued	-12234
▁vale	-12235
ipping	-12236
▁schol	-12237
powered	-12238
▁aplica	-12239
▁creado	-12240
▁постоя	-12241
▁deliver	-12242
▁bastante	-12243
▁emphasizes	-12244
▁contributed	-12245
▁perspectiva	-12246
他的	-12247
定义	-12248
lor	-12249
емо	-12250
рей	-12251
่อง	-12252
▁!=	-12253
iber	-12254
oded	-12255
ugal	-12256
▁Hum	-12257
▁fur	-12258
▁hil	-12259
▁sul	-12260
▁voy	-12261
▁опы	-12262
assen	-12263
íamos	-12264
▁jogo	-12265
▁заме	-12266
▁Frage	-12267
▁Steam	-12268
▁manga	-12269
▁walls	-12270
▁Second	-12271
▁führen	-12272
▁garden	-12273
▁pasado	-12274
▁columns	-12275
▁reached	-12276
▁teorías	-12277
akespeare	-12278
▁качестве	-12279
▁conflicts	-12280
▁scenarios	-12281
▁habitantes	-12282
▁statistics	-12283
▁profesionales	-12284
วย	-12285
ENT	-12286
aiss	-12287
años	-12288
bled	-12289
erme	-12290
шего	-12291
ющим	-12292
▁Sus	-12293
▁jou	-12294
▁npm	-12295
▁мой	-12296
Event	-12297
jidad	-12298
uales	-12299
зации	-12300
▁adel	-12301
▁eran	-12302
▁suit	-12303
▁игру	-12304
ighter	-12305
ologie	-12306
▁benöt	-12307
▁meets	-12308
▁phras	-12309
▁spent	-12310
▁throw	-12311
install	-12312
▁Source	-12313
▁Unreal	-12314
▁frente	-12315
▁mejora	-12316
▁quando	-12317
▁Similar	-12318
▁demostr	-12319
▁workout	-12320
▁procesar	-12321
▁realized	-12322
▁программ	-12323
▁complejas	-12324
▁customize	-12325
▁определен	-12326
▁разработчи	-12327
▁funcionamiento	-12328
ES	-12329
搜索	-12330
Add	-12331
нок	-12332
▁Yo	-12333
▁好的	-12334
iedo	-12335
▁pud	-12336
▁Lord	-12337
▁Vous	-12338
▁acqu	-12339
▁cuál	-12340
▁paid	-12341
▁damit	-12342
▁gatos	-12343
▁mixed	-12344
▁sujet	-12345
▁vivir	-12346
▁weeks	-12347
▁указа	-12348
ведения	-12349
▁placed	-12350
▁weapon	-12351
▁контек	-12352
////////	-12353
▁brought	-12354
▁consola	-12355
▁illustr	-12356
▁mujeres	-12357
▁checking	-12358
▁entirely	-12359
▁exciting	-12360
▁animación	-12361
▁comparison	-12362
▁relativity	-12363
▁relatividad	-12364
▁restrictions	-12365
gy	-12366
út	-12367
่ม	-12368
一定	-12369
```	-12370
лан	-12371
▁XV	-12372
▁Ми	-12373
нное	-12374
труд	-12375
▁Hit	-12376
▁Ref	-12377
▁unf	-12378
▁роз	-12379
Torch	-12380
arten	-12381
ieval	-12382
อย่าง	-12383
▁Этот	-12384
▁гото	-12385
▁люби	-12386
▁clock	-12387
▁etern	-12388
▁lists	-12389
▁sabor	-12390
▁alguns	-12391
▁assert	-12392
▁harder	-12393
▁plugin	-12394
▁подроб	-12395
▁canción	-12396
▁eliminar	-12397
▁pequeñas	-12398
▁controlled	-12399
▁существует	-12400
▁productivity	-12401
.2	-12402
hö	-12403
▁第	-12404
文章	-12405
获取	-12406
首先	-12407
éro	-12408
oras	-12409
orde	-12410
prés	-12411
zial	-12412
волю	-12413
диви	-12414
разу	-12415
▁"""	-12416
▁хра	-12417
eding	-12418
esión	-12419
float	-12420
iable	-12421
model	-12422
under	-12423
▁epis	-12424
▁диза	-12425
edores	-12426
onomic	-12427
▁await	-12428
▁impos	-12429
▁seeds	-12430
▁spark	-12431
▁theme	-12432
▁wants	-12433
lements	-12434
▁Method	-12435
▁begins	-12436
▁bloque	-12437
▁checks	-12438
▁símbol	-12439
▁talent	-12440
▁список	-12441
▁Initial	-12442
▁despite	-12443
▁insects	-12444
▁logical	-12445
▁ninguna	-12446
▁scratch	-12447
▁Funktion	-12448
▁sintaxis	-12449
▁obstacles	-12450
▁performing	-12451
▁interpreted	-12452
价值	-12453
受到	-12454
尝试	-12455
性的	-12456
日本	-12457
概念	-12458
每个	-12459
活动	-12460
bow	-12461
ila	-12462
Type	-12463
imon	-12464
▁Ped	-12465
▁убе	-12466
andon	-12467
ician	-12468
omial	-12469
▁chop	-12470
▁creo	-12471
▁emit	-12472
▁esqu	-12473
▁sólo	-12474
▁запи	-12475
ческим	-12476
▁Segun	-12477
▁agree	-12478
▁notas	-12479
▁oblig	-12480
▁perro	-12481
▁pixel	-12482
▁route	-12483
fitting	-12484
▁DevOps	-12485
▁cocina	-12486
▁numero	-12487
▁laboral	-12488
▁metrics	-12489
▁сказать	-12490
▁comienza	-12491
▁mecánica	-12492
▁reaction	-12493
▁adicional	-12494
▁databases	-12495
▁investors	-12496
▁listening	-12497
▁prácticas	-12498
▁spiritual	-12499
▁relaxation	-12500
▁posibilidad	-12501
CC	-12502
▁є	-12503
ULL	-12504
aze	-12505
шка	-12506
▁ah	-12507
▁fn	-12508
▁аб	-12509
如果您	-12510
ById	-12511
page	-12512
uery	-12513
▁Bal	-12514
serve	-12515
▁Priv	-12516
▁pais	-12517
▁pues	-12518
▁выде	-12519
▁собы	-12520
▁gegen	-12521
▁scope	-12522
▁toxic	-12523
▁Turing	-12524
▁novela	-12525
▁pensar	-12526
▁Entwick	-12527
▁Project	-12528
▁augment	-12529
▁descans	-12530
▁heavily	-12531
▁riesgos	-12532
▁unknown	-12533
▁содержи	-12534
▁describir	-12535
▁asegurarse	-12536
▁translation	-12537
▁introduction	-12538
▁International	-12539
LT	-12540
dx	-12541
思考	-12542
han	-12543
kin	-12544
яза	-12545
▁$\	-12546
▁/*	-12547
▁5)	-12548
▁Го	-12549
aked	-12550
ipse	-12551
рами	-12552
рует	-12553
чным	-12554
▁ine	-12555
▁mud	-12556
▁unt	-12557
▁ему	-12558
aping	-12559
tress	-12560
▁radi	-12561
▁tiny	-12562
atorio	-12563
ifique	-12564
unting	-12565
▁manif	-12566
▁актив	-12567
▁менее	-12568
▁часть	-12569
▁prints	-12570
▁proven	-12571
▁Industr	-12572
▁cálculo	-12573
▁energia	-12574
▁forever	-12575
idespread	-12576
▁channels	-12577
▁esencial	-12578
▁proteins	-12579
▁образова	-12580
▁confident	-12581
▁performed	-12582
▁recomienda	-12583
▁restaurant	-12584
------------	-12585
▁ampliamente	-12586
EY	-12587
TT	-12588
сл	-12589
▁不	-12590
从而	-12591
获得	-12592
运动	-12593
atu	-12594
prü	-12595
rec	-12596
▁ng	-12597
也可以	-12598
iday	-12599
стов	-12600
ต้อง	-12601
▁Ents	-12602
▁ante	-12603
▁ejec	-12604
▁gift	-12605
▁sect	-12606
▁знаю	-12607
asting	-12608
▁задач	-12609
▁Muchas	-12610
▁escuch	-12611
▁linked	-12612
▁severe	-12613
▁класси	-12614
▁finance	-12615
▁instant	-12616
▁markets	-12617
▁missing	-12618
▁pequeña	-12619
▁aircraft	-12620
▁circuito	-12621
▁drinking	-12622
▁promedio	-12623
▁uncertain	-12624
▁Shakespeare	-12625
▁alimentación	-12626
uß	-12627
has	-12628
olo	-12629
ços	-12630
дро	-12631
▁kh	-12632
的信息	-12633
Chor	-12634
Code	-12635
apas	-12636
lets	-12637
жешь	-12638
▁Pac	-12639
▁fro	-12640
▁oct	-12641
eller	-12642
▁Anim	-12643
▁Read	-12644
▁baby	-12645
▁viaj	-12646
▁доро	-12647
Button	-12648
create	-12649
ederal	-12650
менить	-12651
▁David	-12652
▁Satur	-12653
▁destr	-12654
▁renew	-12655
▁turns	-12656
▁artist	-12657
▁claims	-12658
▁exempl	-12659
▁gained	-12660
▁iPhone	-12661
▁вашего	-12662
▁настоя	-12663
▁abordar	-12664
▁figures	-12665
▁license	-12666
▁primeros	-12667
▁Depending	-12668
▁atmósfera	-12669
▁represented	-12670
台湾	-12671
▁>>	-12672
Date	-12673
esar	-12674
imer	-12675
jekt	-12676
дать	-12677
▁мет	-12678
▁мощ	-12679
▁пак	-12680
▁чер	-12681
apple	-12682
iedad	-12683
oción	-12684
▁Fern	-12685
▁tels	-12686
▁Never	-12687
▁enfoc	-12688
▁escol	-12689
▁fetch	-12690
▁broken	-12691
▁diesem	-12692
▁enviar	-12693
▁сейчас	-12694
▁Environ	-12695
▁closely	-12696
▁vibrant	-12697
▁opponent	-12698
▁disadvant	-12699
▁устройства	-12700
▁использование	-12701
IS	-12702
ae	-12703
чё	-12704
质量	-12705
避免	-12706
dar	-12707
zos	-12708
сті	-12709
▁8,	-12710
door	-12711
show	-12712
then	-12713
▁Bay	-12714
▁obs	-12715
▁кро	-12716
▁мас	-12717
Enter	-12718
iforn	-12719
▁Rich	-12720
▁Rome	-12721
▁adop	-12722
▁тран	-12723
azioni	-12724
ведение	-12725
▁inicio	-12726
▁mister	-12727
▁ningún	-12728
▁portal	-12729
▁puesto	-12730
▁served	-12731
▁suerte	-12732
▁случай	-12733
▁contrad	-12734
▁symbols	-12735
▁mountain	-12736
▁nuestras	-12737
ativamente	-12738
▁bienestar	-12739
▁affordable	-12740
▁científico	-12741
▁difficulty	-12742
▁movimientos	-12743
▁consecuencias	-12744
้ง	-12745
▁ข	-12746
有效	-12747
风险	-12748
dec	-12749
ucr	-12750
ças	-12751
bros	-12752
ints	-12753
แล้ว	-12754
▁bio	-12755
▁вку	-12756
▁вра	-12757
opher	-12758
прави	-12759
▁cups	-12760
▁raíz	-12761
▁rojo	-12762
▁salv	-12763
▁Begin	-12764
▁Revol	-12765
▁alive	-12766
▁hogar	-12767
▁monet	-12768
▁relaj	-12769
▁Server	-12770
▁Update	-12771
▁frases	-12772
▁harina	-12773
▁header	-12774
▁impuls	-12775
▁escrito	-12776
▁Personal	-12777
▁longitud	-12778
▁nacional	-12779
▁pimienta	-12780
▁descargar	-12781
▁conversación	-12782
Fe	-12783
Sc	-12784
tó	-12785
▁ж	-12786
uce	-12787
кре	-12788
plat	-12789
ucks	-12790
▁Als	-12791
▁BARK	-12792
▁Teil	-12793
▁bath	-12794
▁cabe	-12795
▁cero	-12796
▁cord	-12797
▁flag	-12798
▁gone	-12799
▁seva	-12800
▁внеш	-12801
itches	-12802
tonces	-12803
▁worry	-12804
▁наблю	-12805
▁triste	-12806
teriores	-12807
▁española	-12808
▁produces	-12809
▁sacrific	-12810
▁discovery	-12811
▁estimated	-12812
▁requieren	-12813
▁electronic	-12814
▁widespread	-12815
▁complejidad	-12816
ów	-12817
зд	-12818
变化	-12819
联网	-12820
adt	-12821
重要的	-12822
auss	-12823
ellt	-12824
ließ	-12825
pero	-12826
punk	-12827
зать	-12828
▁Aug	-12829
▁нам	-12830
▁сла	-12831
anged	-12832
ducir	-12833
▁Você	-12834
▁hous	-12835
▁sola	-12836
Chorus	-12837
arding	-12838
coming	-12839
icians	-12840
uation	-12841
values	-12842
▁Today	-12843
▁roots	-12844
cepción	-12845
▁docker	-12846
▁mismos	-12847
▁profit	-12848
▁socket	-12849
▁stands	-12850
▁ничего	-12851
▁Fourier	-12852
▁contacto	-12853
▁рекоменду	-12854
▁resolución	-12855
▁Development	-12856
▁Ingredients	-12857
▁composition	-12858
gl	-12859
ья	-12860
ätz	-12861
нец	-12862
▁Ko	-12863
▁UI	-12864
acle	-12865
tics	-12866
нери	-12867
▁***	-12868
▁Hal	-12869
▁Key	-12870
State	-12871
iciar	-12872
shape	-12873
спери	-12874
треть	-12875
▁Grad	-12876
▁Prof	-12877
▁arts	-12878
▁piel	-12879
▁tong	-12880
ização	-12881
ческую	-12882
▁Green	-12883
▁dabei	-12884
comfort	-12885
ográfic	-12886
▁Differ	-12887
▁añadir	-12888
▁fusion	-12889
▁sector	-12890
▁slowly	-12891
▁своего	-12892
▁lessons	-12893
▁государ	-12894
ahrschein	-12895
▁detectar	-12896
▁happened	-12897
▁opposite	-12898
▁watching	-12899
▁определя	-12900
▁operaciones	-12901
▁pensamiento	-12902
▁protagonist	-12903
▁tratamiento	-12904
▁civilization	-12905
mb	-12906
รา	-12907
全球	-12908
哪些	-12909
___	-12910
cat	-12911
กัน	-12912
▁3-	-12913
▁ki	-12914
▁мі	-12915
acon	-12916
ffen	-12917
wand	-12918
▁NAS	-12919
▁dre	-12920
лению	-12921
▁Eval	-12922
▁nous	-12923
▁quar	-12924
▁rent	-12925
▁Analy	-12926
▁Paris	-12927
▁mucha	-12928
▁plást	-12929
▁sient	-12930
▁совер	-12931
▁analog	-12932
▁territ	-12933
▁возмож	-12934
▁Service	-12935
▁ciertos	-12936
▁clients	-12937
▁kitchen	-12938
▁superar	-12939
▁Examples	-12940
▁Возможно	-12941
▁previously	-12942
ahrscheinlich	-12943
▁probabilidad	-12944
kg	-12945
wa	-12946
ạn	-12947
优化	-12948
技能	-12949
ims	-12950
пто	-12951
icot	-12952
inha	-12953
▁IDE	-12954
▁Pat	-12955
▁Rol	-12956
▁gel	-12957
▁unw	-12958
▁три	-12959
exist	-12960
ideos	-12961
влять	-12962
▁amar	-12963
▁logo	-12964
▁seja	-12965
▁мира	-12966
▁попы	-12967
▁регу	-12968
ваются	-12969
▁atoms	-12970
▁bitte	-12971
▁curva	-12972
▁feliz	-12973
▁poema	-12974
▁числа	-12975
▁Lebens	-12976
▁apenas	-12977
▁destin	-12978
▁formed	-12979
▁labels	-12980
▁sangre	-12981
▁segura	-12982
▁sempre	-12983
▁PyTorch	-12984
▁ensures	-12985
▁flowers	-12986
▁систему	-12987
▁magnetic	-12988
▁processed	-12989
▁vocabulary	-12990
▁weaknesses	-12991
▁возможности	-12992
/.	-12993
42	-12994
fu	-12995
кі	-12996
介绍	-12997
做出	-12998
合作	-12999
ROM	-13000
neo	-13001
▁Na	-13002
▁Бу	-13003
dobe	-13004
oses	-13005
unft	-13006
wall	-13007
ними	-13008
▁wal	-13009
▁Под	-13010
▁curr	-13011
▁sour	-13012
▁похо	-13013
▁Enter	-13014
▁Leben	-13015
▁Neural	-13016
▁занима	-13017
▁executed	-13018
▁religion	-13019
As	-13020
Or	-13021
还是	-13022
abs	-13023
jpg	-13024
nas	-13025
win	-13026
лиш	-13027
тий	-13028
▁(4	-13029
annt	-13030
нную	-13031
▁Bon	-13032
▁dot	-13033
▁тор	-13034
▁уни	-13035
viles	-13036
струк	-13037
▁Moon	-13038
▁arms	-13039
▁jump	-13040
▁même	-13041
▁Есть	-13042
▁маши	-13043
illing	-13044
ulated	-13045
▁direc	-13046
▁macOS	-13047
▁suave	-13048
▁upper	-13049
ifornia	-13050
▁basado	-13051
▁deeply	-13052
▁laptop	-13053
▁turning	-13054
▁котором	-13055
▁caffeine	-13056
▁используя	-13057
▁sufficient	-13058
76	-13059
CD	-13060
ti	-13061
▁√	-13062
Key	-13063
esp	-13064
urd	-13065
дре	-13066
еты	-13067
います	-13068
aben	-13069
клад	-13070
либо	-13071
стях	-13072
▁14.	-13073
▁Dig	-13074
▁rub	-13075
▁там	-13076
▁уме	-13077
▁REST	-13078
▁Sara	-13079
▁intu	-13080
▁tuvo	-13081
▁выше	-13082
urales	-13083
▁afirm	-13084
▁aprov	-13085
▁dates	-13086
▁falls	-13087
▁owner	-13088
▁Prepar	-13089
▁matriz	-13090
▁nearby	-13091
▁viajar	-13092
▁потреб	-13093
formance	-13094
▁demanda	-13095
▁принима	-13096
▁delivery	-13097
▁stunning	-13098
▁operativo	-13099
▁radiation	-13100
▁searching	-13101
▁vulnerable	-13102
▁rápidamente	-13103
▁relacionadas	-13104
▁используются	-13105
38	-13106
cp	-13107
êm	-13108
ない	-13109
创建	-13110
性能	-13111
web	-13112
inda	-13113
tere	-13114
uing	-13115
▁000	-13116
▁Far	-13117
▁และ	-13118
▁Call	-13119
▁bass	-13120
▁merg	-13121
▁ника	-13122
▁Civil	-13123
▁Solar	-13124
▁Spiel	-13125
▁aider	-13126
▁holds	-13127
▁lider	-13128
▁monde	-13129
▁resto	-13130
vention	-13131
▁father	-13132
▁вместе	-13133
▁предло	-13134
▁текста	-13135
▁Imagine	-13136
▁samples	-13137
▁climático	-13138
▁distintos	-13139
▁optimized	-13140
▁исследова	-13141
▁calculations	-13142
ni	-13143
äs	-13144
でき	-13145
发生	-13146
带来	-13147
广泛	-13148
Hay	-13149
azi	-13150
щем	-13151
▁Мы	-13152
的影响	-13153
afür	-13154
atég	-13155
lang	-13156
ueva	-13157
нова	-13158
▁Fue	-13159
▁ctx	-13160
▁анг	-13161
вання	-13162
▁дома	-13163
▁игро	-13164
▁Flask	-13165
▁banda	-13166
▁shall	-13167
▁числе	-13168
▁Anwend	-13169
▁empath	-13170
▁genres	-13171
▁winter	-13172
▁Исполь	-13173
▁Почему	-13174
▁Central	-13175
▁typical	-13176
▁attempts	-13177
▁mitigate	-13178
▁dimension	-13179
▁especific	-13180
▁felicidad	-13181
▁cooperation	-13182
▁repeticiones	-13183
dl	-13184
ทย	-13185
เท	-13186
ใจ	-13187
▁是	-13188
美国	-13189
pdf	-13190
гна	-13191
avia	-13192
ieza	-13193
unst	-13194
ónde	-13195
▁rey	-13196
▁люд	-13197
arlos	-13198
brero	-13199
▁manz	-13200
▁rows	-13201
orient	-13202
ítulos	-13203
▁Adobe	-13204
▁Input	-13205
▁costo	-13206
▁wider	-13207
▁самых	-13208
ológica	-13209
▁beings	-13210
▁reveal	-13211
▁sudden	-13212
▁tensor	-13213
▁Celsius	-13214
▁cluster	-13215
▁cuidado	-13216
▁dévelop	-13217
▁entanto	-13218
▁pérdida	-13219
▁hesitate	-13220
▁possível	-13221
▁representing	-13222
2:	-13223
Br	-13224
++,	-13225
dat	-13226
fon	-13227
sal	-13228
plom	-13229
ritt	-13230
wide	-13231
akers	-13232
ieurs	-13233
útbol	-13234
▁Rick	-13235
iembre	-13236
▁carro	-13237
▁prest	-13238
plotlib	-13239
▁finden	-13240
▁former	-13241
▁metros	-13242
▁nation	-13243
▁clarify	-13244
▁horizon	-13245
▁sollten	-13246
▁muscular	-13247
▁removing	-13248
▁производи	-13249
forestation	-13250
▁actualidad	-13251
▁descripción	-13252
-|	-13253
iß	-13254
jn	-13255
▁й	-13256
音乐	-13257
вал	-13258
лка	-13259
avía	-13260
iénd	-13261
push	-13262
▁ajo	-13263
▁url	-13264
▁Эти	-13265
Write	-13266
culas	-13267
ested	-13268
▁tent	-13269
▁хочу	-13270
Cuáles	-13271
▁Autom	-13272
▁quiet	-13273
▁urban	-13274
▁микро	-13275
▁разде	-13276
▁разме	-13277
▁Africa	-13278
▁Direct	-13279
▁Health	-13280
▁Native	-13281
▁Object	-13282
▁adquir	-13283
▁espera	-13284
▁finish	-13285
▁perten	-13286
▁систем	-13287
cionario	-13288
▁college	-13289
▁earthqu	-13290
▁estilos	-13291
▁rewrite	-13292
▁stretch	-13293
▁threats	-13294
▁während	-13295
▁Building	-13296
▁proposed	-13297
▁Bluetooth	-13298
▁addresses	-13299
▁instancia	-13300
▁vegetable	-13301
▁calculated	-13302
▁lightweight	-13303
▁theoretical	-13304
.")	-13305
aks	-13306
сит	-13307
fahr	-13308
inte	-13309
writ	-13310
▁Sam	-13311
▁apt	-13312
▁lum	-13313
▁вто	-13314
ginas	-13315
views	-13316
жении	-13317
▁Bien	-13318
▁Incl	-13319
▁rode	-13320
▁sous	-13321
▁моло	-13322
▁спро	-13323
erstüt	-13324
▁Concl	-13325
▁Total	-13326
▁crops	-13327
▁darme	-13328
▁occas	-13329
elihood	-13330
solving	-13331
▁Chrome	-13332
▁Encour	-13333
▁covers	-13334
▁injury	-13335
▁intake	-13336
▁recept	-13337
▁traits	-13338
▁отлича	-13339
▁Надеюсь	-13340
▁accident	-13341
▁profunda	-13342
▁subjects	-13343
▁distances	-13344
▁organized	-13345
▁verificar	-13346
▁некоторых	-13347
ElementById	-13348
▁accordingly	-13349
]:	-13350
usk	-13351
ент	-13352
▁SV	-13353
insi	-13354
move	-13355
unde	-13356
what	-13357
▁Kar	-13358
▁Sen	-13359
▁Uno	-13360
▁выз	-13361
▁упо	-13362
orous	-13363
щение	-13364
▁glob	-13365
▁rust	-13366
▁Суще	-13367
▁Desar	-13368
▁MySQL	-13369
▁suced	-13370
▁глубо	-13371
▁утвер	-13372
predict	-13373
product	-13374
terious	-13375
uristic	-13376
▁besser	-13377
▁grados	-13378
▁defines	-13379
▁falling	-13380
▁opinión	-13381
▁período	-13382
▁plugins	-13383
▁applying	-13384
▁operator	-13385
▁simulate	-13386
▁работать	-13387
▁realmente	-13388
▁selección	-13389
▁generación	-13390
▁variations	-13391
▁experiments	-13392
▁individuales	-13393
So	-13394
km	-13395
öß	-13396
że	-13397
不要	-13398
创造	-13399
></	-13400
aka	-13401
ubl	-13402
usa	-13403
дви	-13404
кар	-13405
bies	-13406
inta	-13407
ivia	-13408
onda	-13409
▁Ley	-13410
oming	-13411
▁gras	-13412
▁конф	-13413
orship	-13414
▁Enjoy	-13415
▁Intel	-13416
▁Media	-13417
▁chron	-13418
▁holes	-13419
▁polar	-13420
▁reduz	-13421
▁salir	-13422
▁Можно	-13423
лизации	-13424
▁reempl	-13425
▁потому	-13426
▁провер	-13427
▁columna	-13428
▁comunic	-13429
▁holding	-13430
▁tarjeta	-13431
▁Entonces	-13432
▁buscando	-13433
▁justicia	-13434
▁profound	-13435
▁replaced	-13436
▁tracking	-13437
▁convierte	-13438
▁California	-13439
▁practicing	-13440
▁explanations	-13441
getElementById	-13442
3%	-13443
7/	-13444
zw	-13445
ติ	-13446
材料	-13447
添加	-13448
src	-13449
▁29	-13450
▁Vi	-13451
▁củ	-13452
▁gi	-13453
▁hö	-13454
atar	-13455
ojas	-13456
ื่อง	-13457
▁Bur	-13458
▁lid	-13459
ogram	-13460
▁Cook	-13461
▁Erde	-13462
▁Term	-13463
▁boot	-13464
▁pasa	-13465
▁tech	-13466
onders	-13467
▁Theor	-13468
▁fiber	-13469
▁surve	-13470
▁рецеп	-13471
▁таким	-13472
ChatGPT	-13473
trained	-13474
▁Estado	-13475
▁imagin	-13476
▁многие	-13477
▁Johnson	-13478
▁harvest	-13479
▁indicar	-13480
▁уровень	-13481
▁Faktoren	-13482
▁estrellas	-13483
▁protected	-13484
▁objectives	-13485
▁preference	-13486
▁incorporate	-13487
▁transactions	-13488
▁consideration	-13489
31	-13490
ła	-13491
ді	-13492
กล	-13493
详细	-13494
ext	-13495
рма	-13496
งาน	-13497
▁CV	-13498
▁HD	-13499
mica	-13500
phen	-13501
вари	-13502
▁bic	-13503
▁của	-13504
▁dav	-13505
▁iOS	-13506
▁гру	-13507
ennen	-13508
▁File	-13509
▁tous	-13510
ducing	-13511
▁Color	-13512
▁dirig	-13513
▁mesmo	-13514
тельной	-13515
тельный	-13516
▁island	-13517
▁levant	-13518
▁presup	-13519
▁вообще	-13520
▁начать	-13521
ffective	-13522
▁células	-13523
▁enables	-13524
▁displays	-13525
▁engineer	-13526
▁speaking	-13527
▁простран	-13528
▁execution	-13529
▁impresión	-13530
▁ownership	-13531
▁reasoning	-13532
▁argumentos	-13533
▁horizontal	-13534
▁combustible	-13535
(&	-13536
DA	-13537
Do	-13538
^{	-13539
คน	-13540
▁‘	-13541
挑战	-13542
虽然	-13543
ogo	-13544
pop	-13545
бро	-13546
ึ้น	-13547
้ํา	-13548
▁".	-13549
▁2-	-13550
▁ec	-13551
agre	-13552
tron	-13553
кипе	-13554
▁NOT	-13555
▁жен	-13556
▁Rock	-13557
▁flor	-13558
▁ocup	-13559
▁okay	-13560
▁spac	-13561
▁срав	-13562
idents	-13563
ública	-13564
▁abrir	-13565
▁chili	-13566
▁conci	-13567
▁mujer	-13568
▁phase	-13569
▁vídeo	-13570
iencias	-13571
▁perder	-13572
▁predic	-13573
▁Primero	-13574
▁chances	-13575
▁несколь	-13576
▁referred	-13577
▁nutrients	-13578
▁Revolución	-13579
▁eléctricos	-13580
▁expectations	-13581
▁Understanding	-13582
át	-13583
อน	-13584
运行	-13585
(1,	-13586
You	-13587
bel	-13588
eph	-13589
lia	-13590
ulk	-13591
änd	-13592
мно	-13593
LECT	-13594
note	-13595
phab	-13596
ница	-13597
▁Sud	-13598
▁кру	-13599
allas	-13600
appro	-13601
olves	-13602
posed	-13603
ється	-13604
▁cube	-13605
▁paqu	-13606
▁rare	-13607
▁seed	-13608
▁дово	-13609
▁этим	-13610
radius	-13611
титься	-13612
▁Large	-13613
▁exces	-13614
▁spell	-13615
▁vapor	-13616
▁отсут	-13617
▁профе	-13618
▁расши	-13619
▁closer	-13620
▁enfoca	-13621
▁filosó	-13622
▁möchte	-13623
▁repeat	-13624
▁возник	-13625
▁основа	-13626
▁понять	-13627
▁Natural	-13628
▁foreign	-13629
▁paradox	-13630
▁perhaps	-13631
▁открыты	-13632
▁противо	-13633
▁Training	-13634
▁accounts	-13635
▁extrater	-13636
▁gráficos	-13637
▁integers	-13638
▁username	-13639
ientemente	-13640
▁distintas	-13641
▁modificar	-13642
▁relevante	-13643
▁fascinating	-13644
▁improvements	-13645
กร	-13646
参数	-13647
软件	-13648
这是	-13649
LED	-13650
omp	-13651
itis	-13652
ommt	-13653
лень	-13654
▁15.	-13655
Force	-13656
email	-13657
ifact	-13658
▁Feel	-13659
▁Luft	-13660
▁Pass	-13661
▁camp	-13662
▁hack	-13663
▁hydr	-13664
▁migr	-13665
ctions	-13666
iempos	-13667
ístico	-13668
▁House	-13669
▁затем	-13670
ruption	-13671
▁Master	-13672
▁destru	-13673
▁honest	-13674
▁Imperio	-13675
▁páginas	-13676
▁réponse	-13677
▁истории	-13678
▁продолжа	-13679
▁Christian	-13680
▁certainly	-13681
▁necesites	-13682
▁rendering	-13683
▁полностью	-13684
▁parámetros	-13685
▁generations	-13686
▁reliability	-13687
▁experiencing	-13688
▁effectiveness	-13689
MI	-13690
_{	-13691
кс	-13692
保护	-13693
判断	-13694
拥有	-13695
的一	-13696
ría	-13697
что	-13698
▁ві	-13699
chat	-13700
esla	-13701
onia	-13702
otic	-13703
wish	-13704
нару	-13705
ётся	-13706
▁Adv	-13707
▁Isa	-13708
▁jum	-13709
可以通过	-13710
encer	-13711
inate	-13712
▁bols	-13713
▁snip	-13714
▁tiss	-13715
гласно	-13716
▁sharp	-13717
тельное	-13718
▁сложно	-13719
▁mistake	-13720
ariamente	-13721
▁matrices	-13722
▁partners	-13723
▁completed	-13724
▁generates	-13725
▁linguagem	-13726
▁opiniones	-13727
▁practicar	-13728
▁references	-13729
▁Introduction	-13730
▁compatibility	-13731
”。	-13732
░░	-13733
助手	-13734
0.0	-13735
пов	-13736
adow	-13737
burg	-13738
ders	-13739
enza	-13740
okes	-13741
ynth	-13742
▁SCP	-13743
▁ква	-13744
check	-13745
defin	-13746
▁Stay	-13747
▁ange	-13748
ierten	-13749
льными	-13750
читься	-13751
▁Antes	-13752
▁povas	-13753
▁tarde	-13754
▁weigh	-13755
▁стран	-13756
▁figura	-13757
▁pueblo	-13758
▁volver	-13759
▁делает	-13760
▁ответа	-13761
▁Without	-13762
▁projeto	-13763
▁recipes	-13764
▁todavía	-13765
▁немного	-13766
▁politics	-13767
▁Instagram	-13768
▁President	-13769
▁mushrooms	-13770
▁pollution	-13771
▁strategic	-13772
▁взаимодей	-13773
bersecurity	-13774
▁automation	-13775
▁definitely	-13776
▁necesarias	-13777
▁populations	-13778
LI	-13779
LU	-13780
いる	-13781
得到	-13782
心理	-13783
找到	-13784
由于	-13785
社交	-13786
"),	-13787
auf	-13788
eja	-13789
▁ín	-13790
bern	-13791
node	-13792
▁1.5	-13793
▁Way	-13794
▁[1,	-13795
льном	-13796
▁####	-13797
▁bind	-13798
▁Bitte	-13799
▁delay	-13800
▁stuff	-13801
▁vital	-13802
itarian	-13803
тельным	-13804
▁Ensure	-13805
▁subjet	-13806
▁título	-13807
▁окружа	-13808
▁теперь	-13809
▁cuisine	-13810
▁moderna	-13811
▁pescado	-13812
▁serving	-13813
▁tensión	-13814
▁whereas	-13815
directory	-13816
▁citizens	-13817
▁comments	-13818
▁prevenir	-13819
▁register	-13820
▁consensus	-13821
▁producing	-13822
▁boundaries	-13823
▁tradicional	-13824
▁organización	-13825
▁Unfortunately	-13826
▁responsibility	-13827
ju	-13828
xx	-13829
óp	-13830
ต่	-13831
思想	-13832
我会	-13833
OIN	-13834
URL	-13835
лон	-13836
сем	-13837
écur	-13838
коло	-13839
муще	-13840
ртуа	-13841
▁Gar	-13842
▁swe	-13843
▁wis	-13844
▁вол	-13845
ucion	-13846
▁avez	-13847
▁elle	-13848
▁lies	-13849
client	-13850
izando	-13851
vector	-13852
бовать	-13853
▁Click	-13854
▁brush	-13855
▁curso	-13856
▁knows	-13857
▁paths	-13858
▁preca	-13859
▁texts	-13860
▁метод	-13861
▁новые	-13862
erweise	-13863
▁bosque	-13864
▁convey	-13865
▁formar	-13866
▁неболь	-13867
........	-13868
etically	-13869
▁advance	-13870
▁compute	-13871
▁delicios	-13872
▁garantir	-13873
▁precision	-13874
▁dictionary	-13875
▁discussion	-13876
▁ecuaciones	-13877
▁explicación	-13878
▁interesantes	-13879
1_	-13880
为了	-13881
学生	-13882
描述	-13883
视频	-13884
^2)	-13885
yll	-13886
azas	-13887
▁hag	-13888
▁pir	-13889
▁Вам	-13890
ющего	-13891
▁Stat	-13892
▁испы	-13893
водить	-13894
▁2023,	-13895
▁codes	-13896
▁cyber	-13897
▁edges	-13898
▁ganar	-13899
▁loyal	-13900
▁miedo	-13901
▁места	-13902
ilation	-13903
▁Change	-13904
▁confer	-13905
▁couple	-13906
▁detrás	-13907
▁finger	-13908
▁frustr	-13909
▁nécess	-13910
▁patrón	-13911
▁writer	-13912
▁cocinar	-13913
▁forests	-13914
▁muscles	-13915
▁rapidly	-13916
▁vectors	-13917
▁Mathemat	-13918
▁sentient	-13919
▁Расскажи	-13920
▁Wikipedia	-13921
▁condición	-13922
▁educational	-13923
▁observations	-13924
▁concentration	-13925
▁decentralized	-13926
=1	-13927
BD	-13928
||	-13929
อะ	-13930
▁ю	-13931
一步	-13932
交流	-13933
代表	-13934
体验	-13935
兴趣	-13936
方向	-13937
esh	-13938
gel	-13939
▁['	-13940
azar	-13941
draw	-13942
orar	-13943
unte	-13944
urar	-13945
него	-13946
▁___	-13947
▁Доб	-13948
plete	-13949
ónica	-13950
▁atra	-13951
▁surf	-13952
▁вико	-13953
▁кода	-13954
▁хотя	-13955
linear	-13956
▁Tiene	-13957
▁fewer	-13958
▁fluct	-13959
▁padre	-13960
▁ética	-13961
▁Quiero	-13962
▁basada	-13963
▁rating	-13964
▁просты	-13965
▁avances	-13966
▁clearly	-13967
▁readers	-13968
▁значение	-13969
▁компонен	-13970
▁факторов	-13971
▁plusieurs	-13972
▁thousands	-13973
▁следующие	-13974
▁interfaces	-13975
▁complicated	-13976
▁generalmente	-13977
▁intellectual	-13978
▁almacenamiento	-13979
дя	-13980
นะ	-13981
▁و	-13982
为您	-13983
元素	-13984
国际	-13985
背景	-13986
-1)	-13987
▁Sem	-13988
▁Tol	-13989
▁cif	-13990
▁gam	-13991
icias	-13992
▁disk	-13993
▁kcal	-13994
▁pawn	-13995
▁átom	-13996
▁Array	-13997
▁Mount	-13998
▁habla	-13999
▁Public	-14000
▁bullet	-14001
▁corner	-14002
▁defeat	-14003
▁discre	-14004
▁evapor	-14005
▁fútbol	-14006
▁sensor	-14007
▁телефо	-14008
▁Russian	-14009
▁compass	-14010
▁divided	-14011
▁fitness	-14012
▁flavors	-14013
▁maneras	-14014
▁operate	-14015
▁кажется	-14016
▁способо	-14017
▁accommod	-14018
▁medicine	-14019
▁notation	-14020
▁profundo	-14021
▁repeated	-14022
▁chemicals	-14023
▁involving	-14024
▁habitación	-14025
▁desarrollado	-14026
▁installation	-14027
.*	-14028
46	-14029
?)	-14030
网站	-14031
çar	-14032
мые	-14033
нти	-14034
ตัว	-14035
มาก	-14036
่วย	-14037
方面的	-14038
hood	-14039
orme	-14040
sers	-14041
▁120	-14042
▁dei	-14043
▁erm	-14044
▁ske	-14045
▁під	-14046
▁све	-14047
Value	-14048
abase	-14049
anken	-14050
etics	-14051
otros	-14052
▁beso	-14053
▁dont	-14054
▁negr	-14055
▁Egypt	-14056
▁Given	-14057
▁Neces	-14058
▁Press	-14059
▁cotid	-14060
▁darle	-14061
▁mouth	-14062
▁Созда	-14063
▁одним	-14064
▁Modell	-14065
▁Search	-14066
▁compra	-14067
▁básicas	-14068
▁decimal	-14069
▁journal	-14070
▁phrases	-14071
▁involucr	-14072
▁speakers	-14073
▁asegúrate	-14074
▁necesitan	-14075
▁contributing	-14076
LA	-14077
LC	-14078
水平	-14079
NET	-14080
ris	-14081
рее	-14082
▁BI	-14083
▁aŭ	-14084
一定的	-14085
aupt	-14086
como	-14087
prov	-14088
send	-14089
▁Age	-14090
▁Vir	-14091
▁tag	-14092
▁Нет	-14093
▁бли	-14094
▁моз	-14095
▁мои	-14096
▁оно	-14097
▁оце	-14098
night	-14099
▁Fort	-14100
▁carp	-14101
▁forn	-14102
▁geht	-14103
▁prés	-14104
▁tier	-14105
▁wife	-14106
▁глав	-14107
▁меха	-14108
▁неза	-14109
▁отде	-14110
▁steel	-14111
▁immers	-14112
▁immune	-14113
▁recomp	-14114
aneously	-14115
gressive	-14116
▁Express	-14117
▁Mientras	-14118
▁avoiding	-14119
▁beachten	-14120
▁compleja	-14121
▁conjuntos	-14122
▁suggested	-14123
▁influencia	-14124
▁mysterious	-14125
▁perception	-14126
▁actualmente	-14127
▁restaurants	-14128
▁artificiales	-14129
▁configuración	-14130
它的	-14131
贡献	-14132
10.	-14133
NLP	-14134
acc	-14135
точ	-14136
чие	-14137
▁фа	-14138
人类的	-14139
如果你	-14140
dest	-14141
pher	-14142
ären	-14143
выми	-14144
емых	-14145
тные	-14146
▁Imp	-14147
▁Ren	-14148
▁Ven	-14149
▁jam	-14150
▁src	-14151
▁larg	-14152
Client	-14153
ciales	-14154
odynam	-14155
▁ausge	-14156
▁avant	-14157
▁fondo	-14158
▁stone	-14159
▁умень	-14160
antwort	-14161
▁Photos	-14162
▁evento	-14163
▁madera	-14164
▁mostly	-14165
▁piezas	-14166
▁speeds	-14167
▁wouldn	-14168
▁воспри	-14169
▁работу	-14170
▁Product	-14171
▁cutting	-14172
▁lectura	-14173
▁recibir	-14174
▁каждого	-14175
▁пригото	-14176
▁экспери	-14177
▁Aprender	-14178
▁actively	-14179
▁contents	-14180
▁culturas	-14181
▁canciones	-14182
▁referring	-14183
▁translate	-14184
▁commitment	-14185
▁demonstrate	-14186
▁соответству	-14187
▁conversations	-14188
)。	-14189
Co	-14190
su	-14191
ху	-14192
ลา	-14193
多个	-14194
效率	-14195
涉及	-14196
系列	-14197
财产	-14198
hel	-14199
▁CE	-14200
▁Ya	-14201
▁pí	-14202
▁Лю	-14203
arsh	-14204
bitr	-14205
ença	-14206
rote	-14207
▁AWS	-14208
▁oxí	-14209
▁муж	-14210
mania	-14211
olver	-14212
▁Cast	-14213
▁reun	-14214
▁schw	-14215
▁дета	-14216
▁избе	-14217
▁насе	-14218
▁хоте	-14219
player	-14220
▁Busca	-14221
▁March	-14222
▁Sarah	-14223
▁Trump	-14224
▁sight	-14225
▁wings	-14226
▁лично	-14227
▁масси	-14228
present	-14229
ucionar	-14230
▁cartas	-14231
▁entity	-14232
▁letras	-14233
▁verify	-14234
hydrates	-14235
▁Flutter	-14236
▁threads	-14237
▁большин	-14238
▁функция	-14239
▁Telegram	-14240
▁correcto	-14241
▁memories	-14242
▁операцио	-14243
▁almacenar	-14244
▁breathing	-14245
▁descubrir	-14246
▁izquierda	-14247
▁ubicación	-14248
▁psychology	-14249
▁simplicity	-14250
▁приложения	-14251
▁reinforcement	-14252
\\	-14253
ri	-14254
uh	-14255
▁ส	-14256
よう	-14257
百度	-14258
ску	-14259
ขึ้น	-14260
▁аль	-14261
ornos	-14262
áveis	-14263
ância	-14264
▁East	-14265
▁Line	-14266
▁aren	-14267
▁curs	-14268
▁forg	-14269
▁soph	-14270
▁Хоро	-14271
▁круп	-14272
ждение	-14273
метить	-14274
▁advis	-14275
▁capas	-14276
▁photo	-14277
▁piano	-14278
▁portr	-14279
▁twist	-14280
▁usado	-14281
entlich	-14282
▁School	-14283
▁curios	-14284
▁gentle	-14285
▁reales	-14286
▁recycl	-14287
▁Escribe	-14288
▁Replace	-14289
▁aspecto	-14290
▁cumplir	-14291
▁schools	-14292
▁vehicle	-14293
▁установ	-14294
▁электри	-14295
▁diabetes	-14296
▁esfuerzo	-14297
▁matching	-14298
▁authentic	-14299
▁generative	-14300
▁unterschied	-14301
▁действительно	-14302
48	-14303
发现	-14304
效果	-14305
都有	-14306
预测	-14307
eut	-14308
oni	-14309
utt	-14310
лик	-14311
▁31	-14312
▁Ле	-14313
他们的	-14314
Inst	-14315
appy	-14316
ason	-14317
eron	-14318
wood	-14319
тесь	-14320
▁GUI	-14321
▁Nav	-14322
▁wit	-14323
▁пос	-14324
zeich	-14325
▁Lond	-14326
▁hues	-14327
▁lent	-14328
▁shot	-14329
▁teór	-14330
▁реше	-14331
iences	-14332
▁actor	-14333
▁carta	-14334
▁descu	-14335
▁pobre	-14336
▁salad	-14337
▁smile	-14338
▁trama	-14339
▁Важно	-14340
▁равно	-14341
▁caball	-14342
▁horror	-14343
▁looked	-14344
▁значит	-14345
▁Whether	-14346
▁estados	-14347
▁árboles	-14348
▁creators	-14349
▁evolving	-14350
▁peligros	-14351
▁potencia	-14352
▁автомати	-14353
▁предлага	-14354
▁documento	-14355
▁discussions	-14356
▁expressions	-14357
▁informações	-14358
▁fundamentales	-14359
íg	-14360
人民	-14361
企业	-14362
喜欢	-14363
地区	-14364
并不	-14365
%20	-14366
dex	-14367
нан	-14368
рио	-14369
шую	-14370
pons	-14371
тива	-14372
туру	-14373
▁ópt	-14374
poons	-14375
▁molé	-14376
▁pitch	-14377
▁sécur	-14378
Windows	-14379
▁reject	-14380
▁rhythm	-14381
ologists	-14382
▁razones	-14383
▁runtime	-14384
▁señales	-14385
▁startup	-14386
▁Business	-14387
▁adelante	-14388
▁recently	-14389
▁teaching	-14390
▁motivated	-14391
▁permitirá	-14392
▁TypeScript	-14393
▁evaluation	-14394
▁likelihood	-14395
▁Deutschland	-14396
▁consistency	-14397
▁desenvolvimento	-14398
жо	-14399
怎么	-14400
持续	-14401
政策	-14402
教育	-14403
agu	-14404
▁Ah	-14405
▁mí	-14406
▁Ха	-14407
esth	-14408
▁лож	-14409
itivo	-14410
layer	-14411
party	-14412
vious	-14413
рение	-14414
▁Cena	-14415
▁Dame	-14416
▁Down	-14417
▁Schw	-14418
▁Обра	-14419
éticos	-14420
▁dafür	-14421
▁etapa	-14422
▁paste	-14423
▁posts	-14424
▁pyram	-14425
▁reson	-14426
▁выбор	-14427
▁Instit	-14428
▁Option	-14429
▁Select	-14430
▁compro	-14431
▁conhec	-14432
▁lengua	-14433
▁street	-14434
▁методы	-14435
тельного	-14436
▁locales	-14437
▁pública	-14438
▁système	-14439
▁artifact	-14440
▁creature	-14441
▁desigual	-14442
▁emphasis	-14443
▁gameplay	-14444
▁designing	-14445
▁integrate	-14446
issenschaft	-14447
▁formatting	-14448
▁comunidades	-14449
▁governments	-14450
▁Instructions	-14451
▁Inteligencia	-14452
▁personalidad	-14453
▁anteriormente	-14454
เค	-14455
作用	-14456
关注	-14457
多种	-14458
理论	-14459
谢谢	-14460
身体	-14461
lat	-14462
nia	-14463
我们的	-14464
anta	-14465
uyen	-14466
▁Coc	-14467
▁Ham	-14468
▁jue	-14469
▁vig	-14470
▁бло	-14471
Inter	-14472
agnet	-14473
▁Long	-14474
▁atom	-14475
▁tono	-14476
▁плат	-14477
necess	-14478
щаться	-14479
▁Catal	-14480
▁Ender	-14481
▁White	-14482
▁assem	-14483
▁indem	-14484
▁тогда	-14485
odivers	-14486
сколько	-14487
▁Canada	-14488
▁Donald	-14489
▁Return	-14490
▁compte	-14491
▁ethics	-14492
▁pandem	-14493
▁predec	-14494
▁manejar	-14495
▁records	-14496
▁terrain	-14497
▁предоста	-14498
▁dependerá	-14499
▁inversión	-14500
▁kilometers	-14501
▁alternativa	-14502
▁consistently	-14503
▁distribución	-14504
▁clasificación	-14505
26	-14506
ัด	-14507
范围	-14508
ART	-14509
git	-14510
ixò	-14511
óso	-14512
еры	-14513
▁("	-14514
▁CD	-14515
▁đư	-14516
▁шу	-14517
ことが	-14518
Form	-14519
aver	-14520
comp	-14521
igar	-14522
бора	-14523
▁Cir	-14524
aring	-14525
icana	-14526
▁Fast	-14527
▁Mand	-14528
▁NULL	-14529
▁bold	-14530
▁jard	-14531
▁nome	-14532
▁цель	-14533
▁Ejerc	-14534
▁metas	-14535
▁plato	-14536
▁исклю	-14537
▁прове	-14538
estruct	-14539
hington	-14540
project	-14541
▁cumple	-14542
▁desert	-14543
▁occurr	-14544
▁plante	-14545
▁remind	-14546
vascular	-14547
▁Constit	-14548
▁filters	-14549
▁Assuming	-14550
▁especies	-14551
▁rotation	-14552
▁ultimate	-14553
▁Calculate	-14554
▁convirtió	-14555
▁detallada	-14556
▁processor	-14557
▁suffering	-14558
▁categories	-14559
▁incorporating	-14560
(-	-14561
GL	-14562
▁°	-14563
нка	-14564
пли	-14565
▁&&	-14566
cuss	-14567
ifts	-14568
odin	-14569
ด้วย	-14570
▁250	-14571
▁GPS	-14572
▁INT	-14573
izard	-14574
watch	-14575
буйте	-14576
▁Arab	-14577
▁aguj	-14578
▁alla	-14579
▁lock	-14580
▁ring	-14581
▁wasn	-14582
▁наде	-14583
▁оцен	-14584
ändern	-14585
▁jogos	-14586
▁joven	-14587
▁прода	-14588
autiful	-14589
▁Output	-14590
▁fertil	-14591
▁inject	-14592
▁líneas	-14593
▁móviles	-14594
▁skilled	-14595
▁waiting	-14596
▁chatbots	-14597
▁scholars	-14598
javascript	-14599
▁biodivers	-14600
▁escritura	-14601
OO	-14602
SA	-14603
เส	-14604
一個	-14605
天气	-14606
alg	-14607
ani	-14608
pal	-14609
дёт	-14610
мых	-14611
шло	-14612
อาจ	-14613
▁YO	-14614
▁Па	-14615
This	-14616
halb	-14617
ifen	-14618
orph	-14619
жида	-14620
▁Din	-14621
▁Sym	-14622
▁gig	-14623
▁сек	-14624
CTYPE	-14625
arnos	-14626
crypt	-14627
ertes	-14628
▁Cost	-14629
▁Netz	-14630
▁cosm	-14631
▁fins	-14632
▁lift	-14633
▁mate	-14634
▁tasa	-14635
▁писа	-14636
atever	-14637
▁Spain	-14638
▁negot	-14639
▁обяза	-14640
▁слово	-14641
▁caught	-14642
▁меньше	-14643
▁сотруд	-14644
▁calling	-14645
▁compile	-14646
▁entwick	-14647
▁estamos	-14648
▁knowing	-14649
▁quieras	-14650
▁sitting	-14651
assistant	-14652
▁Nacional	-14653
▁considér	-14654
▁propriet	-14655
▁standing	-14656
▁achieving	-14657
▁confianza	-14658
▁disorders	-14659
▁gramática	-14660
▁instances	-14661
▁operación	-14662
▁находится	-14663
▁dedication	-14664
▁depression	-14665
▁vulnerability	-14666
Po	-14667
▁โ	-14668
时候	-14669
рок	-14670
▁${	-14671
▁UN	-14672
可以在	-14673
更多的	-14674
"></	-14675
apse	-14676
mpeg	-14677
vous	-14678
чета	-14679
เรีย	-14680
▁2-3	-14681
▁Men	-14682
▁Wir	-14683
▁asc	-14684
编程语言	-14685
align	-14686
griff	-14687
istes	-14688
▁Auss	-14689
▁Fact	-14690
▁args	-14691
▁caja	-14692
▁hund	-14693
▁marr	-14694
▁mart	-14695
▁даль	-14696
atique	-14697
folder	-14698
▁Cross	-14699
▁atrib	-14700
▁ayude	-14701
▁larga	-14702
▁meals	-14703
▁tocar	-14704
▁минут	-14705
▁можем	-14706
▁Button	-14707
▁ancest	-14708
▁arbitr	-14709
▁google	-14710
▁poison	-14711
▁поверх	-14712
▁Braille	-14713
▁Kingdom	-14714
▁Monitor	-14715
▁Virtual	-14716
▁chopped	-14717
▁conclus	-14718
▁picture	-14719
▁revenue	-14720
▁village	-14721
▁моделей	-14722
▁aprovech	-14723
▁pronunci	-14724
▁vehículo	-14725
▁deployment	-14726
▁leadership	-14727
▁Möglichkeit	-14728
▁identifying	-14729
▁inspiration	-14730
▁descriptions	-14731
▁experimentar	-14732
▁independencia	-14733
#,	-14734
tk	-14735
ある	-14736
模式	-14737
解释	-14738
TeX	-14739
exp	-14740
jek	-14741
zco	-14742
гут	-14743
тря	-14744
▁($	-14745
▁>=	-14746
▁IM	-14747
▁Sl	-14748
▁WH	-14749
▁ál	-14750
▁Бе	-14751
提供了	-14752
next	-14753
onut	-14754
прав	-14755
▁USA	-14756
▁jun	-14757
▁спа	-14758
books	-14759
jango	-14760
razil	-14761
▁Edit	-14762
▁desp	-14763
▁foss	-14764
▁guía	-14765
▁hall	-14766
▁mini	-14767
лишком	-14768
▁Title	-14769
▁Venez	-14770
▁amist	-14771
▁corta	-14772
▁faces	-14773
▁magia	-14774
▁pared	-14775
▁recre	-14776
▁людям	-14777
▁Remove	-14778
▁Temper	-14779
▁golden	-14780
▁papers	-14781
▁satell	-14782
▁tongue	-14783
atürlich	-14784
▁Console	-14785
▁Francia	-14786
▁sensors	-14787
▁communic	-14788
▁cuidados	-14789
▁quelques	-14790
▁requerir	-14791
▁societal	-14792
▁проблема	-14793
▁generales	-14794
▁addressing	-14795
▁significativo	-14796
▁transformation	-14797
/3	-14798
制定	-14799
方案	-14800
hos	-14801
кур	-14802
шку	-14803
▁BC	-14804
▁Bi	-14805
▁зе	-14806
具体的	-14807
crit	-14808
ющее	-14809
▁dra	-14810
▁sof	-14811
field	-14812
▁Cath	-14813
▁acon	-14814
▁cine	-14815
▁fals	-14816
▁größ	-14817
▁maps	-14818
▁либо	-14819
▁подо	-14820
▁поме	-14821
ischer	-14822
isions	-14823
▁Biden	-14824
▁Found	-14825
▁Tesla	-14826
▁cache	-14827
▁juice	-14828
▁placa	-14829
▁schon	-14830
▁visto	-14831
▁напря	-14832
oration	-14833
▁Jewish	-14834
▁cuento	-14835
▁diesen	-14836
▁foster	-14837
▁micros	-14838
▁proteg	-14839
▁resume	-14840
▁unidad	-14841
▁знания	-14842
▁covered	-14843
▁debemos	-14844
▁modules	-14845
▁passing	-14846
▁personn	-14847
▁требует	-14848
▁Particip	-14849
▁Portugal	-14850
▁clothing	-14851
▁cylinder	-14852
▁moisture	-14853
▁excessive	-14854
▁создавать	-14855
▁conclusión	-14856
▁identified	-14857
▁recognized	-14858
▁agriculture	-14859
▁determining	-14860
▁electrónico	-14861
▁estrategias	-14862
▁presupuesto	-14863
▁entertainment	-14864
IL	-14865
包含	-14866
名的	-14867
命令	-14868
小说	-14869
抱歉	-14870
翻译	-14871
语音	-14872
Wor	-14873
ifs	-14874
jam	-14875
кто	-14876
ทาง	-14877
▁$1	-14878
▁лу	-14879
领域的	-14880
лосо	-14881
лять	-14882
▁Arm	-14883
▁Cut	-14884
▁ham	-14885
▁neu	-14886
▁кур	-14887
iders	-14888
otlin	-14889
prend	-14890
▁Bild	-14891
▁Fund	-14892
▁Webs	-14893
▁aqui	-14894
▁cerr	-14895
▁fing	-14896
▁tick	-14897
▁zwei	-14898
▁види	-14899
▁нега	-14900
▁отра	-14901
▁фото	-14902
layers	-14903
mitted	-14904
▁encar	-14905
▁gesch	-14906
▁kilóm	-14907
▁nginx	-14908
▁radar	-14909
▁repos	-14910
request	-14911
ческими	-14912
▁Should	-14913
▁Vector	-14914
▁backup	-14915
▁comedy	-14916
▁correl	-14917
▁forced	-14918
▁saving	-14919
▁обнару	-14920
▁android	-14921
▁reduces	-14922
▁Creating	-14923
▁Identify	-14924
▁absolute	-14925
▁miembros	-14926
▁proteína	-14927
▁zusammen	-14928
▁automated	-14929
▁aventuras	-14930
▁investigar	-14931
▁instruments	-14932
:“	-14933
?,	-14934
作品	-14935
完全	-14936
幸福	-14937
满足	-14938
eor	-14939
жей	-14940
там	-14941
นํา	-14942
▁48	-14943
▁Ку	-14944
etti	-14945
ktur	-14946
ängt	-14947
гать	-14948
▁Kom	-14949
▁orb	-14950
▁уси	-14951
items	-14952
▁groß	-14953
▁lors	-14954
▁mold	-14955
▁ocas	-14956
▁проя	-14957
▁теку	-14958
▁asset	-14959
▁chaos	-14960
▁coinc	-14961
▁realm	-14962
▁stake	-14963
▁veter	-14964
▁возду	-14965
▁друга	-14966
▁Carlos	-14967
▁Matrix	-14968
▁absorb	-14969
▁coment	-14970
▁planta	-14971
▁pursue	-14972
▁нейрос	-14973
▁показа	-14974
ológicas	-14975
▁fishing	-14976
▁intense	-14977
▁malware	-14978
▁numeros	-14979
▁sección	-14980
ellschaft	-14981
▁composed	-14982
▁contrario	-14983
▁containers	-14984
▁mindfulness	-14985
JS	-14986
ис	-14987
ึก	-14988
一起	-14989
参考	-14990
必须	-14991
某些	-14992
正确	-14993
arp	-14994
eau	-14995
esc	-14996
tex	-14997
wel	-14998
дио	-14999
чат	-15000
▁Mr	-15001
Java	-15002
cope	-15003
hrem	-15004
itez	-15005
terr	-15006
udad	-15007
ภาษา	-15008
▁Sel	-15009
▁api	-15010
adero	-15011
iende	-15012
oling	-15013
нений	-15014
▁FROM	-15015
▁drum	-15016
▁mask	-15017
▁pago	-15018
ancial	-15019
▁Isaac	-15020
▁antib	-15021
▁arise	-15022
▁avoir	-15023
▁cuent	-15024
▁films	-15025
▁negro	-15026
▁своим	-15027
DOCTYPE	-15028
▁buying	-15029
▁disput	-15030
▁dragon	-15031
▁enthus	-15032
▁panels	-15033
▁stages	-15034
▁suited	-15035
▁наличи	-15036
▁Estable	-15037
▁abandon	-15038
▁celular	-15039
▁decline	-15040
▁hombres	-15041
▁moments	-15042
▁showing	-15043
▁everyday	-15044
▁fighting	-15045
▁necesaria	-15046
▁rewarding	-15047
▁sequences	-15048
▁competitive	-15049
▁destruction	-15050
95	-15051
IE	-15052
LS	-15053
ู่	-15054
有所	-15055
聊天	-15056
Sub	-15057
aki	-15058
ibe	-15059
uos	-15060
▁..	-15061
▁хи	-15062
▁яй	-15063
bell	-15064
brir	-15065
conf	-15066
into	-15067
well	-15068
жить	-15069
▁190	-15070
▁Tab	-15071
▁Ста	-15072
▁дея	-15073
▁точ	-15074
应用程序	-15075
VIDIA	-15076
peror	-15077
quare	-15078
verty	-15079
имуще	-15080
▁ahor	-15081
▁cher	-15082
▁emoj	-15083
▁java	-15084
Number	-15085
istema	-15086
target	-15087
tember	-15088
ushing	-15089
стрибу	-15090
▁Franc	-15091
▁abund	-15092
▁drugs	-15093
▁lados	-15094
▁moins	-15095
▁overs	-15096
▁parse	-15097
▁rever	-15098
▁tight	-15099
▁whose	-15100
erdings	-15101
льности	-15102
▁Middle	-15103
▁Sprach	-15104
▁activa	-15105
▁atomic	-15106
▁attend	-15107
▁buscan	-15108
▁filóso	-15109
▁pergun	-15110
▁raíces	-15111
▁varies	-15112
▁планет	-15113
▁свобод	-15114
▁Podrías	-15115
▁ayudado	-15116
▁curious	-15117
▁données	-15118
▁exposed	-15119
▁mayores	-15120
▁pointer	-15121
▁removed	-15122
▁scripts	-15123
▁devuelve	-15124
▁diseñado	-15125
▁frequent	-15126
▁teniendo	-15127
▁Processing	-15128
▁structured	-15129
▁sugerencias	-15130
▁Ingredientes	-15131
▁hypothetical	-15132
▁пользователя	-15133
9)	-15134
NG	-15135
PM	-15136
ZE	-15137
▁ت	-15138
告诉	-15139
Out	-15140
igm	-15141
▁"<	-15142
▁Od	-15143
▁tf	-15144
▁总之	-15145
wert	-15146
▁Lic	-15147
▁gef	-15148
▁веб	-15149
▁сам	-15150
▁сна	-15151
▁การ	-15152
andos	-15153
odies	-15154
▁Situ	-15155
▁Xbox	-15156
▁brit	-15157
▁dell	-15158
▁etwa	-15159
▁peux	-15160
▁pine	-15161
▁rama	-15162
▁stem	-15163
▁subt	-15164
▁буде	-15165
▁зако	-15166
▁одна	-15167
▁удоб	-15168
itaria	-15169
ándose	-15170
▁Games	-15171
▁Guide	-15172
▁Instr	-15173
▁Regel	-15174
▁breve	-15175
▁flash	-15176
▁Robert	-15177
▁flying	-15178
▁gramos	-15179
▁gustos	-15180
▁tenido	-15181
▁одного	-15182
▁acompañ	-15183
▁hosting	-15184
▁insight	-15185
▁inspire	-15186
▁motores	-15187
▁scatter	-15188
▁screens	-15189
▁tiempos	-15190
▁automate	-15191
▁consulta	-15192
▁consumer	-15193
▁процессо	-15194
▁улучшить	-15195
▁authority	-15196
▁isolation	-15197
▁характери	-15198
▁económicos	-15199
96	-15200
si	-15201
хе	-15202
直接	-15203
科技	-15204
avi	-15205
lez	-15206
▁dó	-15207
alse	-15208
engu	-15209
enne	-15210
hler	-15211
idez	-15212
omal	-15213
onde	-15214
▁1.0	-15215
▁Bab	-15216
▁Bad	-15217
▁Ext	-15218
▁RTX	-15219
▁jur	-15220
grund	-15221
▁Home	-15222
▁José	-15223
▁Prem	-15224
▁Save	-15225
▁duro	-15226
▁null	-15227
▁ride	-15228
▁непо	-15229
▁робо	-15230
Create	-15231
atoria	-15232
lights	-15233
▁corto	-15234
▁hasht	-15235
▁hojas	-15236
▁était	-15237
▁потен	-15238
▁связи	-15239
▁Sicher	-15240
▁vielen	-15241
▁Energie	-15242
▁Segunda	-15243
▁comenzó	-15244
▁portion	-15245
▁poverty	-15246
▁momentos	-15247
▁segundos	-15248
▁unidades	-15249
▁visually	-15250
▁содержит	-15251
▁ejecución	-15252
▁inflation	-15253
▁управления	-15254
▁bibliotecas	-15255
▁interacción	-15256
})	-15257
ôt	-15258
力和	-15259
aña	-15260
cup	-15261
icl	-15262
рип	-15263
слы	-15264
тей	-15265
Item	-15266
isco	-15267
átil	-15268
вода	-15269
▁Alm	-15270
▁Did	-15271
▁aur	-15272
▁dil	-15273
▁mód	-15274
▁tap	-15275
▁vál	-15276
hello	-15277
полне	-15278
стями	-15279
▁alem	-15280
▁коле	-15281
beiten	-15282
ciendo	-15283
status	-15284
▁Grund	-15285
▁aussi	-15286
▁modal	-15287
▁numér	-15288
▁posso	-15289
▁Затем	-15290
▁ваших	-15291
version	-15292
▁League	-15293
▁Office	-15294
▁Scient	-15295
▁legacy	-15296
▁mainly	-15297
▁promin	-15298
▁Напиши	-15299
▁виртуа	-15300
▁говоря	-15301
▁ciertas	-15302
▁dangers	-15303
▁fasting	-15304
▁kingdom	-15305
▁könnten	-15306
▁secrets	-15307
▁teacher	-15308
▁предпоч	-15309
▁проблем	-15310
▁слишком	-15311
▁division	-15312
▁galaxies	-15313
▁história	-15314
▁processo	-15315
▁качество	-15316
▁Sometimes	-15317
▁altamente	-15318
▁selecting	-15319
▁summarize	-15320
▁Experiment	-15321
快速	-15322
(1)	-15323
III	-15324
dep	-15325
nic	-15326
äuf	-15327
пом	-15328
▁AC	-15329
▁{"	-15330
的数据	-15331
▁Fäh	-15332
▁Has	-15333
▁Tra	-15334
▁nan	-15335
▁poc	-15336
▁tub	-15337
bling	-15338
clear	-15339
keras	-15340
ocado	-15341
ствии	-15342
▁Dead	-15343
▁Turn	-15344
▁rica	-15345
▁zana	-15346
ленной	-15347
▁faith	-15348
▁parec	-15349
▁polvo	-15350
ponents	-15351
▁Modern	-15352
▁insect	-15353
▁textos	-15354
▁Википе	-15355
document	-15356
▁wearing	-15357
▁anywhere	-15358
▁measured	-15359
▁trabalho	-15360
▁используют	-15361
▁desventajas	-15362
▁interactuar	-15363
/4	-15364
öl	-15365
以便	-15366
价格	-15367
成功	-15368
/20	-15369
ING	-15370
inx	-15371
mel	-15372
zuf	-15373
équ	-15374
▁6:	-15375
▁Це	-15376
acio	-15377
erto	-15378
imen	-15379
kehr	-15380
true	-15381
uche	-15382
zust	-15383
дьми	-15384
▁16.	-15385
▁Cub	-15386
▁Mos	-15387
▁Mot	-15388
▁hex	-15389
▁vio	-15390
Verse	-15391
agues	-15392
icted	-15393
inado	-15394
throp	-15395
стано	-15396
▁Cube	-15397
▁Sort	-15398
▁Tree	-15399
▁acts	-15400
▁casi	-15401
▁dram	-15402
▁drug	-15403
▁haga	-15404
▁onde	-15405
▁però	-15406
▁tale	-15407
▁нару	-15408
▁нико	-15409
uestas	-15410
▁Multi	-15411
▁Pedro	-15412
▁Print	-15413
▁ciclo	-15414
▁doors	-15415
▁grado	-15416
▁легко	-15417
▁acknow	-15418
▁centra	-15419
▁deport	-15420
▁контен	-15421
igkeiten	-15422
▁Verwend	-15423
▁derived	-15424
▁dispers	-15425
▁iniciar	-15426
▁trouver	-15427
▁exterior	-15428
▁findings	-15429
▁gradient	-15430
▁concerned	-15431
▁erstellen	-15432
▁representar	-15433
▁responsabilidad	-15434
CO	-15435
}\	-15436
äß	-15437
显示	-15438
社区	-15439
自由	-15440
ALL	-15441
ojn	-15442
бер	-15443
или	-15444
сел	-15445
ске	-15446
▁wa	-15447
过程中	-15448
prom	-15449
teza	-15450
щает	-15451
щего	-15452
▁Cur	-15453
▁Glo	-15454
▁Luc	-15455
▁Ros	-15456
▁Tim	-15457
▁sam	-15458
▁ино	-15459
▁ним	-15460
深度学习	-15461
ocols	-15462
while	-15463
чений	-15464
▁Tail	-15465
▁bash	-15466
▁boca	-15467
▁graf	-15468
▁lluv	-15469
▁ship	-15470
▁деле	-15471
▁пись	-15472
▁твор	-15473
thread	-15474
▁album	-15475
▁march	-15476
▁occup	-15477
▁revel	-15478
▁ritmo	-15479
▁teles	-15480
▁тради	-15481
Message	-15482
ationen	-15483
numbers	-15484
olution	-15485
telling	-15486
льность	-15487
▁Compar	-15488
▁Visita	-15489
▁defend	-15490
▁hearts	-15491
▁interc	-15492
▁spells	-15493
▁зрения	-15494
▁переме	-15495
лировать	-15496
▁souvent	-15497
▁большой	-15498
▁Markdown	-15499
▁calorías	-15500
▁escuchar	-15501
▁довольно	-15502
▁conflicto	-15503
▁conocidos	-15504
▁esperanza	-15505
▁worldwide	-15506
▁ecosystems	-15507
▁saludables	-15508
▁videojuego	-15509
8%	-15510
不会	-15511
事情	-15512
城市	-15513
想要	-15514
步骤	-15515
经验	-15516
eps	-15517
hle	-15518
нев	-15519
▁ау	-15520
Wind	-15521
apia	-15522
jour	-15523
oger	-15524
yles	-15525
ющая	-15526
▁Emp	-15527
▁Lua	-15528
▁Mid	-15529
▁eig	-15530
▁suc	-15531
andas	-15532
▁corn	-15533
▁hosp	-15534
▁mine	-15535
▁yout	-15536
▁цели	-15537
Source	-15538
esting	-15539
idente	-15540
▁Dream	-15541
▁inhab	-15542
▁initi	-15543
▁steam	-15544
▁vocal	-15545
▁корот	-15546
▁NVIDIA	-15547
▁digits	-15548
▁interv	-15549
▁perpet	-15550
▁summer	-15551
▁concrete	-15552
▁negativo	-15553
▁positiva	-15554
▁selected	-15555
▁smallest	-15556
▁unnecess	-15557
▁incluindo	-15558
▁meditación	-15559
▁sostenible	-15560
▁struggling	-15561
)?	-15562
7)	-15563
ร์	-15564
空间	-15565
表现	-15566
Pos	-15567
Sch	-15568
oku	-15569
над	-15570
фей	-15571
▁eg	-15572
itet	-15573
uido	-15574
นั้น	-15575
▁aos	-15576
▁kur	-15577
frica	-15578
score	-15579
ходят	-15580
▁Ruby	-15581
▁betr	-15582
▁deve	-15583
▁doll	-15584
▁scan	-15585
▁пози	-15586
Object	-15587
google	-15588
▁Value	-15589
▁Visit	-15590
▁cabin	-15591
▁kinds	-15592
▁macro	-15593
▁ports	-15594
▁seven	-15595
▁wrote	-15596
▁долго	-15597
▁милли	-15598
▁Albert	-15599
▁Hitler	-15600
▁entang	-15601
▁evolve	-15602
▁legend	-15603
▁melody	-15604
▁produz	-15605
▁людьми	-15606
▁медици	-15607
▁Manager	-15608
▁antigua	-15609
▁caution	-15610
▁edición	-15611
▁oxígeno	-15612
▁partida	-15613
▁sondern	-15614
▁trouble	-15615
▁nosotros	-15616
▁possibly	-15617
▁recovery	-15618
▁troubles	-15619
▁identidad	-15620
▁traveling	-15621
▁машинного	-15622
▁разработа	-15623
▁contribuir	-15624
▁installing	-15625
▁supporting	-15626
BC	-15627
Dr	-15628
óx	-15629
гі	-15630
传统	-15631
制度	-15632
加入	-15633
哲学	-15634
有助	-15635
600	-15636
NNs	-15637
ète	-15638
лку	-15639
▁);	-15640
▁mm	-15641
▁às	-15642
▁ды	-15643
ords	-15644
ช่วย	-15645
▁Hor	-15646
▁See	-15647
▁dañ	-15648
▁gee	-15649
▁píx	-15650
▁вид	-15651
▁сча	-15652
amily	-15653
ettes	-15654
iveau	-15655
worth	-15656
чении	-15657
▁crip	-15658
▁menú	-15659
askell	-15660
clipse	-15661
istent	-15662
mittel	-15663
ologia	-15664
▁Think	-15665
▁aport	-15666
▁dólar	-15667
▁mecan	-15668
▁mostr	-15669
▁sword	-15670
ynomial	-15671
▁adults	-15672
▁arrays	-15673
▁unless	-15674
▁vacuum	-15675
▁únicas	-15676
ográfica	-15677
например	-15678
▁Address	-15679
▁affects	-15680
▁escribe	-15681
▁partner	-15682
▁выбрать	-15683
▁Zusammen	-15684
▁circular	-15685
▁dynamics	-15686
▁extended	-15687
▁positivo	-15688
▁дистрибу	-15689
▁означает	-15690
▁collected	-15691
▁explained	-15692
▁president	-15693
▁secuencia	-15694
▁combustión	-15695
▁económicas	-15696
▁kilómetros	-15697
▁motivation	-15698
▁tutoriales	-15699
▁experiencias	-15700
▁OpenAssistant	-15701
54	-15702
fi	-15703
ัย	-15704
▁您	-15705
丰富	-15706
作者	-15707
地方	-15708
-30	-15709
ieb	-15710
spr	-15711
utr	-15712
étr	-15713
рий	-15714
ี่ย	-15715
▁42	-15716
▁Де	-15717
shot	-15718
тный	-15719
▁50%	-15720
▁THE	-15721
▁pup	-15722
▁ори	-15723
мость	-15724
▁Febr	-15725
▁Food	-15726
▁Nord	-15727
▁fich	-15728
▁стол	-15729
以下是一些	-15730
Socket	-15731
atical	-15732
iência	-15733
▁Mongo	-15734
▁Night	-15735
▁Under	-15736
▁ainsi	-15737
▁aster	-15738
▁chuck	-15739
▁euros	-15740
▁retro	-15741
▁макси	-15742
ogether	-15743
▁Sheets	-15744
▁ending	-15745
▁espero	-15746
▁recorr	-15747
▁safely	-15748
▁ответы	-15749
[...]
